{
  "version": "1.0",
  "truncation": null,
  "padding": null,
  "added_tokens": [],
  "normalizer": null,
  "pre_tokenizer": {
    "type": "ByteLevel",
    "add_prefix_space": false,
    "trim_offsets": true,
    "use_regex": true
  },
  "post_processor": {
    "type": "ByteLevel",
    "add_prefix_space": true,
    "trim_offsets": false,
    "use_regex": true
  },
  "decoder": {
    "type": "ByteLevel",
    "add_prefix_space": true,
    "trim_offsets": true,
    "use_regex": true
  },
  "model": {
    "type": "BPE",
    "dropout": null,
    "unk_token": null,
    "continuing_subword_prefix": null,
    "end_of_word_suffix": null,
    "fuse_unk": false,
    "byte_fallback": false,
    "vocab": {
      "!": 0,
      "\"": 1,
      "#": 2,
      "$": 3,
      "%": 4,
      "&": 5,
      "'": 6,
      "(": 7,
      ")": 8,
      "*": 9,
      "+": 10,
      ",": 11,
      "-": 12,
      ".": 13,
      "/": 14,
      "0": 15,
      "1": 16,
      "2": 17,
      "3": 18,
      "4": 19,
      "5": 20,
      "6": 21,
      "7": 22,
      "8": 23,
      "9": 24,
      ":": 25,
      ";": 26,
      "<": 27,
      "=": 28,
      ">": 29,
      "?": 30,
      "@": 31,
      "A": 32,
      "B": 33,
      "C": 34,
      "D": 35,
      "E": 36,
      "F": 37,
      "G": 38,
      "H": 39,
      "I": 40,
      "J": 41,
      "K": 42,
      "L": 43,
      "M": 44,
      "N": 45,
      "O": 46,
      "P": 47,
      "Q": 48,
      "R": 49,
      "S": 50,
      "T": 51,
      "U": 52,
      "V": 53,
      "W": 54,
      "X": 55,
      "Y": 56,
      "Z": 57,
      "[": 58,
      "\\": 59,
      "]": 60,
      "^": 61,
      "_": 62,
      "`": 63,
      "a": 64,
      "b": 65,
      "c": 66,
      "d": 67,
      "e": 68,
      "f": 69,
      "g": 70,
      "h": 71,
      "i": 72,
      "j": 73,
      "k": 74,
      "l": 75,
      "m": 76,
      "n": 77,
      "o": 78,
      "p": 79,
      "q": 80,
      "r": 81,
      "s": 82,
      "t": 83,
      "u": 84,
      "v": 85,
      "w": 86,
      "x": 87,
      "y": 88,
      "z": 89,
      "{": 90,
      "|": 91,
      "}": 92,
      "~": 93,
      "¡": 94,
      "¢": 95,
      "£": 96,
      "¤": 97,
      "¥": 98,
      "¦": 99,
      "§": 100,
      "¨": 101,
      "©": 102,
      "ª": 103,
      "«": 104,
      "¬": 105,
      "®": 106,
      "¯": 107,
      "°": 108,
      "±": 109,
      "²": 110,
      "³": 111,
      "´": 112,
      "µ": 113,
      "¶": 114,
      "·": 115,
      "¸": 116,
      "¹": 117,
      "º": 118,
      "»": 119,
      "¼": 120,
      "½": 121,
      "¾": 122,
      "¿": 123,
      "À": 124,
      "Á": 125,
      "Â": 126,
      "Ã": 127,
      "Ä": 128,
      "Å": 129,
      "Æ": 130,
      "Ç": 131,
      "È": 132,
      "É": 133,
      "Ê": 134,
      "Ë": 135,
      "Ì": 136,
      "Í": 137,
      "Î": 138,
      "Ï": 139,
      "Ð": 140,
      "Ñ": 141,
      "Ò": 142,
      "Ó": 143,
      "Ô": 144,
      "Õ": 145,
      "Ö": 146,
      "×": 147,
      "Ø": 148,
      "Ù": 149,
      "Ú": 150,
      "Û": 151,
      "Ü": 152,
      "Ý": 153,
      "Þ": 154,
      "ß": 155,
      "à": 156,
      "á": 157,
      "â": 158,
      "ã": 159,
      "ä": 160,
      "å": 161,
      "æ": 162,
      "ç": 163,
      "è": 164,
      "é": 165,
      "ê": 166,
      "ë": 167,
      "ì": 168,
      "í": 169,
      "î": 170,
      "ï": 171,
      "ð": 172,
      "ñ": 173,
      "ò": 174,
      "ó": 175,
      "ô": 176,
      "õ": 177,
      "ö": 178,
      "÷": 179,
      "ø": 180,
      "ù": 181,
      "ú": 182,
      "û": 183,
      "ü": 184,
      "ý": 185,
      "þ": 186,
      "ÿ": 187,
      "Ā": 188,
      "ā": 189,
      "Ă": 190,
      "ă": 191,
      "Ą": 192,
      "ą": 193,
      "Ć": 194,
      "ć": 195,
      "Ĉ": 196,
      "ĉ": 197,
      "Ċ": 198,
      "ċ": 199,
      "Č": 200,
      "č": 201,
      "Ď": 202,
      "ď": 203,
      "Đ": 204,
      "đ": 205,
      "Ē": 206,
      "ē": 207,
      "Ĕ": 208,
      "ĕ": 209,
      "Ė": 210,
      "ė": 211,
      "Ę": 212,
      "ę": 213,
      "Ě": 214,
      "ě": 215,
      "Ĝ": 216,
      "ĝ": 217,
      "Ğ": 218,
      "ğ": 219,
      "Ġ": 220,
      "ġ": 221,
      "Ģ": 222,
      "ģ": 223,
      "Ĥ": 224,
      "ĥ": 225,
      "Ħ": 226,
      "ħ": 227,
      "Ĩ": 228,
      "ĩ": 229,
      "Ī": 230,
      "ī": 231,
      "Ĭ": 232,
      "ĭ": 233,
      "Į": 234,
      "į": 235,
      "İ": 236,
      "ı": 237,
      "Ĳ": 238,
      "ĳ": 239,
      "Ĵ": 240,
      "ĵ": 241,
      "Ķ": 242,
      "ķ": 243,
      "ĸ": 244,
      "Ĺ": 245,
      "ĺ": 246,
      "Ļ": 247,
      "ļ": 248,
      "Ľ": 249,
      "ľ": 250,
      "Ŀ": 251,
      "ŀ": 252,
      "Ł": 253,
      "ł": 254,
      "Ń": 255,
      "in": 256,
      "Ġs": 257,
      "er": 258,
      "Ġ,": 259,
      "Ġ.": 260,
      "re": 261,
      "Ġm": 262,
      "Ġc": 263,
      "en": 264,
      "on": 265,
      "ing": 266,
      "Ġf": 267,
      "an": 268,
      "al": 269,
      "Ġp": 270,
      "Ġt": 271,
      "ar": 272,
      "ed": 273,
      "or": 274,
      "Ġl": 275,
      "Ġw": 276,
      "Ġb": 277,
      "at": 278,
      "st": 279,
      "Ġ'": 280,
      "Ġd": 281,
      "Ġg": 282,
      "ou": 283,
      "ly": 284,
      "il": 285,
      "le": 286,
      "Ġa": 287,
      "Ġh": 288,
      "Ġe": 289,
      "it": 290,
      "ct": 291,
      "Ġn": 292,
      "ie": 293,
      "ic": 294,
      "ov": 295,
      "Ġre": 296,
      "om": 297,
      "el": 298,
      "Ġst": 299,
      "ent": 300,
      "et": 301,
      "ot": 302,
      "is": 303,
      "ion": 304,
      "ay": 305,
      "ke": 306,
      "ch": 307,
      "ce": 308,
      "Ġmov": 309,
      "Ġr": 310,
      "ow": 311,
      "gh": 312,
      "ad": 313,
      "Ġfil": 314,
      "im": 315,
      "Ġmovie": 316,
      "un": 317,
      "oo": 318,
      "one": 319,
      "Ġfilm": 320,
      "ss": 321,
      "Ġse": 322,
      "id": 323,
      "ol": 324,
      "Ġth": 325,
      "Ġch": 326,
      "am": 327,
      "ver": 328,
      "ve": 329,
      "se": 330,
      "Ġli": 331,
      "Ġin": 332,
      "ul": 333,
      "th": 334,
      "op": 335,
      "'t": 336,
      "Ġ)": 337,
      "ally": 338,
      "Ġ`": 339,
      "Ġk": 340,
      "Ġ(": 341,
      "ir": 342,
      "Ġ``": 343,
      "ri": 344,
      "Ġ''": 345,
      "Ġde": 346,
      "ra": 347,
      "ck": 348,
      "Ġal": 349,
      "Ġsh": 350,
      "ur": 351,
      "em": 352,
      "ght": 353,
      "ld": 354,
      "her": 355,
      "Ġcom": 356,
      "Ġj": 357,
      "as": 358,
      "Ġsc": 359,
      "us": 360,
      "ut": 361,
      "Ġone": 362,
      "Ġv": 363,
      "Ġma": 364,
      "end": 365,
      "Ġact": 366,
      "ell": 367,
      "ge": 368,
      "Ġex": 369,
      "ble": 370,
      "Ġ!": 371,
      "ro": 372,
      "pe": 373,
      "Ġpl": 374,
      "art": 375,
      "ill": 376,
      "ant": 377,
      "and": 378,
      "Ġbe": 379,
      "act": 380,
      "ood": 381,
      "ould": 382,
      "ast": 383,
      "ter": 384,
      "oun": 385,
      "Ġne": 386,
      "Ġsu": 387,
      "Ġlike": 388,
      "Ġle": 389,
      "ate": 390,
      "ap": 391,
      "ff": 392,
      "Ġdi": 393,
      "Ġun": 394,
      "ous": 395,
      "Ġwor": 396,
      "Ġan": 397,
      "Ġcon": 398,
      "qu": 399,
      "ig": 400,
      "ime": 401,
      "um": 402,
      "Ġy": 403,
      "ive": 404,
      "ation": 405,
      "ven": 406,
      "ight": 407,
      "ory": 408,
      "Ġchar": 409,
      "Ġo": 410,
      "Ġ?": 411,
      "atch": 412,
      "..": 413,
      "ain": 414,
      "ard": 415,
      "ist": 416,
      "ind": 417,
      "Ġman": 418,
      "ort": 419,
      "ook": 420,
      "ack": 421,
      "Ġper": 422,
      "ud": 423,
      "Ġever": 424,
      "Ġtr": 425,
      "ure": 426,
      "fe": 427,
      "ine": 428,
      "Ġ-": 429,
      "all": 430,
      "Ġtime": 431,
      "Ġgood": 432,
      "od": 433,
      "acter": 434,
      "Ġsee": 435,
      "Ġcharacter": 436,
      "es": 437,
      "ity": 438,
      "ong": 439,
      "reat": 440,
      "Ġwatch": 441,
      "Ġget": 442,
      "Ġmu": 443,
      "og": 444,
      "Ġpro": 445,
      "ough": 446,
      "der": 447,
      "est": 448,
      "are": 449,
      "Ġpre": 450,
      "Ġ1": 451,
      "ound": 452,
      "Ġstory": 453,
      "ite": 454,
      "Ġwould": 455,
      "Ġen": 456,
      "ful": 457,
      "Ġgo": 458,
      "Ġcl": 459,
      "pt": 460,
      "Ġeven": 461,
      "Ġpo": 462,
      "ance": 463,
      "ue": 464,
      "able": 465,
      "ene": 466,
      "Ġmake": 467,
      "ide": 468,
      "Ġsp": 469,
      "ence": 470,
      "Ġ...": 471,
      "Ġreally": 472,
      "hing": 473,
      "Ġsom": 474,
      "Ġshow": 475,
      "ear": 476,
      "ab": 477,
      "Ġro": 478,
      "ak": 479,
      "orm": 480,
      "ci": 481,
      "other": 482,
      "ne": 483,
      "ick": 484,
      "pp": 485,
      "Ġbr": 486,
      "oy": 487,
      "old": 488,
      "Ġpe": 489,
      "itt": 490,
      "so": 491,
      "ink": 492,
      "our": 493,
      "Ġim": 494,
      "Ġwell": 495,
      "Ġscene": 496,
      "Ġend": 497,
      "now": 498,
      "ake": 499,
      "ag": 500,
      "Ġbad": 501,
      "ious": 502,
      "age": 503,
      "Ġqu": 504,
      "Ġmuch": 505,
      "rect": 506,
      "ade": 507,
      "Ġ:": 508,
      "Ġwh": 509,
      "Ġad": 510,
      "os": 511,
      "ice": 512,
      "Ġpr": 513,
      "ople": 514,
      "Ġlook": 515,
      "Ġbl": 516,
      "ment": 517,
      "Ġlov": 518,
      "ame": 519,
      "ost": 520,
      "Ġu": 521,
      "irst": 522,
      "ert": 523,
      "Ġpeople": 524,
      "pl": 525,
      "Ġevery": 526,
      "Ġfa": 527,
      "out": 528,
      "Ġcould": 529,
      "Ġgreat": 530,
      "Ġdis": 531,
      "ple": 532,
      "Ġplay": 533,
      "Ġme": 534,
      "au": 535,
      "Ġalso": 536,
      "Ġtw": 537,
      "Ġam": 538,
      "the": 539,
      "Ġway": 540,
      "ish": 541,
      "Ġknow": 542,
      "int": 543,
      "ore": 544,
      "Ġdirect": 545,
      "Ġhe": 546,
      "ry": 547,
      "Ġjo": 548,
      "Ġthink": 549,
      "Ġfun": 550,
      "com": 551,
      "Ġfirst": 552,
      "ire": 553,
      "way": 554,
      "Ġreal": 555,
      "Ġar": 556,
      "Ġsa": 557,
      "over": 558,
      "Ġpart": 559,
      "Ġthing": 560,
      "ep": 561,
      "ect": 562,
      "app": 563,
      "att": 564,
      "Ġfe": 565,
      "oc": 566,
      "Ġseem": 567,
      "Ġany": 568,
      "Ġsay": 569,
      "Ġwr": 570,
      "ary": 571,
      "Ġmade": 572,
      "Ġlife": 573,
      "Ġinter": 574,
      "per": 575,
      "iew": 576,
      "ute": 577,
      "ber": 578,
      "Ġfl": 579,
      "ical": 580,
      "Ġnot": 581,
      "ated": 582,
      "ty": 583,
      "Ġgr": 584,
      "sh": 585,
      "ually": 586,
      "Ġlove": 587,
      "son": 588,
      "ian": 589,
      "ict": 590,
      "form": 591,
      "ny": 592,
      "Ġor": 593,
      "Ġ;": 594,
      "Ġca": 595,
      "Ġactor": 596,
      "Ġmany": 597,
      "pect": 598,
      "Ġwork": 599,
      "Ġser": 600,
      "Ġseen": 601,
      "Ġplot": 602,
      "Ġte": 603,
      "Ġbet": 604,
      "Ġhor": 605,
      "ass": 606,
      "ise": 607,
      "Ġwant": 608,
      "Ġsomet": 609,
      "Ġgu": 610,
      "ult": 611,
      "ress": 612,
      "Ġnever": 613,
      "Ġacting": 614,
      "Ġent": 615,
      "Ġtwo": 616,
      "Ġyear": 617,
      "ittle": 618,
      "iz": 619,
      "Ġbest": 620,
      "inal": 621,
      "Ġdes": 622,
      "ft": 623,
      "ip": 624,
      "ath": 625,
      "Ġlittle": 626,
      "ster": 627,
      "urn": 628,
      "ith": 629,
      "iv": 630,
      "Ġrem": 631,
      "Ġac": 632,
      "ace": 633,
      "less": 634,
      "ond": 635,
      "ark": 636,
      "Ġback": 637,
      "du": 638,
      "Ġtra": 639,
      "Ġmay": 640,
      "Ġ*": 641,
      "Ġ2": 642,
      "Ġsl": 643,
      "ater": 644,
      "ang": 645,
      "man": 646,
      "red": 647,
      "te": 648,
      "Ġ19": 649,
      "ily": 650,
      "king": 651,
      "Ġperform": 652,
      "Ġtake": 653,
      "Ġdr": 654,
      "Ġbetter": 655,
      "Ġcome": 656,
      "ich": 657,
      "thing": 658,
      "Ġus": 659,
      "Ġmin": 660,
      "Ġcr": 661,
      "Ġtry": 662,
      "Ġstill": 663,
      "ather": 664,
      "Ġfind": 665,
      "ertain": 666,
      "peci": 667,
      "Ġatt": 668,
      "ual": 669,
      "Ġop": 670,
      "ought": 671,
      "igh": 672,
      "Ġab": 673,
      "Ġsomething": 674,
      "ffer": 675,
      "Ġtal": 676,
      "ac": 677,
      "ose": 678,
      "Ġcast": 679,
      "Ġeff": 680,
      "riend": 681,
      "Ġfor": 682,
      "oll": 683,
      "Ġcont": 684,
      "Ġbel": 685,
      "Ġkill": 686,
      "ph": 687,
      "Ġsim": 688,
      "ild": 689,
      "Ġdirector": 690,
      "be": 691,
      "Ġgive": 692,
      "own": 693,
      "ror": 694,
      "ole": 695,
      "Ġint": 696,
      "Ġinterest": 697,
      "ens": 698,
      "Ġstr": 699,
      "iss": 700,
      "aw": 701,
      "Ġsur": 702,
      "Ġ--": 703,
      "Ġperformance": 704,
      "ense": 705,
      "Ġnew": 706,
      "Ġfeel": 707,
      "Ġem": 708,
      "Ġmus": 709,
      "ating": 710,
      "irl": 711,
      "ree": 712,
      "av": 713,
      "Ġke": 714,
      "Ġimp": 715,
      "edy": 716,
      "Ġhapp": 717,
      "Ġsome": 718,
      "ia": 719,
      "ience": 720,
      "up": 721,
      "Ġbig": 722,
      "Ġgen": 723,
      "ction": 724,
      "ust": 725,
      "Ġlot": 726,
      "oman": 727,
      "Ġap": 728,
      "Ġhum": 729,
      "ies": 730,
      "ably": 731,
      "Ġinc": 732,
      "if": 733,
      "ason": 734,
      "ting": 735,
      "Ġcomp": 736,
      "Ġcar": 737,
      "Ġwar": 738,
      "ock": 739,
      "reen": 740,
      "ull": 741,
      "Ġwatching": 742,
      "Ġev": 743,
      "ning": 744,
      "vers": 745,
      "Ġdec": 746,
      "Ġguy": 747,
      "Ġfunny": 748,
      "arly": 749,
      "Ġthough": 750,
      "Ġpoint": 751,
      "Ġsm": 752,
      "Ġfam": 753,
      "Ġfact": 754,
      "joy": 755,
      "vel": 756,
      "Ġgirl": 757,
      "Ġfr": 758,
      "Ġlau": 759,
      "Ġwe": 760,
      "Ġstar": 761,
      "Ġche": 762,
      "Ġter": 763,
      "nt": 764,
      "Ġres": 765,
      "Ġhigh": 766,
      "Ġob": 767,
      "Ġold": 768,
      "ere": 769,
      "Ġactually": 770,
      "ever": 771,
      "Ġover": 772,
      "Ġview": 773,
      "Ġgoing": 774,
      "li": 775,
      "ach": 776,
      "Ġaw": 777,
      "Ġsub": 778,
      "Ġmar": 779,
      "Ġgot": 780,
      "Ġlong": 781,
      "Ġthr": 782,
      "Ġenjoy": 783,
      "Ġunder": 784,
      "Ġday": 785,
      "Ġnothing": 786,
      "ane": 787,
      "ial": 788,
      "ool": 789,
      "Ġbelie": 790,
      "Ġset": 791,
      "ome": 792,
      "get": 793,
      "Ġpret": 794,
      "Ġwith": 795,
      "az": 796,
      "Ġas": 797,
      "ank": 798,
      "Ġorig": 799,
      "Ġwoman": 800,
      "ase": 801,
      "Ġexc": 802,
      "Ġyoun": 803,
      "Ġrole": 804,
      "Ġbu": 805,
      "Ġanother": 806,
      "Ġprodu": 807,
      "Ġel": 808,
      "Ġeffect": 809,
      "Ġyoung": 810,
      "Ġcra": 811,
      "Ġhorror": 812,
      "Ġstart": 813,
      "Ġsin": 814,
      "Ġturn": 815,
      "Ġhard": 816,
      "Ġfriend": 817,
      "ible": 818,
      "Ġseems": 819,
      "Ġlaugh": 820,
      "Ġph": 821,
      "ript": 822,
      "Ġbit": 823,
      "Ġquite": 824,
      "Ġsec": 825,
      "Ġcomedy": 826,
      "Ġsupp": 827,
      "onder": 828,
      "sc": 829,
      "Ġfan": 830,
      "Ġkid": 831,
      "Ġminute": 832,
      "ub": 833,
      "Ġed": 834,
      "Ġcomple": 835,
      "Ġworld": 836,
      "oot": 837,
      "Ġoriginal": 838,
      "Ġrel": 839,
      "Ġaction": 840,
      "Ġneed": 841,
      "ern": 842,
      "Ġhow": 843,
      "ically": 844,
      "Ġscreen": 845,
      "Ġfar": 846,
      "Ġrec": 847,
      "Ġthought": 848,
      "Ġcam": 849,
      "Ġapp": 850,
      "Ġhel": 851,
      "Ġ&": 852,
      "Ġwonder": 853,
      "ness": 854,
      "ention": 855,
      "Ġenough": 856,
      "eric": 857,
      "Ġcare": 858,
      "Ġright": 859,
      "ope": 860,
      "Ġaround": 861,
      "cept": 862,
      "ways": 863,
      "Ġmean": 864,
      "oon": 865,
      "Ġline": 866,
      "Ġz": 867,
      "Ġpretty": 868,
      "ave": 869,
      "inem": 870,
      "iting": 871,
      "ib": 872,
      "ved": 873,
      "Ġscript": 874,
      "ign": 875,
      "Ġmust": 876,
      "Ġmusic": 877,
      "Ġperson": 878,
      "Ġbas": 879,
      "Ġind": 880,
      "Ġins": 881,
      "pr": 882,
      "ead": 883,
      "aut": 884,
      "Ġcinem": 885,
      "Ġleast": 886,
      "Ġep": 887,
      "ord": 888,
      "Ġinv": 889,
      "most": 890,
      "Ġag": 891,
      "Ġwhole": 892,
      "ately": 893,
      "Ġmon": 894,
      "Ġcour": 895,
      "Ġinst": 896,
      "Ġbook": 897,
      "Ġkind": 898,
      "Ġread": 899,
      "Ġsex": 900,
      "vious": 901,
      "ced": 902,
      "Ġbeg": 903,
      "ount": 904,
      "Ġclass": 905,
      "00": 906,
      "Ġalways": 907,
      "ether": 908,
      "Ġrev": 909,
      "ll": 910,
      "ouse": 911,
      "wh": 912,
      "Ġsound": 913,
      "ody": 914,
      "Ġsch": 915,
      "Ġexpl": 916,
      "Ġput": 917,
      "Ġart": 918,
      "Ġlead": 919,
      "Ġinteresting": 920,
      "Ġgi": 921,
      "cess": 922,
      "Ġbecom": 923,
      "Ġshot": 924,
      "icul": 925,
      "Ġcol": 926,
      "Ġhowever": 927,
      "ug": 928,
      "ature": 929,
      "ember": 930,
      "Ġappe": 931,
      "Ġdone": 932,
      "Ġreason": 933,
      "Ġmom": 934,
      "ile": 935,
      "Ġexpect": 936,
      "Ġaud": 937,
      "Ġwithout": 938,
      "Ġcons": 939,
      "iece": 940,
      "ode": 941,
      "Ġcomplete": 942,
      "ner": 943,
      "Ġ3": 944,
      "era": 945,
      "Ġlet": 946,
      "Ġfamily": 947,
      "Ġsw": 948,
      "Ġtell": 949,
      "Ġout": 950,
      "ale": 951,
      "Ġlast": 952,
      "Ġalmost": 953,
      "Ġsure": 954,
      "ange": 955,
      "Ġdiffer": 956,
      "Ġbor": 957,
      "Ġhol": 958,
      "Ġbeaut": 959,
      "Ġseries": 960,
      "ative": 961,
      "iter": 962,
      "aking": 963,
      "rible": 964,
      "raph": 965,
      "Ġmight": 966,
      "Ġworth": 967,
      "Ġentertain": 968,
      "Ġide": 969,
      "Ġcle": 970,
      "ition": 971,
      "ash": 972,
      "Ġchild": 973,
      "Ġtru": 974,
      "Ġsince": 975,
      "Ġtri": 976,
      "Ġmain": 977,
      "Ġameric": 978,
      "Ġanything": 979,
      "ob": 980,
      "Ġcall": 981,
      "Ġspeci": 982,
      "Ġhand": 983,
      "Ġcomm": 984,
      "Ġtv": 985,
      "Ġext": 986,
      "Ġdel": 987,
      "stand": 988,
      "Ġyet": 989,
      "Ġgl": 990,
      "ail": 991,
      "Ġcourse": 992,
      "alog": 993,
      "ower": 994,
      "led": 995,
      "ving": 996,
      "ren": 997,
      "Ġaudience": 998,
      "Ġvers": 999,
      "Ġboy": 1000,
      "Ġsaw": 1001,
      "air": 1002,
      "vd": 1003,
      "Ġmiss": 1004,
      "Ġher": 1005,
      "ism": 1006,
      "Ġprob": 1007,
      "Ġfin": 1008,
      "Ġhal": 1009,
      "Ġadd": 1010,
      "here": 1011,
      "rist": 1012,
      "Ġdialog": 1013,
      "Ġbegin": 1014,
      "xt": 1015,
      "Ġfound": 1016,
      "Ġmoment": 1017,
      "Ġcre": 1018,
      "Ġanyone": 1019,
      "ier": 1020,
      "Ġes": 1021,
      "Ġdef": 1022,
      "Ġaway": 1023,
      "io": 1024,
      "Ġhelp": 1025,
      "Ġprobably": 1026,
      "Ġdvd": 1027,
      "ider": 1028,
      "Ġste": 1029,
      "ady": 1030,
      "Ġpoor": 1031,
      "ject": 1032,
      "Ġworst": 1033,
      "Ġrun": 1034,
      "Ġplace": 1035,
      "Ġplayed": 1036,
      "Ġmind": 1037,
      "Ġacc": 1038,
      "ling": 1039,
      "Ġtrying": 1040,
      "Ġrather": 1041,
      "Ġ10": 1042,
      "Ġversion": 1043,
      "though": 1044,
      "Ġdep": 1045,
      "hn": 1046,
      "Ġabs": 1047,
      "oney": 1048,
      "isode": 1049,
      "Ġidea": 1050,
      "Ġshort": 1051,
      "Ġkeep": 1052,
      "Ġhappen": 1053,
      "ked": 1054,
      "Ġsuper": 1055,
      "mend": 1056,
      "Ġnight": 1057,
      "iful": 1058,
      "ray": 1059,
      "otion": 1060,
      "Ġty": 1061,
      "Ġepisode": 1062,
      "apt": 1063,
      "Ġrob": 1064,
      "pecially": 1065,
      "Ġbelieve": 1066,
      "Ġespecially": 1067,
      "Ġunf": 1068,
      "Ġeverything": 1069,
      "Ġsequ": 1070,
      "ality": 1071,
      "Ġdifferent": 1072,
      "ife": 1073,
      "illi": 1074,
      "ograph": 1075,
      "Ġsurpr": 1076,
      "Ġsing": 1077,
      "Ġpres": 1078,
      "Ġsecond": 1079,
      "Ġport": 1080,
      "Ġjob": 1081,
      "atter": 1082,
      "ilar": 1083,
      "ont": 1084,
      "Ġending": 1085,
      "Ġmaking": 1086,
      "aste": 1087,
      "Ġspecial": 1088,
      "ye": 1089,
      "osed": 1090,
      "wood": 1091,
      "ortun": 1092,
      "Ġsk": 1093,
      "Ġbud": 1094,
      "Ġcertain": 1095,
      "ret": 1096,
      "Ġbo": 1097,
      "Ġdra": 1098,
      "ither": 1099,
      "fect": 1100,
      "Ġposs": 1101,
      "Ġdo": 1102,
      "commend": 1103,
      "Ġco": 1104,
      "Ġhouse": 1105,
      "ogether": 1106,
      "ix": 1107,
      "Ġrecommend": 1108,
      "Ġstand": 1109,
      "blem": 1110,
      "Ġsomeone": 1111,
      "Ġhalf": 1112,
      "Ġtrue": 1113,
      "Ġobvious": 1114,
      "Ġbeautiful": 1115,
      "cing": 1116,
      "Ġmaybe": 1117,
      "Ġmur": 1118,
      "Ġalthough": 1119,
      "uck": 1120,
      "Ġproblem": 1121,
      "sy": 1122,
      "Ġlooking": 1123,
      "Ġjohn": 1124,
      "Ġreview": 1125,
      "Ġsense": 1126,
      "Ġpol": 1127,
      "ream": 1128,
      "Ġear": 1129,
      "Ġhead": 1130,
      "oint": 1131,
      "Ġsit": 1132,
      "Ġcreat": 1133,
      "me": 1134,
      "Ġblack": 1135,
      "lud": 1136,
      "ident": 1137,
      "Ġuse": 1138,
      "Ġother": 1139,
      "Ġrest": 1140,
      "ott": 1141,
      "Ġthe": 1142,
      "ollow": 1143,
      "ney": 1144,
      "aught": 1145,
      "Ġmoney": 1146,
      "Ġhope": 1147,
      "Ġass": 1148,
      "Ġhour": 1149,
      "Ġfav": 1150,
      "atic": 1151,
      "gr": 1152,
      "Ġwal": 1153,
      "istic": 1154,
      "Ġelse": 1155,
      "ah": 1156,
      "itch": 1157,
      "Ġall": 1158,
      "ross": 1159,
      "Ġholly": 1160,
      "Ġrele": 1161,
      "Ġrep": 1162,
      "Ġsy": 1163,
      "Ġhar": 1164,
      "Ġnice": 1165,
      "empt": 1166,
      "Ġsaid": 1167,
      "Ġsimp": 1168,
      "Ġamerican": 1169,
      "ellent": 1170,
      "Ġdisc": 1171,
      "Ġfall": 1172,
      "Ġvis": 1173,
      "Ġleft": 1174,
      "Ġmen": 1175,
      "Ġdeath": 1176,
      "Ġso": 1177,
      "Ġcou": 1178,
      "ingly": 1179,
      "Ġeng": 1180,
      "Ġeveryone": 1181,
      "Ġdead": 1182,
      "Ġthree": 1183,
      "Ġform": 1184,
      "Ġtogether": 1185,
      "Ġstup": 1186,
      "ger": 1187,
      "Ġlater": 1188,
      "ship": 1189,
      "Ġsus": 1190,
      "ited": 1191,
      "arent": 1192,
      "Ġele": 1193,
      "Ġperfect": 1194,
      "Ġviewer": 1195,
      "10": 1196,
      "Ġdram": 1197,
      "Ġunderstand": 1198,
      "Ġfollow": 1199,
      "Ġbar": 1200,
      "Ġinvol": 1201,
      "Ġappear": 1202,
      "Ġopen": 1203,
      "Ġstupid": 1204,
      "cc": 1205,
      "Ġconf": 1206,
      "Ġit": 1207,
      "ward": 1208,
      "Ġple": 1209,
      "Ġru": 1210,
      "Ġhuman": 1211,
      "Ġtot": 1212,
      "Ġred": 1213,
      "Ġwatched": 1214,
      "Ġinstead": 1215,
      "yle": 1216,
      "Ġpar": 1217,
      "Ġheart": 1218,
      "Ġcor": 1219,
      "ann": 1220,
      "Ġseeing": 1221,
      "Ġexcellent": 1222,
      "Ġcompletely": 1223,
      "Ġlack": 1224,
      "Ġwife": 1225,
      "Ġsimply": 1226,
      "land": 1227,
      "Ġdet": 1228,
      "Ġinclud": 1229,
      "umb": 1230,
      "Ġtop": 1231,
      "this": 1232,
      "Ġoff": 1233,
      "Ġpiece": 1234,
      "Ġface": 1235,
      "Ġevent": 1236,
      "Ġmurder": 1237,
      "Ġdefin": 1238,
      "Ġlow": 1239,
      "ird": 1240,
      "Ġeye": 1241,
      "Ġbeh": 1242,
      "Ġclassic": 1243,
      "Ġcomment": 1244,
      "Ġexp": 1245,
      "mov": 1246,
      "Ġ4": 1247,
      "Ġfight": 1248,
      "Ġdark": 1249,
      "Ġanim": 1250,
      "ography": 1251,
      "Ġportray": 1252,
      "Ġcame": 1253,
      "ans": 1254,
      "Ġret": 1255,
      "Ġje": 1256,
      "cer": 1257,
      "Ġsad": 1258,
      "Ġentire": 1259,
      "ote": 1260,
      "Ġir": 1261,
      "Ġwonderful": 1262,
      "Ġhome": 1263,
      "Ġremember": 1264,
      "vin": 1265,
      "Ġgener": 1266,
      "olute": 1267,
      "uff": 1268,
      "Ġsil": 1269,
      "Ġsong": 1270,
      "Ġserious": 1271,
      "ape": 1272,
      "Ġ5": 1273,
      "Ġref": 1274,
      "aps": 1275,
      "Ġhist": 1276,
      "omb": 1277,
      "Ġtalent": 1278,
      "Ġfather": 1279,
      "Ġdan": 1280,
      "Ġstud": 1281,
      "Ġexper": 1282,
      "Ġwrong": 1283,
      "Ġproduction": 1284,
      "Ġhollywood": 1285,
      "my": 1286,
      "Ġpict": 1287,
      "Ġchrist": 1288,
      "Ġdist": 1289,
      "Ġspe": 1290,
      "Ġfull": 1291,
      "Ġalong": 1292,
      "Ġboring": 1293,
      "Ġpicture": 1294,
      "ers": 1295,
      "Ġname": 1296,
      "Ġcred": 1297,
      "Ġschool": 1298,
      "Ġmor": 1299,
      "Ġann": 1300,
      "itten": 1301,
      "Ġgiven": 1302,
      "Ġcamera": 1303,
      "Ġpa": 1304,
      "Ġmess": 1305,
      "iver": 1306,
      "appoint": 1307,
      "Ġattempt": 1308,
      "Ġtit": 1309,
      "Ġgame": 1310,
      "Ġeither": 1311,
      "Ġword": 1312,
      "Ġused": 1313,
      "ideo": 1314,
      "Ġprov": 1315,
      "Ġup": 1316,
      "Ġabsolute": 1317,
      "Ġcut": 1318,
      "Ġaf": 1319,
      "elf": 1320,
      "ised": 1321,
      "Ġvi": 1322,
      "Ġemotion": 1323,
      "Ġconsider": 1324,
      "Ġmy": 1325,
      "amp": 1326,
      "ex": 1327,
      "Ġ8": 1328,
      "Ġblood": 1329,
      "Ġeas": 1330,
      "Ġhero": 1331,
      "oil": 1332,
      "Ġcop": 1333,
      "arn": 1334,
      "Ġthem": 1335,
      "Ġdisappoint": 1336,
      "Ġloc": 1337,
      "ased": 1338,
      "que": 1339,
      "cy": 1340,
      "Ġparticul": 1341,
      "Ġawful": 1342,
      "Ġbudget": 1343,
      "oice": 1344,
      "Ġpower": 1345,
      "Ġbre": 1346,
      "Ġrom": 1347,
      "Ġnext": 1348,
      "ony": 1349,
      "Ġfinal": 1350,
      "Ġgre": 1351,
      "ility": 1352,
      "Ġimag": 1353,
      "haps": 1354,
      "Ġmr": 1355,
      "Ġpain": 1356,
      "Ġreg": 1357,
      "Ġcase": 1358,
      "Ġsupposed": 1359,
      "Ġcount": 1360,
      "elt": 1361,
      "Ġsever": 1362,
      "Ġval": 1363,
      "ared": 1364,
      "ired": 1365,
      "Ġexam": 1366,
      "Ġsuc": 1367,
      "Ġfine": 1368,
      "Ġwin": 1369,
      "Ġav": 1370,
      "Ġnum": 1371,
      "ying": 1372,
      "Ġfavor": 1373,
      "Ġlost": 1374,
      "Ġamaz": 1375,
      "Ġfre": 1376,
      "Ġvideo": 1377,
      "Ġjoke": 1378,
      "like": 1379,
      "Ġ7": 1380,
      "Ġside": 1381,
      "Ġfail": 1382,
      "Ġtruly": 1383,
      "den": 1384,
      "Ġexcept": 1385,
      "itely": 1386,
      "Ġflick": 1387,
      "dy": 1388,
      "ru": 1389,
      "Ġmother": 1390,
      "Ġdou": 1391,
      "Ġlive": 1392,
      "Ġlight": 1393,
      "Ġmaster": 1394,
      "Ġsmall": 1395,
      "ork": 1396,
      "Ġfeature": 1397,
      "gest": 1398,
      "Ġdri": 1399,
      "Ġadv": 1400,
      "Ã©": 1401,
      "Ġsort": 1402,
      "Ġwa": 1403,
      "Ġhumor": 1404,
      "Ġsn": 1405,
      "Ġcouple": 1406,
      "Ġgra": 1407,
      "movie": 1408,
      "Ġrid": 1409,
      "olog": 1410,
      "Ġdialogue": 1411,
      "ract": 1412,
      "Ġperhaps": 1413,
      "Ġclose": 1414,
      "Ġ9": 1415,
      "Ġrich": 1416,
      "ied": 1417,
      "ric": 1418,
      "Ġoft": 1419,
      "Ġat": 1420,
      "Ġmod": 1421,
      "Ġfant": 1422,
      "oid": 1423,
      "Ġgetting": 1424,
      "Ġwriter": 1425,
      "Ġterrible": 1426,
      "but": 1427,
      "ek": 1428,
      "Ġgue": 1429,
      "Ġearly": 1430,
      "Ġis": 1431,
      "Ġant": 1432,
      "velop": 1433,
      "ument": 1434,
      "Ġmention": 1435,
      "Ġbra": 1436,
      "Ġjack": 1437,
      "ently": 1438,
      "Ġbring": 1439,
      "Ġcertainly": 1440,
      "play": 1441,
      "aker": 1442,
      "Ġsusp": 1443,
      "reme": 1444,
      "Ġcinema": 1445,
      "Ġoften": 1446,
      "ton": 1447,
      "Ġsat": 1448,
      "Ġmeet": 1449,
      "iness": 1450,
      "Ġplaying": 1451,
      "Ġcent": 1452,
      "Ġcapt": 1453,
      "Ġhun": 1454,
      "ley": 1455,
      "Ġliked": 1456,
      "Ġguess": 1457,
      "ons": 1458,
      "what": 1459,
      "Ġmem": 1460,
      "Ġmich": 1461,
      "Ġfoot": 1462,
      "ouch": 1463,
      "Ġhit": 1464,
      "ize": 1465,
      "Ġdefinitely": 1466,
      "ief": 1467,
      "Ġactress": 1468,
      "ĠÂ": 1469,
      "Ġbrother": 1470,
      "Ġfair": 1471,
      "Ġsequence": 1472,
      "Ġstyle": 1473,
      "fully": 1474,
      "Ġbrilli": 1475,
      "Ġstrong": 1476,
      "Ġexample": 1477,
      "Ġmatter": 1478,
      "Ġang": 1479,
      "Ġpred": 1480,
      "Ġfinally": 1481,
      "cial": 1482,
      "Ġimpress": 1483,
      "Ġwaste": 1484,
      "Ġok": 1485,
      "Ġslow": 1486,
      "enn": 1487,
      "Ġdevelop": 1488,
      "Ġviol": 1489,
      "Ġseveral": 1490,
      "ister": 1491,
      "Ġentertaining": 1492,
      "Ġabsolutely": 1493,
      "lish": 1494,
      "ides": 1495,
      "Ġwritten": 1496,
      "Ġlist": 1497,
      "Ġdoc": 1498,
      "outh": 1499,
      "Ġothers": 1500,
      "aughter": 1501,
      "orn": 1502,
      "ush": 1503,
      "Ġthrough": 1504,
      "ient": 1505,
      "ery": 1506,
      "Ġworse": 1507,
      "Ġtitle": 1508,
      "Ġmis": 1509,
      "Ġmid": 1510,
      "ison": 1511,
      "Ġteen": 1512,
      "Ġextreme": 1513,
      "Ġpop": 1514,
      "ular": 1515,
      "ement": 1516,
      "Ġvill": 1517,
      "ates": 1518,
      "ude": 1519,
      "Ġpresent": 1520,
      "Ġcost": 1521,
      "Ġwest": 1522,
      "Ġquest": 1523,
      "Ġstop": 1524,
      "ves": 1525,
      "unk": 1526,
      "Ġadm": 1527,
      "Ġkiller": 1528,
      "Ġmag": 1529,
      "Ġconc": 1530,
      "mer": 1531,
      "Ġrock": 1532,
      "Ġbecome": 1533,
      "ortunately": 1534,
      "bo": 1535,
      "ring": 1536,
      "Ġfelt": 1537,
      "Ġge": 1538,
      "Ġdeal": 1539,
      "Ġwo": 1540,
      "ional": 1541,
      "Ġwanted": 1542,
      "ination": 1543,
      "ready": 1544,
      "Ġquality": 1545,
      "Ġloved": 1546,
      "Ġdirection": 1547,
      "Ġdesp": 1548,
      "Ġbased": 1549,
      "af": 1550,
      "Ġson": 1551,
      "ision": 1552,
      "used": 1553,
      "ains": 1554,
      "Ġbecomes": 1555,
      "sych": 1556,
      "yn": 1557,
      "Ġdem": 1558,
      "Ġthroughout": 1559,
      "ided": 1560,
      "Ġfeeling": 1561,
      "Ġthrill": 1562,
      "Ġtown": 1563,
      "Ġwhite": 1564,
      "atur": 1565,
      "Ġalready": 1566,
      "Ġbrilliant": 1567,
      "ien": 1568,
      "Ġpat": 1569,
      "Ġwent": 1570,
      "Ġseemed": 1571,
      "he": 1572,
      "Ġself": 1573,
      "Ġpass": 1574,
      "Ġplan": 1575,
      "Ġevil": 1576,
      "ler": 1577,
      "Ġdream": 1578,
      "friend": 1579,
      "line": 1580,
      "itic": 1581,
      "Ġtheme": 1582,
      "Ġnumber": 1583,
      "Ġmark": 1584,
      "Ġsuccess": 1585,
      "Ġfavorite": 1586,
      "Ġtouch": 1587,
      "Ġhu": 1588,
      "Ġhilar": 1589,
      "enty": 1590,
      "Ġtype": 1591,
      "uation": 1592,
      "Ġand": 1593,
      "Ġpsych": 1594,
      "Ġlearn": 1595,
      "Ġtalk": 1596,
      "Ġenjoyed": 1597,
      "Ġtotally": 1598,
      "Ġtod": 1599,
      "Ġlate": 1600,
      "ump": 1601,
      "ibly": 1602,
      "Ġfem": 1603,
      "Ġrent": 1604,
      "Ġocc": 1605,
      "Ġsupport": 1606,
      "Ġrelation": 1607,
      "Ġgod": 1608,
      "Ġgave": 1609,
      "aken": 1610,
      "ized": 1611,
      "Ġdev": 1612,
      "ured": 1613,
      "Ġet": 1614,
      "anger": 1615,
      "ined": 1616,
      "Ġwood": 1617,
      "Ġdav": 1618,
      "oup": 1619,
      "Ġexperience": 1620,
      "Ġcredit": 1621,
      "Ġcalled": 1622,
      "Ġquestion": 1623,
      "edi": 1624,
      "Ġinf": 1625,
      "Ġlevel": 1626,
      "ker": 1627,
      "ris": 1628,
      "Ġuni": 1629,
      "Ġspoil": 1630,
      "Ġgenre": 1631,
      "Ġcareer": 1632,
      "Ġcinemat": 1633,
      "ming": 1634,
      "Ġbro": 1635,
      "Ġnov": 1636,
      "Ġchange": 1637,
      "Ġprop": 1638,
      "Ġdrama": 1639,
      "Ġamazing": 1640,
      "ael": 1641,
      "Ġstuff": 1642,
      "Ġyes": 1643,
      "orge": 1644,
      "ator": 1645,
      "les": 1646,
      "Ġstay": 1647,
      "unch": 1648,
      "right": 1649,
      "Ġhilarious": 1650,
      "Ġcur": 1651,
      "Ġpur": 1652,
      "Ġage": 1653,
      "Ġhot": 1654,
      "Ġra": 1655,
      "Ġoh": 1656,
      "ored": 1657,
      "Ġpast": 1658,
      "Ġable": 1659,
      "iest": 1660,
      "Ġexact": 1661,
      "Ġhistory": 1662,
      "Ġwriting": 1663,
      "Ġ200": 1664,
      "sp": 1665,
      "uc": 1666,
      "Ġfore": 1667,
      "ys": 1668,
      "Ġlar": 1669,
      "Ġhorrible": 1670,
      "Ġbehind": 1671,
      "eter": 1672,
      "Ġdeser": 1673,
      "Ġbeginning": 1674,
      "gu": 1675,
      "onest": 1676,
      "Ġsol": 1677,
      "Ġmad": 1678,
      "Ġfig": 1679,
      "itive": 1680,
      "etic": 1681,
      "Ġunc": 1682,
      "Ġcolle": 1683,
      "chn": 1684,
      "Ġprom": 1685,
      "imes": 1686,
      "ipp": 1687,
      "use": 1688,
      "Ġmove": 1689,
      "Ġdeep": 1690,
      "Ġspace": 1691,
      "Ġimport": 1692,
      "Ġsle": 1693,
      "Ġbody": 1694,
      "Ġthank": 1695,
      "astic": 1696,
      "Ġ....": 1697,
      "Ġfrank": 1698,
      "Ġoverall": 1699,
      "Ġdocument": 1700,
      "Ġla": 1701,
      "Ġstra": 1702,
      "Ġmaj": 1703,
      "Ġgroup": 1704,
      "Ġstre": 1705,
      "Ġhighly": 1706,
      "ĠÂĸ": 1707,
      "Ġrelationship": 1708,
      "ted": 1709,
      "Ġwish": 1710,
      "rif": 1711,
      "Ġleg": 1712,
      "Ġtrans": 1713,
      "Ġmichael": 1714,
      "Ġsam": 1715,
      "Ġgar": 1716,
      "urb": 1717,
      "Ġannoy": 1718,
      "oss": 1719,
      "Ġ..": 1720,
      "Ġscore": 1721,
      "Ġimm": 1722,
      "Ġtwist": 1723,
      "Ġeffort": 1724,
      "Ġcart": 1725,
      "Ġpick": 1726,
      "Ġmyster": 1727,
      "how": 1728,
      "using": 1729,
      "Ġdaughter": 1730,
      "ution": 1731,
      "Ġcrap": 1732,
      "Ġsituation": 1733,
      "maker": 1734,
      "Ġgun": 1735,
      "where": 1736,
      "Ġprem": 1737,
      "Ġetc": 1738,
      "off": 1739,
      "Ġcool": 1740,
      "Ġopp": 1741,
      "Ġpaul": 1742,
      "ok": 1743,
      "Ġsave": 1744,
      "Ġunfortunately": 1745,
      "Ġinvolved": 1746,
      "ik": 1747,
      "Ġhell": 1748,
      "ried": 1749,
      "Ġsometimes": 1750,
      "iculous": 1751,
      "Ġdespite": 1752,
      "Ġnovel": 1753,
      "Ġcity": 1754,
      "Ġhold": 1755,
      "osp": 1756,
      "Ġobviously": 1757,
      "Ġsuspense": 1758,
      "ral": 1759,
      "Ġpay": 1760,
      "Ġgh": 1761,
      "oph": 1762,
      "Ġdirected": 1763,
      "Ġacross": 1764,
      "Ġdecent": 1765,
      "ax": 1766,
      "Ġchance": 1767,
      "Ġshoot": 1768,
      "Ġjam": 1769,
      "Ġclich": 1770,
      "Ġmusical": 1771,
      "Ġvalue": 1772,
      "vable": 1773,
      "Ġcult": 1774,
      "any": 1775,
      "Ġland": 1776,
      "Ġger": 1777,
      "Ġtechn": 1778,
      "by": 1779,
      "band": 1780,
      "Ġsoon": 1781,
      "Ġmet": 1782,
      "Ġtre": 1783,
      "ume": 1784,
      "Ġdesc": 1785,
      "Ġrobert": 1786,
      "Ġtheater": 1787,
      "Ġcinematography": 1788,
      "arr": 1789,
      "Ġknown": 1790,
      "Ġcontin": 1791,
      "Ġhappens": 1792,
      "Ġincred": 1793,
      "Ġzomb": 1794,
      "Ġpredict": 1795,
      "bel": 1796,
      "Ġpot": 1797,
      "Ġvict": 1798,
      "Ġextremely": 1799,
      "Ġtoday": 1800,
      "Ġ6": 1801,
      "Ġaff": 1802,
      "key": 1803,
      "Ġvoice": 1804,
      "elling": 1805,
      "Ġoffer": 1806,
      "Ġmajor": 1807,
      "body": 1808,
      "Ġsold": 1809,
      "Ġsister": 1810,
      "Ġtom": 1811,
      "Ġhonest": 1812,
      "Ġtele": 1813,
      "zy": 1814,
      "Ġol": 1815,
      "Ġnorm": 1816,
      "antly": 1817,
      "Ġheard": 1818,
      "Ġteam": 1819,
      "Ġcamp": 1820,
      "Ġreturn": 1821,
      "Ġridiculous": 1822,
      "gy": 1823,
      "res": 1824,
      "Ġbus": 1825,
      "Ġhear": 1826,
      "Ġstep": 1827,
      "Ġconst": 1828,
      "Ġgore": 1829,
      "Ġorder": 1830,
      "Ġstrange": 1831,
      "Ġapparent": 1832,
      "ged": 1833,
      "inion": 1834,
      "Ġdog": 1835,
      "Ġthinking": 1836,
      "ific": 1837,
      "let": 1838,
      "ctor": 1839,
      "usband": 1840,
      "Ġmonster": 1841,
      "Ġfut": 1842,
      "Ġtold": 1843,
      "Ġleave": 1844,
      "oe": 1845,
      "ox": 1846,
      "Ġmill": 1847,
      "Ġfour": 1848,
      "Ġhy": 1849,
      "Ġbrit": 1850,
      "Ġprot": 1851,
      "Ġopinion": 1852,
      "Ġkilled": 1853,
      "day": 1854,
      "Ġfire": 1855,
      "Ġtook": 1856,
      "Ġcoming": 1857,
      "ause": 1858,
      "Ġreality": 1859,
      "Ġreleased": 1860,
      "Ġfemale": 1861,
      "Ġdocumentary": 1862,
      "Ġrating": 1863,
      "Ġexactly": 1864,
      "ino": 1865,
      "Ġnon": 1866,
      "ising": 1867,
      "Ġnear": 1868,
      "Ġod": 1869,
      "Ġcheck": 1870,
      "Ġago": 1871,
      "Ġi": 1872,
      "Ġno": 1873,
      "utter": 1874,
      "Ġbey": 1875,
      "fess": 1876,
      "ival": 1877,
      "Ġdiscover": 1878,
      "Ġelement": 1879,
      "Ġincluding": 1880,
      "Ġcountry": 1881,
      "Ġzombie": 1882,
      "Ġtreat": 1883,
      "Ġhusband": 1884,
      "Ġsum": 1885,
      "Ġpossible": 1886,
      "Ġseriously": 1887,
      "tra": 1888,
      "Ġesc": 1889,
      "rib": 1890,
      "Ġcat": 1891,
      "oul": 1892,
      "antic": 1893,
      "Ġ198": 1894,
      "Ġphot": 1895,
      "Ġswe": 1896,
      "side": 1897,
      "Ġtaking": 1898,
      "Ġbab": 1899,
      "Ġjer": 1900,
      "attle": 1901,
      "Ġcontr": 1902,
      "Ġbeyond": 1903,
      "Ġtaken": 1904,
      "arch": 1905,
      "iving": 1906,
      "Ġforget": 1907,
      "Ġstraight": 1908,
      "ma": 1909,
      "owing": 1910,
      "Ġdest": 1911,
      "Ġroom": 1912,
      "Ġhappened": 1913,
      "Ġwater": 1914,
      "Ġgold": 1915,
      "Ġnone": 1916,
      "Ġkne": 1917,
      "Ġcomic": 1918,
      "ellig": 1919,
      "rench": 1920,
      "Ġcover": 1921,
      "Ġten": 1922,
      "ield": 1923,
      "Ġconvin": 1924,
      "ager": 1925,
      "aged": 1926,
      "Ġcritic": 1927,
      "Ġsym": 1928,
      "Ġparticularly": 1929,
      "Ġmel": 1930,
      "Ġfilmmaker": 1931,
      "Ġvar": 1932,
      "Ġhuge": 1933,
      "Ġhate": 1934,
      "ury": 1935,
      "Ġ197": 1936,
      "Ġsimple": 1937,
      "Ġsimilar": 1938,
      "piece": 1939,
      "Ġer": 1940,
      "iet": 1941,
      "ung": 1942,
      "Ġalone": 1943,
      "Ġscary": 1944,
      "Ġsomewhat": 1945,
      "Ġdeliver": 1946,
      "iety": 1947,
      "oward": 1948,
      "ior": 1949,
      "Ġlaw": 1950,
      "Ġlady": 1951,
      "Ġair": 1952,
      "ove": 1953,
      "Ġliving": 1954,
      "ended": 1955,
      "Ġresult": 1956,
      "Ġsubject": 1957,
      "back": 1958,
      "fil": 1959,
      "amed": 1960,
      "rodu": 1961,
      "ational": 1962,
      "Ġshown": 1963,
      "Ġbasically": 1964,
      "dle": 1965,
      "wise": 1966,
      "Ġha": 1967,
      "itting": 1968,
      "ostly": 1969,
      "Ġsaying": 1970,
      "Ġusual": 1971,
      "Ġtale": 1972,
      "Ġturned": 1973,
      "Ġsurprise": 1974,
      "Ġfigure": 1975,
      "Ġcartoon": 1976,
      "Ġsor": 1977,
      "Ġfast": 1978,
      "there": 1979,
      "Ġosc": 1980,
      "Ġlooked": 1981,
      "Ġavoid": 1982,
      "pical": 1983,
      "vision": 1984,
      "Ġmember": 1985,
      "Ġau": 1986,
      "Ġstri": 1987,
      "Ġshock": 1988,
      "Ġamong": 1989,
      "Ġearth": 1990,
      "Ġbreak": 1991,
      "Ġvillain": 1992,
      "ball": 1993,
      "lin": 1994,
      "we": 1995,
      "Ġwhose": 1996,
      "Ġsingle": 1997,
      "ground": 1998,
      "Ġwestern": 1999,
      "Ġannoying": 2000,
      "ec": 2001,
      "to": 2002,
      "Ġmart": 2003,
      "Ġseason": 2004,
      "Ġvir": 2005,
      "Ġsequel": 2006,
      "Ġrichard": 2007,
      "asc": 2008,
      "Ġdavid": 2009,
      "Ġoscar": 2010,
      "Ġsent": 2011,
      "otic": 2012,
      "Ġintellig": 2013,
      "Ġopening": 2014,
      "Ġband": 2015,
      "iction": 2016,
      "Ġcolor": 2017,
      "br": 2018,
      "Ġmist": 2019,
      "Ġtim": 2020,
      "Ġtrain": 2021,
      "Ġusually": 2022,
      "Ġsecret": 2023,
      "Ġviolence": 2024,
      "Ġodd": 2025,
      "bor": 2026,
      "Ġid": 2027,
      "Ġmostly": 2028,
      "Ġparent": 2029,
      "Ġdam": 2030,
      "Ġvamp": 2031,
      "Ġpos": 2032,
      "Ġquick": 2033,
      "Ġdrug": 2034,
      "Ġcheap": 2035,
      "Ġsubt": 2036,
      "Ġstarted": 2037,
      "Ġentertainment": 2038,
      "Ġdraw": 2039,
      "head": 2040,
      "Ġlou": 2041,
      "ential": 2042,
      "oth": 2043,
      "iment": 2044,
      "Ġanyway": 2045,
      "Ġattack": 2046,
      "Ġsoldier": 2047,
      "enture": 2048,
      "Ġkn": 2049,
      "Ġcla": 2050,
      "Ġspir": 2051,
      "Ġweek": 2052,
      "Ġextra": 2053,
      "Ġrelease": 2054,
      "Ġenglish": 2055,
      "Ġsilly": 2056,
      "iff": 2057,
      "some": 2058,
      "str": 2059,
      "Ġhop": 2060,
      "Ġ.....": 2061,
      "Ġdetail": 2062,
      "Ġdu": 2063,
      "oof": 2064,
      "urt": 2065,
      "Ġaspect": 2066,
      "ĠclichÃ©": 2067,
      "bar": 2068,
      "Ġpub": 2069,
      "Ġlee": 2070,
      "Ġtalking": 2071,
      "Ġask": 2072,
      "Ġpredictable": 2073,
      "Ġ$": 2074,
      "Ġtoward": 2075,
      "orable": 2076,
      "Ġstun": 2077,
      "Ġspend": 2078,
      "illiam": 2079,
      "Ġpleas": 2080,
      "Ġthriller": 2081,
      "Ġjames": 2082,
      "Ġknew": 2083,
      "Ġbattle": 2084,
      "Ġdumb": 2085,
      "Ġstate": 2086,
      "Ġscen": 2087,
      "Ġgrand": 2088,
      "aced": 2089,
      "Ġdoctor": 2090,
      "Ġwalk": 2091,
      "Ġmodern": 2092,
      "Ġmater": 2093,
      "Ġmix": 2094,
      "Ġfear": 2095,
      "Ġequ": 2096,
      "iel": 2097,
      "Ġsuck": 2098,
      "Ġproducer": 2099,
      "Ġpolice": 2100,
      "Ġmessage": 2101,
      "Ġlocal": 2102,
      "eed": 2103,
      "wer": 2104,
      "Ġult": 2105,
      "Ġham": 2106,
      "usion": 2107,
      "Ġsug": 2108,
      "Ġforg": 2109,
      "Ġallow": 2110,
      "film": 2111,
      "lic": 2112,
      "ina": 2113,
      "Ġmer": 2114,
      "Ġfoc": 2115,
      "ously": 2116,
      "issue": 2117,
      "for": 2118,
      "view": 2119,
      "Ġpure": 2120,
      "Ġbill": 2121,
      "Ġking": 2122,
      "Ġexist": 2123,
      "Ġremind": 2124,
      "Ġattention": 2125,
      "Ġapart": 2126,
      "Ġdecided": 2127,
      "Ġenjoyable": 2128,
      "Ġbox": 2129,
      "Ġplease": 2130,
      "Ġdisappointed": 2131,
      "Ġsupporting": 2132,
      "Ġimportant": 2133,
      "ius": 2134,
      "Ġpull": 2135,
      "Ġnarr": 2136,
      "Ġmanage": 2137,
      "ished": 2138,
      "Ġviewing": 2139,
      "Ġbuy": 2140,
      "Ġappears": 2141,
      "db": 2142,
      "de": 2143,
      "rew": 2144,
      "real": 2145,
      "Ġcomb": 2146,
      "Ġbrought": 2147,
      "Ġwhether": 2148,
      "Ġterm": 2149,
      "Ġcry": 2150,
      "oose": 2151,
      "action": 2152,
      "Ġdesign": 2153,
      "Ġtrag": 2154,
      "ension": 2155,
      "Ġmaterial": 2156,
      "path": 2157,
      "Ġinn": 2158,
      "Ġshame": 2159,
      "asy": 2160,
      "Ġshowing": 2161,
      "Ġimage": 2162,
      "Ġvisual": 2163,
      "Ġruss": 2164,
      "Ġmasterpiece": 2165,
      "Ġvampire": 2166,
      "Ġfrench": 2167,
      "lect": 2168,
      "Ġcompl": 2169,
      "Ġproject": 2170,
      "Ġflaw": 2171,
      "Ġcrime": 2172,
      "Ġrespect": 2173,
      "Ġeasy": 2174,
      "light": 2175,
      "Ġsoc": 2176,
      "Ġjud": 2177,
      "ugg": 2178,
      "Ġtruth": 2179,
      "Ġgeorge": 2180,
      "Ġstreet": 2181,
      "track": 2182,
      "bt": 2183,
      "cl": 2184,
      "co": 2185,
      "ram": 2186,
      "Ġmeaning": 2187,
      "Ġ80": 2188,
      "Ġghost": 2189,
      "Ġdie": 2190,
      "Ġprofess": 2191,
      "Ġpost": 2192,
      "Ġhappy": 2193,
      "Ġspoiler": 2194,
      "Ġtelevision": 2195,
      "Ġapparently": 2196,
      "Ġfuture": 2197,
      "ike": 2198,
      "iod": 2199,
      "mosp": 2200,
      "work": 2201,
      "Ġsign": 2202,
      "read": 2203,
      "Ġfell": 2204,
      "ald": 2205,
      "aling": 2206,
      "Ġtar": 2207,
      "Ġtaste": 2208,
      "Ġwilliam": 2209,
      "ula": 2210,
      "Ġjap": 2211,
      "esome": 2212,
      "Ġrunning": 2213,
      "Ġsuperb": 2214,
      "Ġital": 2215,
      "wr": 2216,
      "well": 2217,
      "reci": 2218,
      "Ġlim": 2219,
      "Ġbother": 2220,
      "Ġaver": 2221,
      "emy": 2222,
      "Ġvan": 2223,
      "Ġnote": 2224,
      "Ġbuild": 2225,
      "Ġinsp": 2226,
      "Ġsoundtrack": 2227,
      "Ġdrag": 2228,
      "Ġwait": 2229,
      "Ġgerman": 2230,
      "Ġdance": 2231,
      "ili": 2232,
      "Ġimdb": 2233,
      "Ġaccept": 2234,
      "Ġforce": 2235,
      "Ġclever": 2236,
      "Ġatmosp": 2237,
      "Ġsuggest": 2238,
      "Ġcu": 2239,
      "Ġcan": 2240,
      "Ġgang": 2241,
      "Ġalien": 2242,
      "Ġnearly": 2243,
      "arely": 2244,
      "Ġ20": 2245,
      "Ġweird": 2246,
      "Ġemotional": 2247,
      "Ġbritish": 2248,
      "een": 2249,
      "Ġissue": 2250,
      "Ġfly": 2251,
      "Ġful": 2252,
      "Ġfive": 2253,
      "Ġwear": 2254,
      "Ġperiod": 2255,
      "Ġprevious": 2256,
      "Ġgeneral": 2257,
      "Ġcatch": 2258,
      "orth": 2259,
      "Ġben": 2260,
      "Ġdull": 2261,
      "Ġna": 2262,
      "ett": 2263,
      "ffic": 2264,
      "Ġ199": 2265,
      "Ġtried": 2266,
      "Ġeasily": 2267,
      "Ġromantic": 2268,
      "Ġve": 2269,
      "Ġadult": 2270,
      "Ġadapt": 2271,
      "Ġfront": 2272,
      "Ġupon": 2273,
      "Ġill": 2274,
      "Ġlo": 2275,
      "Ġwind": 2276,
      "Ġdue": 2277,
      "ceed": 2278,
      "Ġjoe": 2279,
      "lier": 2280,
      "Ġclear": 2281,
      "su": 2282,
      "inc": 2283,
      "Ġcir": 2284,
      "Ġwild": 2285,
      "ital": 2286,
      "atest": 2287,
      "Ġwithin": 2288,
      "Ġsexual": 2289,
      "Ġexplain": 2290,
      "Ġmystery": 2291,
      "fer": 2292,
      "gth": 2293,
      "Ġdown": 2294,
      "Ġfantastic": 2295,
      "Ġfilmed": 2296,
      "Ġtrou": 2297,
      "aving": 2298,
      "Ġcrew": 2299,
      "Ġparticular": 2300,
      "Ġgreatest": 2301,
      "Ġpremise": 2302,
      "row": 2303,
      "onic": 2304,
      "Ġpri": 2305,
      "Ġpath": 2306,
      "Ġwill": 2307,
      "omin": 2308,
      "Ġrad": 2309,
      "aster": 2310,
      "Ġprof": 2311,
      "Ġsurv": 2312,
      "Ġisland": 2313,
      "Ġbaby": 2314,
      "ky": 2315,
      "ser": 2316,
      "Ġfred": 2317,
      "Ġediting": 2318,
      "bert": 2319,
      "watch": 2320,
      "Ġver": 2321,
      "Ġmil": 2322,
      "Ġaust": 2323,
      "Ġhom": 2324,
      "Ġjul": 2325,
      "Ġjust": 2326,
      "Ġactual": 2327,
      "atever": 2328,
      "ague": 2329,
      "Ġkilling": 2330,
      "Ġclearly": 2331,
      "Ġearlier": 2332,
      "Ġsorry": 2333,
      "Ġcirc": 2334,
      "go": 2335,
      "ins": 2336,
      "Ġsun": 2337,
      "Ġreve": 2338,
      "Ġmoving": 2339,
      "Ġplain": 2340,
      "Ġslight": 2341,
      "anged": 2342,
      "Ġsurprised": 2343,
      "rated": 2344,
      "uel": 2345,
      "ening": 2346,
      "Ġgone": 2347,
      "olf": 2348,
      "Ġplenty": 2349,
      "ogn": 2350,
      "Ġsetting": 2351,
      "Ġeffective": 2352,
      "Ġappreci": 2353,
      "Ġreading": 2354,
      "Ġmot": 2355,
      "Ġfit": 2356,
      "Ġinterested": 2357,
      "Ġindeed": 2358,
      "Ġexpress": 2359,
      "Ġrefer": 2360,
      "Ġstudio": 2361,
      "Ġauth": 2362,
      "Ġultim": 2363,
      "Ġaverage": 2364,
      "ze": 2365,
      "Ġburn": 2366,
      "Ġnatur": 2367,
      "Ġkept": 2368,
      "Ġsomehow": 2369,
      "Ġpoorly": 2370,
      "Ġeventually": 2371,
      "Ġspirit": 2372,
      "Ġbur": 2373,
      "Ġhair": 2374,
      "Ġren": 2375,
      "oty": 2376,
      "Ġflash": 2377,
      "Ġtrail": 2378,
      "ubb": 2379,
      "Ġcopy": 2380,
      "Ġdoubt": 2381,
      "Ġmiddle": 2382,
      "Ġsweet": 2383,
      "Ġutter": 2384,
      "Ġcap": 2385,
      "Ġeur": 2386,
      "itical": 2387,
      "opp": 2388,
      "ander": 2389,
      "Ġtrack": 2390,
      "Ġusing": 2391,
      "Ġmemorable": 2392,
      "came": 2393,
      "Ġfree": 2394,
      "Ġwast": 2395,
      "Ġwhatever": 2396,
      "Ġfamous": 2397,
      "Ġstandard": 2398,
      "Ġfantasy": 2399,
      "Ġsleep": 2400,
      "Ġcause": 2401,
      "Ġbut": 2402,
      "Ġstere": 2403,
      "Ġthird": 2404,
      "vest": 2405,
      "Ġless": 2406,
      "cious": 2407,
      "Ġweak": 2408,
      "Ġdramatic": 2409,
      "Ġanimal": 2410,
      "Ġanimation": 2411,
      "Ġpeter": 2412,
      "Ġwit": 2413,
      "Ġstage": 2414,
      "Ġsuffer": 2415,
      "Ġleaf": 2416,
      "Ġappro": 2417,
      "ibility": 2418,
      "Ġadventure": 2419,
      "Ġbrain": 2420,
      "Ġvictim": 2421,
      "ially": 2422,
      "know": 2423,
      "Ġlame": 2424,
      "Ġgiving": 2425,
      "Ġunlike": 2426,
      "Ġbackground": 2427,
      "Ġforced": 2428,
      "Ġcreep": 2429,
      "Ġtypical": 2430,
      "Ġotherwise": 2431,
      "Ġsociety": 2432,
      "dden": 2433,
      "first": 2434,
      "time": 2435,
      "Ġmale": 2436,
      "Ġlu": 2437,
      "Ġstudent": 2438,
      "bl": 2439,
      "ging": 2440,
      "Ġfasc": 2441,
      "Ġsci": 2442,
      "Ġfunn": 2443,
      "Ġremake": 2444,
      "Ġintrodu": 2445,
      "ology": 2446,
      "Ġfootage": 2447,
      "ee": 2448,
      "ess": 2449,
      "par": 2450,
      "ats": 2451,
      "esy": 2452,
      "Ġstoryline": 2453,
      "agon": 2454,
      "Ġbelievable": 2455,
      "Ġrecogn": 2456,
      "Ġunique": 2457,
      "rit": 2458,
      "rop": 2459,
      "Ġmedi": 2460,
      "Ġfle": 2461,
      "Ġbat": 2462,
      "Ġnature": 2463,
      "Ġsudden": 2464,
      "Ġworking": 2465,
      "Ġteach": 2466,
      "Ġneeded": 2467,
      "Ġrevol": 2468,
      "Ġamerica": 2469,
      "annel": 2470,
      "Ġescape": 2471,
      "Ġstereoty": 2472,
      "fi": 2473,
      "Ġmc": 2474,
      "Ġmat": 2475,
      "Ġpu": 2476,
      "Ġlang": 2477,
      "Ġliter": 2478,
      "Ġrepe": 2479,
      "Ġroll": 2480,
      "und": 2481,
      "Ġchannel": 2482,
      "Ġjump": 2483,
      "Ġmass": 2484,
      "Ġspeak": 2485,
      "Ġdevelopment": 2486,
      "Ġlarge": 2487,
      "Ġatmosphere": 2488,
      "ding": 2489,
      "oor": 2490,
      "Ġbunch": 2491,
      "Ġstat": 2492,
      "Ġarm": 2493,
      "Ġwrite": 2494,
      "Ġforward": 2495,
      "Ġexpected": 2496,
      "Ġimagine": 2497,
      "ned": 2498,
      "Ġcal": 2499,
      "edic": 2500,
      "Ġdisney": 2501,
      "Ġamount": 2502,
      "Ġaccent": 2503,
      "Ġpossibly": 2504,
      "Ġtheat": 2505,
      "Ġbusiness": 2506,
      "Ġconvincing": 2507,
      "Ġpal": 2508,
      "illy": 2509,
      "Ġthere": 2510,
      "Ġjim": 2511,
      "Ġbecame": 2512,
      "tern": 2513,
      "ived": 2514,
      "Ġresp": 2515,
      "Ġmissing": 2516,
      "Ġfairly": 2517,
      "cast": 2518,
      "look": 2519,
      "por": 2520,
      "Ġpark": 2521,
      "Ġden": 2522,
      "Ġnow": 2523,
      "Ġans": 2524,
      "Ġconne": 2525,
      "Ġconcept": 2526,
      "berg": 2527,
      "Ġcarry": 2528,
      "anese": 2529,
      "Ġbeauty": 2530,
      "Ġromance": 2531,
      "Ġregard": 2532,
      "Ġmemory": 2533,
      "Ġidi": 2534,
      "die": 2535,
      "Ġign": 2536,
      "Ġsick": 2537,
      "itation": 2538,
      "Ġnamed": 2539,
      "Ġdirecting": 2540,
      "Ġworked": 2541,
      "Ġgenius": 2542,
      "Ġfran": 2543,
      "Ġinside": 2544,
      "Ġcostume": 2545,
      "mas": 2546,
      "Ġsoul": 2547,
      "olk": 2548,
      "Ġ193": 2549,
      "Ġpowerful": 2550,
      "Ġtowards": 2551,
      "na": 2552,
      "of": 2553,
      "Ġfat": 2554,
      "Ġwall": 2555,
      "Ġgay": 2556,
      "Ġstick": 2557,
      "Ġstore": 2558,
      "ette": 2559,
      "Ġkick": 2560,
      "Ġdiffic": 2561,
      "Ġclim": 2562,
      "Ġblue": 2563,
      "Ġrealistic": 2564,
      "Ġanswer": 2565,
      "Ġdifficult": 2566,
      "rent": 2567,
      "Ġunless": 2568,
      "Ġtrad": 2569,
      "ivid": 2570,
      "Ġ196": 2571,
      "Ġscreenplay": 2572,
      "Ġlegend": 2573,
      "Ġsens": 2574,
      "Ġcold": 2575,
      "Ġporn": 2576,
      "Ġda": 2577,
      "Ġdress": 2578,
      "Ġhen": 2579,
      "Ġshe": 2580,
      "Ġstrugg": 2581,
      "Ġangel": 2582,
      "Ġoccas": 2583,
      "rific": 2584,
      "Ġpublic": 2585,
      "lu": 2586,
      "Ġcute": 2587,
      "Ġtone": 2588,
      "ille": 2589,
      "Ġrand": 2590,
      "Ġchoice": 2591,
      "asher": 2592,
      "Ġ194": 2593,
      "Ġcrazy": 2594,
      "Ġcommon": 2595,
      "Ġperfectly": 2596,
      "Ġdisturb": 2597,
      "Ġcontinu": 2598,
      "belie": 2599,
      "Ġreveal": 2600,
      "Ġbed": 2601,
      "Ġyork": 2602,
      "aked": 2603,
      "comp": 2604,
      "Ġtrash": 2605,
      "Ġgirlfriend": 2606,
      "Ġexpecting": 2607,
      "Ġcommun": 2608,
      "Ġportrayal": 2609,
      "Ġafric": 2610,
      "Ġ70": 2611,
      "Ġdemon": 2612,
      "Ġpositive": 2613,
      "Ġfocus": 2614,
      "iliar": 2615,
      "Ġsal": 2616,
      "Ġsand": 2617,
      "Ġmir": 2618,
      "Ġpen": 2619,
      "Ġlie": 2620,
      "its": 2621,
      "Ġ100": 2622,
      "Ġfaith": 2623,
      "acing": 2624,
      "Ġpointless": 2625,
      "Ġartist": 2626,
      "Ġmissed": 2627,
      "Ġlocation": 2628,
      "Ġapproach": 2629,
      "boy": 2630,
      "Ġident": 2631,
      "Ġcross": 2632,
      "Ġdanger": 2633,
      "Ġrate": 2634,
      "idden": 2635,
      "Ġbeat": 2636,
      "Ġbadly": 2637,
      "Ġ195": 2638,
      "Ġdepth": 2639,
      "Ġdoor": 2640,
      "iny": 2641,
      "inary": 2642,
      "Ġjour": 2643,
      "Ġmaker": 2644,
      "Ġclos": 2645,
      "Ġmillion": 2646,
      "Ġmistake": 2647,
      "Ġquickly": 2648,
      "hood": 2649,
      "Ġx": 2650,
      "Ġring": 2651,
      "rass": 2652,
      "ending": 2653,
      "Ġplus": 2654,
      "Ġroad": 2655,
      "Ġparty": 2656,
      "Ġrecord": 2657,
      "Ġitalian": 2658,
      "saw": 2659,
      "Ġ#": 2660,
      "Ġsouth": 2661,
      "Ġber": 2662,
      "Ġbreat": 2663,
      "eth": 2664,
      "Ġinform": 2665,
      "rage": 2666,
      "ounter": 2667,
      "Ġdied": 2668,
      "venge": 2669,
      "Ġrealize": 2670,
      "Ġleading": 2671,
      "Ġsocial": 2672,
      "Ġtalented": 2673,
      "Ġdeserves": 2674,
      "Ġpotential": 2675,
      "'s": 2676,
      "gi": 2677,
      "Ġsix": 2678,
      "Ġfest": 2679,
      "Ġrequ": 2680,
      "Ġmanner": 2681,
      "Ġslasher": 2682,
      "Ġcheesy": 2683,
      "Ġlaughing": 2684,
      "Ġphil": 2685,
      "Ġhistor": 2686,
      "Ġmentioned": 2687,
      "Ġsuccessful": 2688,
      "resent": 2689,
      "Ġmatch": 2690,
      "inger": 2691,
      "Ġtort": 2692,
      "Ġlog": 2693,
      "Ġbiz": 2694,
      "Ġchick": 2695,
      "sem": 2696,
      "rian": 2697,
      "Ġexec": 2698,
      "Ġ15": 2699,
      "Ġlover": 2700,
      "Ġaward": 2701,
      "Ġphys": 2702,
      "Ġpersonal": 2703,
      "while": 2704,
      "Ġcreature": 2705,
      "Ġfails": 2706,
      "Ġsympath": 2707,
      "Ġjapanese": 2708,
      "gress": 2709,
      "yl": 2710,
      "rest": 2711,
      "ste": 2712,
      "isf": 2713,
      "Ġenc": 2714,
      "standing": 2715,
      "Ġportrayed": 2716,
      "Ġdancing": 2717,
      "oke": 2718,
      "Ġera": 2719,
      "Ġtest": 2720,
      "Ġtony": 2721,
      "Ġlen": 2722,
      "Ġhall": 2723,
      "imp": 2724,
      "ones": 2725,
      "Ġacted": 2726,
      "Ġneg": 2727,
      "Ġuns": 2728,
      "aine": 2729,
      "Ġflat": 2730,
      "lessly": 2731,
      "Ġcompar": 2732,
      "cessary": 2733,
      "Ġtrouble": 2734,
      "di": 2735,
      "gan": 2736,
      "more": 2737,
      "yan": 2738,
      "Ġmere": 2739,
      "arre": 2740,
      "Ġast": 2741,
      "Ġess": 2742,
      "chie": 2743,
      "urch": 2744,
      "Ġscare": 2745,
      "Ġscream": 2746,
      "Ġmeant": 2747,
      "Ġhardly": 2748,
      "Ġrecently": 2749,
      "Ġindian": 2750,
      "Ġcreate": 2751,
      "Ġfollowing": 2752,
      "Ġchristian": 2753,
      "Ġdrive": 2754,
      "Ġplanet": 2755,
      "Ġcontrol": 2756,
      "Ġadaptation": 2757,
      "inating": 2758,
      "Ġmood": 2759,
      "Ġcoll": 2760,
      "Ġlos": 2761,
      "Ġdin": 2762,
      "Ġgreen": 2763,
      "Ġhitch": 2764,
      "Ġchase": 2765,
      "Ġmach": 2766,
      "ends": 2767,
      "Ġunbelie": 2768,
      "Ġplayer": 2769,
      "Ġtravel": 2770,
      "Ġcasting": 2771,
      "Ġthrow": 2772,
      "Ġtotal": 2773,
      "Ġoffic": 2774,
      "Ġfighting": 2775,
      "Ġbrings": 2776,
      "Ġimpressive": 2777,
      "Ġokay": 2778,
      "Ġnormal": 2779,
      "Ġvarious": 2780,
      "Ġlangu": 2781,
      "``": 2782,
      "pose": 2783,
      "Ġbored": 2784,
      "Ġscar": 2785,
      "Ġscott": 2786,
      "ella": 2787,
      "roy": 2788,
      "Ġye": 2789,
      "Ġended": 2790,
      "ization": 2791,
      "Ġintri": 2792,
      "Ġappearance": 2793,
      "Ġbroad": 2794,
      "Ġsubtle": 2795,
      "Ġwasted": 2796,
      "Ġine": 2797,
      "irty": 2798,
      "Ġjane": 2799,
      "allen": 2800,
      "Ġamusing": 2801,
      "Ġground": 2802,
      "Ġattract": 2803,
      "Ġexciting": 2804,
      "Ġ30": 2805,
      "Ġdepict": 2806,
      "bage": 2807,
      "Ġon": 2808,
      "Ġcell": 2809,
      "Ġfake": 2810,
      "Ġbrut": 2811,
      "Ġdesper": 2812,
      "Ġimpr": 2813,
      "Ġrelig": 2814,
      "Ġoutside": 2815,
      "Ġdelight": 2816,
      "Ġavail": 2817,
      "Ġincredible": 2818,
      "Ġclaim": 2819,
      "Ġment": 2820,
      "Ġpan": 2821,
      "Ġdad": 2822,
      "Ġram": 2823,
      "Ġsearch": 2824,
      "idence": 2825,
      "itty": 2826,
      "Ġnotice": 2827,
      "Ġcontri": 2828,
      "Ġtrip": 2829,
      "Ġsinging": 2830,
      "Ġcreated": 2831,
      "Ġentirely": 2832,
      "rupt": 2833,
      "Ġsolid": 2834,
      "Ġfolk": 2835,
      "Ġlose": 2836,
      "Ġbal": 2837,
      "stance": 2838,
      "Ġdon": 2839,
      "Ġdoll": 2840,
      "itude": 2841,
      "Ġrevenge": 2842,
      "Ġheav": 2843,
      "Ġembar": 2844,
      "Ġcompared": 2845,
      "Ġfamiliar": 2846,
      "Ġterror": 2847,
      "Ġexplo": 2848,
      "Ġtelling": 2849,
      "Ġchristmas": 2850,
      "Ġ90": 2851,
      "Ġimmedi": 2852,
      "Ġjerry": 2853,
      "Ġeurope": 2854,
      "ift": 2855,
      "lie": 2856,
      "spe": 2857,
      "Ġsqu": 2858,
      "Ġfox": 2859,
      "ishing": 2860,
      "Ġray": 2861,
      "Ġspent": 2862,
      "aging": 2863,
      "Ġkey": 2864,
      "Ġagree": 2865,
      "Ġadded": 2866,
      "direct": 2867,
      "Ġtun": 2868,
      "Ġtough": 2869,
      "Ġdar": 2870,
      "Ġchurch": 2871,
      "urd": 2872,
      "aint": 2873,
      "Ġspl": 2874,
      "Ġprison": 2875,
      "anging": 2876,
      "Ġsmart": 2877,
      "Ġbelief": 2878,
      "Ġpopular": 2879,
      "Ġpurpose": 2880,
      "Ġintelligent": 2881,
      "Ġlanguage": 2882,
      "Ġgri": 2883,
      "Ġrip": 2884,
      "ender": 2885,
      "Ġprin": 2886,
      "Ġawesome": 2887,
      "Ġyounger": 2888,
      "Ġgiant": 2889,
      "Ġthanks": 2890,
      "Ġolder": 2891,
      "Ġmanages": 2892,
      "Ġaustral": 2893,
      "Ġtrailer": 2894,
      "Ġembarrass": 2895,
      "not": 2896,
      "ining": 2897,
      "Ġspect": 2898,
      "ana": 2899,
      "Ġkar": 2900,
      "ensive": 2901,
      "ashion": 2902,
      "Ġfinish": 2903,
      "Ġrecommended": 2904,
      "Ġcentury": 2905,
      "Ġgarbage": 2906,
      "agonist": 2907,
      "Ġbizarre": 2908,
      "lict": 2909,
      "war": 2910,
      "Ġball": 2911,
      "Ġgem": 2912,
      "Ġreach": 2913,
      "Ġleaving": 2914,
      "Ġcharm": 2915,
      "Ġcharles": 2916,
      "Ġspot": 2917,
      "Ġdisplay": 2918,
      "come": 2919,
      "Ġintern": 2920,
      "Ġenter": 2921,
      "Ġremark": 2922,
      "Ġoffice": 2923,
      "Ġanti": 2924,
      "Ġadmit": 2925,
      "Ġincredibly": 2926,
      "bud": 2927,
      "Ġown": 2928,
      "Ġpack": 2929,
      "Ġluck": 2930,
      "Ġbott": 2931,
      "oved": 2932,
      "Ġchallen": 2933,
      "Ġunin": 2934,
      "ective": 2935,
      "Ġimposs": 2936,
      "Ġbug": 2937,
      "Ġdeli": 2938,
      "Ġbuddy": 2939,
      "otten": 2940,
      "Ġfollows": 2941,
      "Ġteenager": 2942,
      "Ġinnoc": 2943,
      "Ġslightly": 2944,
      "ai": 2945,
      "bit": 2946,
      "gen": 2947,
      "uss": 2948,
      "Ġgag": 2949,
      "unt": 2950,
      "Ġconv": 2951,
      "udity": 2952,
      "izing": 2953,
      "Ġhumour": 2954,
      "Ġepic": 2955,
      "Ġconsist": 2956,
      "Ġreviewer": 2957,
      "Ġpolitical": 2958,
      "Ġcreative": 2959,
      "Ġrepresent": 2960,
      "Ġculture": 2961,
      "Ġauthor": 2962,
      "known": 2963,
      "Ġtradition": 2964,
      "fore": 2965,
      "wart": 2966,
      "Ġfal": 2967,
      "Ġwitch": 2968,
      "Ġbi": 2969,
      "elly": 2970,
      "Ġchanged": 2971,
      "sequ": 2972,
      "Ġshake": 2973,
      "asure": 2974,
      "room": 2975,
      "ained": 2976,
      "Ġwrote": 2977,
      "Ġdecide": 2978,
      "Ġbasic": 2979,
      "Ġcollege": 2980,
      "Ġcreepy": 2981,
      "zz": 2982,
      "Ġsar": 2983,
      "Ġmotion": 2984,
      "oud": 2985,
      "isingly": 2986,
      "che": 2987,
      "Ġrare": 2988,
      "iring": 2989,
      "Ġju": 2990,
      "Ġscience": 2991,
      "aper": 2992,
      "istry": 2993,
      "Ġbrief": 2994,
      "ify": 2995,
      "Ġmarried": 2996,
      "Ġrecent": 2997,
      "Ġskill": 2998,
      "Ġexception": 2999,
      "Ġopportun": 3000,
      "la": 3001,
      "ero": 3002,
      "Ġmi": 3003,
      "arily": 3004,
      "Ġachie": 3005,
      "ceived": 3006,
      "Ġran": 3007,
      "Ġrap": 3008,
      "Ġfilled": 3009,
      "oop": 3010,
      "Ġchem": 3011,
      "Ġinvest": 3012,
      "Ġsuit": 3013,
      "Ġdrink": 3014,
      "ified": 3015,
      "Ġdecides": 3016,
      "Ġproduced": 3017,
      "board": 3018,
      "oh": 3019,
      "set": 3020,
      "uce": 3021,
      "ura": 3022,
      "Ġtension": 3023,
      "Ġhole": 3024,
      "Ġthor": 3025,
      "Ġscient": 3026,
      "ester": 3027,
      "Ġarmy": 3028,
      "Ġsomewhere": 3029,
      "Ġbiggest": 3030,
      "Ġcompany": 3031,
      "Ġlonger": 3032,
      "Ġfailed": 3033,
      "Ġsnake": 3034,
      "con": 3035,
      "ga": 3036,
      "gment": 3037,
      "round": 3038,
      "Ġcard": 3039,
      "Ġtear": 3040,
      "Ġhill": 3041,
      "Ġnudity": 3042,
      "icide": 3043,
      "cher": 3044,
      "Ġride": 3045,
      "ask": 3046,
      "pped": 3047,
      "itted": 3048,
      "Ġminor": 3049,
      "Ġability": 3050,
      "Ġcompet": 3051,
      "Ġaside": 3052,
      "Ġglad": 3053,
      "Ġsadly": 3054,
      "Ġconsidering": 3055,
      "Ġconsidered": 3056,
      "Ġpainful": 3057,
      "Ġgrace": 3058,
      "Ġconcern": 3059,
      "Ġpassion": 3060,
      "Ġbreath": 3061,
      "Ġopportunity": 3062,
      "eem": 3063,
      "Ġsitting": 3064,
      "Ġmal": 3065,
      "Ġted": 3066,
      "Ġbase": 3067,
      "Ġest": 3068,
      "Ġrepl": 3069,
      "isc": 3070,
      "unny": 3071,
      "olly": 3072,
      "rap": 3073,
      "Ġdig": 3074,
      "Ġunex": 3075,
      "Ġgrow": 3076,
      "Ġdrunk": 3077,
      "Ġexpectation": 3078,
      "Ġsteve": 3079,
      "Ġ50": 3080,
      "Ġmagn": 3081,
      "Ġnarrative": 3082,
      "Ġavailable": 3083,
      "bre": 3084,
      "uine": 3085,
      "Ġbul": 3086,
      "Ġdy": 3087,
      "Ġgover": 3088,
      "Ġhack": 3089,
      "Ġhost": 3090,
      "Ġalex": 3091,
      "uted": 3092,
      "Ġbear": 3093,
      "Ġneigh": 3094,
      "Ġsport": 3095,
      "Ġarg": 3096,
      "Ġpersonality": 3097,
      "Ġappeal": 3098,
      "Ġfavour": 3099,
      "Ġformer": 3100,
      "Ġinvolving": 3101,
      "Ġsilent": 3102,
      "Ġoccur": 3103,
      "Ġcuri": 3104,
      "Ġappreciate": 3105,
      "Ġstruggle": 3106,
      "budget": 3107,
      "ele": 3108,
      "making": 3109,
      "uct": 3110,
      "Ġbarely": 3111,
      "Ġhurt": 3112,
      "iced": 3113,
      "uring": 3114,
      "Ġplane": 3115,
      "appe": 3116,
      "....": 3117,
      "Ġener": 3118,
      "Ġinterview": 3119,
      "Ġslap": 3120,
      "acy": 3121,
      "Ġsexy": 3122,
      "Ġdifference": 3123,
      "Ġbeautifully": 3124,
      "Ġimpression": 3125,
      "Ġunivers": 3126,
      "Ġhonestly": 3127,
      "Ġtragedy": 3128,
      "Ġnatural": 3129,
      "Ġjourney": 3130,
      "Ġfestival": 3131,
      "Ġyeah": 3132,
      "Ġimmediately": 3133,
      "Ġimpossible": 3134,
      "gl": 3135,
      "ique": 3136,
      "mar": 3137,
      "Ġmine": 3138,
      "ened": 3139,
      "oned": 3140,
      "Ġpace": 3141,
      "Ġlyn": 3142,
      "Ġare": 3143,
      "Ġnob": 3144,
      "riage": 3145,
      "endent": 3146,
      "ateur": 3147,
      "ppet": 3148,
      "Ġdesert": 3149,
      "Ġgenuine": 3150,
      "Ġagent": 3151,
      "Ġabsurd": 3152,
      "Ġsatisf": 3153,
      "Ġcapture": 3154,
      "Ġchemistry": 3155,
      "do": 3156,
      "face": 3157,
      "rick": 3158,
      "erous": 3159,
      "Ġmult": 3160,
      "Ġfiction": 3161,
      "Ġfashion": 3162,
      "Ġpas": 3163,
      "Ġbomb": 3164,
      "Ġahead": 3165,
      "Ġship": 3166,
      "Ġles": 3167,
      "Ġmanaged": 3168,
      "Ġamateur": 3169,
      "izes": 3170,
      "Ġremains": 3171,
      "ondon": 3172,
      "Ġphone": 3173,
      "Ġindivid": 3174,
      "Ġcinematic": 3175,
      "Ġjean": 3176,
      "Ġgenerally": 3177,
      "Ġdouble": 3178,
      "Ġslowly": 3179,
      "ribly": 3180,
      "Ġreference": 3181,
      "Ġnowhere": 3182,
      "Ġdisturbing": 3183,
      "Ġindividual": 3184,
      "aff": 3185,
      "rey": 3186,
      "Ġpet": 3187,
      "Ġlone": 3188,
      "sess": 3189,
      "Ġindu": 3190,
      "Ġsher": 3191,
      "anda": 3192,
      "Ġdiv": 3193,
      "Ġcomplex": 3194,
      "Ġmonth": 3195,
      "Ġelect": 3196,
      "Ġviolent": 3197,
      "Ġphotography": 3198,
      "Ġscenery": 3199,
      "aur": 3200,
      "lusion": 3201,
      "Ġcaught": 3202,
      "Ġlab": 3203,
      "star": 3204,
      "under": 3205,
      "Ġshar": 3206,
      "Ġlikely": 3207,
      "Ġcond": 3208,
      "Ġeverybody": 3209,
      "pected": 3210,
      "Ġintended": 3211,
      "Ġstarring": 3212,
      "Ġinsult": 3213,
      "Ġoutstanding": 3214,
      "Ġrandom": 3215,
      "aven": 3216,
      "spect": 3217,
      "Ġcgi": 3218,
      "aly": 3219,
      "alth": 3220,
      "Ġbond": 3221,
      "Ġdim": 3222,
      "Ġdate": 3223,
      "Ġeast": 3224,
      "Ġrain": 3225,
      "Ġchris": 3226,
      "Ġlived": 3227,
      "ppy": 3228,
      "Ġpresented": 3229,
      "Ġ60": 3230,
      "Ġprotagonist": 3231,
      "Ġstunning": 3232,
      "Ġbuilding": 3233,
      "Ġfully": 3234,
      "Ġfunniest": 3235,
      "Ġoccasion": 3236,
      "Ġgovern": 3237,
      "cock": 3238,
      "fort": 3239,
      "mm": 3240,
      "pret": 3241,
      "Ġfu": 3242,
      "Ġlondon": 3243,
      "Ġbon": 3244,
      "icious": 3245,
      "elle": 3246,
      "Ġalive": 3247,
      "Ġshare": 3248,
      "Ġneither": 3249,
      "Ġgrant": 3250,
      "Ġintention": 3251,
      "Ġsurround": 3252,
      "Ġdecade": 3253,
      "Ġedge": 3254,
      "Ġindep": 3255,
      "Ġcourt": 3256,
      "Ġexplan": 3257,
      "Ġboyfriend": 3258,
      "Ġsurprisingly": 3259,
      "Ġanimated": 3260,
      "Ġjew": 3261,
      "Ġwaiting": 3262,
      "ological": 3263,
      "Ġproper": 3264,
      "Ġflashback": 3265,
      "fr": 3266,
      "gly": 3267,
      "ki": 3268,
      "zen": 3269,
      "rel": 3270,
      "Ġbos": 3271,
      "Ġdick": 3272,
      "itor": 3273,
      "Ġstock": 3274,
      "Ġryan": 3275,
      "iday": 3276,
      "Ġshall": 3277,
      "ability": 3278,
      "Ġprim": 3279,
      "Ġhey": 3280,
      "Ġarri": 3281,
      "Ġremote": 3282,
      "Ġsmith": 3283,
      "Ġaccident": 3284,
      "onto": 3285,
      "gram": 3286,
      "Ġvision": 3287,
      "Ġredeem": 3288,
      "Ġirrit": 3289,
      "Ġcenter": 3290,
      "Ġtouching": 3291,
      "Ġii": 3292,
      "Ġprofessional": 3293,
      "Ġultimately": 3294,
      "Ġfascinating": 3295,
      "Ġsuddenly": 3296,
      "Ġunbelievable": 3297,
      "fic": 3298,
      "just": 3299,
      "Ġsell": 3300,
      "Ġfield": 3301,
      "Ġtem": 3302,
      "Ġbull": 3303,
      "ilt": 3304,
      "ively": 3305,
      "oughly": 3306,
      "Ġserv": 3307,
      "Ġcrow": 3308,
      "Ġcontains": 3309,
      "Ġcompare": 3310,
      "Ġobsess": 3311,
      "Ġboard": 3312,
      "Ġwalking": 3313,
      "Ġcentral": 3314,
      "Ġshooting": 3315,
      "Ġsummer": 3316,
      "Ġvirt": 3317,
      "bu": 3318,
      "gory": 3319,
      "uit": 3320,
      "Ġ%": 3321,
      "Ġpract": 3322,
      "orter": 3323,
      "Ġbob": 3324,
      "stem": 3325,
      "Ġhook": 3326,
      "irth": 3327,
      "Ġjon": 3328,
      "ashing": 3329,
      "Ġbes": 3330,
      "ource": 3331,
      "Ġimpl": 3332,
      "life": 3333,
      "Ġexcuse": 3334,
      "Ġlaughable": 3335,
      "Ġconflict": 3336,
      "Ġliterally": 3337,
      "director": 3338,
      "Ġdelivers": 3339,
      "Ġnobody": 3340,
      "Ġexplanation": 3341,
      "sen": 3342,
      "val": 3343,
      "ercial": 3344,
      "Ġmouth": 3345,
      "Ġpun": 3346,
      "Ġlord": 3347,
      "Ġlatter": 3348,
      "Ġnaked": 3349,
      "adow": 3350,
      "Ġthus": 3351,
      "vert": 3352,
      "Ġinit": 3353,
      "ther": 3354,
      "Ġremain": 3355,
      "Ġaddition": 3356,
      "Ġstewart": 3357,
      "Ġpresence": 3358,
      "Ġmoral": 3359,
      "Ġhotel": 3360,
      "Ġuncle": 3361,
      "'m": 3362,
      "gin": 3363,
      "rad": 3364,
      "Ġcand": 3365,
      "Ġfool": 3366,
      "Ġhaw": 3367,
      "ica": 3368,
      "icle": 3369,
      "Ġreaction": 3370,
      "uter": 3371,
      "Ġprogress": 3372,
      "plot": 3373,
      "Ġsteal": 3374,
      "Ġwooden": 3375,
      "writer": 3376,
      "Ġintrigu": 3377,
      "hen": 3378,
      "med": 3379,
      "ped": 3380,
      "ron": 3381,
      "with": 3382,
      "Ġtor": 3383,
      "Ġloose": 3384,
      "Ġwide": 3385,
      "Ġble": 3386,
      "stick": 3387,
      "Ġthreat": 3388,
      "Ġjones": 3389,
      "Ġadam": 3390,
      "Ġdisg": 3391,
      "Ġseemingly": 3392,
      "Ġlovely": 3393,
      "Ġterrific": 3394,
      "Ġmarriage": 3395,
      "Ġorigin": 3396,
      "Ġsurely": 3397,
      "Ġdepress": 3398,
      "Ġsinger": 3399,
      "Ġpathetic": 3400,
      "Ġradio": 3401,
      "Ġlesson": 3402,
      "Ġwitness": 3403,
      "Ġrespons": 3404,
      "Ġnegative": 3405,
      "Ġspectac": 3406,
      "ech": 3407,
      "ken": 3408,
      "kable": 3409,
      "erm": 3410,
      "Ġwel": 3411,
      "Ġwise": 3412,
      "ato": 3413,
      "Ġhidden": 3414,
      "Ġstuck": 3415,
      "oted": 3416,
      "olic": 3417,
      "vey": 3418,
      "Ġshowed": 3419,
      "Ġbruce": 3420,
      "Ġwhat": 3421,
      "Ġugly": 3422,
      "Ġtwenty": 3423,
      "rend": 3424,
      "Ġsystem": 3425,
      "Ġdisappointment": 3426,
      "Ġsucceed": 3427,
      "Ġinflu": 3428,
      "Ġmysterious": 3429,
      "Ġrussian": 3430,
      "Ġmedioc": 3431,
      "Ġteacher": 3432,
      "Ġstereotype": 3433,
      "Ġgovernment": 3434,
      "good": 3435,
      "oking": 3436,
      "uous": 3437,
      "year": 3438,
      "Ġsnow": 3439,
      "Ġcro": 3440,
      "Ġgorge": 3441,
      "Ġner": 3442,
      "Ġstation": 3443,
      "iding": 3444,
      "irt": 3445,
      "rog": 3446,
      "Ġsuicide": 3447,
      "Ġtrick": 3448,
      "Ġwatchable": 3449,
      "Ġprogram": 3450,
      "Ġ18": 3451,
      "Ġcloth": 3452,
      "Ġblow": 3453,
      "Ġacad": 3454,
      "Ġcrim": 3455,
      "Ġimpact": 3456,
      "Ġcorrect": 3457,
      "Ġdanny": 3458,
      "Ġangle": 3459,
      "ushed": 3460,
      "Ġaffect": 3461,
      "Ġaffair": 3462,
      "Ġmartial": 3463,
      "Ġequally": 3464,
      "Ġhitchcock": 3465,
      "Ġmachine": 3466,
      "Ġfavourite": 3467,
      "Ġenergy": 3468,
      "Ġbesides": 3469,
      "ey": 3470,
      "low": 3471,
      "mark": 3472,
      "rical": 3473,
      "zan": 3474,
      "Ġmoon": 3475,
      "Ġfate": 3476,
      "Ġnet": 3477,
      "overt": 3478,
      "Ġthats": 3479,
      "aph": 3480,
      "Ġdesire": 3481,
      "fted": 3482,
      "Ġfinding": 3483,
      "Ġcarl": 3484,
      "Ġsmile": 3485,
      "Ġweap": 3486,
      "Ġthrown": 3487,
      "Ġpersonally": 3488,
      "Ġcommercial": 3489,
      "Ġrobin": 3490,
      "retch": 3491,
      "Ġparis": 3492,
      "Ġdetective": 3493,
      "Ġfresh": 3494,
      "Ġconclusion": 3495,
      "Ġneighbor": 3496,
      "Ġarea": 3497,
      "ford": 3498,
      "Ġing": 3499,
      "Ġcable": 3500,
      "Ġhat": 3501,
      "cted": 3502,
      "Ġnons": 3503,
      "idge": 3504,
      "Ġprefer": 3505,
      "Ġ12": 3506,
      "Ġspring": 3507,
      "Ġheaven": 3508,
      "Ġhoping": 3509,
      "Ġclimax": 3510,
      "Ġweapon": 3511,
      "table": 3512,
      "Ġbought": 3513,
      "Ġdying": 3514,
      "Ġnast": 3515,
      "Ġround": 3516,
      "Ġund": 3517,
      "Ġspan": 3518,
      "Ġknowing": 3519,
      "Ġopera": 3520,
      "Ġnews": 3521,
      "Ġsuppose": 3522,
      "Ġeddie": 3523,
      "Ġmainly": 3524,
      "ledge": 3525,
      "Ġinclude": 3526,
      "Ġhund": 3527,
      "Ġforever": 3528,
      "Ġhaun": 3529,
      "Ġdrawn": 3530,
      "Ġloud": 3531,
      "Ġidiot": 3532,
      "Ġbottom": 3533,
      "Ġindust": 3534,
      "bc": 3535,
      "kin": 3536,
      "vir": 3537,
      "worth": 3538,
      "Ġmed": 3539,
      "Ġciv": 3540,
      "ara": 3541,
      "Ġder": 3542,
      "Ġnorth": 3543,
      "opher": 3544,
      "Ġcomedic": 3545,
      "Ġprep": 3546,
      "Ġclue": 3547,
      "agger": 3548,
      "Ġcontem": 3549,
      "Ġmont": 3550,
      "Ġaccur": 3551,
      "Ġspeaking": 3552,
      "Ġafter": 3553,
      "Ġdestroy": 3554,
      "Ġutterly": 3555,
      "Ġtorture": 3556,
      "Ġlength": 3557,
      "Ġmerely": 3558,
      "Ġgraph": 3559,
      "entially": 3560,
      "Ġsegment": 3561,
      "Ġthom": 3562,
      "Ġchuck": 3563,
      "elled": 3564,
      "odram": 3565,
      "Ġblond": 3566,
      "Ġgrad": 3567,
      "Ġhorse": 3568,
      "ipul": 3569,
      "athan": 3570,
      "Ġrelative": 3571,
      "Ġletter": 3572,
      "Ġclean": 3573,
      "Ġhappening": 3574,
      "Ġconfused": 3575,
      "Ġbehav": 3576,
      "Ġprovides": 3577,
      "Ġcaptain": 3578,
      "Ġconstantly": 3579,
      "Ġfellow": 3580,
      "stein": 3581,
      "Ġheavy": 3582,
      "Ġindependent": 3583,
      "Ġgorgeous": 3584,
      "Ġcriminal": 3585,
      "cle": 3586,
      "field": 3587,
      "Ġmary": 3588,
      "Ġlay": 3589,
      "Ġwil": 3590,
      "Ġbag": 3591,
      "Ġstone": 3592,
      "Ġrout": 3593,
      "ament": 3594,
      "ribe": 3595,
      "Ġcharming": 3596,
      "Ġclub": 3597,
      "soever": 3598,
      "Ġquiet": 3599,
      "Ġprice": 3600,
      "Ġfault": 3601,
      "Ġtwice": 3602,
      "Ġarch": 3603,
      "Ġord": 3604,
      "Ġcomputer": 3605,
      "Ġhighlight": 3606,
      "azz": 3607,
      "Ġbuff": 3608,
      "Ġsyn": 3609,
      "Ġharry": 3610,
      "Ġrule": 3611,
      "Ġmagic": 3612,
      "Ġbatman": 3613,
      "Ġscientist": 3614,
      "Ġunexpected": 3615,
      "Ġwhatsoever": 3616,
      "cra": 3617,
      "mi": 3618,
      "no": 3619,
      "night": 3620,
      "ping": 3621,
      "wolf": 3622,
      "Ġsight": 3623,
      "Ġmount": 3624,
      "ency": 3625,
      "Ġpra": 3626,
      "Ġpacing": 3627,
      "Ġban": 3628,
      "Ġbank": 3629,
      "itary": 3630,
      "etch": 3631,
      "Ġtrust": 3632,
      "Ġanybody": 3633,
      "Ġattitude": 3634,
      "Ġcontra": 3635,
      "azy": 3636,
      "Ġturning": 3637,
      "Ġleader": 3638,
      "Ġimagination": 3639,
      "Ġcurrent": 3640,
      "Ġintelligence": 3641,
      "Ġstunt": 3642,
      "Ġwilling": 3643,
      "Ġrepeated": 3644,
      "Ġshakespe": 3645,
      "Ġinvestig": 3646,
      "Ġthoroughly": 3647,
      "Ġhundred": 3648,
      "bing": 3649,
      "bian": 3650,
      "gar": 3651,
      "ka": 3652,
      "may": 3653,
      "port": 3654,
      "rate": 3655,
      "vent": 3656,
      "wor": 3657,
      "Ġmob": 3658,
      "ano": 3659,
      "Ġtur": 3660,
      "Ġlock": 3661,
      "Ġbilly": 3662,
      "Ġnick": 3663,
      "Ġfilming": 3664,
      "Ġthin": 3665,
      "Ġchap": 3666,
      "Ġshop": 3667,
      "Ġunus": 3668,
      "Ġunknown": 3669,
      "Ġbland": 3670,
      "Ġblame": 3671,
      "Ġblock": 3672,
      "ploy": 3673,
      "Ġdisaster": 3674,
      "Ġwanting": 3675,
      "Ġunderst": 3676,
      "Ġcrash": 3677,
      "Ġborn": 3678,
      "Ġmission": 3679,
      "Ġcommentary": 3680,
      "Ġgeneration": 3681,
      "ipped": 3682,
      "Ġdescrib": 3683,
      "Ġmelodram": 3684,
      "Ġinformation": 3685,
      "Ġmulti": 3686,
      "Ġacademy": 3687,
      "even": 3688,
      "lock": 3689,
      "reg": 3690,
      "Ġtape": 3691,
      "Ġbog": 3692,
      "Ġdread": 3693,
      "Ġgut": 3694,
      "icip": 3695,
      "Ġstan": 3696,
      "Ġrh": 3697,
      "Ġsea": 3698,
      "Ġseven": 3699,
      "illing": 3700,
      "terest": 3701,
      "inder": 3702,
      "Ġgrade": 3703,
      "Ġserial": 3704,
      "Ġoper": 3705,
      "Ġframe": 3706,
      "Ġbecoming": 3707,
      "Ġnumerous": 3708,
      "Ġlighting": 3709,
      "heart": 3710,
      "Ġcollection": 3711,
      "Ġpleasure": 3712,
      "Ġforgotten": 3713,
      "Ġcanad": 3714,
      "ropri": 3715,
      "Ġhistorical": 3716,
      "Ġcomparison": 3717,
      "Ġcivil": 3718,
      "Ġgraphic": 3719,
      "bell": 3720,
      "cula": 3721,
      "down": 3722,
      "house": 3723,
      "mother": 3724,
      "Ġsan": 3725,
      "Ġcas": 3726,
      "Ġfra": 3727,
      "Ġaut": 3728,
      "ita": 3729,
      "Ġstren": 3730,
      "Ġjoy": 3731,
      "Ġunne": 3732,
      "icked": 3733,
      "Ġfloor": 3734,
      "Ġcruel": 3735,
      "Ġcastle": 3736,
      "Ġbuck": 3737,
      "Ġkidn": 3738,
      "Ġheld": 3739,
      "Ġsteven": 3740,
      "Ġfollowed": 3741,
      "Ġexperiment": 3742,
      "Ġchristopher": 3743,
      "ruction": 3744,
      "Ġanton": 3745,
      "Ġpicked": 3746,
      "Ġprotect": 3747,
      "Ġsentiment": 3748,
      "Ġpriv": 3749,
      "watched": 3750,
      "Ġbrutal": 3751,
      "Ġinnocent": 3752,
      "Ġmagnific": 3753,
      "Ġlynch": 3754,
      "Ġdisgust": 3755,
      "father": 3756,
      "love": 3757,
      "win": 3758,
      "Ġmatt": 3759,
      "Ġpil": 3760,
      "Ġbright": 3761,
      "Ġbrian": 3762,
      "Ġdut": 3763,
      "Ġdubb": 3764,
      "Ġash": 3765,
      "amb": 3766,
      "see": 3767,
      "Ġconvers": 3768,
      "Ġblind": 3769,
      "Ġjoan": 3770,
      "Ġaccom": 3771,
      "Ġford": 3772,
      "Ġintense": 3773,
      "Ġcompelling": 3774,
      "Ġproduct": 3775,
      "Ġinvent": 3776,
      "Ġmonkey": 3777,
      "Ġready": 3778,
      "Ġsuperior": 3779,
      "Ġsoft": 3780,
      "Ġdisappointing": 3781,
      "Ġdeveloped": 3782,
      "Ġoppos": 3783,
      "Ġcontinue": 3784,
      "Ġvictor": 3785,
      "Ġhenry": 3786,
      "Ġofficer": 3787,
      "Ġreligious": 3788,
      "Ġmediocre": 3789,
      "Ġclothes": 3790,
      "Ġordinary": 3791,
      "hs": 3792,
      "inn": 3793,
      "Ġmut": 3794,
      "ario": 3795,
      "Ġled": 3796,
      "Ġbath": 3797,
      "Ġaim": 3798,
      "Ġhide": 3799,
      "Ġrape": 3800,
      "ooper": 3801,
      "Ġven": 3802,
      "illa": 3803,
      "Ġdisappe": 3804,
      "Ġamb": 3805,
      "ooth": 3806,
      "Ġappeared": 3807,
      "ashed": 3808,
      "Ġaccord": 3809,
      "Ġsky": 3810,
      "Ġdracula": 3811,
      "Ġhunter": 3812,
      "Ġimpressed": 3813,
      "Ġdamn": 3814,
      "Ġwearing": 3815,
      "Ġwindow": 3816,
      "Ġflesh": 3817,
      "Ġtheatre": 3818,
      "Ġdollar": 3819,
      "Ġtune": 3820,
      "Ġcontrast": 3821,
      "Ġstrength": 3822,
      "bra": 3823,
      "tw": 3824,
      "Ġcaine": 3825,
      "Ġpair": 3826,
      "Ġluc": 3827,
      "Ġbird": 3828,
      "Ġgon": 3829,
      "Ġgig": 3830,
      "Ġeat": 3831,
      "Ġresem": 3832,
      "Ġris": 3833,
      "Ġvac": 3834,
      "Ġmanipul": 3835,
      "pping": 3836,
      "Ġpriest": 3837,
      "apped": 3838,
      "Ġempt": 3839,
      "Ġinsight": 3840,
      "Ġincludes": 3841,
      "Ġvillage": 3842,
      "Ġpatient": 3843,
      "Ġmarket": 3844,
      "oken": 3845,
      "Ġtreated": 3846,
      "Ġsymb": 3847,
      "Ġjudge": 3848,
      "Ġintriguing": 3849,
      "Ġindustry": 3850,
      "ja": 3851,
      "sch": 3852,
      "yer": 3853,
      "Ġ/": 3854,
      "Ġow": 3855,
      "Ġice": 3856,
      "Ġonto": 3857,
      "Ġmile": 3858,
      "Ġmcc": 3859,
      "Ġcash": 3860,
      "Ġbene": 3861,
      "Ġdun": 3862,
      "Ġstink": 3863,
      "ety": 3864,
      "Ġrace": 3865,
      "ading": 3866,
      "aded": 3867,
      "Ġalt": 3868,
      "Ġmax": 3869,
      "Ġcharlie": 3870,
      "Ġprint": 3871,
      "Ġinterpret": 3872,
      "ivity": 3873,
      "Ġcarol": 3874,
      "Ġaware": 3875,
      "Ġinstance": 3876,
      "Ġputting": 3877,
      "Ġdepart": 3878,
      "Ġjess": 3879,
      "Ġwonderfully": 3880,
      "Ġmodel": 3881,
      "Ġcaptured": 3882,
      "Ġmixed": 3883,
      "Ġreminded": 3884,
      "Ġlimited": 3885,
      "ominated": 3886,
      "Ġjulie": 3887,
      "Ġaustralian": 3888,
      "Ġspectacular": 3889,
      "bed": 3890,
      "ese": 3891,
      "fit": 3892,
      "mare": 3893,
      "inct": 3894,
      "Ġms": 3895,
      "Ġmic": 3896,
      "Ġmore": 3897,
      "Ġcate": 3898,
      "Ġtight": 3899,
      "Ġsean": 3900,
      "sey": 3901,
      "eman": 3902,
      "herent": 3903,
      "acting": 3904,
      "Ġlew": 3905,
      "ograp": 3906,
      "Ġsav": 3907,
      "overall": 3908,
      "Ġcru": 3909,
      "Ġfactor": 3910,
      "Ġobject": 3911,
      "Ġlaughed": 3912,
      "000": 3913,
      "Ġartistic": 3914,
      "Ġsurprising": 3915,
      "Ġconfusing": 3916,
      "Ġlisten": 3917,
      "Ġteenage": 3918,
      "Ġdemand": 3919,
      "Ġdeserve": 3920,
      "Ġknock": 3921,
      "Ġtragic": 3922,
      "Ġsurvive": 3923,
      "Ġjustice": 3924,
      "Ġtherefore": 3925,
      "Ġafrica": 3926,
      "Ġeuropean": 3927,
      "Ġowner": 3928,
      "Ġcrowd": 3929,
      "Ġshakespeare": 3930,
      "ham": 3931,
      "rant": 3932,
      "vant": 3933,
      "ini": 3934,
      "Ġfond": 3935,
      "Ġtired": 3936,
      "Ġwid": 3937,
      "Ġwere": 3938,
      "Ġbirth": 3939,
      "stit": 3940,
      "style": 3941,
      "Ġdirty": 3942,
      "Ġho": 3943,
      "itle": 3944,
      "ication": 3945,
      "Ġstretch": 3946,
      "Ġrat": 3947,
      "Ġrod": 3948,
      "Ġrac": 3949,
      "Ġlikable": 3950,
      "Ġkiss": 3951,
      "Ġalan": 3952,
      "Ġshadow": 3953,
      "Ġmac": 3954,
      "Ġunreal": 3955,
      "Ġproud": 3956,
      "Ġcontent": 3957,
      "Ġsurreal": 3958,
      "Ġdecision": 3959,
      "Ġcheer": 3960,
      "Ġpresident": 3961,
      "Ġassum": 3962,
      "Ġformula": 3963,
      "Ġ40": 3964,
      "Ġcameo": 3965,
      "Ġregular": 3966,
      "Ġtechnical": 3967,
      "Ġ1970": 3968,
      "Ġwilliams": 3969,
      "Ġfreddy": 3970,
      "Ġtheatrical": 3971,
      "Ġ1950": 3972,
      "Ġencounter": 3973,
      "Ġattractive": 3974,
      "Ġnasty": 3975,
      "Ġmagnificent": 3976,
      "Ġconversation": 3977,
      "ographer": 3978,
      "ba": 3979,
      "kward": 3980,
      "min": 3981,
      "really": 3982,
      "Ġcow": 3983,
      "Ġcore": 3984,
      "Ġfi": 3985,
      "Ġsepar": 3986,
      "thur": 3987,
      "irk": 3988,
      "Ġjason": 3989,
      "Ġvol": 3990,
      "Ġvote": 3991,
      "Ġbrand": 3992,
      "Ġresc": 3993,
      "Ġawkward": 3994,
      "Ġasian": 3995,
      "Ġwondering": 3996,
      "Ġexplos": 3997,
      "Ġholm": 3998,
      "Ġcommand": 3999,
      "Ġcreating": 4000,
      "Ġprovide": 4001,
      "aturing": 4002,
      "Ġbroken": 4003,
      "Ġstephen": 4004,
      "Ġconstant": 4005,
      "Ġvirgin": 4006,
      "Ġmilitary": 4007,
      "Ġexpression": 4008,
      "Ġintroduced": 4009,
      "Ġrevolution": 4010,
      "Ġcommunity": 4011,
      "Ġslapstick": 4012,
      "spective": 4013,
      "Ġirritating": 4014,
      "han": 4015,
      "law": 4016,
      "ta": 4017,
      "ville": 4018,
      "Ġcage": 4019,
      "Ġtend": 4020,
      "Ġhosp": 4021,
      "Ġmoved": 4022,
      "sec": 4023,
      "Ġliber": 4024,
      "irm": 4025,
      "Ġjr": 4026,
      "Ġbeach": 4027,
      "arded": 4028,
      "alled": 4029,
      "Ġpress": 4030,
      "abor": 4031,
      "Ġbrown": 4032,
      "Ġfeaturing": 4033,
      "Ġnoticed": 4034,
      "Ġintel": 4035,
      "awn": 4036,
      "Ġcrappy": 4037,
      "Ġnightmare": 4038,
      "Ġassist": 4039,
      "Ġspeech": 4040,
      "Ġadmir": 4041,
      "Ġ1980": 4042,
      "Ġconnection": 4043,
      "Ġafrican": 4044,
      "Ġdangerous": 4045,
      "Ġremarkable": 4046,
      "aa": 4047,
      "bs": 4048,
      "fight": 4049,
      "hi": 4050,
      "ium": 4051,
      "mon": 4052,
      "ront": 4053,
      "sing": 4054,
      "ten": 4055,
      "Ġcann": 4056,
      "Ġpunch": 4057,
      "Ġwound": 4058,
      "Ġrarely": 4059,
      "Ġthous": 4060,
      "Ġkate": 4061,
      "Ġkelly": 4062,
      "raid": 4063,
      "urity": 4064,
      "asing": 4065,
      "Ġyouth": 4066,
      "Ġpeace": 4067,
      "appy": 4068,
      "text": 4069,
      "ensional": 4070,
      "Ġkevin": 4071,
      "Ġobl": 4072,
      "Ġeduc": 4073,
      "Ġhelped": 4074,
      "Ġrobot": 4075,
      "Ġallen": 4076,
      "Ġnicely": 4077,
      "Ġengland": 4078,
      "Ġunderstanding": 4079,
      "Ġjeff": 4080,
      "Ġpaid": 4081,
      "Ġregret": 4082,
      "Ġfreak": 4083,
      "Ġjackson": 4084,
      "eteran": 4085,
      "Ġdeeply": 4086,
      "Ġmartin": 4087,
      "Ġasks": 4088,
      "Ġallowed": 4089,
      "Ġinspir": 4090,
      "Ġimprov": 4091,
      "Ġchallenge": 4092,
      "Ġunusual": 4093,
      "Ġaccompl": 4094,
      "Ġempty": 4095,
      "Ġhospital": 4096,
      "Ġthousand": 4097,
      "taking": 4098,
      "Ġur": 4099,
      "Ġsab": 4100,
      "Ġfright": 4101,
      "Ġlon": 4102,
      "Ġward": 4103,
      "Ġgal": 4104,
      "Ġgent": 4105,
      "Ġnaz": 4106,
      "Ġstal": 4107,
      "Ġrank": 4108,
      "Ġrange": 4109,
      "imate": 4110,
      "Ġcomfort": 4111,
      "ushing": 4112,
      "Ġleague": 4113,
      "Ġseek": 4114,
      "Ġprocess": 4115,
      "agal": 4116,
      "Ġknowledge": 4117,
      "Ġsac": 4118,
      "Ġsafe": 4119,
      "Ġanywhere": 4120,
      "Ġincident": 4121,
      "Ġwarning": 4122,
      "Ġfrust": 4123,
      "Ġresol": 4124,
      "Ġhigher": 4125,
      "Ġzero": 4126,
      "Ġvisit": 4127,
      "Ġsoap": 4128,
      "Ġsuspect": 4129,
      "Ġconfront": 4130,
      "Ġdougl": 4131,
      "Ġdevil": 4132,
      "Ġdescribe": 4133,
      "Ġnoir": 4134,
      "Ġinspired": 4135,
      "Ġphysical": 4136,
      "Ġsympathetic": 4137,
      "Ġlesbian": 4138,
      "Ġredeeming": 4139,
      "Ġnonsense": 4140,
      "Ġunnecessary": 4141,
      "Ġdouglas": 4142,
      "aus": 4143,
      "hh": 4144,
      "men": 4145,
      "ration": 4146,
      "Ġic": 4147,
      "Ġsite": 4148,
      "Ġmike": 4149,
      "Ġeight": 4150,
      "chester": 4151,
      "Ġmovement": 4152,
      "Ġrub": 4153,
      "Ġchan": 4154,
      "Ġchore": 4155,
      "Ġdebut": 4156,
      "ural": 4157,
      "Ġvhs": 4158,
      "Ġveteran": 4159,
      "Ġunited": 4160,
      "Ġclip": 4161,
      "Ġspoof": 4162,
      "Ġqueen": 4163,
      "plic": 4164,
      "Ġrealism": 4165,
      "Ġpartner": 4166,
      "Ġanymore": 4167,
      "Ġminim": 4168,
      "Ġbelong": 4169,
      "Ġstranger": 4170,
      "Ġobser": 4171,
      "Ġkinda": 4172,
      "rence": 4173,
      "Ġdiscuss": 4174,
      "Ġbloody": 4175,
      "Ġadvice": 4176,
      "Ġmiser": 4177,
      "Ġtreatment": 4178,
      "Ġcriticism": 4179,
      "Ġdelivered": 4180,
      "ĠclichÃ©s": 4181,
      "Ġtarzan": 4182,
      "Ġopposite": 4183,
      "Ġwerewolf": 4184,
      "iac": 4185,
      "rous": 4186,
      "Ġsource": 4187,
      "Ġfab": 4188,
      "alle": 4189,
      "Ġtable": 4190,
      "Ġww": 4191,
      "atra": 4192,
      "Ġdub": 4193,
      "Ġgree": 4194,
      "ilst": 4195,
      "Ġhon": 4196,
      "Ġhated": 4197,
      "Ġrog": 4198,
      "Ġriver": 4199,
      "rob": 4200,
      "Ġ11": 4201,
      "Ġgrat": 4202,
      "Ġenth": 4203,
      "Ġaband": 4204,
      "Ġstruct": 4205,
      "Ġasking": 4206,
      "Ġrecall": 4207,
      "Ġaccount": 4208,
      "Ġunfunny": 4209,
      "Ġskip": 4210,
      "Ġpossess": 4211,
      "Ġpolitic": 4212,
      "Ġfalling": 4213,
      "Ġparody": 4214,
      "Ġafraid": 4215,
      "Ġlearned": 4216,
      "Ġforeign": 4217,
      "Ġuncon": 4218,
      "Ġpromise": 4219,
      "Ġdiscovered": 4220,
      "Ġgolden": 4221,
      "Ġreminds": 4222,
      "Ġtarget": 4223,
      "Ġsheer": 4224,
      "Ġservice": 4225,
      "Ġaccurate": 4226,
      "Ġpilot": 4227,
      "Ġaccording": 4228,
      "Ġlewis": 4229,
      "Ġintellect": 4230,
      "bi": 4231,
      "ca": 4232,
      "cis": 4233,
      "dom": 4234,
      "tv": 4235,
      "xual": 4236,
      "Ġmouse": 4237,
      "Ġcant": 4238,
      "Ġfood": 4239,
      "Ġpaper": 4240,
      "Ġton": 4241,
      "Ġwed": 4242,
      "Ġgross": 4243,
      "Ġnich": 4244,
      "Ġnative": 4245,
      "Ġreun": 4246,
      "Ġfill": 4247,
      "ooge": 4248,
      "search": 4249,
      "Ġnecessary": 4250,
      "Ġenemy": 4251,
      "Ġheck": 4252,
      "Ġemploy": 4253,
      "Ġfrance": 4254,
      "Ġsubstance": 4255,
      "Ġcrack": 4256,
      "Ġfriendship": 4257,
      "screen": 4258,
      "Ġrelief": 4259,
      "Ġinsane": 4260,
      "when": 4261,
      "Ġworthy": 4262,
      "Ġideal": 4263,
      "Ġchildhood": 4264,
      "Ġtruck": 4265,
      "Ġassass": 4266,
      "Ġbarbar": 4267,
      "Ġruin": 4268,
      "Ġprove": 4269,
      "Ġmrs": 4270,
      "Ġsupposedly": 4271,
      "Ġfreed": 4272,
      "Ġfrequ": 4273,
      "Ġfootball": 4274,
      "Ġpsycho": 4275,
      "Ġmotiv": 4276,
      "Ġmedium": 4277,
      "looking": 4278,
      "porary": 4279,
      "Ġconcerned": 4280,
      "Ġsheriff": 4281,
      "Ġoccasionally": 4282,
      "Ġresponsible": 4283,
      "Ġmountain": 4284,
      "ault": 4285,
      "rid": 4286,
      "Ġsant": 4287,
      "Ġsoph": 4288,
      "Ġcounter": 4289,
      "enstein": 4290,
      "Ġfinger": 4291,
      "Ġbbc": 4292,
      "story": 4293,
      "entious": 4294,
      "Ġron": 4295,
      "Ġroman": 4296,
      "oler": 4297,
      "Ġshine": 4298,
      "Ġscr": 4299,
      "Ġunint": 4300,
      "Ġanth": 4301,
      "inese": 4302,
      "Ġ13": 4303,
      "olds": 4304,
      "osition": 4305,
      "Ġarthur": 4306,
      "Ġunderrated": 4307,
      "Ġproduce": 4308,
      "Ġrelate": 4309,
      "Ġagre": 4310,
      "Ġcolumb": 4311,
      "Ġskin": 4312,
      "Ġengaging": 4313,
      "Ġcorp": 4314,
      "Ġincluded": 4315,
      "Ġiron": 4316,
      "Ġrental": 4317,
      "Ġcurt": 4318,
      "Ġtrek": 4319,
      "Ġshocking": 4320,
      "Ġscenario": 4321,
      "Ġapartment": 4322,
      "Ġflying": 4323,
      "Ġveh": 4324,
      "Ġstatement": 4325,
      "Ġcontrived": 4326,
      "Ġtraditional": 4327,
      "Ġblonde": 4328,
      "great": 4329,
      "ii": 4330,
      "ipe": 4331,
      "oci": 4332,
      "xic": 4333,
      "Ġcele": 4334,
      "Ġfro": 4335,
      "Ġta": 4336,
      "Ġlion": 4337,
      "Ġlind": 4338,
      "Ġwhere": 4339,
      "Ġhart": 4340,
      "itter": 4341,
      "icate": 4342,
      "Ġrow": 4343,
      "Ġseagal": 4344,
      "americ": 4345,
      "vement": 4346,
      "Ġcomed": 4347,
      "utation": 4348,
      "Ġvon": 4349,
      "Ġvul": 4350,
      "Ġconsequ": 4351,
      "Ġperspective": 4352,
      "Ġproceed": 4353,
      "Ġdrop": 4354,
      "Ġmarsh": 4355,
      "Ġmaria": 4356,
      "Ġbitter": 4357,
      "Ġentertained": 4358,
      "Ġdoom": 4359,
      "Ġjohnny": 4360,
      "Ġmorning": 4361,
      "Ġfinale": 4362,
      "Ġfinest": 4363,
      "Ġfailure": 4364,
      "Ġmeeting": 4365,
      "Ġraise": 4366,
      "Ġdeserved": 4367,
      "ipping": 4368,
      "Ġfrankly": 4369,
      "Ġtreasure": 4370,
      "Ġlouis": 4371,
      "Ġcombination": 4372,
      "Ġultimate": 4373,
      "Ġmental": 4374,
      "Ġkarl": 4375,
      "Ġcondition": 4376,
      "teresting": 4377,
      "19": 4378,
      "away": 4379,
      "cere": 4380,
      "fire": 4381,
      "gm": 4382,
      "gree": 4383,
      "lor": 4384,
      "telling": 4385,
      "you": 4386,
      "reck": 4387,
      "Ġfame": 4388,
      "Ġped": 4389,
      "Ġlower": 4390,
      "Ġbow": 4391,
      "Ġdare": 4392,
      "Ġhim": 4393,
      "Ġhood": 4394,
      "Ġhint": 4395,
      "itz": 4396,
      "omen": 4397,
      "isa": 4398,
      "Ġrated": 4399,
      "add": 4400,
      "Ġseat": 4401,
      "Ġkim": 4402,
      "Ġjan": 4403,
      "asm": 4404,
      "umble": 4405,
      "enever": 4406,
      "Ġspy": 4407,
      "Ġbrook": 4408,
      "Ġwhilst": 4409,
      "osaur": 4410,
      "Ġloving": 4411,
      "Ġtext": 4412,
      "Ġlaura": 4413,
      "Ġexcited": 4414,
      "Ġkeeping": 4415,
      "Ġtheory": 4416,
      "Ġexpert": 4417,
      "Ġrented": 4418,
      "Ġtransl": 4419,
      "urban": 4420,
      "however": 4421,
      "Ġtechnique": 4422,
      "Ġsignific": 4423,
      "Ġgangster": 4424,
      "Ġnaturally": 4425,
      "Ġrevealed": 4426,
      "Ġdemonstr": 4427,
      "Ġidentity": 4428,
      "Ġdepicted": 4429,
      "Ġexploitation": 4430,
      "Ġuniversal": 4431,
      "Ġamateurish": 4432,
      "Ġsharp": 4433,
      "Ġcontemporary": 4434,
      "Ġcategory": 4435,
      "case": 4436,
      "gue": 4437,
      "natur": 4438,
      "Ġsed": 4439,
      "ancy": 4440,
      "Ġpage": 4441,
      "orig": 4442,
      "Ġboot": 4443,
      "Ġgas": 4444,
      "Ġgory": 4445,
      "Ġnin": 4446,
      "icit": 4447,
      "Ġreceived": 4448,
      "Ġrush": 4449,
      "Ġranger": 4450,
      "Ġchoose": 4451,
      "Ġchinese": 4452,
      "Ġkore": 4453,
      "Ġscrew": 4454,
      "istent": 4455,
      "abit": 4456,
      "Ġroy": 4457,
      "cient": 4458,
      "pper": 4459,
      "Ġsaving": 4460,
      "Ġorgan": 4461,
      "Ġaccomp": 4462,
      "Ġterribly": 4463,
      "Ġsincere": 4464,
      "scape": 4465,
      "Ġedward": 4466,
      "Ġtriv": 4467,
      "Ġcoach": 4468,
      "Ġharm": 4469,
      "anna": 4470,
      "Ġdeterm": 4471,
      "Ġirre": 4472,
      "Ġcutting": 4473,
      "Ġwinning": 4474,
      "after": 4475,
      "Ġandrew": 4476,
      "Ġpropag": 4477,
      "Ġlaure": 4478,
      "Ġtransform": 4479,
      "Ġprofessor": 4480,
      "Ġgermany": 4481,
      "Ġcircum": 4482,
      "Ġpuppet": 4483,
      "Ġfrancis": 4484,
      "Ġprinci": 4485,
      "Ġcurious": 4486,
      "Ġhawk": 4487,
      "Ġthomas": 4488,
      "Ġbehavior": 4489,
      "Ġpraise": 4490,
      "Ġdreadful": 4491,
      "Ġvehicle": 4492,
      "don": 4493,
      "miss": 4494,
      "nn": 4495,
      "part": 4496,
      "sed": 4497,
      "Ġeric": 4498,
      "Ġcy": 4499,
      "Ġcyn": 4500,
      "Ġfare": 4501,
      "anic": 4502,
      "Ġpin": 4503,
      "Ġtiny": 4504,
      "oring": 4505,
      "Ġwicked": 4506,
      "Ġgary": 4507,
      "Ġgord": 4508,
      "ilty": 4509,
      "Ġnational": 4510,
      "Ġnominated": 4511,
      "icated": 4512,
      "omination": 4513,
      "ulous": 4514,
      "Ġkath": 4515,
      "Ġkane": 4516,
      "raction": 4517,
      "Ġaltern": 4518,
      "Ġyell": 4519,
      "aining": 4520,
      "Ġposter": 4521,
      "Ġwhenever": 4522,
      "osoph": 4523,
      "Ġmexic": 4524,
      "Ġjoin": 4525,
      "coming": 4526,
      "atty": 4527,
      "person": 4528,
      "ription": 4529,
      "Ġbegan": 4530,
      "Ġglor": 4531,
      "Ġformat": 4532,
      "Ġmurdered": 4533,
      "Ġstudy": 4534,
      "Ġmyth": 4535,
      "Ġdriver": 4536,
      "Ġangry": 4537,
      "ennis": 4538,
      "Ġpatrick": 4539,
      "Ġ2001": 4540,
      "Ġholding": 4541,
      "Ġtechnology": 4542,
      "Ġexplained": 4543,
      "Ġprior": 4544,
      "Ġ1930": 4545,
      "Ġfalse": 4546,
      "Ġshallow": 4547,
      "Ġnetwork": 4548,
      "Ġprivate": 4549,
      "Ġcomedian": 4550,
      "Ġcircumstance": 4551,
      "Ġgordon": 4552,
      "bear": 4553,
      "gn": 4554,
      "tle": 4555,
      "vit": 4556,
      "erson": 4557,
      "Ġwolf": 4558,
      "Ġboo": 4559,
      "aton": 4560,
      "Ġdust": 4561,
      "Ġgy": 4562,
      "Ġgene": 4563,
      "Ġreject": 4564,
      "Ġrise": 4565,
      "owell": 4566,
      "rix": 4567,
      "Ġdean": 4568,
      "Ġjunk": 4569,
      "ousy": 4570,
      "Ġworry": 4571,
      "umber": 4572,
      "aki": 4573,
      "Ġbridge": 4574,
      "Ġendless": 4575,
      "Ġadvert": 4576,
      "Ġcass": 4577,
      "Ġentry": 4578,
      "ifer": 4579,
      "Ġlaught": 4580,
      "Ġwealth": 4581,
      "Ġhoward": 4582,
      "whel": 4583,
      "Ġgiall": 4584,
      "ortunate": 4585,
      "Ġdozen": 4586,
      "Ġreporter": 4587,
      "Ġreputation": 4588,
      "Ġlacking": 4589,
      "Ġportraying": 4590,
      "Ġsilver": 4591,
      "Ġfeatured": 4592,
      "Ġdriving": 4593,
      "Ġdevice": 4594,
      "Ġdavis": 4595,
      "Ġ1960": 4596,
      "Ġinfluence": 4597,
      "Ġvacation": 4598,
      "Ġfreedom": 4599,
      "bad": 4600,
      "mate": 4601,
      "rating": 4602,
      "town": 4603,
      "uesome": 4604,
      "Ġmild": 4605,
      "onment": 4606,
      "Ġtour": 4607,
      "Ġly": 4608,
      "Ġdated": 4609,
      "Ġdennis": 4610,
      "Ġgard": 4611,
      "iling": 4612,
      "Ġnur": 4613,
      "Ġresearch": 4614,
      "Ġrival": 4615,
      "that": 4616,
      "Ġdegree": 4617,
      "Ġexh": 4618,
      "Ġexagger": 4619,
      "Ġnecess": 4620,
      "Ġunable": 4621,
      "udge": 4622,
      "Ġblade": 4623,
      "Ġinteraction": 4624,
      "Ġgruesome": 4625,
      "acle": 4626,
      "beat": 4627,
      "Ġwarm": 4628,
      "Ġoverlook": 4629,
      "achel": 4630,
      "Ġmarvel": 4631,
      "Ġsecurity": 4632,
      "Ġinvis": 4633,
      "Ġboat": 4634,
      "Ġhopefully": 4635,
      "Ġassoci": 4636,
      "Ġcorrupt": 4637,
      "Ġreflect": 4638,
      "Ġstrongly": 4639,
      "Ġdealing": 4640,
      "Ġandy": 4641,
      "Ġnormally": 4642,
      "Ġhyp": 4643,
      "Ġallows": 4644,
      "Ġcontribut": 4645,
      "Ġinternational": 4646,
      "Ġestab": 4647,
      "Ġargent": 4648,
      "Ġroutine": 4649,
      "ropriate": 4650,
      "Ġdisappear": 4651,
      "Ġinterpretation": 4652,
      "Ġcelebr": 4653,
      "aire": 4654,
      "bled": 4655,
      "cise": 4656,
      "hand": 4657,
      "long": 4658,
      "vation": 4659,
      "Ġsole": 4660,
      "Ġmam": 4661,
      "Ġmgm": 4662,
      "Ġcab": 4663,
      "Ġtick": 4664,
      "Ġlap": 4665,
      "Ġbell": 4666,
      "ston": 4667,
      "leep": 4668,
      "Ġhang": 4669,
      "Ġnic": 4670,
      "Ġstom": 4671,
      "Ġrubb": 4672,
      "oooo": 4673,
      "Ġsection": 4674,
      "Ġdeb": 4675,
      "Ġjenn": 4676,
      "Ġscared": 4677,
      "Ġbeast": 4678,
      "Ġcharism": 4679,
      "Ġenvir": 4680,
      "abe": 4681,
      "Ġroot": 4682,
      "Ġbron": 4683,
      "iously": 4684,
      "aust": 4685,
      "Ġtex": 4686,
      "Ġmini": 4687,
      "Ġevidence": 4688,
      "Ġmarry": 4689,
      "Ġgotten": 4690,
      "Ġpretentious": 4691,
      "Ġasked": 4692,
      "Ġswim": 4693,
      "Ġsword": 4694,
      "Ġcreation": 4695,
      "Ġcreator": 4696,
      "Ġcourage": 4697,
      "Ġhumanity": 4698,
      "Ġportrays": 4699,
      "Ġbringing": 4700,
      "Ġlatest": 4701,
      "Ġtwisted": 4702,
      "Ġhyster": 4703,
      "Ġpleasant": 4704,
      "Ġsuffers": 4705,
      "Ġjimmy": 4706,
      "Ġphilosoph": 4707,
      "Ġdinosaur": 4708,
      "Ġdesperate": 4709,
      "Ġlucky": 4710,
      "Ġvirtually": 4711,
      "Ġnazi": 4712,
      "Ġpropaganda": 4713,
      "Ġlaughter": 4714,
      "bling": 4715,
      "lo": 4716,
      "nie": 4717,
      "point": 4718,
      "rie": 4719,
      "rol": 4720,
      "ronic": 4721,
      "wal": 4722,
      "Ġmock": 4723,
      "Ġcoun": 4724,
      "Ġcub": 4725,
      "Ġwow": 4726,
      "Ġwake": 4727,
      "Ġbern": 4728,
      "Ġhip": 4729,
      "Ġhipp": 4730,
      "Ġeg": 4731,
      "Ġnor": 4732,
      "Ġnut": 4733,
      "Ġsty": 4734,
      "Ġstooge": 4735,
      "entic": 4736,
      "iser": 4737,
      "Ġrab": 4738,
      "uls": 4739,
      "ulation": 4740,
      "Ġshut": 4741,
      "Ġshoe": 4742,
      "usi": 4743,
      "Ġvinc": 4744,
      "Ġbeer": 4745,
      "Ġcharacterization": 4746,
      "theless": 4747,
      "Ġrealized": 4748,
      "Ġcaused": 4749,
      "ressed": 4750,
      "Ġstring": 4751,
      "Ġemph": 4752,
      "Ġincre": 4753,
      "prise": 4754,
      "Ġexplains": 4755,
      "Ġglimp": 4756,
      "Ġpossibility": 4757,
      "Ġassume": 4758,
      "Ġremembered": 4759,
      "Ġdaniel": 4760,
      "Ġexperien": 4761,
      "iverse": 4762,
      "Ġpainfully": 4763,
      "Ġhumorous": 4764,
      "Ġanderson": 4765,
      "Ġmeth": 4766,
      "Ġconvince": 4767,
      "Ġtraining": 4768,
      "Ġdragon": 4769,
      "Ġload": 4770,
      "Ġdressed": 4771,
      "Ġmirror": 4772,
      "Ġdonald": 4773,
      "Ġbreathtaking": 4774,
      "Ġsymbol": 4775,
      "Ġrescue": 4776,
      "Ġgentle": 4777,
      "Ġnichol": 4778,
      ".-": 4779,
      "lot": 4780,
      "oom": 4781,
      "pir": 4782,
      "vis": 4783,
      "ering": 4784,
      "Ġfer": 4785,
      "another": 4786,
      "Ġpit": 4787,
      "Ġpitch": 4788,
      "Ġtay": 4789,
      "Ġtree": 4790,
      "oration": 4791,
      "Ġlink": 4792,
      "Ġwave": 4793,
      "Ġdry": 4794,
      "Ġdomin": 4795,
      "lyn": 4796,
      "Ġeld": 4797,
      "Ġeating": 4798,
      "itement": 4799,
      "Ġny": 4800,
      "Ġrece": 4801,
      "Ġthat": 4802,
      "Ġinh": 4803,
      "Ġinex": 4804,
      "Ġkong": 4805,
      "ante": 4806,
      "ists": 4807,
      "ines": 4808,
      "Ġwho": 4809,
      "Ġarr": 4810,
      "Ġgrowing": 4811,
      "Ġbetray": 4812,
      "Ġperformer": 4813,
      "Ġexcitement": 4814,
      "Ġstarting": 4815,
      "Ġmusician": 4816,
      "Ġswitch": 4817,
      "Ġborder": 4818,
      "Ġdarkness": 4819,
      "Ġdancer": 4820,
      "Ġimagin": 4821,
      "Ġimagery": 4822,
      "Ġatro": 4823,
      "Ġsatire": 4824,
      "Ġfairy": 4825,
      "Ġpsychological": 4826,
      "Ġcovered": 4827,
      "Ġextraord": 4828,
      "Ġexistence": 4829,
      "Ġcapable": 4830,
      "Ġrepeat": 4831,
      "Ġconnect": 4832,
      "Ġlogic": 4833,
      "Ġloser": 4834,
      "Ġinevit": 4835,
      "Ġdelightful": 4836,
      "Ġbalance": 4837,
      "Ġbullet": 4838,
      "buster": 4839,
      "Ġjonathan": 4840,
      "Ġoriginally": 4841,
      "Ġspanish": 4842,
      "Ġdisgusting": 4843,
      "Ġholmes": 4844,
      "Ġstructure": 4845,
      "Ġunconvin": 4846,
      "natural": 4847,
      "Ġtaylor": 4848,
      "burn": 4849,
      "ha": 4850,
      "hor": 4851,
      "hol": 4852,
      "jack": 4853,
      "len": 4854,
      "produ": 4855,
      "tr": 4856,
      "vy": 4857,
      "yes": 4858,
      "reh": 4859,
      "Ġmas": 4860,
      "Ġmort": 4861,
      "Ġfish": 4862,
      "Ġtoy": 4863,
      "Ġlam": 4864,
      "Ġloss": 4865,
      "Ġwing": 4866,
      "Ġby": 4867,
      "Ġbol": 4868,
      "Ġbore": 4869,
      "Ġdent": 4870,
      "Ġhere": 4871,
      "Ġhanging": 4872,
      "Ġchic": 4873,
      "Ġincomp": 4874,
      "Ġkung": 4875,
      "Ġjes": 4876,
      "Ġplastic": 4877,
      "aped": 4878,
      "Ġuniverse": 4879,
      "Ġcontext": 4880,
      "udd": 4881,
      "Ġ14": 4882,
      "Ġbrad": 4883,
      "agree": 4884,
      "Ġquote": 4885,
      "ires": 4886,
      "Ġrealizes": 4887,
      "Ġguilty": 4888,
      "Ġnevertheless": 4889,
      "osexual": 4890,
      "Ġemer": 4891,
      "Ġoverly": 4892,
      "Ġasleep": 4893,
      "entional": 4894,
      "ugos": 4895,
      "Ġhandle": 4896,
      "Ġdepiction": 4897,
      "ortune": 4898,
      "Ġcoinc": 4899,
      "Ġwalter": 4900,
      "Ġreport": 4901,
      "Ġcorny": 4902,
      "Ġemotionally": 4903,
      "Ġpromising": 4904,
      "Ġdescription": 4905,
      "Ġdiscovers": 4906,
      "Ġphotograph": 4907,
      "Ġerotic": 4908,
      "Ġforgot": 4909,
      "Ġdesigned": 4910,
      "Ġlimit": 4911,
      "Ġprofound": 4912,
      "Ġauthentic": 4913,
      "Ġcloser": 4914,
      "Ġessentially": 4915,
      "Ġlosing": 4916,
      "Ġinept": 4917,
      "Ġtedious": 4918,
      "uitous": 4919,
      "Ġmultiple": 4920,
      "Ġunrealistic": 4921,
      "Ġenthusi": 4922,
      "Ġabandoned": 4923,
      "Ġwedding": 4924,
      "Ġbarbara": 4925,
      "american": 4926,
      "Ġjennifer": 4927,
      "Ġenvironment": 4928,
      "aver": 4929,
      "cr": 4930,
      "dim": 4931,
      "des": 4932,
      "girl": 4933,
      "jo": 4934,
      "jud": 4935,
      "sm": 4936,
      "Ġsake": 4937,
      "ered": 4938,
      "rem": 4939,
      "Ġmitch": 4940,
      "Ġcath": 4941,
      "Ġfort": 4942,
      "Ġfif": 4943,
      "alist": 4944,
      "Ġpool": 4945,
      "Ġpile": 4946,
      "Ġtack": 4947,
      "Ġtong": 4948,
      "Ġstab": 4949,
      "Ġrick": 4950,
      "Ġthis": 4951,
      "Ġthief": 4952,
      "Ġlif": 4953,
      "Ġala": 4954,
      "Ġjung": 4955,
      "Ġscale": 4956,
      "Ġmaint": 4957,
      "Ġwayne": 4958,
      "Ġsaved": 4959,
      "apping": 4960,
      "Ġnoted": 4961,
      "izen": 4962,
      "Ġcris": 4963,
      "Ġforth": 4964,
      "Ġsurface": 4965,
      "Ġsomebody": 4966,
      "every": 4967,
      "Ġsinatra": 4968,
      "Ġrelax": 4969,
      "Ġbasis": 4970,
      "Ġswed": 4971,
      "Ġborrow": 4972,
      "Ġtrib": 4973,
      "Ġhandsome": 4974,
      "Ġfinished": 4975,
      "Ġcreates": 4976,
      "Ġstanding": 4977,
      "Ġharsh": 4978,
      "Ġparalle": 4979,
      "Ġgrew": 4980,
      "Ġwinter": 4981,
      "ruct": 4982,
      "Ġgrab": 4983,
      "Ġgrave": 4984,
      "Ġlistening": 4985,
      "Ġbrilliantly": 4986,
      "Ġforest": 4987,
      "Ġdeeper": 4988,
      "Ġhearing": 4989,
      "Ġlawyer": 4990,
      "Ġbothered": 4991,
      "opped": 4992,
      "Ġfranch": 4993,
      "Ġrequired": 4994,
      "Ġencou": 4995,
      "Ġscreaming": 4996,
      "breaking": 4997,
      "Ġchaplin": 4998,
      "Ġmelodrama": 4999,
      "Ġcanadian": 5000,
      "Ġintellectual": 5001,
      "original": 5002,
      "Ġkorean": 5003,
      "Ġinvisible": 5004,
      "Ġtexas": 5005,
      "Ġmethod": 5006,
      "Ġunconvincing": 5007,
      "Ġparallel": 5008,
      "'ve": 5009,
      "cont": 5010,
      "fin": 5011,
      "iffer": 5012,
      "nam": 5013,
      "Ġou": 5014,
      "Ġern": 5015,
      "Ġske": 5016,
      "Ġfict": 5017,
      "anced": 5018,
      "Ġdor": 5019,
      "Ġgam": 5020,
      "Ġhay": 5021,
      "ioni": 5022,
      "thr": 5023,
      "rase": 5024,
      "usive": 5025,
      "Ġvague": 5026,
      "Ġneck": 5027,
      "Ġancient": 5028,
      "Ġoce": 5029,
      "fest": 5030,
      "Ġstorytelling": 5031,
      "ago": 5032,
      "Ġade": 5033,
      "Ġtwin": 5034,
      "Ġarrest": 5035,
      "Ġbigger": 5036,
      "Ġinco": 5037,
      "Ġobsc": 5038,
      "Ġoverwhel": 5039,
      "Ġbuilt": 5040,
      "Ġedited": 5041,
      "Ġhelen": 5042,
      "Ġreader": 5043,
      "Ġsounded": 5044,
      "Ġexplore": 5045,
      "Ġappealing": 5046,
      "Ġmindless": 5047,
      "Ġinvolves": 5048,
      "anned": 5049,
      "Ġspeed": 5050,
      "Ġheroine": 5051,
      "Ġhunt": 5052,
      "Ġpurch": 5053,
      "belief": 5054,
      "Ġnoise": 5055,
      "Ġhopper": 5056,
      "Ġduke": 5057,
      "Ġsucked": 5058,
      "Ġhammer": 5059,
      "opping": 5060,
      "Ġfunnier": 5061,
      "Ġexecution": 5062,
      "Ġbroadway": 5063,
      "Ġreligion": 5064,
      "Ġsurrounding": 5065,
      "Ġpractically": 5066,
      "Ġinitial": 5067,
      "Ġdepartment": 5068,
      "Ġgreek": 5069,
      "Ġgratuitous": 5070,
      "Ġmotivation": 5071,
      "Ġaccompan": 5072,
      "Ġglimpse": 5073,
      "called": 5074,
      "iation": 5075,
      "mal": 5076,
      "sky": 5077,
      "top": 5078,
      "ued": 5079,
      "iner": 5080,
      "Ġsir": 5081,
      "Ġsend": 5082,
      "Ġsink": 5083,
      "Ġcous": 5084,
      "Ġfid": 5085,
      "alg": 5086,
      "Ġtill": 5087,
      "Ġtask": 5088,
      "arant": 5089,
      "Ġlake": 5090,
      "Ġwrest": 5091,
      "Ġdom": 5092,
      "Ġdude": 5093,
      "Ġaid": 5094,
      "Ġhong": 5095,
      "itizen": 5096,
      "Ġreh": 5097,
      "eland": 5098,
      "etime": 5099,
      "Ġrachel": 5100,
      "Ġchair": 5101,
      "verse": 5102,
      "tha": 5103,
      "Ġalbert": 5104,
      "Ġviet": 5105,
      "anted": 5106,
      "Ġpregn": 5107,
      "Ġheight": 5108,
      "overs": 5109,
      "Ġgray": 5110,
      "Ġgrim": 5111,
      "Ġgritty": 5112,
      "Ġ25": 5113,
      "Ġusa": 5114,
      "Ġcrude": 5115,
      "Ġfriday": 5116,
      "Ġspecific": 5117,
      "Ġharris": 5118,
      "Ġvisually": 5119,
      "wards": 5120,
      "Ġprovided": 5121,
      "Ġwinner": 5122,
      "Ġatl": 5123,
      "Ġpatri": 5124,
      "Ġstayed": 5125,
      "Ġcurse": 5126,
      "Ġraised": 5127,
      "Ġlarry": 5128,
      "Ġfigured": 5129,
      "Ġcampy": 5130,
      "ĠclichÃ©d": 5131,
      "Ġspends": 5132,
      "Ġitaly": 5133,
      "Ġstatus": 5134,
      "Ġloses": 5135,
      "Ġsarah": 5136,
      "Ġdivor": 5137,
      "Ġdepressing": 5138,
      "Ġcroc": 5139,
      "Ġhaunting": 5140,
      "Ġrelatively": 5141,
      "Ġdescribed": 5142,
      "Ġmickey": 5143,
      "Ġexplosion": 5144,
      "Ġliberal": 5145,
      "Ġinspiration": 5146,
      "Ġconsequence": 5147,
      "Ġestablish": 5148,
      "Ġemphas": 5149,
      "Ġjesus": 5150,
      "pass": 5151,
      "tt": 5152,
      "ule": 5153,
      "za": 5154,
      "Ġut": 5155,
      "Ġsel": 5156,
      "enger": 5157,
      "Ġpie": 5158,
      "Ġpenn": 5159,
      "Ġlane": 5160,
      "atory": 5161,
      "Ġgro": 5162,
      "Ġgoof": 5163,
      "Ġnation": 5164,
      "Ġnail": 5165,
      "Ġree": 5166,
      "Ġral": 5167,
      "Ġraw": 5168,
      "Ġmovies": 5169,
      "Ġthro": 5170,
      "Ġcha": 5171,
      "Ġchanging": 5172,
      "Ġinj": 5173,
      "Ġkrist": 5174,
      "rior": 5175,
      "Ġalco": 5176,
      "Ġjaw": 5177,
      "Ġleon": 5178,
      "Ġconvey": 5179,
      "aren": 5180,
      "aret": 5181,
      "Ġprejud": 5182,
      "Ġ16": 5183,
      "Ġcliff": 5184,
      "Ġspite": 5185,
      "Ġdisbelief": 5186,
      "Ġguard": 5187,
      "Ġcring": 5188,
      "ensity": 5189,
      "ups": 5190,
      "Ġwarned": 5191,
      "Ġsubplot": 5192,
      "Ġthrowing": 5193,
      "aze": 5194,
      "Ġphen": 5195,
      "Ġneedle": 5196,
      "Ġagain": 5197,
      "Ġoutrage": 5198,
      "Ġhandled": 5199,
      "Ġglass": 5200,
      "Ġaddict": 5201,
      "Ġsitcom": 5202,
      "Ġruth": 5203,
      "Ġcorpor": 5204,
      "Ġoffensive": 5205,
      "Ġmurderer": 5206,
      "Ġdistract": 5207,
      "Ġcredible": 5208,
      "Ã©e": 5209,
      "Ġpassed": 5210,
      "Ġlearns": 5211,
      "Ġpursu": 5212,
      "Ġlaid": 5213,
      "Ġsuspenseful": 5214,
      "Ġpaying": 5215,
      "Ġoliv": 5216,
      "Ġforgettable": 5217,
      "Ġstrict": 5218,
      "Ġsubtitle": 5219,
      "Ġvisuals": 5220,
      "written": 5221,
      "Ġrender": 5222,
      "Ġlesser": 5223,
      "Ġrecognize": 5224,
      "Ġstereotypical": 5225,
      "Ġignor": 5226,
      "Ġlegendary": 5227,
      "Ġdaily": 5228,
      "Ġcontinuity": 5229,
      "Ġfaithful": 5230,
      "Ġclosing": 5231,
      "Ġaustralia": 5232,
      "Ġinternet": 5233,
      "worthy": 5234,
      "Ġgiallo": 5235,
      "Ġnurse": 5236,
      "Ġrubbish": 5237,
      "dimensional": 5238,
      "Ġocean": 5239,
      "Ġincoherent": 5240,
      "Ġcousin": 5241,
      "dr": 5242,
      "dam": 5243,
      "pal": 5244,
      "self": 5245,
      "zo": 5246,
      "zed": 5247,
      "Ġcitizen": 5248,
      "Ġfbi": 5249,
      "Ġpush": 5250,
      "Ġpaced": 5251,
      "Ġtie": 5252,
      "Ġtense": 5253,
      "order": 5254,
      "Ġlud": 5255,
      "Ġwan": 5256,
      "Ġbound": 5257,
      "lection": 5258,
      "Ġeth": 5259,
      "Ġnuc": 5260,
      "elve": 5261,
      "Ġstorm": 5262,
      "ises": 5263,
      "ado": 5264,
      "uloid": 5265,
      "Ġjar": 5266,
      "actic": 5267,
      "Ġoz": 5268,
      "fection": 5269,
      "ogy": 5270,
      "Ġspoken": 5271,
      "ocaly": 5272,
      "Ġflow": 5273,
      "Ġorch": 5274,
      "Ġserf": 5275,
      "Ġhorribly": 5276,
      "Ġguarant": 5277,
      "Ġremin": 5278,
      "angle": 5279,
      "Ġperforming": 5280,
      "atherine": 5281,
      "Ġcheese": 5282,
      "ache": 5283,
      "Ġgoth": 5284,
      "Ġcamer": 5285,
      "Ġgift": 5286,
      "Ġunfor": 5287,
      "Ġrepet": 5288,
      "annabe": 5289,
      "Ġirony": 5290,
      "Ġproved": 5291,
      "Ġpainting": 5292,
      "Ġdriven": 5293,
      "Ġisol": 5294,
      "Ġthankfully": 5295,
      "Ġmajority": 5296,
      "Ġphoto": 5297,
      "Ġstrike": 5298,
      "Ġknight": 5299,
      "Ġexists": 5300,
      "Ġinnov": 5301,
      "Ġcircle": 5302,
      "Ġignore": 5303,
      "Ġembarrassing": 5304,
      "Ġuninteresting": 5305,
      "Ġreplace": 5306,
      "Ġremotely": 5307,
      "Ġantonioni": 5308,
      "ausible": 5309,
      "Ġanthony": 5310,
      "Ġtrivial": 5311,
      "Ġvincent": 5312,
      "Ġelder": 5313,
      "11": 5314,
      "cent": 5315,
      "done": 5316,
      "list": 5317,
      "mind": 5318,
      "say": 5319,
      "Ġmum": 5320,
      "Ġmask": 5321,
      "Ġcinder": 5322,
      "Ġcooper": 5323,
      "Ġfix": 5324,
      "anny": 5325,
      "also": 5326,
      "although": 5327,
      "Ġpul": 5328,
      "Ġpowell": 5329,
      "Ġloy": 5330,
      "Ġwitty": 5331,
      "Ġwashing": 5332,
      "Ġbone": 5333,
      "Ġbust": 5334,
      "Ġbik": 5335,
      "stream": 5336,
      "Ġdol": 5337,
      "Ġdod": 5338,
      "Ġduck": 5339,
      "Ġai": 5340,
      "Ġhud": 5341,
      "Ġnost": 5342,
      "Ġrough": 5343,
      "Ġchos": 5344,
      "Ġchamp": 5345,
      "seen": 5346,
      "Ġlip": 5347,
      "Ġlibr": 5348,
      "opath": 5349,
      "Ġshould": 5350,
      "hero": 5351,
      "Ġjun": 5352,
      "Ġjail": 5353,
      "Ġplaced": 5354,
      "antino": 5355,
      "Ġbeing": 5356,
      "Ġmuppet": 5357,
      "Ġprevent": 5358,
      "Ġevening": 5359,
      "eness": 5360,
      "Ġspin": 5361,
      "Ġprime": 5362,
      "Ġeverywhere": 5363,
      "Ġdisp": 5364,
      "thew": 5365,
      "Ġhep": 5366,
      "Ġfeed": 5367,
      "she": 5368,
      "Ġteeth": 5369,
      "Ġguest": 5370,
      "phant": 5371,
      "Ġemb": 5372,
      "iforn": 5373,
      "Ġterrit": 5374,
      "Ġtrium": 5375,
      "Ġunfortunate": 5376,
      "ointed": 5377,
      "Ġdeadly": 5378,
      "Ġbarry": 5379,
      "Ġcorner": 5380,
      "Ġrefres": 5381,
      "Ġdistri": 5382,
      "Ġfreeman": 5383,
      "Ġhung": 5384,
      "Ġlandscape": 5385,
      "Ġsumm": 5386,
      "Ġposition": 5387,
      "Ġ......": 5388,
      "Ġpulled": 5389,
      "Ġrussia": 5390,
      "Ġcomplaint": 5391,
      "Ġbutt": 5392,
      "Ġmatthew": 5393,
      "Ġregarding": 5394,
      "Ġoccasional": 5395,
      "Ġdinner": 5396,
      "Ġuninsp": 5397,
      "Ġmiy": 5398,
      "Ġelectric": 5399,
      "Ġrisk": 5400,
      "Ġtongue": 5401,
      "Ġjungle": 5402,
      "Ġfranchise": 5403,
      "Ġphenomen": 5404,
      "Ġnucle": 5405,
      "Ġnostalg": 5406,
      "Ġchosen": 5407,
      "Ġterritory": 5408,
      "aid": 5409,
      "bid": 5410,
      "fill": 5411,
      "iven": 5412,
      "rom": 5413,
      "Ġom": 5414,
      "Ġmo": 5415,
      "Ġmand": 5416,
      "Ġmature": 5417,
      "Ġcook": 5418,
      "Ġpac": 5419,
      "Ġto": 5420,
      "Ġboun": 5421,
      "lying": 5422,
      "Ġhur": 5423,
      "icrous": 5424,
      "oven": 5425,
      "Ġriv": 5426,
      "Ġalb": 5427,
      "Ġsha": 5428,
      "Ġshaw": 5429,
      "Ġvast": 5430,
      "Ġneat": 5431,
      "Ġsuther": 5432,
      "Ġanime": 5433,
      "iger": 5434,
      "ortion": 5435,
      "Ġ17": 5436,
      "ounding": 5437,
      "Ġens": 5438,
      "ourne": 5439,
      "osity": 5440,
      "Ġblair": 5441,
      "Ġfunction": 5442,
      "Ġcave": 5443,
      "Ġacqu": 5444,
      "Ġsimon": 5445,
      "Ġwarrior": 5446,
      "Ġterrif": 5447,
      "Ġresident": 5448,
      "Ġviewed": 5449,
      "Ġbelieved": 5450,
      "Ġholiday": 5451,
      "Ġadding": 5452,
      "movies": 5453,
      "Ġaftern": 5454,
      "Ġsevere": 5455,
      "Ġwax": 5456,
      "Ġbrave": 5457,
      "Ġpresentation": 5458,
      "Ġoffered": 5459,
      "Ġcampbell": 5460,
      "class": 5461,
      "Ġtarantino": 5462,
      "Ġflynn": 5463,
      "Ġeffectively": 5464,
      "Ġsuffering": 5465,
      "Ġcontinues": 5466,
      "Ġsandra": 5467,
      "Ġphysically": 5468,
      "Ġsympathy": 5469,
      "Ġbroadcast": 5470,
      "Ġcelluloid": 5471,
      "laim": 5472,
      "Ġsatisfying": 5473,
      "Ġjewish": 5474,
      "Ġcandy": 5475,
      "Ġlocked": 5476,
      "Ġralph": 5477,
      "Ġrefreshing": 5478,
      "Ġsutherland": 5479,
      "Ġafternoon": 5480,
      "col": 5481,
      "cut": 5482,
      "mod": 5483,
      "made": 5484,
      "power": 5485,
      "vol": 5486,
      "Ġire": 5487,
      "Ġcust": 5488,
      "Ġcock": 5489,
      "enced": 5490,
      "onna": 5491,
      "anity": 5492,
      "Ġpity": 5493,
      "Ġpian": 5494,
      "Ġlugos": 5495,
      "Ġwend": 5496,
      "Ġgate": 5497,
      "Ġastr": 5498,
      "itar": 5499,
      "Ġnu": 5500,
      "Ġreel": 5501,
      "eting": 5502,
      "isand": 5503,
      "ays": 5504,
      "cest": 5505,
      "Ġther": 5506,
      "Ġthirty": 5507,
      "Ġchief": 5508,
      "aming": 5509,
      "Ġinte": 5510,
      "ops": 5511,
      "irky": 5512,
      "Ġdefe": 5513,
      "Ġjay": 5514,
      "Ġjac": 5515,
      "Ġvia": 5516,
      "Ġuncom": 5517,
      "Ġanne": 5518,
      "Ġtran": 5519,
      "Ġseeking": 5520,
      "Ġpreview": 5521,
      "Ġbrun": 5522,
      "Ġuk": 5523,
      "Ġgreatly": 5524,
      "Ġmech": 5525,
      "Ġtwelve": 5526,
      "Ġjose": 5527,
      "Ġparticip": 5528,
      "Ġnotable": 5529,
      "Ġslaughter": 5530,
      "Ġintensity": 5531,
      "Ġsurf": 5532,
      "Ġwarner": 5533,
      "Ġevident": 5534,
      "Ġcraw": 5535,
      "Ġhardy": 5536,
      "Ġindie": 5537,
      "Ġcommit": 5538,
      "Ġcommitted": 5539,
      "Ġhelping": 5540,
      "Ġsketch": 5541,
      "Ġuseless": 5542,
      "Ġruined": 5543,
      "Ġtopic": 5544,
      "Ġups": 5545,
      "ologist": 5546,
      "Ġjackie": 5547,
      "Ġsatur": 5548,
      "Ġhitler": 5549,
      "Ġpassing": 5550,
      "Ġimportance": 5551,
      "Ġstreisand": 5552,
      "Ġvariety": 5553,
      "Ġdelivery": 5554,
      "Ġjapan": 5555,
      "Ġburton": 5556,
      "oppy": 5557,
      "Ġrevolves": 5558,
      "Ġcaliforn": 5559,
      "Ġterrorist": 5560,
      "Ġenterprise": 5561,
      "Ġdrinking": 5562,
      "Ġproperly": 5563,
      "Ġobsessed": 5564,
      "Ġprepared": 5565,
      "Ġdubbed": 5566,
      "Ġoblig": 5567,
      "Ġsanta": 5568,
      "Ġmexican": 5569,
      "Ġgarden": 5570,
      "Ġstylish": 5571,
      "Ġexperienced": 5572,
      "Ġchicago": 5573,
      "Ġouter": 5574,
      "Ġludicrous": 5575,
      "Ġcinderella": 5576,
      "Ġwashington": 5577,
      "Ġhepburn": 5578,
      "Ġmiyaz": 5579,
      "Ġnuclear": 5580,
      "Ġlugosi": 5581,
      "Ġintegr": 5582,
      "80": 5583,
      "bur": 5584,
      "core": 5585,
      "hou": 5586,
      "hem": 5587,
      "kind": 5588,
      "kick": 5589,
      "nd": 5590,
      "pically": 5591,
      "wife": 5592,
      "¡Â": 5593,
      "ena": 5594,
      "Ġfift": 5595,
      "Ġpier": 5596,
      "Ġtoo": 5597,
      "Ġtire": 5598,
      "Ġtower": 5599,
      "Ġlat": 5600,
      "Ġlol": 5601,
      "Ġlousy": 5602,
      "Ġgain": 5603,
      "Ġgab": 5604,
      "Ġack": 5605,
      "Ġhi": 5606,
      "Ġnav": 5607,
      "Ġredu": 5608,
      "Ġreward": 5609,
      "Ġstro": 5610,
      "Ġsemi": 5611,
      "Ġchain": 5612,
      "Ġkenn": 5613,
      "Ġalle": 5614,
      "Ġshelf": 5615,
      "Ġcomical": 5616,
      "antage": 5617,
      "Ġunw": 5618,
      "quel": 5619,
      "Ġclar": 5620,
      "Ġpoison": 5621,
      "Ġspider": 5622,
      "Ġspiel": 5623,
      "Ġblown": 5624,
      "Ġeveryday": 5625,
      "Ġmeat": 5626,
      "they": 5627,
      "ishment": 5628,
      "Ġfund": 5629,
      "Ġ192": 5630,
      "Ġperformed": 5631,
      "Ġabuse": 5632,
      "Ġkeaton": 5633,
      "Ġwarn": 5634,
      "Ġreser": 5635,
      "Ġunderground": 5636,
      "Ġoriginality": 5637,
      "Ġscreenwriter": 5638,
      "Ġboris": 5639,
      "Ġstealing": 5640,
      "Ġsupernatural": 5641,
      "Ġwalked": 5642,
      "Ġfallen": 5643,
      "Ġstupidity": 5644,
      "Ġretarded": 5645,
      "Ġmorris": 5646,
      "Ġmorgan": 5647,
      "Ġupset": 5648,
      "Ġbreast": 5649,
      "Ġmodest": 5650,
      "Ġmichelle": 5651,
      "box": 5652,
      "Ġthrilling": 5653,
      "Ġoccup": 5654,
      "Ġdestruction": 5655,
      "Ġshocked": 5656,
      "othy": 5657,
      "Ġknife": 5658,
      "Ġspending": 5659,
      "Ġpurely": 5660,
      "Ġmassac": 5661,
      "Ġignored": 5662,
      "Ġporno": 5663,
      "Ġ1940": 5664,
      "Ġreveals": 5665,
      "Ġidentify": 5666,
      "Ġscarlet": 5667,
      "Ġdesperately": 5668,
      "Ġprisoner": 5669,
      "Ġcompetition": 5670,
      "Ġgenuinely": 5671,
      "Ġblockbuster": 5672,
      "Ġkidnapped": 5673,
      "Ġsentimental": 5674,
      "Ġwidow": 5675,
      "Ġassassin": 5676,
      "Ġnecessarily": 5677,
      "Ġlifetime": 5678,
      "Ġtribute": 5679,
      "Ġadequ": 5680,
      "Ġpregnant": 5681,
      "Ġthroat": 5682,
      "Ġorchest": 5683,
      "Ġhudson": 5684,
      "Ġpacino": 5685,
      "Ġfifteen": 5686,
      "70": 5687,
      "eel": 5688,
      "gal": 5689,
      "mond": 5690,
      "pet": 5691,
      "venty": 5692,
      "ÂĹ": 5693,
      "Ġovert": 5694,
      "ince": 5695,
      "inist": 5696,
      "Ġsid": 5697,
      "Ġsod": 5698,
      "Ġcob": 5699,
      "Ġpir": 5700,
      "Ġwra": 5701,
      "Ġwong": 5702,
      "Ġwander": 5703,
      "Ġbare": 5704,
      "Ġdal": 5705,
      "Ġdid": 5706,
      "Ġdedic": 5707,
      "Ġhick": 5708,
      "Ġhired": 5709,
      "Ġecc": 5710,
      "itled": 5711,
      "Ġnine": 5712,
      "Ġnomination": 5713,
      "eld": 5714,
      "isation": 5715,
      "Ġseventy": 5716,
      "Ġchill": 5717,
      "Ġchose": 5718,
      "thought": 5719,
      "Ġalf": 5720,
      "Ġalter": 5721,
      "Ġalice": 5722,
      "Ġalright": 5723,
      "Ġshr": 5724,
      "Ġshark": 5725,
      "Ġvivid": 5726,
      "Ġconn": 5727,
      "Ġyard": 5728,
      "udo": 5729,
      "alling": 5730,
      "Ġpoign": 5731,
      "earing": 5732,
      "oyd": 5733,
      "Ġdislike": 5734,
      "Ġdirectly": 5735,
      "Ġgrown": 5736,
      "Ġhorrif": 5737,
      "ivor": 5738,
      "Ġtrap": 5739,
      "Ġslave": 5740,
      "angel": 5741,
      "mann": 5742,
      "Ġopt": 5743,
      "Ġpretend": 5744,
      "Ġelli": 5745,
      "Ġcraig": 5746,
      "Ġcolour": 5747,
      "Ġtrial": 5748,
      "Ġcoff": 5749,
      "Ġantic": 5750,
      "Ġstopped": 5751,
      "Ġmagaz": 5752,
      "Ġsleazy": 5753,
      "Ġtremend": 5754,
      "Ġtiming": 5755,
      "Ġequal": 5756,
      "Ġforgive": 5757,
      "Ġflawless": 5758,
      "Ġpreviously": 5759,
      "Ġhomosexual": 5760,
      "Ġbutcher": 5761,
      "Ġexecuted": 5762,
      "Ġaston": 5763,
      "iscent": 5764,
      "Ġlonely": 5765,
      "Ġwilson": 5766,
      "school": 5767,
      "Ġowen": 5768,
      "Ġcowboy": 5769,
      "Ġreunion": 5770,
      "Ġsignificant": 5771,
      "piracy": 5772,
      "Ġextraordinary": 5773,
      "Ġernest": 5774,
      "Ġchampion": 5775,
      "60": 5776,
      "cur": 5777,
      "ew": 5778,
      "fl": 5779,
      "fun": 5780,
      "hum": 5781,
      "jointed": 5782,
      "ran": 5783,
      "rich": 5784,
      "sl": 5785,
      "sn": 5786,
      "som": 5787,
      "tal": 5788,
      "zil": 5789,
      "Â´": 5790,
      "Ġurban": 5791,
      "inated": 5792,
      "Ġsne": 5793,
      "eral": 5794,
      "Ġcd": 5795,
      "Ġcup": 5796,
      "Ġcode": 5797,
      "ona": 5798,
      "Ġfortune": 5799,
      "alty": 5800,
      "Ġpitt": 5801,
      "Ġtag": 5802,
      "Ġtaught": 5803,
      "Ġtoler": 5804,
      "Ġlisa": 5805,
      "Ġbac": 5806,
      "Ġbald": 5807,
      "stone": 5808,
      "Ġdil": 5809,
      "ites": 5810,
      "Ġnem": 5811,
      "Ġrevel": 5812,
      "Ġstu": 5813,
      "Ġstiff": 5814,
      "ione": 5815,
      "ioned": 5816,
      "ces": 5817,
      "ssie": 5818,
      "think": 5819,
      "iro": 5820,
      "rier": 5821,
      "Ġali": 5822,
      "Ġunre": 5823,
      "Ġyu": 5824,
      "Ġcharge": 5825,
      "Ġperfection": 5826,
      "udos": 5827,
      "esis": 5828,
      "Ġgoal": 5829,
      "Ġspread": 5830,
      "Ġshowcase": 5831,
      "Ġblat": 5832,
      "Ġdisagree": 5833,
      "augh": 5834,
      "Ġflu": 5835,
      "Ġnotch": 5836,
      "shot": 5837,
      "Ġguide": 5838,
      "Ġtraum": 5839,
      "Ġattraction": 5840,
      "Ġcontact": 5841,
      "Ġemma": 5842,
      "avor": 5843,
      "Ġincor": 5844,
      "Ġweb": 5845,
      "lied": 5846,
      "Ġmarch": 5847,
      "Ġcraft": 5848,
      "Ġeditor": 5849,
      "ception": 5850,
      "Ġindia": 5851,
      "Ġfinan": 5852,
      "Ġsuperman": 5853,
      "Ġposse": 5854,
      "Ġsimpson": 5855,
      "Ġsoci": 5856,
      "Ġfighter": 5857,
      "Ġira": 5858,
      "Ġrefuse": 5859,
      "Ġdistinct": 5860,
      "Ġcredibility": 5861,
      "Ġbreaking": 5862,
      "Ġclosely": 5863,
      "Ġselfish": 5864,
      "Ġtouched": 5865,
      "Ġmadness": 5866,
      "Ġmadonna": 5867,
      "Ġmetaph": 5868,
      "gypt": 5869,
      "Ġbusy": 5870,
      "ification": 5871,
      "Ġdestro": 5872,
      "Ġweekend": 5873,
      "Ġ.......": 5874,
      "Ġfocused": 5875,
      "Ġcombat": 5876,
      "Ġcombine": 5877,
      "Ġrussell": 5878,
      "Ġfulci": 5879,
      "Ġvega": 5880,
      "series": 5881,
      "Ġmassive": 5882,
      "Ġfatal": 5883,
      "Ġofficial": 5884,
      "Ġmentally": 5885,
      "Ġembarrassed": 5886,
      "Ġeastwood": 5887,
      "from": 5888,
      "Ġcarlos": 5889,
      "Ġhaunted": 5890,
      "hearted": 5891,
      "Ġinventive": 5892,
      "Ġaltogether": 5893,
      "Ġfonda": 5894,
      "Ġassistant": 5895,
      "Ġpolitics": 5896,
      "Ġwhereas": 5897,
      "Ġrabbit": 5898,
      "Ġfictional": 5899,
      "Ġprejudice": 5900,
      "Ġreminiscent": 5901,
      "Ġsaturday": 5902,
      "Ġcalifornia": 5903,
      "Ġmiyazaki": 5904,
      "Ġmagazine": 5905,
      "drop": 5906,
      "gie": 5907,
      "hill": 5908,
      "hold": 5909,
      "pent": 5910,
      "roll": 5911,
      "uge": 5912,
      "urist": 5913,
      "Ġiv": 5914,
      "Ġsen": 5915,
      "Ġfortunately": 5916,
      "anion": 5917,
      "Ġpushed": 5918,
      "Ġtou": 5919,
      "Ġtad": 5920,
      "Ġtab": 5921,
      "Ġtorn": 5922,
      "arm": 5923,
      "aring": 5924,
      "Ġll": 5925,
      "Ġlad": 5926,
      "Ġdyn": 5927,
      "Ġgil": 5928,
      "ilogy": 5929,
      "Ġhank": 5930,
      "Ġhbo": 5931,
      "Ġeve": 5932,
      "Ġegypt": 5933,
      "itically": 5934,
      "Ġstella": 5935,
      "ethe": 5936,
      "Ġramp": 5937,
      "ows": 5938,
      "Ġinner": 5939,
      "Ġinfect": 5940,
      "Ġken": 5941,
      "Ġalbe": 5942,
      "Ġshir": 5943,
      "Ġjig": 5944,
      "Ġjos": 5945,
      "Ġvo": 5946,
      "ges": 5947,
      "Ġplat": 5948,
      "actor": 5949,
      "Ġlear": 5950,
      "Ġdict": 5951,
      "Ġdiane": 5952,
      "Ġanger": 5953,
      "esque": 5954,
      "Ġpreach": 5955,
      "Ġpoet": 5956,
      "Ġspook": 5957,
      "Ġshower": 5958,
      "abeth": 5959,
      "Ġrose": 5960,
      "Ġquirky": 5961,
      "Ġpride": 5962,
      "Ġproof": 5963,
      "Ġdisgu": 5964,
      "Ġdisjointed": 5965,
      "Ġargu": 5966,
      "Ġlifestyle": 5967,
      "Ġflor": 5968,
      "Ġnotion": 5969,
      "Ġdrum": 5970,
      "Ġcontain": 5971,
      "Ġstruck": 5972,
      "Ġapocaly": 5973,
      "Ġstarred": 5974,
      "Ġresort": 5975,
      "aneously": 5976,
      "Ġbuying": 5977,
      "Ġeliz": 5978,
      "Ġmeanwhile": 5979,
      "Ġpersona": 5980,
      "Ġexplod": 5981,
      "Ġexplicit": 5982,
      "Ġconsum": 5983,
      "Ġconspiracy": 5984,
      "Ġworthwhile": 5985,
      "Ġrobb": 5986,
      "Ġunfold": 5987,
      "Ġassign": 5988,
      "Ġassault": 5989,
      "Ġwalt": 5990,
      "Ġsusan": 5991,
      "Ġconfusion": 5992,
      "umbling": 5993,
      "Ġexpensive": 5994,
      "Ġjeal": 5995,
      "Ġheroic": 5996,
      "Ġamazed": 5997,
      "Ġadvantage": 5998,
      "Ġanticip": 5999,
      "Ġcaptiv": 6000,
      "Ġpredator": 6001,
      "Ġconcent": 6002,
      "Ġconcert": 6003,
      "Ġdevoted": 6004,
      "Ġ2006": 6005,
      "Ġcollect": 6006,
      "rifice": 6007,
      "Ġtransfer": 6008,
      "liner": 6009,
      "Ġcolorful": 6010,
      "Ġgrandmother": 6011,
      "forward": 6012,
      "Ġcanc": 6013,
      "Ġillust": 6014,
      "Ġdownright": 6015,
      "watching": 6016,
      "Ġappreciated": 6017,
      "Ġspiritual": 6018,
      "Ġspeaks": 6019,
      "Ġregardless": 6020,
      "Ġrecording": 6021,
      "Ġphilip": 6022,
      "Ġhallow": 6023,
      "Ġheavily": 6024,
      "Ġgripping": 6025,
      "Ġuniversity": 6026,
      "Ġgranted": 6027,
      "Ġarrives": 6028,
      "Ġsucceeds": 6029,
      "Ġspringer": 6030,
      "Ġmontage": 6031,
      "craft": 6032,
      "Ġrepeatedly": 6033,
      "maybe": 6034,
      "Ġduty": 6035,
      "Ġmutant": 6036,
      "Ġbenefit": 6037,
      "Ġsavage": 6038,
      "Ġseparate": 6039,
      "Ġrevolutionary": 6040,
      "Ġfrequently": 6041,
      "Ġcolumbo": 6042,
      "Ġdetermined": 6043,
      "Ġstomach": 6044,
      "Ġatrocious": 6045,
      "Ġdentist": 6046,
      "Ġshoulder": 6047,
      "Ġspielberg": 6048,
      "Ġalbeit": 6049,
      "agh": 6050,
      "book": 6051,
      "cons": 6052,
      "ease": 6053,
      "nel": 6054,
      "nox": 6055,
      "pro": 6056,
      "rument": 6057,
      "take": 6058,
      "ube": 6059,
      "west": 6060,
      "Ġmst": 6061,
      "Ġmun": 6062,
      "Ġcatherine": 6063,
      "Ġfur": 6064,
      "anch": 6065,
      "Ġpant": 6066,
      "Ġpunk": 6067,
      "Ġpovert": 6068,
      "Ġtap": 6069,
      "Ġtax": 6070,
      "Ġlust": 6071,
      "Ġlazy": 6072,
      "Ġwannabe": 6073,
      "Ġbay": 6074,
      "stop": 6075,
      "lee": 6076,
      "Ġhire": 6077,
      "Ġhust": 6078,
      "Ġey": 6079,
      "Ġstol": 6080,
      "ulg": 6081,
      "Ġshape": 6082,
      "aser": 6083,
      "Ġviv": 6084,
      "Ġbeating": 6085,
      "Ġconven": 6086,
      "Ġtrite": 6087,
      "Ġtrilogy": 6088,
      "Ġprostit": 6089,
      "Ġclum": 6090,
      "Ġspark": 6091,
      "Ġrochester": 6092,
      "plane": 6093,
      "Ġfac": 6094,
      "Ġmeasure": 6095,
      "Ġhealth": 6096,
      "Ġworker": 6097,
      "Ġserve": 6098,
      "Ġforb": 6099,
      "Ġsimpl": 6100,
      "ission": 6101,
      "Ġcompanion": 6102,
      "Ġcaring": 6103,
      "Ġsmooth": 6104,
      "ached": 6105,
      "Ġawe": 6106,
      "Ġmarc": 6107,
      "Ġbuster": 6108,
      "Ġfarm": 6109,
      "ibal": 6110,
      "Ġinstrument": 6111,
      "Ġmainstream": 6112,
      "Ġboom": 6113,
      "Ġjohnson": 6114,
      "Ġ45": 6115,
      "Ġamazingly": 6116,
      "ologue": 6117,
      "Ġisab": 6118,
      "Ġmagical": 6119,
      "ophob": 6120,
      "anyway": 6121,
      "Ġmiller": 6122,
      "Ġlawrence": 6123,
      "Ġgrandfather": 6124,
      "Ġpulling": 6125,
      "Ġcombined": 6126,
      "Ġaccepted": 6127,
      "Ġsurvivor": 6128,
      "Ġbutton": 6129,
      "Ġpuzz": 6130,
      "Ġlargely": 6131,
      "Ġparker": 6132,
      "Ġcarrying": 6133,
      "Ġsouthern": 6134,
      "Ġsearching": 6135,
      "Ġexploit": 6136,
      "Ġprincess": 6137,
      "Ġreplaced": 6138,
      "ollywood": 6139,
      "Ġdimension": 6140,
      "Ġwelcome": 6141,
      "Ġturkey": 6142,
      "Ġunderstood": 6143,
      "Ġrhy": 6144,
      "Ġdubbing": 6145,
      "Ġresemble": 6146,
      "Ġsacrifice": 6147,
      "Ġresolution": 6148,
      "Ġminimal": 6149,
      "Ġmiserably": 6150,
      "Ġcorpse": 6151,
      "Ġmildly": 6152,
      "Ġoverlooked": 6153,
      "Ġargento": 6154,
      "horror": 6155,
      "Ġcoincidence": 6156,
      "Ġlibrary": 6157,
      "Ġtriumph": 6158,
      "Ġmassacre": 6159,
      "Ġpoverty": 6160,
      "bod": 6161,
      "ev": 6162,
      "gun": 6163,
      "gant": 6164,
      "hile": 6165,
      "pol": 6166,
      "uch": 6167,
      "ww": 6168,
      "woman": 6169,
      "Ġsib": 6170,
      "Ġsends": 6171,
      "erie": 6172,
      "Ġmate": 6173,
      "onaut": 6174,
      "Ġfog": 6175,
      "anim": 6176,
      "Ġpig": 6177,
      "Ġtoil": 6178,
      "Ġtied": 6179,
      "orc": 6180,
      "Ġlem": 6181,
      "Ġwas": 6182,
      "Ġwack": 6183,
      "Ġgather": 6184,
      "Ġaunt": 6185,
      "Ġhoff": 6186,
      "Ġetern": 6187,
      "Ġnat": 6188,
      "Ġnose": 6189,
      "isher": 6190,
      "Ġrome": 6191,
      "Ġthunder": 6192,
      "Ġchop": 6193,
      "Ġchip": 6194,
      "amor": 6195,
      "ulated": 6196,
      "raw": 6197,
      "asant": 6198,
      "utive": 6199,
      "Ġvoc": 6200,
      "Ġvicious": 6201,
      "enda": 6202,
      "Ġexcess": 6203,
      "Ġbeck": 6204,
      "Ġsup": 6205,
      "Ġconfess": 6206,
      "Ġmanager": 6207,
      "Ġmakeup": 6208,
      "aky": 6209,
      "Ġbride": 6210,
      "Ġpray": 6211,
      "oster": 6212,
      "Ġheist": 6213,
      "Ġarrog": 6214,
      "Ġflight": 6215,
      "show": 6216,
      "Ġbetty": 6217,
      "Ġhorrend": 6218,
      "Ġgust": 6219,
      "Ġbackdrop": 6220,
      "ichi": 6221,
      "Ġcontract": 6222,
      "Ġsmoke": 6223,
      "Ġweight": 6224,
      "Ġovercome": 6225,
      "liked": 6226,
      "Ġawhile": 6227,
      "Ġmarg": 6228,
      "Ġelabor": 6229,
      "Ġfancy": 6230,
      "Ġscreening": 6231,
      "Ġzone": 6232,
      "obal": 6233,
      "Ġcalling": 6234,
      "Ġhandful": 6235,
      "Ġskater": 6236,
      "Ġengine": 6237,
      "Ġengage": 6238,
      "Ġelephant": 6239,
      "Ġopened": 6240,
      "Ġpleased": 6241,
      "Ġanna": 6242,
      "Ġattempting": 6243,
      "Ġpaint": 6244,
      "Ġcountless": 6245,
      "Ġsidekick": 6246,
      "Ġbrilliance": 6247,
      "Ġmiscast": 6248,
      "Ġhugh": 6249,
      "Ġinfam": 6250,
      "Ġ2005": 6251,
      "Ġimmense": 6252,
      "okay": 6253,
      "Ġcliche": 6254,
      "Ġoliver": 6255,
      "Ġfourth": 6256,
      "Ġstrip": 6257,
      "Ġstriking": 6258,
      "Ġoddly": 6259,
      "Ġwalken": 6260,
      "Ġmerit": 6261,
      "Ġcryst": 6262,
      "Ġflawed": 6263,
      "Ġmeaningful": 6264,
      "Ġsunday": 6265,
      "Ġsuffered": 6266,
      "Ġunlikely": 6267,
      "Ġintroduction": 6268,
      "Ġrolling": 6269,
      "Ġidiotic": 6270,
      "Ġfoxx": 6271,
      "bitious": 6272,
      "Ġsarc": 6273,
      "Ġdrunken": 6274,
      "Ġaccidentally": 6275,
      "Ġobsession": 6276,
      "Ġstinker": 6277,
      "minute": 6278,
      "Ġticket": 6279,
      "Ġreceive": 6280,
      "Ġimaginative": 6281,
      "Ġpurchase": 6282,
      "Ġvietnam": 6283,
      "Ġcringe": 6284,
      "Ġunforget": 6285,
      "Ġisolated": 6286,
      "Ġalbum": 6287,
      "Ġhoffman": 6288,
      "dan": 6289,
      "dition": 6290,
      "ez": 6291,
      "lan": 6292,
      "name": 6293,
      "uu": 6294,
      "wow": 6295,
      "water": 6296,
      "Ã¡": 6297,
      "Ġ0": 6298,
      "Ġq": 6299,
      "Ġsque": 6300,
      "Ġcig": 6301,
      "Ġfoul": 6302,
      "Ġpse": 6303,
      "Ġpear": 6304,
      "Ġting": 6305,
      "Ġtall": 6306,
      "ari": 6307,
      "Ġbin": 6308,
      "Ġbark": 6309,
      "Ġbible": 6310,
      "Ġbush": 6311,
      "Ġdump": 6312,
      "Ġga": 6313,
      "ilton": 6314,
      "Ġax": 6315,
      "Ġaired": 6316,
      "Ġaka": 6317,
      "ito": 6318,
      "Ġnod": 6319,
      "Ġstole": 6320,
      "isite": 6321,
      "char": 6322,
      "chant": 6323,
      "change": 6324,
      "Ġrul": 6325,
      "Ġrita": 6326,
      "ada": 6327,
      "imag": 6328,
      "Ġchilling": 6329,
      "Ġinject": 6330,
      "then": 6331,
      "ello": 6332,
      "geon": 6333,
      "Ġplant": 6334,
      "arter": 6335,
      "iller": 6336,
      "Ġunm": 6337,
      "icking": 6338,
      "Ġquinn": 6339,
      "Ġfaced": 6340,
      "Ġambitious": 6341,
      "Ġflop": 6342,
      "Ġflower": 6343,
      "many": 6344,
      "oses": 6345,
      "Ġbeloved": 6346,
      "olesc": 6347,
      "Ġintr": 6348,
      "Ġcarn": 6349,
      "versity": 6350,
      "Ġobnox": 6351,
      "Ġsubsequ": 6352,
      "Ġcrafted": 6353,
      "Ġfarce": 6354,
      "Ġthoughtful": 6355,
      "Ġinstantly": 6356,
      "Ġsexually": 6357,
      "why": 6358,
      "Ġletting": 6359,
      "Ġspecif": 6360,
      "Ġglobal": 6361,
      "rett": 6362,
      "grade": 6363,
      "Ġengaged": 6364,
      "Ġlacked": 6365,
      "cerning": 6366,
      "Ġironic": 6367,
      "Ġriding": 6368,
      "Ġbrazil": 6369,
      "Ġsatan": 6370,
      "Ġhunting": 6371,
      "Ġguessing": 6372,
      "Ġmidnight": 6373,
      "Ġtodd": 6374,
      "Ġstaying": 6375,
      "Ġpromin": 6376,
      "Ġimportantly": 6377,
      "Ġimmig": 6378,
      "Ġmetal": 6379,
      "Ġhyper": 6380,
      "Ġvirus": 6381,
      "Ġsentence": 6382,
      "boring": 6383,
      "Ġdamon": 6384,
      "Ġdetailed": 6385,
      "Ġcomplicated": 6386,
      "Ġinspiring": 6387,
      "Ġcuster": 6388,
      "Ġwillis": 6389,
      "Ġjulia": 6390,
      "Ġcircus": 6391,
      "Ġburned": 6392,
      "Ġcapital": 6393,
      "Ġluke": 6394,
      "Ġlucy": 6395,
      "Ġchicken": 6396,
      "Ġintrigue": 6397,
      "Ġsplit": 6398,
      "Ġsplend": 6399,
      "Ġgriff": 6400,
      "Ġcuriosity": 6401,
      "Ġinitially": 6402,
      "Ġwelles": 6403,
      "Ġmedical": 6404,
      "Ġdutch": 6405,
      "Ġracist": 6406,
      "Ġfrightening": 6407,
      "Ġrubber": 6408,
      "Ġdiscussion": 6409,
      "Ġfabulous": 6410,
      "Ġhonor": 6411,
      "Ġwealthy": 6412,
      "Ġexaggerated": 6413,
      "ulsive": 6414,
      "Ġincompet": 6415,
      "Ġgoofy": 6416,
      "Ġrepetitive": 6417,
      "Ġuninspired": 6418,
      "Ġpiano": 6419,
      "Ġscarlett": 6420,
      "Ġwrapped": 6421,
      "somet": 6422,
      "Ġrevelation": 6423,
      "Ġmetaphor": 6424,
      "Ġlloyd": 6425,
      "Ġelizabeth": 6426,
      "Ġhalloween": 6427,
      "'d": 6428,
      "50": 6429,
      "bly": 6430,
      "eal": 6431,
      "got": 6432,
      "gger": 6433,
      "high": 6434,
      "honest": 6435,
      "ket": 6436,
      "nes": 6437,
      "nity": 6438,
      "obe": 6439,
      "ya": 6440,
      "erk": 6441,
      "Ġmorm": 6442,
      "onent": 6443,
      "Ġtempt": 6444,
      "Ġtender": 6445,
      "orse": 6446,
      "Ġlav": 6447,
      "Ġwat": 6448,
      "Ġwreck": 6449,
      "Ġba": 6450,
      "Ġbang": 6451,
      "Ġape": 6452,
      "Ġhind": 6453,
      "Ġhog": 6454,
      "icism": 6455,
      "oma": 6456,
      "Ġstake": 6457,
      "Ġri": 6458,
      "Ġchest": 6459,
      "ama": 6460,
      "ulate": 6461,
      "Ġka": 6462,
      "Ġkr": 6463,
      "Ġkat": 6464,
      "Ġkurt": 6465,
      "Ġdee": 6466,
      "road": 6467,
      "Ġconcerning": 6468,
      "Ġtimeless": 6469,
      "Ġclown": 6470,
      "Ġclock": 6471,
      "ptic": 6472,
      "place": 6473,
      "Ġgreater": 6474,
      "Ġamy": 6475,
      "Ġanyways": 6476,
      "Ġgrin": 6477,
      "Ġhorrific": 6478,
      "Ġguilt": 6479,
      "Ġtrapped": 6480,
      "Ġslick": 6481,
      "phy": 6482,
      "Ġnewsp": 6483,
      "Ġhappily": 6484,
      "Ġcompass": 6485,
      "Ġenjoyment": 6486,
      "ubrick": 6487,
      "Ġinvite": 6488,
      "Ġschem": 6489,
      "Ġcox": 6490,
      "Ġwalsh": 6491,
      "Ġharr": 6492,
      "onym": 6493,
      "Ġadmitted": 6494,
      "spoil": 6495,
      "Ġlarger": 6496,
      "ipper": 6497,
      "Ġfrankenstein": 6498,
      "ika": 6499,
      "Ġcultural": 6500,
      "Ġreturned": 6501,
      "Ġamongst": 6502,
      "Ġmarty": 6503,
      "Ġhamlet": 6504,
      "Ġsuggests": 6505,
      "Ġhomer": 6506,
      "Ġjustin": 6507,
      "Ġangela": 6508,
      "Ġcomparing": 6509,
      "Ġessence": 6510,
      "Ġcollabor": 6511,
      "Ġsubtlety": 6512,
      "Ġsquad": 6513,
      "Ġpackage": 6514,
      "Ġinnocence": 6515,
      "gener": 6516,
      "Ġconvention": 6517,
      "Ġrepresents": 6518,
      "Ġranch": 6519,
      "Ġlabor": 6520,
      "Ġhooked": 6521,
      "Ġloosely": 6522,
      "Ġaffection": 6523,
      "Ġingen": 6524,
      "Ġdestroyed": 6525,
      "Ġbathroom": 6526,
      "Ġjessica": 6527,
      "Ġbirthday": 6528,
      "fighter": 6529,
      "Ġwwii": 6530,
      "Ġpossessed": 6531,
      "Ġkarloff": 6532,
      "Ġlauren": 6533,
      "Ġcharismatic": 6534,
      "Ġhysterical": 6535,
      "Ġgentleman": 6536,
      "Ġoutrageous": 6537,
      "Ġgothic": 6538,
      "Ġdynam": 6539,
      "Ġunforgettable": 6540,
      "Ġnewspaper": 6541,
      "cie": 6542,
      "eur": 6543,
      "hal": 6544,
      "ko": 6545,
      "lim": 6546,
      "vi": 6547,
      "wy": 6548,
      "Ġian": 6549,
      "Ġsize": 6550,
      "Ġsaint": 6551,
      "rell": 6552,
      "onse": 6553,
      "Ġfel": 6554,
      "Ġfet": 6555,
      "Ġfirm": 6556,
      "Ġpound": 6557,
      "Ġpink": 6558,
      "Ġpale": 6559,
      "Ġtiger": 6560,
      "Ġlum": 6561,
      "Ġlore": 6562,
      "Ġbless": 6563,
      "Ġboll": 6564,
      "atically": 6565,
      "Ġdur": 6566,
      "Ġah": 6567,
      "Ġaster": 6568,
      "Ġhabit": 6569,
      "Ġeis": 6570,
      "Ġstir": 6571,
      "entric": 6572,
      "Ġrook": 6573,
      "Ġrage": 6574,
      "adays": 6575,
      "Ġfilth": 6576,
      "Ġthumb": 6577,
      "Ġchand": 6578,
      "Ġkirk": 6579,
      "Ġshed": 6580,
      "Ġshirt": 6581,
      "Ġvs": 6582,
      "Ġvoy": 6583,
      "eller": 6584,
      "ellar": 6585,
      "illip": 6586,
      "ffy": 6587,
      "Ġunt": 6588,
      "Ġuneven": 6589,
      "Ġunoriginal": 6590,
      "Ġanch": 6591,
      "istically": 6592,
      "Ġmans": 6593,
      "Ġprecious": 6594,
      "Ġqual": 6595,
      "oser": 6596,
      "Ġblast": 6597,
      "Ġsail": 6598,
      "bergh": 6599,
      "ianc": 6600,
      "Ġserved": 6601,
      "Ġaccess": 6602,
      "Ġ21": 6603,
      "Ġ24": 6604,
      "Ġslim": 6605,
      "Ġcritical": 6606,
      "Ġattend": 6607,
      "Ġcaric": 6608,
      "Ġcarried": 6609,
      "Ġresur": 6610,
      "Ġbub": 6611,
      "Ġsinister": 6612,
      "Ġinsist": 6613,
      "Ġswing": 6614,
      "Ġextent": 6615,
      "Ġsteel": 6616,
      "Ġsings": 6617,
      "Ġportion": 6618,
      "Ġhalfway": 6619,
      "Ġpolic": 6620,
      "Ġallowing": 6621,
      "Ġinvolvement": 6622,
      "Ġdefinite": 6623,
      "Ġimagined": 6624,
      "Ġadvance": 6625,
      "Ġdevelops": 6626,
      "Ġmisunder": 6627,
      "Ġadmire": 6628,
      "Ġrocky": 6629,
      "boat": 6630,
      "Ġcinematographer": 6631,
      "Ġsolution": 6632,
      "Ġtransport": 6633,
      "Ġcarter": 6634,
      "Ġopposed": 6635,
      "Ġtechnically": 6636,
      "Ġpotentially": 6637,
      "Ġstepmother": 6638,
      "Ġaussie": 6639,
      "Ġduo": 6640,
      "Ġpleasantly": 6641,
      "Ġmerc": 6642,
      "Ġnarration": 6643,
      "lected": 6644,
      "Ġexplaining": 6645,
      "Ġjulian": 6646,
      "Ġrenting": 6647,
      "blance": 6648,
      "Ġjumping": 6649,
      "Ġnowadays": 6650,
      "Ġhench": 6651,
      "Ġauthority": 6652,
      "Ġfalk": 6653,
      "Ġachieve": 6654,
      "Ġraped": 6655,
      "uracy": 6656,
      "Ġcardboard": 6657,
      "Ġdigital": 6658,
      "Ġbonus": 6659,
      "Ġsurrounded": 6660,
      "Ġprimarily": 6661,
      "Ġbullock": 6662,
      "Ġremaining": 6663,
      "Ġneighborhood": 6664,
      "Ġchuckle": 6665,
      "Ġwilder": 6666,
      "Ġicon": 6667,
      "Ġfrost": 6668,
      "Ġlinda": 6669,
      "Ġmarshall": 6670,
      "Ġyellow": 6671,
      "Ġcabin": 6672,
      "lotte": 6673,
      "Ġwhoever": 6674,
      "Ġcatholic": 6675,
      "Ġswedish": 6676,
      "Ġinnovative": 6677,
      "Ġdistribut": 6678,
      "Ġastronaut": 6679,
      "Ġbruno": 6680,
      "uristic": 6681,
      "Ġtourist": 6682,
      "etheless": 6683,
      "Ġstolen": 6684,
      "Ġhorrendous": 6685,
      "Ġinfamous": 6686,
      "Ġobnoxious": 6687,
      "Ġspecifically": 6688,
      "Ġmormon": 6689,
      "bted": 6690,
      "fall": 6691,
      "found": 6692,
      "gle": 6693,
      "hard": 6694,
      "iat": 6695,
      "iere": 6696,
      "ji": 6697,
      "last": 6698,
      "mail": 6699,
      "master": 6700,
      "pre": 6701,
      "riel": 6702,
      "uate": 6703,
      "vo": 6704,
      "zzy": 6705,
      "Ġcure": 6706,
      "Ġcoc": 6707,
      "arc": 6708,
      "Ġlying": 6709,
      "Ġleland": 6710,
      "Ġbak": 6711,
      "still": 6712,
      "Ġdud": 6713,
      "Ġdrew": 6714,
      "Ġgest": 6715,
      "Ġgender": 6716,
      "Ġak": 6717,
      "Ġhk": 6718,
      "Ġhence": 6719,
      "Ġhollow": 6720,
      "Ġeager": 6721,
      "Ġnel": 6722,
      "Ġrene": 6723,
      "omic": 6724,
      "Ġric": 6725,
      "Ġrushed": 6726,
      "Ġripped": 6727,
      "imately": 6728,
      "ssey": 6729,
      "Ġthick": 6730,
      "Ġthug": 6731,
      "Ġinher": 6732,
      "Ġinapp": 6733,
      "ulk": 6734,
      "Ġkudos": 6735,
      "Ġkubrick": 6736,
      "rig": 6737,
      "heric": 6738,
      "utes": 6739,
      "Ġexorc": 6740,
      "Ġdiff": 6741,
      "Ġconrad": 6742,
      "Ġyou": 6743,
      "Ġcharlotte": 6744,
      "atched": 6745,
      "Ġcharacters": 6746,
      "Ġclay": 6747,
      "Ġclosed": 6748,
      "Ġpole": 6749,
      "Ġspare": 6750,
      "Ġross": 6751,
      "orman": 6752,
      "ciating": 6753,
      "Ġimperson": 6754,
      "Ġadop": 6755,
      "Ġadolesc": 6756,
      "mentioned": 6757,
      "erty": 6758,
      "Ġfacial": 6759,
      "Ġrealise": 6760,
      "ipment": 6761,
      "teen": 6762,
      "Ġabrupt": 6763,
      "Ġintent": 6764,
      "Ġintimate": 6765,
      "Ġnewman": 6766,
      "Ġcarrad": 6767,
      "Ġsmoking": 6768,
      "Ġresource": 6769,
      "Ġbitch": 6770,
      "Ġappropriate": 6771,
      "Ġcared": 6772,
      "Ġscripted": 6773,
      "Ġaged": 6774,
      "Ġcolon": 6775,
      "Ġoutfit": 6776,
      "Ġacclaim": 6777,
      "Ġtypically": 6778,
      "Ġrobber": 6779,
      "ucky": 6780,
      "Ġrestra": 6781,
      "itchen": 6782,
      "Ġharlow": 6783,
      "Ġdiscus": 6784,
      "Ġelev": 6785,
      "Ġexposed": 6786,
      "Ġirish": 6787,
      "exc": 6788,
      "Ġexceptional": 6789,
      "Ġdrivel": 6790,
      "Ġcostner": 6791,
      "Ġandre": 6792,
      "Ġspacey": 6793,
      "Ġsaman": 6794,
      "Ġnorman": 6795,
      "Ġridiculously": 6796,
      "Ġnonetheless": 6797,
      "Ġnoble": 6798,
      "Ġsweep": 6799,
      "Ġjeremy": 6800,
      "Ġattacked": 6801,
      "Ġ.........": 6802,
      "Ġequipment": 6803,
      "Ġultra": 6804,
      "Ġtasteless": 6805,
      "Ġnaive": 6806,
      "Ġ1990": 6807,
      "Ġsurvival": 6808,
      "Ġluci": 6809,
      "Ġrecognized": 6810,
      "Ġstatue": 6811,
      "Ġcalm": 6812,
      "Ġresponse": 6813,
      "Ġjourn": 6814,
      "Ġtortured": 6815,
      "Ġachievement": 6816,
      "Ġcompetent": 6817,
      "Ġalexander": 6818,
      "Ġargument": 6819,
      "Ġleslie": 6820,
      "Ġdickens": 6821,
      "Ġbleak": 6822,
      "Ġthreatening": 6823,
      "Ġnerd": 6824,
      "Ġnerve": 6825,
      "Ġmelodramatic": 6826,
      "Ġurge": 6827,
      "Ġmiserable": 6828,
      "Ġsophistic": 6829,
      "Ġcurtis": 6830,
      "Ġvulgar": 6831,
      "Ġprincipal": 6832,
      "Ġgyp": 6833,
      "Ġmarvelous": 6834,
      "Ġinevitable": 6835,
      "Ġfifty": 6836,
      "Ġcrisis": 6837,
      "Ġoverwhelming": 6838,
      "Ġatlant": 6839,
      "Ġstrictly": 6840,
      "Ġtrivialboring": 6841,
      "opsis": 6842,
      "Ġdalton": 6843,
      "Ġeccentric": 6844,
      "Ġtoilet": 6845,
      "Ġcarradine": 6846,
      "can": 6847,
      "cil": 6848,
      "crow": 6849,
      "dram": 6850,
      "fan": 6851,
      "hour": 6852,
      "kh": 6853,
      "kins": 6854,
      "lv": 6855,
      "mit": 6856,
      "run": 6857,
      "va": 6858,
      "vably": 6859,
      "will": 6860,
      "Ġsore": 6861,
      "Ġmck": 6862,
      "Ġmes": 6863,
      "Ġmath": 6864,
      "Ġmole": 6865,
      "Ġcia": 6866,
      "Ġfitting": 6867,
      "aning": 6868,
      "ora": 6869,
      "Ġlin": 6870,
      "Ġburt": 6871,
      "Ġbourne": 6872,
      "Ġdre": 6873,
      "leton": 6874,
      "Ġnol": 6875,
      "Ġnude": 6876,
      "ovich": 6877,
      "eled": 6878,
      "Ġstated": 6879,
      "ented": 6880,
      "isy": 6881,
      "keep": 6882,
      "Ġroth": 6883,
      "oln": 6884,
      "Ġchasing": 6885,
      "Ġliking": 6886,
      "Ġincest": 6887,
      "Ġkitchen": 6888,
      "Ġdeaf": 6889,
      "Ġshy": 6890,
      "Ġshout": 6891,
      "Ġshift": 6892,
      "asingly": 6893,
      "Ġplague": 6894,
      "anded": 6895,
      "Ġleigh": 6896,
      "Ġdiam": 6897,
      "Ġtroop": 6898,
      "Ġtimes": 6899,
      "estic": 6900,
      "Ġensem": 6901,
      "ption": 6902,
      "Ġimitation": 6903,
      "Ġwheel": 6904,
      "ocaust": 6905,
      "pered": 6906,
      "Ġflag": 6907,
      "shi": 6908,
      "shine": 6909,
      "redient": 6910,
      "Ġuser": 6911,
      "Ġcrook": 6912,
      "Ġcontest": 6913,
      "Ġsimult": 6914,
      "Ġsurpass": 6915,
      "Ġevol": 6916,
      "Ġchess": 6917,
      "Ġresist": 6918,
      "Ġsubstit": 6919,
      "Ġmarine": 6920,
      "Ġharder": 6921,
      "Ġfriendly": 6922,
      "Ġsupply": 6923,
      "Ġschlock": 6924,
      "Ġreasonable": 6925,
      "Ġaudio": 6926,
      "nery": 6927,
      "Ġchildish": 6928,
      "Ġsteam": 6929,
      "Ġshortly": 6930,
      "attered": 6931,
      "Ġmurphy": 6932,
      "ucker": 6933,
      "Ġearn": 6934,
      "Ġrestaur": 6935,
      "Ġrelevant": 6936,
      "Ġmenacing": 6937,
      "Ġinvolve": 6938,
      "ruciating": 6939,
      "Ġgeek": 6940,
      "Ġpassenger": 6941,
      "Ġpsychopath": 6942,
      "Ġ2000": 6943,
      "Ġjamie": 6944,
      "Ġstrangely": 6945,
      "Ġhype": 6946,
      "Ġbritain": 6947,
      "Ġdiscovery": 6948,
      "Ġjerk": 6949,
      "Ġerror": 6950,
      "Ġairplane": 6951,
      "Ġodds": 6952,
      "Ġrespected": 6953,
      "Ġprofession": 6954,
      "Ġatmospheric": 6955,
      "etti": 6956,
      "Ġsexuality": 6957,
      "Ġtroubled": 6958,
      "Ġjuliet": 6959,
      "Ġmotif": 6960,
      "Ġexpressed": 6961,
      "Ġwasting": 6962,
      "Ġmatth": 6963,
      "Ġmatrix": 6964,
      "Ġsheet": 6965,
      "Ġstruggling": 6966,
      "Ġcloset": 6967,
      "Ġastaire": 6968,
      "Ġbottle": 6969,
      "Ġconsists": 6970,
      "Ġrapid": 6971,
      "Ġhostage": 6972,
      "Ġinsulting": 6973,
      "related": 6974,
      "Ġsucceeded": 6975,
      "Ġingredient": 6976,
      "Ġsynopsis": 6977,
      "Ġcurrently": 6978,
      "Ġstanwy": 6979,
      "Ġstevens": 6980,
      "Ġvenge": 6981,
      "Ġracism": 6982,
      "Ġtendency": 6983,
      "Ġlyric": 6984,
      "Ġassociated": 6985,
      "Ġegg": 6986,
      "Ġinexplic": 6987,
      "Ġphotographed": 6988,
      "Ġemphasis": 6989,
      "Ġsummary": 6990,
      "Ġacknow": 6991,
      "Ġadequate": 6992,
      "Ġalfred": 6993,
      "Ġastonishing": 6994,
      "Ġfinancial": 6995,
      "Ġiraq": 6996,
      "Ġegyptian": 6997,
      "Ġlearning": 6998,
      "Ġforbidden": 6999,
      "Ġpseudo": 7000,
      "Ġpearl": 7001,
      "Ġcompassion": 7002,
      "Ġensemble": 7003,
      "Ġrestaurant": 7004,
      "bal": 7005,
      "bast": 7006,
      "felt": 7007,
      "ho": 7008,
      "hy": 7009,
      "happy": 7010,
      "iable": 7011,
      "mus": 7012,
      "pite": 7013,
      "sor": 7014,
      "ux": 7015,
      "vous": 7016,
      "ercise": 7017,
      "Ġmoo": 7018,
      "Ġmolly": 7019,
      "Ġfed": 7020,
      "alys": 7021,
      "Ġpad": 7022,
      "Ġpill": 7023,
      "aris": 7024,
      "Ġlit": 7025,
      "Ġlinc": 7026,
      "Ġwes": 7027,
      "Ġbunny": 7028,
      "step": 7029,
      "Ġdane": 7030,
      "Ġdah": 7031,
      "Ġdawn": 7032,
      "Ġgad": 7033,
      "Ġgap": 7034,
      "Ġgere": 7035,
      "Ġgib": 7036,
      "Ġholl": 7037,
      "Ġhav": 7038,
      "Ġhiding": 7039,
      "Ġreed": 7040,
      "Ġstair": 7041,
      "Ġstyl": 7042,
      "Ġrig": 7043,
      "Ġrum": 7044,
      "ader": 7045,
      "unf": 7046,
      "ida": 7047,
      "very": 7048,
      "Ġkaren": 7049,
      "rious": 7050,
      "Ġdece": 7051,
      "Ġalm": 7052,
      "emet": 7053,
      "Ġjazz": 7054,
      "uta": 7055,
      "Ġmast": 7056,
      "Ġexercise": 7057,
      "Ġdire": 7058,
      "Ġunit": 7059,
      "Ġunbear": 7060,
      "Ġyelling": 7061,
      "venile": 7062,
      "Ġoil": 7063,
      "inda": 7064,
      "Ġperpet": 7065,
      "allment": 7066,
      "Ġgoodness": 7067,
      "odile": 7068,
      "Ġenlight": 7069,
      "Ġensu": 7070,
      "Ġclark": 7071,
      "Ġpeak": 7072,
      "Ġblank": 7073,
      "Ġheat": 7074,
      "Ġfuneral": 7075,
      "Ġtea": 7076,
      "Ġhorrid": 7077,
      "awful": 7078,
      "Ġempath": 7079,
      "avoid": 7080,
      "Ġhappiness": 7081,
      "ifies": 7082,
      "Ġcomposer": 7083,
      "Ġdecl": 7084,
      "Ġpointed": 7085,
      "Ġexcruciating": 7086,
      "Ġphrase": 7087,
      "Ġrecy": 7088,
      "Ġappalling": 7089,
      "Ġinstit": 7090,
      "Ġclassical": 7091,
      "iculty": 7092,
      "Ġ35": 7093,
      "Ġswear": 7094,
      "Ġoutd": 7095,
      "Ġworthless": 7096,
      "Ġtriangle": 7097,
      "obby": 7098,
      "Ġaccused": 7099,
      "Ġtyler": 7100,
      "Ġuseful": 7101,
      "Ġelegant": 7102,
      "Ġredempt": 7103,
      "Ġparad": 7104,
      "Ġannoun": 7105,
      "Ġmessed": 7106,
      "Ġbread": 7107,
      "Ġdrift": 7108,
      "ĠÂĳ": 7109,
      "Ġlisted": 7110,
      "Ġdealt": 7111,
      "Ġpatric": 7112,
      "Ġplanning": 7113,
      "Ġstreep": 7114,
      "Ġoffering": 7115,
      "Ġreturning": 7116,
      "Ġfuturistic": 7117,
      "Ġsimilarity": 7118,
      "Ġdelivering": 7119,
      "Ġmistaken": 7120,
      "Ġhoped": 7121,
      "Ġcompliment": 7122,
      "Ġacceptable": 7123,
      "Ġadapted": 7124,
      "Ġillness": 7125,
      "Ġhomage": 7126,
      "Ġjustify": 7127,
      "Ġrevealing": 7128,
      "Ġmotor": 7129,
      "Ġrendition": 7130,
      "Ġconnected": 7131,
      "Ġsensitive": 7132,
      "Ġdaffy": 7133,
      "Ġexecutive": 7134,
      "Ġboredom": 7135,
      "Ġdepicts": 7136,
      "Ġdepicting": 7137,
      "Ġreached": 7138,
      "Ġconsistently": 7139,
      "Ġjuvenile": 7140,
      "urai": 7141,
      "Ġbaseball": 7142,
      "Ġgrows": 7143,
      "Ġtemple": 7144,
      "world": 7145,
      "Ġcanada": 7146,
      "Ġashamed": 7147,
      "Ġcruise": 7148,
      "Ġaccomplished": 7149,
      "Ġroger": 7150,
      "Ġproceeds": 7151,
      "Ġirrele": 7152,
      "Ġfrancisco": 7153,
      "Ġcynical": 7154,
      "despite": 7155,
      "Ġmitchell": 7156,
      "Ġborrowed": 7157,
      "through": 7158,
      "oversial": 7159,
      "Ġdivorce": 7160,
      "Ġreef": 7161,
      "filled": 7162,
      "iveness": 7163,
      "Ġcustom": 7164,
      "Ġtremendous": 7165,
      "Ġstuart": 7166,
      "Ġshirley": 7167,
      "Ġrobbins": 7168,
      "Ġimmigrant": 7169,
      "Ġgriffith": 7170,
      "Ġeisenstein": 7171,
      "Ġdifficulty": 7172,
      "excellent": 7173,
      "Ġgypsy": 7174,
      "Ġsimultaneously": 7175,
      "Ġlincoln": 7176,
      "best": 7177,
      "corn": 7178,
      "dis": 7179,
      "fly": 7180,
      "loved": 7181,
      "mo": 7182,
      "make": 7183,
      "nell": 7184,
      "och": 7185,
      "pa": 7186,
      "pin": 7187,
      "rr": 7188,
      "ril": 7189,
      "Ġ]": 7190,
      "Ġath": 7191,
      "Ġsill": 7192,
      "Ġsale": 7193,
      "Ġmud": 7194,
      "Ġcoo": 7195,
      "Ġcole": 7196,
      "Ġcemet": 7197,
      "enjoy": 7198,
      "Ġfade": 7199,
      "Ġpam": 7200,
      "Ġtoss": 7201,
      "eday": 7202,
      "org": 7203,
      "oria": 7204,
      "Ġlup": 7205,
      "Ġwire": 7206,
      "Ġbib": 7207,
      "Ġbutter": 7208,
      "Ġbaff": 7209,
      "Ġgable": 7210,
      "Ġhut": 7211,
      "Ġhmm": 7212,
      "Ġecon": 7213,
      "Ġned": 7214,
      "Ġstall": 7215,
      "Ġstead": 7216,
      "etically": 7217,
      "oting": 7218,
      "otch": 7219,
      "Ġrot": 7220,
      "Ġrust": 7221,
      "adv": 7222,
      "sson": 7223,
      "Ġchen": 7224,
      "Ġchina": 7225,
      "Ġchronic": 7226,
      "ami": 7227,
      "Ġinane": 7228,
      "Ġkhan": 7229,
      "Ġkhou": 7230,
      "Ġjord": 7231,
      "Ġvig": 7232,
      "Ġexceed": 7233,
      "ando": 7234,
      "Ġbew": 7235,
      "Ġbefriend": 7236,
      "Ġneil": 7237,
      "Ġunple": 7238,
      "ousing": 7239,
      "igan": 7240,
      "Ġos": 7241,
      "esth": 7242,
      "Ġclint": 7243,
      "pton": 7244,
      "Ġspell": 7245,
      "Ġros": 7246,
      "never": 7247,
      "Ġendearing": 7248,
      "osing": 7249,
      "Ġprank": 7250,
      "Ġblend": 7251,
      "Ġdismiss": 7252,
      "Ġamuse": 7253,
      "comedy": 7254,
      "Ġnotor": 7255,
      "Ġgrudge": 7256,
      "Ġcape": 7257,
      "Ġbeth": 7258,
      "Ġguitar": 7259,
      "izz": 7260,
      "Ġdrown": 7261,
      "Ġminus": 7262,
      "Ġemily": 7263,
      "Ġkeith": 7264,
      "Ġgeneric": 7265,
      "Ġcarpent": 7266,
      "Ġweather": 7267,
      "Ġstaring": 7268,
      "Ġcheated": 7269,
      "Ġrelated": 7270,
      "Ġrecon": 7271,
      "Ġbasket": 7272,
      "Ġinstallment": 7273,
      "Ġexploration": 7274,
      "Ġgifted": 7275,
      "Ġouting": 7276,
      "Ġlasting": 7277,
      "Ġholocaust": 7278,
      "Ġtrio": 7279,
      "obi": 7280,
      "Ġsteer": 7281,
      "Ġboast": 7282,
      "Ġpolitically": 7283,
      "Ġsyd": 7284,
      "Ġbarney": 7285,
      "Ġbarbra": 7286,
      "Ġitem": 7287,
      "Ġbehave": 7288,
      "Ġsadistic": 7289,
      "Ġdistance": 7290,
      "Ġalongside": 7291,
      "Ġmoron": 7292,
      "Ġattempted": 7293,
      "Ġmyst": 7294,
      "Ġeasier": 7295,
      "Ġgrey": 7296,
      "Ġsnatch": 7297,
      "Ġjackass": 7298,
      "Ġsuspicious": 7299,
      "Ġpopcorn": 7300,
      "Ġsuccessfully": 7301,
      "Ġgodfather": 7302,
      "Ġdevoid": 7303,
      "Ġinfin": 7304,
      "Ġhilariously": 7305,
      "Ġsolve": 7306,
      "Ġsleaze": 7307,
      "Ġsamurai": 7308,
      "Ġgarbo": 7309,
      "Ġpicking": 7310,
      "Ġpremiere": 7311,
      "Ġafford": 7312,
      "Ġphotographer": 7313,
      "Ġcontroversial": 7314,
      "Ġdestiny": 7315,
      "Ġvariation": 7316,
      "Ġscenes": 7317,
      "ramer": 7318,
      "Ġsuperbly": 7319,
      "Ġdragged": 7320,
      "Ġcleverly": 7321,
      "Ġsleeping": 7322,
      "Ġrecognition": 7323,
      "Ġrolled": 7324,
      "Ġsandy": 7325,
      "Ġsixty": 7326,
      "Ġlogical": 7327,
      "Ġimprove": 7328,
      "Ġachieved": 7329,
      "esterday": 7330,
      "Ġbasement": 7331,
      "Ġoccurs": 7332,
      "Ġoccurred": 7333,
      "Ġsatisfied": 7334,
      "Ġgradually": 7335,
      "worst": 7336,
      "Ġautom": 7337,
      "second": 7338,
      "Ġcomfortable": 7339,
      "Ġcounterpart": 7340,
      "Ġunintentional": 7341,
      "Ġagreed": 7342,
      "Ġvulner": 7343,
      "Ġdoomed": 7344,
      "Ġtransformation": 7345,
      "Ġphilosophical": 7346,
      "Ġincreasingly": 7347,
      "Ġnicholson": 7348,
      "Ġencourage": 7349,
      "Ġaccompanied": 7350,
      "Ġcrocodile": 7351,
      "Ġestablished": 7352,
      "Ġchaos": 7353,
      "Ġleonard": 7354,
      "Ġguarantee": 7355,
      "minded": 7356,
      "Ġgabriel": 7357,
      "Ġkennedy": 7358,
      "Ġpoignant": 7359,
      "Ġjigsaw": 7360,
      "Ġspooky": 7361,
      "aghetti": 7362,
      "Ġisabelle": 7363,
      "Ġsibling": 7364,
      "Ġvocal": 7365,
      "Ġcaricature": 7366,
      "Ġhenchman": 7367,
      "Ġadolescent": 7368,
      "Ġsamantha": 7369,
      "Ġstanwyck": 7370,
      "Ġmoore": 7371,
      "Ġirrelevant": 7372,
      "Ġcemetery": 7373,
      "Ġkhouri": 7374,
      "Ġcarpenter": 7375,
      "'.": 7376,
      "bon": 7377,
      "bie": 7378,
      "bot": 7379,
      "bour": 7380,
      "bott": 7381,
      "cled": 7382,
      "date": 7383,
      "holic": 7384,
      "iently": 7385,
      "mel": 7386,
      "pse": 7387,
      "put": 7388,
      "sel": 7389,
      "swe": 7390,
      "uve": 7391,
      "wing": 7392,
      "Â¡Â": 7393,
      "âĢ": 7394,
      "Ġally": 7395,
      "ĠâĢ": 7396,
      "Ġmute": 7397,
      "Ġmason": 7398,
      "Ġmtv": 7399,
      "Ġcul": 7400,
      "Ġcri": 7401,
      "Ġcue": 7402,
      "Ġfist": 7403,
      "Ġfought": 7404,
      "Ġfury": 7405,
      "Ġfoster": 7406,
      "Ġpi": 7407,
      "Ġpy": 7408,
      "Ġpump": 7409,
      "Ġtorm": 7410,
      "Ġtooth": 7411,
      "edly": 7412,
      "Ġloo": 7413,
      "Ġbite": 7414,
      "Ġbass": 7415,
      "atisf": 7416,
      "Ġdene": 7417,
      "Ġdazz": 7418,
      "Ġgall": 7419,
      "ilted": 7420,
      "Ġhag": 7421,
      "Ġhoney": 7422,
      "Ġeli": 7423,
      "Ġego": 7424,
      "Ġnap": 7425,
      "Ġnathan": 7426,
      "icing": 7427,
      "othing": 7428,
      "Ġrif": 7429,
      "Ġrider": 7430,
      "idy": 7431,
      "Ġthread": 7432,
      "Ġcher": 7433,
      "amber": 7434,
      "Ġker": 7435,
      "rial": 7436,
      "rael": 7437,
      "Ġshining": 7438,
      "Ġscope": 7439,
      "Ġvent": 7440,
      "Ġmail": 7441,
      "Ġexchange": 7442,
      "acted": 7443,
      "astard": 7444,
      "Ġunwatch": 7445,
      "Ġworried": 7446,
      "Ġconqu": 7447,
      "Ġconceived": 7448,
      "ummy": 7449,
      "Ġody": 7450,
      "istan": 7451,
      "Ġmann": 7452,
      "orted": 7453,
      "acked": 7454,
      "Ġtroma": 7455,
      "ogical": 7456,
      "Ġgos": 7457,
      "Ġclo": 7458,
      "Ġsomeday": 7459,
      "Ġwhim": 7460,
      "Ġpron": 7461,
      "Ġblunt": 7462,
      "Ġlovable": 7463,
      "pled": 7464,
      "Ġrealm": 7465,
      "Ġarn": 7466,
      "Ġarist": 7467,
      "Ġfever": 7468,
      "Ġflam": 7469,
      "Ġflood": 7470,
      "Ġnotably": 7471,
      "type": 7472,
      "Ġcausing": 7473,
      "Ġminer": 7474,
      "Ġbelly": 7475,
      "phan": 7476,
      "Ġcompreh": 7477,
      "Ġoveracting": 7478,
      "Ġsuburb": 7479,
      "Ġenjoys": 7480,
      "Ġenjoying": 7481,
      "Ġbelieving": 7482,
      "Ġphillip": 7483,
      "Ġfanatic": 7484,
      "Ġrecre": 7485,
      "Ġindic": 7486,
      "Ġindiffer": 7487,
      "Ġinspect": 7488,
      "Ġinstinct": 7489,
      "Ġinterestingly": 7490,
      "Ġconscious": 7491,
      "Ġoutlaw": 7492,
      "Ġglory": 7493,
      "Ġglenn": 7494,
      "Ġaddress": 7495,
      "Ġabsor": 7496,
      "Ġsuperfic": 7497,
      "Ġpresum": 7498,
      "Ġskate": 7499,
      "Ġcreativity": 7500,
      "Ġparan": 7501,
      "umbled": 7502,
      "existent": 7503,
      "Ġvalley": 7504,
      "Ġfailing": 7505,
      "Ġdoug": 7506,
      "Ġadvise": 7507,
      "Ġgrasp": 7508,
      "Ġisrael": 7509,
      "Ġcapturing": 7510,
      "Ġstronger": 7511,
      "Ġrocket": 7512,
      "heim": 7513,
      "Ġpsychiat": 7514,
      "Ġwoody": 7515,
      "Ġuniform": 7516,
      "Ġbroke": 7517,
      "Ġ2007": 7518,
      "guy": 7519,
      "Ġchecking": 7520,
      "Ġdiscovering": 7521,
      "Ġ1983": 7522,
      "Ġcontroll": 7523,
      "Ġ1971": 7524,
      "weight": 7525,
      "Ġclaire": 7526,
      "force": 7527,
      "Ġdownhill": 7528,
      "Ġweakness": 7529,
      "Ġconvincingly": 7530,
      "Ġpalance": 7531,
      "Ġfranco": 7532,
      "Ġdisturbed": 7533,
      "Ġcontinued": 7534,
      "Ġscarecrow": 7535,
      "Ġchristianity": 7536,
      "Ġattracted": 7537,
      "Ġpanic": 7538,
      "Ġsquare": 7539,
      "Ġprince": 7540,
      "warming": 7541,
      "Ġconsistent": 7542,
      "Ġscientific": 7543,
      "break": 7544,
      "Ġdeserted": 7545,
      "Ġintentionally": 7546,
      "Ġprimitive": 7547,
      "Ġbobby": 7548,
      "Ġcandid": 7549,
      "Ġresponsibility": 7550,
      "Ġlayer": 7551,
      "Ġoperation": 7552,
      "Ġaimed": 7553,
      "Ġambig": 7554,
      "two": 7555,
      "Ġlucas": 7556,
      "Ġmanipulative": 7557,
      "Ġpressure": 7558,
      "Ġcannibal": 7559,
      "Ġeducational": 7560,
      "Ġchoreography": 7561,
      "Ġscratch": 7562,
      "Ġtranslation": 7563,
      "Ġsincerely": 7564,
      "Ġalternative": 7565,
      "Ġlaputa": 7566,
      "Ġswimming": 7567,
      "Ġcuba": 7568,
      "Ġhippie": 7569,
      "Ġnorris": 7570,
      "Ġinhabit": 7571,
      "Ġforty": 7572,
      "Ġalcoholic": 7573,
      "Ġruthless": 7574,
      "Ġcorporate": 7575,
      "Ġignorant": 7576,
      "Ġelderly": 7577,
      "Ġriveting": 7578,
      "Ġuncomfort": 7579,
      "Ġjoseph": 7580,
      "function": 7581,
      "Ġnemesis": 7582,
      "Ġdictator": 7583,
      "Ġelaborate": 7584,
      "something": 7585,
      "onymous": 7586,
      "Ġsophisticated": 7587,
      "Ġmatthau": 7588,
      "alysis": 7589,
      "Ġredemption": 7590,
      "Ġunpleasant": 7591,
      "Ġdeneuve": 7592,
      "bow": 7593,
      "bach": 7594,
      "cult": 7595,
      "ecess": 7596,
      "gate": 7597,
      "ih": 7598,
      "kie": 7599,
      "lical": 7600,
      "mn": 7601,
      "mart": 7602,
      "nic": 7603,
      "oen": 7604,
      "rd": 7605,
      "rat": 7606,
      "rot": 7607,
      "rum": 7608,
      "sman": 7609,
      "wind": 7610,
      "Ġ=": 7611,
      "Ġsull": 7612,
      "Ġsob": 7613,
      "rec": 7614,
      "Ġmim": 7615,
      "Ġmund": 7616,
      "Ġfart": 7617,
      "Ġfianc": 7618,
      "Ġtends": 7619,
      "Ġgw": 7620,
      "Ġgor": 7621,
      "Ġgim": 7622,
      "ilight": 7623,
      "ilarly": 7624,
      "Ġaute": 7625,
      "itate": 7626,
      "Ġnun": 7627,
      "Ġreyn": 7628,
      "Ġstim": 7629,
      "Ġstaged": 7630,
      "Ġstumble": 7631,
      "cha": 7632,
      "chen": 7633,
      "Ġrant": 7634,
      "Ġrag": 7635,
      "Ġrug": 7636,
      "Ġrail": 7637,
      "adle": 7638,
      "ssy": 7639,
      "Ġsebast": 7640,
      "olate": 7641,
      "Ġthrew": 7642,
      "Ġlift": 7643,
      "thm": 7644,
      "than": 7645,
      "Ġkle": 7646,
      "Ġkramer": 7647,
      "Ġdear": 7648,
      "Ġdeed": 7649,
      "raged": 7650,
      "Ġshel": 7651,
      "Ġshod": 7652,
      "emic": 7653,
      "emark": 7654,
      "Ġjill": 7655,
      "Ġventure": 7656,
      "roc": 7657,
      "robe": 7658,
      "people": 7659,
      "Ġplausible": 7660,
      "Ġbee": 7661,
      "Ġleap": 7662,
      "Ġworship": 7663,
      "Ġconce": 7664,
      "Ġconve": 7665,
      "Ġyesterday": 7666,
      "Ġmuse": 7667,
      "Ġprecise": 7668,
      "Ġclothing": 7669,
      "Ġspine": 7670,
      "Ġspaghetti": 7671,
      "about": 7672,
      "agan": 7673,
      "Ġblake": 7674,
      "Ġblah": 7675,
      "Ġuh": 7676,
      "Ġgreatness": 7677,
      "Ġjoined": 7678,
      "Ġarc": 7679,
      "apper": 7680,
      "Ġfluff": 7681,
      "Ġorient": 7682,
      "Ġorphan": 7683,
      "Ġenters": 7684,
      "Ġtracy": 7685,
      "Ġ22": 7686,
      "Ġslice": 7687,
      "fferson": 7688,
      "phew": 7689,
      "Ġsimilarly": 7690,
      "ensible": 7691,
      "avin": 7692,
      "ifying": 7693,
      "Ġcompelled": 7694,
      "Ġcomposition": 7695,
      "Ġsmack": 7696,
      "Ġwebs": 7697,
      "Ġcheek": 7698,
      "Ġoverrated": 7699,
      "Ġawa": 7700,
      "Ġmarx": 7701,
      "Ġmarie": 7702,
      "Ġproducing": 7703,
      "Ġkidding": 7704,
      "Ġrecover": 7705,
      "Ġcarefully": 7706,
      "Ġinsert": 7707,
      "prov": 7708,
      "Ġepit": 7709,
      "Ġagenda": 7710,
      "who": 7711,
      "Ġoutcome": 7712,
      "Ġunfair": 7713,
      "ographic": 7714,
      "Ġskit": 7715,
      "Ġcoast": 7716,
      "Ġhousehold": 7717,
      "neyed": 7718,
      "Ġheartbreaking": 7719,
      "Ġoffended": 7720,
      "Ġdefinition": 7721,
      "Ġcommented": 7722,
      "Ġafore": 7723,
      "Ġgreed": 7724,
      "Ġgreedy": 7725,
      "Ġwinchester": 7726,
      "ructed": 7727,
      "Ġmasterful": 7728,
      "Ġsmaller": 7729,
      "played": 7730,
      "Ġpredecess": 7731,
      "unky": 7732,
      "Ġconclud": 7733,
      "Ġpatience": 7734,
      "Ġdevast": 7735,
      "Ġdavy": 7736,
      "Ġlegal": 7737,
      "Ġtransition": 7738,
      "Ġannoyed": 7739,
      "Ġtomato": 7740,
      "Ġordered": 7741,
      "Ġescaped": 7742,
      "Ġbabe": 7743,
      "Ġdrawing": 7744,
      "Ġsuggestion": 7745,
      "Ġ1999": 7746,
      "Ġvein": 7747,
      "Ġillogical": 7748,
      "Ġaustin": 7749,
      "Ġslightest": 7750,
      "Ġburst": 7751,
      "Ġrespond": 7752,
      "Ġtrademark": 7753,
      "luster": 7754,
      "Ġrequires": 7755,
      "Ġlogan": 7756,
      "Ġessential": 7757,
      "Ġmoody": 7758,
      "Ġunbelievably": 7759,
      "Ġbrutally": 7760,
      "Ġimproved": 7761,
      "Ġtunnel": 7762,
      "Ġdaring": 7763,
      "Ġluckily": 7764,
      "Ġchallenging": 7765,
      "genre": 7766,
      "Ġbiography": 7767,
      "Ġbriefly": 7768,
      "Ġestate": 7769,
      "Ġbully": 7770,
      "Ġhackneyed": 7771,
      "Ġdivine": 7772,
      "Ġiii": 7773,
      "Ġservant": 7774,
      "Ġhooker": 7775,
      "Ġpunishment": 7776,
      "Ġprepare": 7777,
      "Ġcontempl": 7778,
      "Ġroute": 7779,
      "Ġantonio": 7780,
      "Ġbrando": 7781,
      "Ġfrustrated": 7782,
      "Ġbelongs": 7783,
      "Ġagrees": 7784,
      "Ġpedest": 7785,
      "Ġlaurel": 7786,
      "Ġprinciple": 7787,
      "Ġbetrayal": 7788,
      "Ġinjury": 7789,
      "arette": 7790,
      "Ġpulp": 7791,
      "Ġdefeat": 7792,
      "Ġmechan": 7793,
      "Ġmodesty": 7794,
      "Ġorchestra": 7795,
      "Ġdedicated": 7796,
      "Ġcoffee": 7797,
      "Ġbaldwin": 7798,
      "Ġapocalypse": 7799,
      "Ġcaptivating": 7800,
      "Ġconcentrate": 7801,
      "Ġsimplistic": 7802,
      "ophobic": 7803,
      "Ġcigarette": 7804,
      "Ġincompetent": 7805,
      "Ġwatson": 7806,
      "Ġanchor": 7807,
      "Ġgesture": 7808,
      "Ġinappropriate": 7809,
      "Ġatlantis": 7810,
      "Ġgadget": 7811,
      "Ġrifle": 7812,
      "Ġunwatchable": 7813,
      "Ġaristoc": 7814,
      "Ġsuperficial": 7815,
      "Ġreynolds": 7816,
      "Ġwebsite": 7817,
      "Ġpredecessor": 7818,
      "'re": 7819,
      "15": 7820,
      "acious": 7821,
      "big": 7822,
      "binder": 7823,
      "cu": 7824,
      "cover": 7825,
      "dog": 7826,
      "dep": 7827,
      "foot": 7828,
      "faced": 7829,
      "gling": 7830,
      "har": 7831,
      "hance": 7832,
      "hoe": 7833,
      "iant": 7834,
      "lord": 7835,
      "mid": 7836,
      "much": 7837,
      "uity": 7838,
      "video": 7839,
      "would": 7840,
      "yo": 7841,
      "Ġ_": 7842,
      "Ġ{": 7843,
      "Ġille": 7844,
      "Ġsig": 7845,
      "Ġsway": 7846,
      "Ġsappy": 7847,
      "erior": 7848,
      "erbergh": 7849,
      "Ġmode": 7850,
      "Ġmoh": 7851,
      "ings": 7852,
      "ingu": 7853,
      "Ġfx": 7854,
      "Ġfence": 7855,
      "Ġpom": 7856,
      "Ġpoll": 7857,
      "Ġpaz": 7858,
      "Ġpix": 7859,
      "Ġtople": 7860,
      "Ġtame": 7861,
      "Ġtip": 7862,
      "Ġtang": 7863,
      "Ġtool": 7864,
      "arian": 7865,
      "oric": 7866,
      "Ġlur": 7867,
      "Ġlately": 7868,
      "Ġwt": 7869,
      "Ġwore": 7870,
      "Ġbart": 7871,
      "Ġbum": 7872,
      "Ġbost": 7873,
      "Ġbaker": 7874,
      "Ġbollywood": 7875,
      "Ġdill": 7876,
      "Ġdere": 7877,
      "Ġdarn": 7878,
      "leading": 7879,
      "Ġapt": 7880,
      "Ġhis": 7881,
      "Ġhes": 7882,
      "Ġhitting": 7883,
      "Ġeb": 7884,
      "Ġease": 7885,
      "Ġnause": 7886,
      "Ġniel": 7887,
      "Ġnancy": 7888,
      "Ġnarc": 7889,
      "Ġrein": 7890,
      "Ġrely": 7891,
      "Ġrebel": 7892,
      "els": 7893,
      "eliness": 7894,
      "Ġstood": 7895,
      "cho": 7896,
      "Ġrit": 7897,
      "ima": 7898,
      "unte": 7899,
      "ssbinder": 7900,
      "Ġsem": 7901,
      "Ġchamber": 7902,
      "aman": 7903,
      "Ġinac": 7904,
      "opter": 7905,
      "opoul": 7906,
      "Ġkent": 7907,
      "rait": 7908,
      "Ġjen": 7909,
      "Ġvance": 7910,
      "Ġmaid": 7911,
      "endo": 7912,
      "Ġnephew": 7913,
      "Ġsue": 7914,
      "Ġdiary": 7915,
      "Ġunden": 7916,
      "Ġwatcher": 7917,
      "Ġpreced": 7918,
      "Ġenorm": 7919,
      "Ġenhance": 7920,
      "Ġpose": 7921,
      "Ġspont": 7922,
      "cience": 7923,
      "akest": 7924,
      "mented": 7925,
      "plo": 7926,
      "Ġfassbinder": 7927,
      "Ġdiss": 7928,
      "Ġdisease": 7929,
      "pless": 7930,
      "attan": 7931,
      "ocative": 7932,
      "Ġflo": 7933,
      "Ġgris": 7934,
      "izard": 7935,
      "ivan": 7936,
      "Ġslip": 7937,
      "angement": 7938,
      "Ġcontained": 7939,
      "Ġdirectorial": 7940,
      "Ġintro": 7941,
      "Ġintric": 7942,
      "Ġdecline": 7943,
      "Ġsmell": 7944,
      "Ġfruit": 7945,
      "Ġterry": 7946,
      "Ġoverlong": 7947,
      "Ġmarl": 7948,
      "Ġasp": 7949,
      "anks": 7950,
      "Ġyoungster": 7951,
      "Ġlaughably": 7952,
      "Ġphant": 7953,
      "ublic": 7954,
      "Ġtribe": 7955,
      "Ġcommits": 7956,
      "Ġdelicious": 7957,
      "Ġglamor": 7958,
      "Ġaccuracy": 7959,
      "Ġportrait": 7960,
      "Ġearl": 7961,
      "Ġsits": 7962,
      "Ġblackmail": 7963,
      "Ġmenace": 7964,
      "Ġsof": 7965,
      "Ġcorn": 7966,
      "Ġlackluster": 7967,
      "Ġmurderous": 7968,
      "Ġretro": 7969,
      "Ġsadness": 7970,
      "Ġgenerous": 7971,
      "Ġsilence": 7972,
      "Ġdistant": 7973,
      "Ġmyers": 7974,
      "Ġpainted": 7975,
      "Ġlively": 7976,
      "Ġsnap": 7977,
      "eryl": 7978,
      "Ġadmission": 7979,
      "Ġdealer": 7980,
      "heard": 7981,
      "Ġpsychotic": 7982,
      "Ġfeminist": 7983,
      "Ġ2003": 7984,
      "Ġprompt": 7985,
      "Ġfrankie": 7986,
      "Ġlaunch": 7987,
      "Ġpauline": 7988,
      "Ġtommy": 7989,
      "oebe": 7990,
      "Ġhyde": 7991,
      "Ġnearby": 7992,
      "Ġiq": 7993,
      "Ġstraightforward": 7994,
      "Ġconvinced": 7995,
      "Ġerrol": 7996,
      "Ġrichardson": 7997,
      "Ġtimothy": 7998,
      "Ġsecretary": 7999,
      "develop": 8000,
      "Ġtermin": 8001,
      "Ġdesigner": 8002,
      "Ġposted": 8003,
      "Ġprize": 8004,
      "Ġausten": 8005,
      "Ġsunshine": 8006,
      "Ġburning": 8007,
      "Ġmcg": 8008,
      "Ġbedroom": 8009,
      "Ġmirac": 8010,
      "Ġmiracle": 8011,
      "boys": 8012,
      "Ġberg": 8013,
      "Ġhistorically": 8014,
      "okes": 8015,
      "Ġdesperation": 8016,
      "Ġrambo": 8017,
      "Ġsplatter": 8018,
      "Ġdisplayed": 8019,
      "Ġrepresented": 8020,
      "Ġabsurdity": 8021,
      "Ġjewel": 8022,
      "Ġtemper": 8023,
      "Ġhatred": 8024,
      "Ġunexpectedly": 8025,
      "Ġbanal": 8026,
      "Ġinvestigate": 8027,
      "Ġinvestigation": 8028,
      "working": 8029,
      "Ġunderstated": 8030,
      "Ġbogart": 8031,
      "Ġstanley": 8032,
      "Ġresemblance": 8033,
      "Ġbeneath": 8034,
      "Ġvolume": 8035,
      "Ġvolunte": 8036,
      "Ġexplosive": 8037,
      "Ġimprovement": 8038,
      "Ġconfrontation": 8039,
      "Ġpolitician": 8040,
      "Ġsedu": 8041,
      "Ġninety": 8042,
      "Ġexhib": 8043,
      "Ġcorruption": 8044,
      "Ġsolely": 8045,
      "Ġcounty": 8046,
      "Ġsymbolism": 8047,
      "remember": 8048,
      "Ġtacky": 8049,
      "Ġskeleton": 8050,
      "Ġwrestling": 8051,
      "Ġpatriot": 8052,
      "Ġolivia": 8053,
      "Ġolivier": 8054,
      "Ġrendered": 8055,
      "Ġnostalgia": 8056,
      "Ġireland": 8057,
      "Ġtransc": 8058,
      "Ġsurfing": 8059,
      "Ġreduced": 8060,
      "Ġreserved": 8061,
      "Ġpirate": 8062,
      "Ġbacon": 8063,
      "Ġblatant": 8064,
      "Ġinfected": 8065,
      "Ġjealous": 8066,
      "Ġtaxi": 8067,
      "Ġpuzzle": 8068,
      "Ġwacky": 8069,
      "Ġarrogant": 8070,
      "Ġhughes": 8071,
      "Ġcrystal": 8072,
      "Ġscheme": 8073,
      "Ġadmittedly": 8074,
      "Ġdynamic": 8075,
      "Ġasterix": 8076,
      "Ġresurrect": 8077,
      "Ġdiamond": 8078,
      "Ġvengeance": 8079,
      "unfortunately": 8080,
      "Ġensues": 8081,
      "Ġlupino": 8082,
      "Ġaforementioned": 8083,
      "Ġtopless": 8084,
      "Ġderek": 8085,
      "30": 8086,
      "bro": 8087,
      "based": 8088,
      "cause": 8089,
      "daughter": 8090,
      "fus": 8091,
      "gra": 8092,
      "hist": 8093,
      "iber": 8094,
      "je": 8095,
      "mor": 8096,
      "mak": 8097,
      "mick": 8098,
      "paced": 8099,
      "rim": 8100,
      "rator": 8101,
      "shing": 8102,
      "sper": 8103,
      "tz": 8104,
      "title": 8105,
      "vas": 8106,
      "zomb": 8107,
      "Ġ[": 8108,
      "Ġ}": 8109,
      "Ġil": 8110,
      "inate": 8111,
      "Ġsic": 8112,
      "Ġsov": 8113,
      "Ġsally": 8114,
      "Ġsag": 8115,
      "Ġselling": 8116,
      "erv": 8117,
      "Ġce": 8118,
      "Ġcad": 8119,
      "Ġcried": 8120,
      "Ġcushing": 8121,
      "Ġfren": 8122,
      "Ġpoo": 8123,
      "Ġpap": 8124,
      "Ġtank": 8125,
      "Ġtrend": 8126,
      "Ġlor": 8127,
      "Ġlinger": 8128,
      "Ġwishing": 8129,
      "Ġbent": 8130,
      "Ġbrend": 8131,
      "Ġdit": 8132,
      "Ġdaw": 8133,
      "Ġdys": 8134,
      "Ġdrey": 8135,
      "Ġdante": 8136,
      "Ġgamb": 8137,
      "oubted": 8138,
      "iled": 8139,
      "Ġaven": 8140,
      "Ġaug": 8141,
      "Ġeerie": 8142,
      "icopter": 8143,
      "ova": 8144,
      "eline": 8145,
      "Ġstare": 8146,
      "Ġstaff": 8147,
      "Ġstellar": 8148,
      "ota": 8149,
      "ching": 8150,
      "Ġrup": 8151,
      "Ġrising": 8152,
      "Ġroof": 8153,
      "Ġrural": 8154,
      "unning": 8155,
      "Ġfilmmaking": 8156,
      "Ġchin": 8157,
      "verted": 8158,
      "ulf": 8159,
      "opa": 8160,
      "Ġkil": 8161,
      "Ġkaz": 8162,
      "Ġkitty": 8163,
      "Ġdele": 8164,
      "Ġshyl": 8165,
      "Ġja": 8166,
      "Ġjake": 8167,
      "Ġvin": 8168,
      "Ġvide": 8169,
      "Ġvib": 8170,
      "Ġmacy": 8171,
      "endable": 8172,
      "ells": 8173,
      "roid": 8174,
      "pest": 8175,
      "Ġbeard": 8176,
      "Ġunp": 8177,
      "Ġworn": 8178,
      "Ġanaly": 8179,
      "Ġcondu": 8180,
      "quin": 8181,
      "quisite": 8182,
      "igma": 8183,
      "Ġmanh": 8184,
      "Ġmaniac": 8185,
      "Ġtrade": 8186,
      "Ġgoodman": 8187,
      "Ġcharacteristic": 8188,
      "Ġprepar": 8189,
      "Ġclerk": 8190,
      "Ġspain": 8191,
      "new": 8192,
      "Ġpeck": 8193,
      "ourse": 8194,
      "osis": 8195,
      "irsty": 8196,
      "Ġdisliked": 8197,
      "Ġmeg": 8198,
      "Ġtwilight": 8199,
      "Ġsaf": 8200,
      "perhaps": 8201,
      "Ġgrot": 8202,
      "Ġcaval": 8203,
      "pecting": 8204,
      "izoph": 8205,
      "Ġ23": 8206,
      "Ġdropped": 8207,
      "Ġabys": 8208,
      "Ġabund": 8209,
      "Ġtalked": 8210,
      "Ġsimm": 8211,
      "awa": 8212,
      "Ġnewly": 8213,
      "Ġkeen": 8214,
      "Ġincons": 8215,
      "Ġcarmen": 8216,
      "Ġwarren": 8217,
      "Ġweakest": 8218,
      "Ġcheat": 8219,
      "Ġhighest": 8220,
      "lix": 8221,
      "aney": 8222,
      "Ġsettle": 8223,
      "Ġburied": 8224,
      "Ġelvir": 8225,
      "Ġellen": 8226,
      "Ġphoebe": 8227,
      "Ġedgy": 8228,
      "Ġreluct": 8229,
      "Ġcamilla": 8230,
      "Ġhelicopter": 8231,
      "entionally": 8232,
      "Ġaging": 8233,
      "Ġexploring": 8234,
      "Ġcolin": 8235,
      "xton": 8236,
      "Ġesp": 8237,
      "Ġabsence": 8238,
      "Ġheaded": 8239,
      "Ġwalker": 8240,
      "Ġrepublic": 8241,
      "Ġvisible": 8242,
      "Ġeleven": 8243,
      "Ġappearing": 8244,
      "Ġrefuge": 8245,
      "Ġcredited": 8246,
      "Ġpaxton": 8247,
      "Ġgregory": 8248,
      "Ġvalid": 8249,
      "Ġclosest": 8250,
      "Ġsuspend": 8251,
      "Ġsatir": 8252,
      "Ġpopulation": 8253,
      "Ġmaggie": 8254,
      "Ġ2004": 8255,
      "Ġpromotion": 8256,
      "Ġgarner": 8257,
      "anyone": 8258,
      "ribute": 8259,
      "Ġ1982": 8260,
      "Ġ1972": 8261,
      "Ġfaster": 8262,
      "brow": 8263,
      "Ġpublish": 8264,
      "Ġmeaningless": 8265,
      "Ġacceptance": 8266,
      "Ġsuggested": 8267,
      "Ġ1992": 8268,
      "Ġeuropa": 8269,
      "Ġtracking": 8270,
      "Ġarmed": 8271,
      "Ġregarded": 8272,
      "Ġkicked": 8273,
      "Ġsalv": 8274,
      "Ġsandler": 8275,
      "Ġbeaten": 8276,
      "Ġlena": 8277,
      "Ġhallmark": 8278,
      "Ġrambling": 8279,
      "Ġremarkably": 8280,
      "Ġpacked": 8281,
      "Ġchallenged": 8282,
      "Ġconvol": 8283,
      "laud": 8284,
      "Ġmiike": 8285,
      "Ġpassionate": 8286,
      "Ġcomplexity": 8287,
      "front": 8288,
      "Ġadditional": 8289,
      "Ġdepression": 8290,
      "Ġwitnessed": 8291,
      "Ġinfluenced": 8292,
      "Ġundead": 8293,
      "Ġafterward": 8294,
      "Ġquietly": 8295,
      "Ġcivilization": 8296,
      "Ġvictoria": 8297,
      "Ġassuming": 8298,
      "Ġformulaic": 8299,
      "Ġcannon": 8300,
      "Ġwounded": 8301,
      "Ġobliv": 8302,
      "Ġfrustration": 8303,
      "Ġassassination": 8304,
      "Ġfrequent": 8305,
      "Ġunintentionally": 8306,
      "Ġninja": 8307,
      "Ġalternate": 8308,
      "Ġdisappears": 8309,
      "Ġnicol": 8310,
      "Ġcharisma": 8311,
      "Ġbernard": 8312,
      "Ġhippy": 8313,
      "Ġpitiful": 8314,
      "production": 8315,
      "uddled": 8316,
      "Ġenthusiasm": 8317,
      "Ġmaintain": 8318,
      "Ġobscure": 8319,
      "Ġexplores": 8320,
      "Ġdistracting": 8321,
      "Ġbiko": 8322,
      "Ġdodge": 8323,
      "Ġtiresome": 8324,
      "Ġstroke": 8325,
      "Ġsoderbergh": 8326,
      "Ġprostitute": 8327,
      "Ġclumsy": 8328,
      "Ġrhythm": 8329,
      "Ġsupreme": 8330,
      "Ġsplendid": 8331,
      "Ġriot": 8332,
      "Ġmansion": 8333,
      "Ġbakshi": 8334,
      "Ġnelson": 8335,
      "Ġrecycled": 8336,
      "Ġsilliness": 8337,
      "adventure": 8338,
      "Ġjordan": 8339,
      "Ġgosling": 8340,
      "Ġinspector": 8341,
      "Ġpedestrian": 8342,
      "hoeven": 8343,
      "opoulos": 8344,
      "developed": 8345,
      "Ġrupert": 8346,
      "Ġshylock": 8347,
      "izophren": 8348,
      "car": 8349,
      "cul": 8350,
      "dri": 8351,
      "fman": 8352,
      "gic": 8353,
      "his": 8354,
      "hop": 8355,
      "hanger": 8356,
      "must": 8357,
      "note": 8358,
      "oir": 8359,
      "po": 8360,
      "sk": 8361,
      "too": 8362,
      "wan": 8363,
      "wear": 8364,
      "Ã¼": 8365,
      "Ġ@": 8366,
      "Ġsg": 8367,
      "Ġsau": 8368,
      "Ġmall": 8369,
      "Ġmelt": 8370,
      "encer": 8371,
      "oner": 8372,
      "once": 8373,
      "ongest": 8374,
      "Ġfo": 8375,
      "Ġfont": 8376,
      "Ġfried": 8377,
      "Ġfetch": 8378,
      "aled": 8379,
      "Ġpg": 8380,
      "Ġpony": 8381,
      "Ġporter": 8382,
      "Ġpushing": 8383,
      "Ġpione": 8384,
      "Ġtin": 8385,
      "Ġtail": 8386,
      "eder": 8387,
      "Ġlic": 8388,
      "Ġlun": 8389,
      "Ġlens": 8390,
      "Ġlends": 8391,
      "Ġwag": 8392,
      "Ġwont": 8393,
      "Ġwizard": 8394,
      "Ġbun": 8395,
      "Ġbates": 8396,
      "stage": 8397,
      "Ġgand": 8398,
      "Ġaz": 8399,
      "Ġhug": 8400,
      "Ġeste": 8401,
      "itable": 8402,
      "Ġnan": 8403,
      "Ġnaught": 8404,
      "Ġreck": 8405,
      "Ġstilted": 8406,
      "child": 8407,
      "Ġrope": 8408,
      "Ġrotten": 8409,
      "idal": 8410,
      "Ġchoppy": 8411,
      "sect": 8412,
      "Ġlibert": 8413,
      "opic": 8414,
      "Ġdeer": 8415,
      "Ġshear": 8416,
      "anter": 8417,
      "acts": 8418,
      "active": 8419,
      "asted": 8420,
      "Ġsuff": 8421,
      "Ġleather": 8422,
      "Ġdien": 8423,
      "Ġunion": 8424,
      "Ġconnery": 8425,
      "Ġperry": 8426,
      "allow": 8427,
      "Ġpoetic": 8428,
      "Ġspade": 8429,
      "cially": 8430,
      "Ġpeg": 8431,
      "Ġendure": 8432,
      "Ġquant": 8433,
      "Ġadjust": 8434,
      "Ġprol": 8435,
      "Ġblur": 8436,
      "Ġuwe": 8437,
      "Ġamanda": 8438,
      "Ġjoker": 8439,
      "Ġarab": 8440,
      "Ġarcher": 8441,
      "Ġlifeless": 8442,
      "Ġorange": 8443,
      "Ġserum": 8444,
      "Ġbett": 8445,
      "izable": 8446,
      "ivative": 8447,
      "Ġtrace": 8448,
      "Ġslam": 8449,
      "techn": 8450,
      "Ġcriter": 8451,
      "Ġattached": 8452,
      "Ġintoler": 8453,
      "Ġembra": 8454,
      "Ġhumili": 8455,
      "Ġwarrant": 8456,
      "Ġobt": 8457,
      "Ġoverdone": 8458,
      "Ġsubl": 8459,
      "Ġunderwater": 8460,
      "aneous": 8461,
      "Ġyoungest": 8462,
      "Ġelite": 8463,
      "Ġedition": 8464,
      "Ġapple": 8465,
      "Ġapplaud": 8466,
      "Ġhelpless": 8467,
      "Ġaggress": 8468,
      "Ġmonk": 8469,
      "Ġmonologue": 8470,
      "Ġsched": 8471,
      "Ġschizophren": 8472,
      "ashi": 8473,
      "Ġcommander": 8474,
      "Ġherman": 8475,
      "Ġrunner": 8476,
      "Ġabsent": 8477,
      "Ġunfolds": 8478,
      "ographed": 8479,
      "Ġskull": 8480,
      "Ġcoh": 8481,
      "Ġcoherent": 8482,
      "Ġrecommendation": 8483,
      "Ġearned": 8484,
      "otto": 8485,
      "Ġassured": 8486,
      "rossing": 8487,
      "Ġrepulsive": 8488,
      "Ġharvest": 8489,
      "Ġharvey": 8490,
      "Ġdiscon": 8491,
      "Ġvisitor": 8492,
      "gery": 8493,
      "Ġunderstands": 8494,
      "Ġunderstandable": 8495,
      "Ġbarg": 8496,
      "Ġbarrier": 8497,
      "Ġconfident": 8498,
      "Ġcorb": 8499,
      "Ġexped": 8500,
      "Ġnamely": 8501,
      "Ġmorbid": 8502,
      "Ġbreed": 8503,
      "Ġgreg": 8504,
      "Ġ99": 8505,
      "Ġangst": 8506,
      "enna": 8507,
      "Ġmisgu": 8508,
      "Ġdemise": 8509,
      "Ġpassable": 8510,
      "Ġproperty": 8511,
      "Ġracial": 8512,
      "guin": 8513,
      "Ġcolleague": 8514,
      "Ġlanding": 8515,
      "Ġconstruction": 8516,
      "Ġchecked": 8517,
      "Ġ1987": 8518,
      "Ġ1988": 8519,
      "Ġ1989": 8520,
      "Ġcontrary": 8521,
      "Ġknee": 8522,
      "Ġcriticize": 8523,
      "Ġavoided": 8524,
      "Ġmistress": 8525,
      "borough": 8526,
      "Ġclaud": 8527,
      "wered": 8528,
      "Ġhammy": 8529,
      "Ġcomplaining": 8530,
      "Ġcube": 8531,
      "Ġradical": 8532,
      "Ġprofanity": 8533,
      "Ġverhoeven": 8534,
      "Ġmotel": 8535,
      "Ġbutler": 8536,
      "Ġapprox": 8537,
      "Ġfascination": 8538,
      "Ġliterature": 8539,
      "Ġrepeating": 8540,
      "Ġjumped": 8541,
      "Ġidioc": 8542,
      "Ġclimactic": 8543,
      "Ġdaisy": 8544,
      "Ġpenguin": 8545,
      "Ġrecorded": 8546,
      "Ġrequire": 8547,
      "Ġunsett": 8548,
      "Ġessay": 8549,
      "Ġtraveling": 8550,
      "royd": 8551,
      "Ġentering": 8552,
      "Ġdeliber": 8553,
      "Ġconvict": 8554,
      "check": 8555,
      "Ġfashioned": 8556,
      "Ġdimensional": 8557,
      "Ġseller": 8558,
      "Ġimplausible": 8559,
      "Ġblew": 8560,
      "eyed": 8561,
      "Ġrobinson": 8562,
      "Ġnonsens": 8563,
      "Ġundoubted": 8564,
      "Ġderivative": 8565,
      "Ġclueless": 8566,
      "Ġaccurately": 8567,
      "Ġmobster": 8568,
      "regard": 8569,
      "Ġcasual": 8570,
      "Ġashley": 8571,
      "Ġhideous": 8572,
      "Ġdisappeared": 8573,
      "Ġambition": 8574,
      "Ġaltman": 8575,
      "Ġhokey": 8576,
      "Ġaccomplish": 8577,
      "Ġloneliness": 8578,
      "Ġwardrobe": 8579,
      "Ġfrozen": 8580,
      "Ġdemonstrates": 8581,
      "Ġkathy": 8582,
      "Ġphilosophy": 8583,
      "walk": 8584,
      "Ġnicholas": 8585,
      "rehensible": 8586,
      "Ġmortal": 8587,
      "finally": 8588,
      "Ġalcohol": 8589,
      "Ġsubplots": 8590,
      "Ġignorance": 8591,
      "Ġphenomenon": 8592,
      "Ġphenomenal": 8593,
      "Ġnostalgic": 8594,
      "Ġbounty": 8595,
      "Ġincorpor": 8596,
      "Ġdestroying": 8597,
      "Ġpoetry": 8598,
      "Ġresembles": 8599,
      "Ġimmensely": 8600,
      "Ġtingle": 8601,
      "Ġbarker": 8602,
      "Ġsubsequent": 8603,
      "Ġhogan": 8604,
      "Ġkurtz": 8605,
      "Ġexorcist": 8606,
      "Ġsorely": 8607,
      "Ġpatricia": 8608,
      "Ġbiblical": 8609,
      "Ġstallone": 8610,
      "Ġnotorious": 8611,
      "Ġodyssey": 8612,
      "Ġarnold": 8613,
      "Ġmundane": 8614,
      "Ġgimmick": 8615,
      "makers": 8616,
      "ervative": 8617,
      "Ġgrotesque": 8618,
      "Ġsimmons": 8619,
      "Ġelvira": 8620,
      "Ġliberty": 8621,
      "Ġcriterion": 8622,
      "Ġmisguided": 8623,
      "buck": 8624,
      "could": 8625,
      "da": 8626,
      "disc": 8627,
      "fact": 8628,
      "iour": 8629,
      "iably": 8630,
      "jer": 8631,
      "lia": 8632,
      "mouth": 8633,
      "notic": 8634,
      "rup": 8635,
      "sur": 8636,
      "taker": 8637,
      "vance": 8638,
      "went": 8639,
      "wick": 8640,
      "wonder": 8641,
      "yet": 8642,
      "your": 8643,
      "yll": 8644,
      "Ã¨": 8645,
      "inity": 8646,
      "Ġmul": 8647,
      "Ġmedic": 8648,
      "Ġcim": 8649,
      "Ġcake": 8650,
      "oning": 8651,
      "Ġfuel": 8652,
      "Ġfisher": 8653,
      "Ġpic": 8654,
      "Ġpfe": 8655,
      "Ġpause": 8656,
      "Ġtam": 8657,
      "Ġtok": 8658,
      "Ġturt": 8659,
      "orrow": 8660,
      "Ġwagon": 8661,
      "Ġwashed": 8662,
      "Ġbold": 8663,
      "Ġbenn": 8664,
      "Ġbump": 8665,
      "Ġbumbling": 8666,
      "stant": 8667,
      "Ġdame": 8668,
      "Ġdating": 8669,
      "Ġdup": 8670,
      "Ġdave": 8671,
      "Ġdwar": 8672,
      "Ġgear": 8673,
      "Ġgolf": 8674,
      "Ġaar": 8675,
      "Ġhail": 8676,
      "Ġhtt": 8677,
      "Ġeats": 8678,
      "itated": 8679,
      "Ġreci": 8680,
      "Ġrebell": 8681,
      "Ġreese": 8682,
      "omy": 8683,
      "Ġstark": 8684,
      "Ġry": 8685,
      "Ġrave": 8686,
      "Ġrio": 8687,
      "owl": 8688,
      "Ġchoo": 8689,
      "Ġchoc": 8690,
      "Ġchased": 8691,
      "Ġliv": 8692,
      "opard": 8693,
      "Ġkau": 8694,
      "Ġkyle": 8695,
      "cker": 8696,
      "cket": 8697,
      "Ġshade": 8698,
      "Ġvice": 8699,
      "Ġvign": 8700,
      "Ġexotic": 8701,
      "andon": 8702,
      "andra": 8703,
      "astly": 8704,
      "Ġneo": 8705,
      "Ġnev": 8706,
      "Ġsust": 8707,
      "Ġlikewise": 8708,
      "Ġunrelated": 8709,
      "Ġanalysis": 8710,
      "Ġconan": 8711,
      "Ġyak": 8712,
      "Ġyawn": 8713,
      "Ġmanic": 8714,
      "Ġmankind": 8715,
      "ounds": 8716,
      "Ġclone": 8717,
      "Ġclient": 8718,
      "Ġspit": 8719,
      "Ġspoke": 8720,
      "earth": 8721,
      "abris": 8722,
      "cia": 8723,
      "neck": 8724,
      "neath": 8725,
      "Ġbrood": 8726,
      "Ġpeer": 8727,
      "Ġimper": 8728,
      "Ġende": 8729,
      "Ġbaddie": 8730,
      "Ġquit": 8731,
      "Ġquarter": 8732,
      "Ġwhit": 8733,
      "Ġwhis": 8734,
      "Ġadorable": 8735,
      "Ġadrian": 8736,
      "Ġadele": 8737,
      "Ġblink": 8738,
      "Ġupper": 8739,
      "Ġmeal": 8740,
      "Ġmeander": 8741,
      "austr": 8742,
      "Ġdirects": 8743,
      "Ġrealised": 8744,
      "Ġfee": 8745,
      "Ġinterrog": 8746,
      "shell": 8747,
      "Ġserge": 8748,
      "Ġbette": 8749,
      "Ġacid": 8750,
      "Ġtrait": 8751,
      "Ġtraffic": 8752,
      "Ġmayhem": 8753,
      "Ġperforms": 8754,
      "Ġdrove": 8755,
      "Ġminutes": 8756,
      "Ġabortion": 8757,
      "Ġstrongest": 8758,
      "issa": 8759,
      "Ġimprob": 8760,
      "ifty": 8761,
      "Ġcomposed": 8762,
      "version": 8763,
      "Ġsmiling": 8764,
      "liance": 8765,
      "likable": 8766,
      "Ġawake": 8767,
      "Ġsubstant": 8768,
      "Ġmario": 8769,
      "Ġturner": 8770,
      "Ġneeding": 8771,
      "Ġfarmer": 8772,
      "Ġcambod": 8773,
      "Ġwondered": 8774,
      "Ġcareful": 8775,
      "Ġinstant": 8776,
      "Ġartwork": 8777,
      "Ġreasonably": 8778,
      "Ġlasted": 8779,
      "Ġtripe": 8780,
      "Ġextended": 8781,
      "Ġgloss": 8782,
      "Ġversus": 8783,
      "aird": 8784,
      "Ġfinn": 8785,
      "xtap": 8786,
      "xture": 8787,
      "Ġdefense": 8788,
      "Ġsuperhero": 8789,
      "Ġsecondary": 8790,
      "Ġcoe": 8791,
      "Ġmurray": 8792,
      "Ġrestri": 8793,
      "Ġcouch": 8794,
      "Ġbaron": 8795,
      "Ġrukh": 8796,
      "Ġparam": 8797,
      "Ġheartfelt": 8798,
      "umbo": 8799,
      "umbing": 8800,
      "Ġdarker": 8801,
      "Ġreflection": 8802,
      "Ġprovoking": 8803,
      "Ġheroin": 8804,
      "Ġvalent": 8805,
      "Ġsnl": 8806,
      "Ġsnuff": 8807,
      "Ġrocked": 8808,
      "Ġhuh": 8809,
      "Ġfemme": 8810,
      "Ġspoiled": 8811,
      "Ġraider": 8812,
      "Ġsolo": 8813,
      "Ġwished": 8814,
      "Ġgarfield": 8815,
      "Ġimmort": 8816,
      "Ġgundam": 8817,
      "Ġghastly": 8818,
      "ophone": 8819,
      "Ġtomorrow": 8820,
      "Ġconstructed": 8821,
      "Ġprotest": 8822,
      "Ġescap": 8823,
      "Ġcontrad": 8824,
      "Ġ1977": 8825,
      "Ġairport": 8826,
      "Ġsecretly": 8827,
      "Ġlouise": 8828,
      "Ġspiral": 8829,
      "Ġduel": 8830,
      "Ġsigned": 8831,
      "Ġcatching": 8832,
      "Ġ1993": 8833,
      "Ġ1996": 8834,
      "Ġloaded": 8835,
      "Ġwildly": 8836,
      "Ġreferring": 8837,
      "Ġeuro": 8838,
      "Ġfascinated": 8839,
      "Ġpalt": 8840,
      "Ġ1968": 8841,
      "Ġtrashy": 8842,
      "Ġcommunication": 8843,
      "Ġsalman": 8844,
      "Ġberlin": 8845,
      "Ġphysic": 8846,
      "Ġtestament": 8847,
      "Ġbrutality": 8848,
      "ifting": 8849,
      "anagh": 8850,
      "Ġbiased": 8851,
      "Ġjuxtap": 8852,
      "Ġmixture": 8853,
      "Ġunexpl": 8854,
      "Ġgrowth": 8855,
      "breed": 8856,
      "Ġsatisfy": 8857,
      "Ġelectronic": 8858,
      "Ġarrive": 8859,
      "Ġvirtual": 8860,
      "Ġpractical": 8861,
      "without": 8862,
      "Ġprogramme": 8863,
      "Ġcorrectly": 8864,
      "Ġaffected": 8865,
      "Ġgraduation": 8866,
      "Ġinvented": 8867,
      "Ġeaten": 8868,
      "Ġ//": 8869,
      "Ġdeparture": 8870,
      "Ġjesse": 8871,
      "Ġwidmark": 8872,
      "baum": 8873,
      "Ġeducated": 8874,
      "Ġinspirational": 8875,
      "Ġeighty": 8876,
      "plicity": 8877,
      "Ġminimum": 8878,
      "Ġfabric": 8879,
      "Ġdubious": 8880,
      "Ġtonight": 8881,
      "Ġcolumbia": 8882,
      "Ġcorps": 8883,
      "Ġironically": 8884,
      "Ġmama": 8885,
      "Ġbronte": 8886,
      "load": 8887,
      "Ġcuban": 8888,
      "Ġsurroundings": 8889,
      "Ġjunior": 8890,
      "Ġmandy": 8891,
      "Ġensure": 8892,
      "Ġwendy": 8893,
      "Ġcrawl": 8894,
      "Ġlatin": 8895,
      "owski": 8896,
      "Ġvoight": 8897,
      "Ġarguably": 8898,
      "Ġflorida": 8899,
      "Ġeternal": 8900,
      "honestly": 8901,
      "Ġfelix": 8902,
      "Ġsailor": 8903,
      "Ġcolonel": 8904,
      "Ġinstitution": 8905,
      "esthetic": 8906,
      "sweet": 8907,
      "Ġpronoun": 8908,
      "heimer": 8909,
      "Ġuncomfortable": 8910,
      "Ġsebastian": 8911,
      "Ġshoddy": 8912,
      "Ġmuseum": 8913,
      "provoking": 8914,
      "Ġnielsen": 8915,
      "Ġbergman": 8916,
      "Ġsoviet": 8917,
      "Ġdysfunction": 8918,
      "Ġcavalry": 8919,
      "Ġconvoluted": 8920,
      "Ġgandhi": 8921,
      "Ġsublime": 8922,
      "Ġhttp": 8923,
      "Ġkaufman": 8924,
      "Ġvignette": 8925,
      "abriskie": 8926,
      "13": 8927,
      "bound": 8928,
      "bird": 8929,
      "born": 8930,
      "billy": 8931,
      "corder": 8932,
      "dled": 8933,
      "far": 8934,
      "flix": 8935,
      "gard": 8936,
      "gement": 8937,
      "moon": 8938,
      "mpath": 8939,
      "ps": 8940,
      "sher": 8941,
      "sby": 8942,
      "tru": 8943,
      "uh": 8944,
      "uri": 8945,
      "wa": 8946,
      "yard": 8947,
      "Ġoo": 8948,
      "Ġum": 8949,
      "Ġichi": 8950,
      "inf": 8951,
      "inous": 8952,
      "Ġsf": 8953,
      "Ġsi": 8954,
      "Ġsock": 8955,
      "Ġsung": 8956,
      "rep": 8957,
      "Ġmish": 8958,
      "Ġmoe": 8959,
      "Ġcag": 8960,
      "Ġcord": 8961,
      "Ġcattle": 8962,
      "Ġcoward": 8963,
      "Ġcunning": 8964,
      "enborough": 8965,
      "only": 8966,
      "Ġfrog": 8967,
      "Ġfatty": 8968,
      "anne": 8969,
      "anian": 8970,
      "ancing": 8971,
      "Ġponder": 8972,
      "Ġtai": 8973,
      "Ġtoken": 8974,
      "oral": 8975,
      "orus": 8976,
      "orney": 8977,
      "Ġliner": 8978,
      "Ġlaser": 8979,
      "Ġwides": 8980,
      "Ġbamb": 8981,
      "Ġbastard": 8982,
      "Ġbanter": 8983,
      "sted": 8984,
      "stood": 8985,
      "Ġdove": 8986,
      "Ġdaph": 8987,
      "Ġgov": 8988,
      "Ġglee": 8989,
      "oured": 8990,
      "lest": 8991,
      "Ġaer": 8992,
      "Ġhoot": 8993,
      "Ġec": 8994,
      "Ġeh": 8995,
      "Ġnas": 8996,
      "Ġniece": 8997,
      "Ġnik": 8998,
      "ics": 8999,
      "icidal": 9000,
      "Ġreid": 9001,
      "Ġrever": 9002,
      "Ġster": 9003,
      "Ġstress": 9004,
      "Ġstatic": 9005,
      "christ": 9006,
      "Ġrav": 9007,
      "Ġrude": 9008,
      "adona": 9009,
      "ssa": 9010,
      "Ġseal": 9011,
      "Ġsept": 9012,
      "amiliar": 9013,
      "Ġliz": 9014,
      "Ġkink": 9015,
      "Ġkells": 9016,
      "Ġshred": 9017,
      "Ġsheen": 9018,
      "emed": 9019,
      "Ġjol": 9020,
      "asion": 9021,
      "aside": 9022,
      "Ġmack": 9023,
      "Ġactivity": 9024,
      "roe": 9025,
      "Ġplight": 9026,
      "arted": 9027,
      "Ġbefore": 9028,
      "Ġdive": 9029,
      "Ġdiab": 9030,
      "Ġunimag": 9031,
      "Ġange": 9032,
      "quire": 9033,
      "Ġcharl": 9034,
      "uder": 9035,
      "feel": 9036,
      "esman": 9037,
      "arest": 9038,
      "Ġclara": 9039,
      "Ġclaustr": 9040,
      "Ġspouse": 9041,
      "Ġspencer": 9042,
      "abs": 9043,
      "icker": 9044,
      "agn": 9045,
      "osm": 9046,
      "Ġblowing": 9047,
      "Ġfacing": 9048,
      "Ġdish": 9049,
      "Ġjoint": 9050,
      "Ġark": 9051,
      "Ġarrow": 9052,
      "Ġsax": 9053,
      "Ġpartly": 9054,
      "Ġflour": 9055,
      "Ġflip": 9056,
      "Ġflock": 9057,
      "Ġgrate": 9058,
      "Ġentitled": 9059,
      "Ġyears": 9060,
      "izer": 9061,
      "Ġdesired": 9062,
      "Ġremove": 9063,
      "Ġremoved": 9064,
      "Ġsloppy": 9065,
      "Ġattenborough": 9066,
      "Ġattorney": 9067,
      "Ġabst": 9068,
      "Ġabdu": 9069,
      "Ġbelle": 9070,
      "Ġsimplicity": 9071,
      "beaut": 9072,
      "ensor": 9073,
      "Ġstray": 9074,
      "Ġstranded": 9075,
      "aware": 9076,
      "Ġapril": 9077,
      "Ġeva": 9078,
      "Ġsmug": 9079,
      "Ġunderneath": 9080,
      "Ġcrazed": 9081,
      "Ġphony": 9082,
      "scene": 9083,
      "Ġrelent": 9084,
      "Ġcamcorder": 9085,
      "Ġappropri": 9086,
      "Ġzeal": 9087,
      "Ġzabriskie": 9088,
      "Ġmonot": 9089,
      "Ġschne": 9090,
      "Ġexplored": 9091,
      "Ġconservative": 9092,
      "Ġouts": 9093,
      "Ġdelicate": 9094,
      "Ġglance": 9095,
      "Ġglover": 9096,
      "Ġglobe": 9097,
      "Ġmomentum": 9098,
      "sympath": 9099,
      "Ġrestored": 9100,
      "Ġelsewhere": 9101,
      "Ġreply": 9102,
      "Ġbarrel": 9103,
      "Ġdetract": 9104,
      "Ġmurdering": 9105,
      "Ġexpose": 9106,
      "Ġexposition": 9107,
      "Ġhomeless": 9108,
      "Ġstudying": 9109,
      "Ġannie": 9110,
      "Ġpaci": 9111,
      "Ġmessy": 9112,
      "Ġproviding": 9113,
      "Ġafro": 9114,
      "Ġconsiderable": 9115,
      "amped": 9116,
      "cycle": 9117,
      "Ġimaginary": 9118,
      "Ġregion": 9119,
      "Ġregister": 9120,
      "Ġavid": 9121,
      "Ġwaited": 9122,
      "Ġsuspension": 9123,
      "Ġhunk": 9124,
      "Ġguessed": 9125,
      "Ġdeveloping": 9126,
      "Ġlistened": 9127,
      "Ġmisleading": 9128,
      "Ġgeorg": 9129,
      "Ġdespair": 9130,
      "Ġthrilled": 9131,
      "Ġandroid": 9132,
      "Ġpsychic": 9133,
      "Ġpsychology": 9134,
      "Ġinferior": 9135,
      "Ġ2002": 9136,
      "Ġcollector": 9137,
      "uses": 9138,
      "Ġpremier": 9139,
      "Ġopponent": 9140,
      "axy": 9141,
      "Ġtechnic": 9142,
      "Ġdescent": 9143,
      "Ġpotter": 9144,
      "Ġhonesty": 9145,
      "Ġconstit": 9146,
      "Ġidol": 9147,
      "Ġclaude": 9148,
      "Ġhamilton": 9149,
      "Ġmerchant": 9150,
      "Ġexisting": 9151,
      "Ġrespectable": 9152,
      "Ġjudging": 9153,
      "Ġjudgment": 9154,
      "cla": 9155,
      "Ġcancer": 9156,
      "Ġfrontier": 9157,
      "going": 9158,
      "Ġsunny": 9159,
      "Ġsunset": 9160,
      "Ġreferred": 9161,
      "Ġburnt": 9162,
      "Ġunlikeable": 9163,
      "Ġroller": 9164,
      "Ġanswered": 9165,
      "rented": 9166,
      "itsch": 9167,
      "Ġrequest": 9168,
      "Ġhistoric": 9169,
      "ylan": 9170,
[...]
