{
  "version": "1.0",
  "truncation": null,
  "padding": null,
  "added_tokens": [],
  "normalizer": null,
  "pre_tokenizer": {
    "type": "ByteLevel",
    "add_prefix_space": false,
    "trim_offsets": true,
    "use_regex": true
  },
  "post_processor": {
    "type": "ByteLevel",
    "add_prefix_space": true,
    "trim_offsets": false,
    "use_regex": true
  },
  "decoder": {
    "type": "ByteLevel",
    "add_prefix_space": true,
    "trim_offsets": true,
    "use_regex": true
  },
  "model": {
    "type": "BPE",
    "dropout": null,
    "unk_token": null,
    "continuing_subword_prefix": null,
    "end_of_word_suffix": null,
    "fuse_unk": false,
    "byte_fallback": false,
    "vocab": {
      "!": 0,
      "\"": 1,
      "#": 2,
      "$": 3,
      "%": 4,
      "&": 5,
      "'": 6,
      "(": 7,
      ")": 8,
      "*": 9,
      "+": 10,
      ",": 11,
      "-": 12,
      ".": 13,
      "/": 14,
      "0": 15,
      "1": 16,
      "2": 17,
      "3": 18,
      "4": 19,
      "5": 20,
      "6": 21,
      "7": 22,
      "8": 23,
      "9": 24,
      ":": 25,
      ";": 26,
      "<": 27,
      "=": 28,
      ">": 29,
      "?": 30,
      "@": 31,
      "A": 32,
      "B": 33,
      "C": 34,
      "D": 35,
      "E": 36,
      "F": 37,
      "G": 38,
      "H": 39,
      "I": 40,
      "J": 41,
      "K": 42,
      "L": 43,
      "M": 44,
      "N": 45,
      "O": 46,
      "P": 47,
      "Q": 48,
      "R": 49,
      "S": 50,
      "T": 51,
      "U": 52,
      "V": 53,
      "W": 54,
      "X": 55,
      "Y": 56,
      "Z": 57,
      "[": 58,
      "\\": 59,
      "]": 60,
      "^": 61,
      "_": 62,
      "`": 63,
      "a": 64,
      "b": 65,
      "c": 66,
      "d": 67,
      "e": 68,
      "f": 69,
      "g": 70,
      "h": 71,
      "i": 72,
      "j": 73,
      "k": 74,
      "l": 75,
      "m": 76,
      "n": 77,
      "o": 78,
      "p": 79,
      "q": 80,
      "r": 81,
      "s": 82,
      "t": 83,
      "u": 84,
      "v": 85,
      "w": 86,
      "x": 87,
      "y": 88,
      "z": 89,
      "{": 90,
      "|": 91,
      "}": 92,
      "~": 93,
      "¡": 94,
      "¢": 95,
      "£": 96,
      "¤": 97,
      "¥": 98,
      "¦": 99,
      "§": 100,
      "¨": 101,
      "©": 102,
      "ª": 103,
      "«": 104,
      "¬": 105,
      "®": 106,
      "¯": 107,
      "°": 108,
      "±": 109,
      "²": 110,
      "³": 111,
      "´": 112,
      "µ": 113,
      "¶": 114,
      "·": 115,
      "¸": 116,
      "¹": 117,
      "º": 118,
      "»": 119,
      "¼": 120,
      "½": 121,
      "¾": 122,
      "¿": 123,
      "À": 124,
      "Á": 125,
      "Â": 126,
      "Ã": 127,
      "Ä": 128,
      "Å": 129,
      "Æ": 130,
      "Ç": 131,
      "È": 132,
      "É": 133,
      "Ê": 134,
      "Ë": 135,
      "Ì": 136,
      "Í": 137,
      "Î": 138,
      "Ï": 139,
      "Ð": 140,
      "Ñ": 141,
      "Ò": 142,
      "Ó": 143,
      "Ô": 144,
      "Õ": 145,
      "Ö": 146,
      "×": 147,
      "Ø": 148,
      "Ù": 149,
      "Ú": 150,
      "Û": 151,
      "Ü": 152,
      "Ý": 153,
      "Þ": 154,
      "ß": 155,
      "à": 156,
      "á": 157,
      "â": 158,
      "ã": 159,
      "ä": 160,
      "å": 161,
      "æ": 162,
      "ç": 163,
      "è": 164,
      "é": 165,
      "ê": 166,
      "ë": 167,
      "ì": 168,
      "í": 169,
      "î": 170,
      "ï": 171,
      "ð": 172,
      "ñ": 173,
      "ò": 174,
      "ó": 175,
      "ô": 176,
      "õ": 177,
      "ö": 178,
      "÷": 179,
      "ø": 180,
      "ù": 181,
      "ú": 182,
      "û": 183,
      "ü": 184,
      "ý": 185,
      "þ": 186,
      "ÿ": 187,
      "Ā": 188,
      "ā": 189,
      "Ă": 190,
      "ă": 191,
      "Ą": 192,
      "ą": 193,
      "Ć": 194,
      "ć": 195,
      "Ĉ": 196,
      "ĉ": 197,
      "Ċ": 198,
      "ċ": 199,
      "Č": 200,
      "č": 201,
      "Ď": 202,
      "ď": 203,
      "Đ": 204,
      "đ": 205,
      "Ē": 206,
      "ē": 207,
      "Ĕ": 208,
      "ĕ": 209,
      "Ė": 210,
      "ė": 211,
      "Ę": 212,
      "ę": 213,
      "Ě": 214,
      "ě": 215,
      "Ĝ": 216,
      "ĝ": 217,
      "Ğ": 218,
      "ğ": 219,
      "Ġ": 220,
      "ġ": 221,
      "Ģ": 222,
      "ģ": 223,
      "Ĥ": 224,
      "ĥ": 225,
      "Ħ": 226,
      "ħ": 227,
      "Ĩ": 228,
      "ĩ": 229,
      "Ī": 230,
      "ī": 231,
      "Ĭ": 232,
      "ĭ": 233,
      "Į": 234,
      "į": 235,
      "İ": 236,
      "ı": 237,
      "Ĳ": 238,
      "ĳ": 239,
      "Ĵ": 240,
      "ĵ": 241,
      "Ķ": 242,
      "ķ": 243,
      "ĸ": 244,
      "Ĺ": 245,
      "ĺ": 246,
      "Ļ": 247,
      "ļ": 248,
      "Ľ": 249,
      "ľ": 250,
      "Ŀ": 251,
      "ŀ": 252,
      "Ł": 253,
      "ł": 254,
      "Ń": 255,
      "in": 256,
      "Ġs": 257,
      "er": 258,
      "Ġ,": 259,
      "Ġ.": 260,
      "re": 261,
      "Ġm": 262,
      "Ġc": 263,
      "en": 264,
      "on": 265,
      "Ġf": 266,
      "ing": 267,
      "an": 268,
      "al": 269,
      "Ġp": 270,
      "Ġt": 271,
      "ar": 272,
      "ed": 273,
      "or": 274,
      "Ġl": 275,
      "Ġw": 276,
      "at": 277,
      "Ġb": 278,
      "st": 279,
      "Ġ'": 280,
      "Ġd": 281,
      "Ġg": 282,
      "ou": 283,
      "ly": 284,
      "il": 285,
      "le": 286,
      "Ġa": 287,
      "Ġe": 288,
      "it": 289,
      "Ġh": 290,
      "ct": 291,
      "Ġn": 292,
      "ie": 293,
      "ic": 294,
      "ov": 295,
      "Ġre": 296,
      "om": 297,
      "el": 298,
      "Ġst": 299,
      "ent": 300,
      "et": 301,
      "ot": 302,
      "is": 303,
      "ion": 304,
      "ay": 305,
      "ke": 306,
      "ch": 307,
      "ad": 308,
      "gh": 309,
      "ce": 310,
      "Ġr": 311,
      "Ġmov": 312,
      "ow": 313,
      "im": 314,
      "Ġfil": 315,
      "un": 316,
      "Ġmovie": 317,
      "oo": 318,
      "one": 319,
      "Ġfilm": 320,
      "ss": 321,
      "Ġse": 322,
      "id": 323,
      "ol": 324,
      "Ġth": 325,
      "am": 326,
      "Ġch": 327,
      "ver": 328,
      "ve": 329,
      "se": 330,
      "Ġli": 331,
      "Ġin": 332,
      "ul": 333,
      "th": 334,
      "Ġ`": 335,
      "ally": 336,
      "Ġ)": 337,
      "Ġ``": 338,
      "op": 339,
      "Ġk": 340,
      "'t": 341,
      "Ġ(": 342,
      "Ġ''": 343,
      "ri": 344,
      "ir": 345,
      "ur": 346,
      "Ġde": 347,
      "ck": 348,
      "ra": 349,
      "Ġal": 350,
      "Ġsh": 351,
      "ght": 352,
      "em": 353,
      "Ġsc": 354,
      "ld": 355,
      "Ġj": 356,
      "as": 357,
      "her": 358,
      "Ġcom": 359,
      "Ġv": 360,
      "us": 361,
      "ut": 362,
      "Ġone": 363,
      "ell": 364,
      "Ġact": 365,
      "end": 366,
      "ge": 367,
      "Ġ!": 368,
      "ble": 369,
      "Ġma": 370,
      "Ġex": 371,
      "Ġpl": 372,
      "pe": 373,
      "ro": 374,
      "and": 375,
      "ill": 376,
      "ant": 377,
      "act": 378,
      "Ġbe": 379,
      "ood": 380,
      "art": 381,
      "ould": 382,
      "ast": 383,
      "ter": 384,
      "oun": 385,
      "Ġne": 386,
      "Ġsu": 387,
      "Ġlike": 388,
      "ap": 389,
      "ate": 390,
      "Ġdi": 391,
      "ff": 392,
      "Ġun": 393,
      "Ġle": 394,
      "Ġwor": 395,
      "ous": 396,
      "Ġcon": 397,
      "qu": 398,
      "Ġan": 399,
      "ig": 400,
      "Ġy": 401,
      "ive": 402,
      "ime": 403,
      "..": 404,
      "ation": 405,
      "um": 406,
      "ight": 407,
      "ven": 408,
      "Ġo": 409,
      "ory": 410,
      "Ġchar": 411,
      "Ġ?": 412,
      "atch": 413,
      "ain": 414,
      "Ġman": 415,
      "ist": 416,
      "ard": 417,
      "ack": 418,
      "ort": 419,
      "ook": 420,
      "ure": 421,
      "ind": 422,
      "Ġper": 423,
      "Ġ-": 424,
      "Ġtr": 425,
      "ud": 426,
      "Ġever": 427,
      "es": 428,
      "od": 429,
      "Ġgood": 430,
      "all": 431,
      "fe": 432,
      "Ġsee": 433,
      "acter": 434,
      "ine": 435,
      "Ġtime": 436,
      "Ġcharacter": 437,
      "Ġget": 438,
      "ity": 439,
      "reat": 440,
      "Ġpre": 441,
      "Ġwatch": 442,
      "are": 443,
      "og": 444,
      "ong": 445,
      "Ġmu": 446,
      "der": 447,
      "est": 448,
      "Ġ1": 449,
      "Ġstory": 450,
      "ough": 451,
      "Ġpro": 452,
      "ound": 453,
      "pt": 454,
      "Ġwould": 455,
      "Ġen": 456,
      "Ġcl": 457,
      "able": 458,
      "ite": 459,
      "Ġgo": 460,
      "ance": 461,
      "ful": 462,
      "Ġeven": 463,
      "ide": 464,
      "Ġreally": 465,
      "ue": 466,
      "Ġsp": 467,
      "Ġ...": 468,
      "Ġpo": 469,
      "Ġmake": 470,
      "ence": 471,
      "ene": 472,
      "Ġro": 473,
      "ear": 474,
      "Ġshow": 475,
      "ak": 476,
      "ci": 477,
      "orm": 478,
      "Ġbr": 479,
      "hing": 480,
      "Ġsom": 481,
      "ne": 482,
      "pp": 483,
      "Ġwell": 484,
      "so": 485,
      "Ġim": 486,
      "itt": 487,
      "now": 488,
      "ick": 489,
      "ab": 490,
      "Ġpe": 491,
      "age": 492,
      "oy": 493,
      "Ġbad": 494,
      "other": 495,
      "old": 496,
      "ade": 497,
      "our": 498,
      "ag": 499,
      "ice": 500,
      "ink": 501,
      "Ġmuch": 502,
      "Ġfa": 503,
      "Ġend": 504,
      "Ġscene": 505,
      "Ġqu": 506,
      "rect": 507,
      "Ġwh": 508,
      "ious": 509,
      "Ġbl": 510,
      "Ġad": 511,
      "Ġu": 512,
      "Ġplay": 513,
      "ople": 514,
      "Ġ:": 515,
      "ame": 516,
      "ert": 517,
      "os": 518,
      "Ġpr": 519,
      "Ġlov": 520,
      "Ġlook": 521,
      "Ġevery": 522,
      "Ġpeople": 523,
      "pl": 524,
      "Ġgreat": 525,
      "irst": 526,
      "ment": 527,
      "Ġcould": 528,
      "ost": 529,
      "Ġtw": 530,
      "out": 531,
      "ish": 532,
      "Ġme": 533,
      "Ġalso": 534,
      "Ġknow": 535,
      "com": 536,
      "ire": 537,
      "ore": 538,
      "ake": 539,
      "Ġhe": 540,
      "Ġdirect": 541,
      "ry": 542,
      "ple": 543,
      "Ġdis": 544,
      "au": 545,
      "Ġfun": 546,
      "Ġam": 547,
      "the": 548,
      "Ġway": 549,
      "Ġjo": 550,
      "Ġreal": 551,
      "Ġfirst": 552,
      "Ġsa": 553,
      "way": 554,
      "int": 555,
      "over": 556,
      "Ġar": 557,
      "Ġthing": 558,
      "Ġthink": 559,
      "ect": 560,
      "Ġfe": 561,
      "Ġpart": 562,
      "att": 563,
      "per": 564,
      "Ġ;": 565,
      "Ġmade": 566,
      "app": 567,
      "Ġgr": 568,
      "ary": 569,
      "Ġany": 570,
      "ated": 571,
      "Ġlife": 572,
      "Ġsay": 573,
      "ep": 574,
      "ually": 575,
      "Ġseem": 576,
      "ute": 577,
      "Ġwr": 578,
      "Ġinter": 579,
      "ty": 580,
      "Ġor": 581,
      "oc": 582,
      "son": 583,
      "ical": 584,
      "Ġactor": 585,
      "ber": 586,
      "ny": 587,
      "Ġfl": 588,
      "sh": 589,
      "ict": 590,
      "Ġlove": 591,
      "Ġmany": 592,
      "Ġgu": 593,
      "iew": 594,
      "form": 595,
      "Ġnot": 596,
      "Ġwork": 597,
      "Ġte": 598,
      "ian": 599,
      "Ġbet": 600,
      "pect": 601,
      "Ġca": 602,
      "Ġwant": 603,
      "Ġtwo": 604,
      "Ġplot": 605,
      "Ġseen": 606,
      "Ġser": 607,
      "Ġnever": 608,
      "ress": 609,
      "inal": 610,
      "iz": 611,
      "ise": 612,
      "Ġyear": 613,
      "ith": 614,
      "Ġent": 615,
      "Ġacting": 616,
      "ittle": 617,
      "ult": 618,
      "ass": 619,
      "Ġhor": 620,
      "Ġsomet": 621,
      "Ġlittle": 622,
      "urn": 623,
      "ath": 624,
      "ark": 625,
      "ip": 626,
      "Ġbest": 627,
      "Ġac": 628,
      "du": 629,
      "Ġ19": 630,
      "ster": 631,
      "Ġdes": 632,
      "ft": 633,
      "Ġback": 634,
      "ace": 635,
      "less": 636,
      "Ġmay": 637,
      "Ġ*": 638,
      "iv": 639,
      "ond": 640,
      "Ġ2": 641,
      "Ġrem": 642,
      "Ġperform": 643,
      "ily": 644,
      "man": 645,
      "Ġsl": 646,
      "Ġcome": 647,
      "Ġus": 648,
      "Ġtra": 649,
      "red": 650,
      "Ġbetter": 651,
      "ater": 652,
      "peci": 653,
      "Ġtry": 654,
      "Ġdr": 655,
      "ang": 656,
      "Ġmin": 657,
      "igh": 658,
      "king": 659,
      "ich": 660,
      "ertain": 661,
      "Ġstill": 662,
      "Ġcont": 663,
      "ather": 664,
      "be": 665,
      "Ġsim": 666,
      "ac": 667,
      "Ġfind": 668,
      "ose": 669,
      "Ġcr": 670,
      "thing": 671,
      "Ġtal": 672,
      "ought": 673,
      "Ġ--": 674,
      "Ġatt": 675,
      "Ġsur": 676,
      "ual": 677,
      "Ġbel": 678,
      "Ġop": 679,
      "riend": 680,
      "Ġint": 681,
      "Ġkill": 682,
      "ild": 683,
      "ffer": 684,
      "Ġab": 685,
      "iss": 686,
      "ph": 687,
      "Ġeff": 688,
      "Ġtake": 689,
      "Ġcast": 690,
      "Ġgive": 691,
      "av": 692,
      "aw": 693,
      "Ġdirector": 694,
      "Ġfeel": 695,
      "Ġsomething": 696,
      "Ġap": 697,
      "ror": 698,
      "Ġem": 699,
      "te": 700,
      "ole": 701,
      "edy": 702,
      "own": 703,
      "Ġperformance": 704,
      "ction": 705,
      "Ġguy": 706,
      "Ġscre": 707,
      "Ġfor": 708,
      "irl": 709,
      "ock": 710,
      "ense": 711,
      "Ġinterest": 712,
      "ies": 713,
      "if": 714,
      "Ġke": 715,
      "Ġstr": 716,
      "Ġstar": 717,
      "ull": 718,
      "Ġfr": 719,
      "arly": 720,
      "oll": 721,
      "Ġdec": 722,
      "ens": 723,
      "ating": 724,
      "Ġsome": 725,
      "ience": 726,
      "Ġbig": 727,
      "Ġhapp": 728,
      "Ġinc": 729,
      "ia": 730,
      "Ġfunny": 731,
      "nt": 732,
      "ree": 733,
      "Ġwar": 734,
      "ere": 735,
      "Ġlot": 736,
      "Ġmar": 737,
      "Ġmus": 738,
      "ust": 739,
      "ason": 740,
      "Ġactually": 741,
      "Ġimp": 742,
      "Ġnew": 743,
      "Ġwatching": 744,
      "oman": 745,
      "ning": 746,
      "vel": 747,
      "Ġgen": 748,
      "Ġorig": 749,
      "Ġter": 750,
      "ably": 751,
      "Ġcar": 752,
      "Ġhigh": 753,
      "Ġover": 754,
      "Ġgirl": 755,
      "vers": 756,
      "Ġfact": 757,
      "Ġwe": 758,
      "Ġunder": 759,
      "Ġsm": 760,
      "Ġaw": 761,
      "Ġcomp": 762,
      "ank": 763,
      "Ġthough": 764,
      "joy": 765,
      "Ġpret": 766,
      "Ġgoing": 767,
      "Ġrole": 768,
      "Ġwith": 769,
      "Ġhum": 770,
      "ting": 771,
      "up": 772,
      "Ġsub": 773,
      "Ġfam": 774,
      "Ġold": 775,
      "Ġev": 776,
      "Ġob": 777,
      "ase": 778,
      "Ġenjoy": 779,
      "Ġview": 780,
      "Ġcra": 781,
      "Ġche": 782,
      "Ġbelie": 783,
      "Ġlong": 784,
      "ool": 785,
      "Ġthr": 786,
      "ach": 787,
      "Ġ&": 788,
      "Ġres": 789,
      "ript": 790,
      "Ġlau": 791,
      "Ġpoint": 792,
      "Ġday": 793,
      "Ġnothing": 794,
      "Ġsin": 795,
      "ane": 796,
      "Ġgot": 797,
      "Ġeffect": 798,
      "ever": 799,
      "Ġhard": 800,
      "Ġprodu": 801,
      "Ġset": 802,
      "Ġfriend": 803,
      "Ġexc": 804,
      "li": 805,
      "Ġyoun": 806,
      "Ġoriginal": 807,
      "Ġhorror": 808,
      "oon": 809,
      "Ġbu": 810,
      "Ġbit": 811,
      "ome": 812,
      "Ġwoman": 813,
      "Ġanother": 814,
      "Ġturn": 815,
      "Ġph": 816,
      "Ġyoung": 817,
      "get": 818,
      "Ġcomedy": 819,
      "Ġas": 820,
      "Ġfar": 821,
      "Ġscreen": 822,
      "Ġel": 823,
      "Ġsupp": 824,
      "ible": 825,
      "sc": 826,
      "Ġcam": 827,
      "Ġkid": 828,
      "Ġlaugh": 829,
      "ness": 830,
      "Ġpretty": 831,
      "Ġworld": 832,
      "Ġsec": 833,
      "Ġscript": 834,
      "Ġquite": 835,
      "Ġcare": 836,
      "oot": 837,
      "Ġminute": 838,
      "Ġmon": 839,
      "Ġrec": 840,
      "Ġseems": 841,
      "az": 842,
      "Ġline": 843,
      "ern": 844,
      "Ġrel": 845,
      "ave": 846,
      "Ġright": 847,
      "ial": 848,
      "Ġfan": 849,
      "Ġapp": 850,
      "onder": 851,
      "inem": 852,
      "ope": 853,
      "ention": 854,
      "ub": 855,
      "Ġthought": 856,
      "ately": 857,
      "eric": 858,
      "Ġstart": 859,
      "pr": 860,
      "Ġcinem": 861,
      "ib": 862,
      "Ġhel": 863,
      "cept": 864,
      "Ġind": 865,
      "Ġinv": 866,
      "Ġperson": 867,
      "ways": 868,
      "Ġneed": 869,
      "Ġenough": 870,
      "iting": 871,
      "ically": 872,
      "ead": 873,
      "ved": 874,
      "wh": 875,
      "Ġwonder": 876,
      "Ġaction": 877,
      "Ġmean": 878,
      "Ġaround": 879,
      "Ġhow": 880,
      "Ġins": 881,
      "Ġcomple": 882,
      "00": 883,
      "Ġed": 884,
      "Ġmust": 885,
      "era": 886,
      "Ġappe": 887,
      "Ġep": 888,
      "ced": 889,
      "Ġcol": 890,
      "most": 891,
      "Ġinst": 892,
      "Ġbecom": 893,
      "vious": 894,
      "Ġbas": 895,
      "Ġsex": 896,
      "ll": 897,
      "Ġwhole": 898,
      "ign": 899,
      "ody": 900,
      "Ġbeg": 901,
      "Ġmusic": 902,
      "ord": 903,
      "Ġag": 904,
      "Ġcour": 905,
      "ature": 906,
      "aut": 907,
      "Ġlast": 908,
      "Ġbook": 909,
      "Ġcons": 910,
      "Ġclass": 911,
      "Ġz": 912,
      "aking": 913,
      "Ġalways": 914,
      "Ġshot": 915,
      "Ġleast": 916,
      "Ġsound": 917,
      "Ġgi": 918,
      "ether": 919,
      "Ġsure": 920,
      "Ġkind": 921,
      "Ġsw": 922,
      "ount": 923,
      "Ġlead": 924,
      "ner": 925,
      "icul": 926,
      "Ġexpect": 927,
      "Ġsch": 928,
      "Ġtell": 929,
      "Ġwithout": 930,
      "ug": 931,
      "Ġput": 932,
      "ile": 933,
      "cess": 934,
      "Ġdiffer": 935,
      "Ġdone": 936,
      "Ġseries": 937,
      "Ġart": 938,
      "ange": 939,
      "Ġalmost": 940,
      "Ġaud": 941,
      "Ġdial": 942,
      "ode": 943,
      "ouse": 944,
      "Ġout": 945,
      "Ġhol": 946,
      "Ġread": 947,
      "Ġhand": 948,
      "rist": 949,
      "iter": 950,
      "iece": 951,
      "ider": 952,
      "raph": 953,
      "Ġyet": 954,
      "Ġ3": 955,
      "Ġmom": 956,
      "Ġlet": 957,
      "Ġfamily": 958,
      "ative": 959,
      "ash": 960,
      "Ġexpl": 961,
      "Ġentertain": 962,
      "Ġspeci": 963,
      "Ġinteresting": 964,
      "Ġmight": 965,
      "Ġtri": 966,
      "Ġrev": 967,
      "Ġreason": 968,
      "air": 969,
      "Ġgl": 970,
      "Ġsince": 971,
      "Ġtru": 972,
      "Ġdialog": 973,
      "ob": 974,
      "Ġsaw": 975,
      "here": 976,
      "stand": 977,
      "Ġhowever": 978,
      "vd": 979,
      "Ġplayed": 980,
      "Ġcle": 981,
      "Ġworth": 982,
      "Ġcomplete": 983,
      "mend": 984,
      "ale": 985,
      "Ġmiss": 986,
      "ember": 987,
      "Ġbeaut": 988,
      "apt": 989,
      "Ġanything": 990,
      "Ġide": 991,
      "led": 992,
      "Ġbor": 993,
      "Ġchild": 994,
      "ving": 995,
      "rible": 996,
      "Ġtv": 997,
      "Ġdel": 998,
      "ower": 999,
      "Ġmur": 1000,
      "Ġameric": 1001,
      "otion": 1002,
      "Ġanyone": 1003,
      "Ġvers": 1004,
      "Ġcre": 1005,
      "Ġcourse": 1006,
      "ition": 1007,
      "Ġmind": 1008,
      "Ġdvd": 1009,
      "Ġes": 1010,
      "Ġfin": 1011,
      "Ġhal": 1012,
      "Ġnight": 1013,
      "ren": 1014,
      "Ġdef": 1015,
      "Ġtrying": 1016,
      "ye": 1017,
      "Ġpres": 1018,
      "Ġprob": 1019,
      "hn": 1020,
      "io": 1021,
      "Ġsequ": 1022,
      "Ġaudience": 1023,
      "Ġext": 1024,
      "ail": 1025,
      "Ġboy": 1026,
      "Ġunf": 1027,
      "Ġsurpr": 1028,
      "Ġhelp": 1029,
      "Ġbegin": 1030,
      "ject": 1031,
      "xt": 1032,
      "Ġrun": 1033,
      "Ġrob": 1034,
      "atter": 1035,
      "Ġher": 1036,
      "pecially": 1037,
      "Ġepis": 1038,
      "Ġcall": 1039,
      "Ġabs": 1040,
      "wood": 1041,
      "Ġprobably": 1042,
      "Ġty": 1043,
      "ortun": 1044,
      "Ġacc": 1045,
      "Ġdifferent": 1046,
      "Ġespecially": 1047,
      "ier": 1048,
      "Ġco": 1049,
      "ism": 1050,
      "Ġending": 1051,
      "Ġkeep": 1052,
      "Ġversion": 1053,
      "Ġepisode": 1054,
      "ked": 1055,
      "ont": 1056,
      "Ġste": 1057,
      "Ġshort": 1058,
      "Ġmain": 1059,
      "Ġworst": 1060,
      "Ġposs": 1061,
      "Ġbelieve": 1062,
      "Ġmoment": 1063,
      "ality": 1064,
      "oney": 1065,
      "ograph": 1066,
      "Ġadd": 1067,
      "Ġaway": 1068,
      "Ġdep": 1069,
      "Ġcomm": 1070,
      "Ġhappen": 1071,
      "ix": 1072,
      "commend": 1073,
      "Ġfound": 1074,
      "Ġrather": 1075,
      "Ġear": 1076,
      "Ġplace": 1077,
      "Ġspecial": 1078,
      "ling": 1079,
      "ident": 1080,
      "Ġsuper": 1081,
      "ilar": 1082,
      "Ġrecommend": 1083,
      "Ġpoor": 1084,
      "ither": 1085,
      "though": 1086,
      "ray": 1087,
      "Ġcertain": 1088,
      "Ġass": 1089,
      "Ġmaking": 1090,
      "istic": 1091,
      "Ġsk": 1092,
      "ingly": 1093,
      "Ġport": 1094,
      "Ġstand": 1095,
      "osed": 1096,
      "Ġhead": 1097,
      "Ġidea": 1098,
      "Ġmen": 1099,
      "Ġdo": 1100,
      "Ġeverything": 1101,
      "Ġjohn": 1102,
      "leas": 1103,
      "Ġsing": 1104,
      "Ġdra": 1105,
      "Ġsomeone": 1106,
      "Ġsecond": 1107,
      "iful": 1108,
      "Ġmaybe": 1109,
      "ady": 1110,
      "Ġnice": 1111,
      "Ġsense": 1112,
      "Ġfall": 1113,
      "ott": 1114,
      "illi": 1115,
      "Ġmurder": 1116,
      "Ġhalf": 1117,
      "itch": 1118,
      "Ġsimp": 1119,
      "gr": 1120,
      "Ġother": 1121,
      "Ġlooking": 1122,
      "aste": 1123,
      "Ġobvious": 1124,
      "uck": 1125,
      "blem": 1126,
      "Ġblack": 1127,
      "sy": 1128,
      "Ġcreat": 1129,
      "Ġbud": 1130,
      "Ġthe": 1131,
      "fect": 1132,
      "Ġproblem": 1133,
      "Ġfav": 1134,
      "lud": 1135,
      "Ġeng": 1136,
      "ret": 1137,
      "Ġform": 1138,
      "atic": 1139,
      "Ġ10": 1140,
      "Ġappear": 1141,
      "Ġmoney": 1142,
      "Ġsit": 1143,
      "Ġlater": 1144,
      "Ġhour": 1145,
      "Ġeveryone": 1146,
      "ited": 1147,
      "Ġalthough": 1148,
      "Ġinvol": 1149,
      "ellent": 1150,
      "aught": 1151,
      "Ġvis": 1152,
      "ife": 1153,
      "ox": 1154,
      "Ġsy": 1155,
      "Ġpol": 1156,
      "lywood": 1157,
      "ogether": 1158,
      "Ġdram": 1159,
      "oint": 1160,
      "Ġso": 1161,
      "Ġcou": 1162,
      "Ġpar": 1163,
      "Ġhar": 1164,
      "Ġhope": 1165,
      "ney": 1166,
      "Ġred": 1167,
      "Ġall": 1168,
      "Ġtrue": 1169,
      "cing": 1170,
      "Ġleft": 1171,
      "Ġunderstand": 1172,
      "Ġeye": 1173,
      "ross": 1174,
      "Ġsaid": 1175,
      "Ġbeautiful": 1176,
      "Ġamerican": 1177,
      "Ġru": 1178,
      "Ġthree": 1179,
      "Ġdre": 1180,
      "Ġhouse": 1181,
      "Ġrep": 1182,
      "Ġjob": 1183,
      "Ġelse": 1184,
      "Ġrest": 1185,
      "Ġje": 1186,
      "arent": 1187,
      "me": 1188,
      "Ġgre": 1189,
      "Ġdead": 1190,
      "Ġoff": 1191,
      "ship": 1192,
      "ollow": 1193,
      "Ġexcellent": 1194,
      "Ġaf": 1195,
      "Ġexp": 1196,
      "Ġperfect": 1197,
      "Ġsimply": 1198,
      "Ġdark": 1199,
      "Ġdeath": 1200,
      "Ġuse": 1201,
      "ah": 1202,
      "uff": 1203,
      "Ġinstead": 1204,
      "Ġreview": 1205,
      "ann": 1206,
      "empt": 1207,
      "Ġopen": 1208,
      "Ġtot": 1209,
      "Ġdisc": 1210,
      "Ġcame": 1211,
      "amp": 1212,
      "my": 1213,
      "Ġwal": 1214,
      "Ġconf": 1215,
      "Ġup": 1216,
      "cc": 1217,
      "Ġviewer": 1218,
      "Ġdefin": 1219,
      "ger": 1220,
      "land": 1221,
      "Ġit": 1222,
      "Ġinclud": 1223,
      "Ġhollywood": 1224,
      "ography": 1225,
      "Ġjack": 1226,
      "ans": 1227,
      "Ġtogether": 1228,
      "Ġref": 1229,
      "Ġstud": 1230,
      "Ġproduction": 1231,
      "Ġsad": 1232,
      "Ġwatched": 1233,
      "Ġchrist": 1234,
      "Ġimag": 1235,
      "Ġ8": 1236,
      "Ġcomment": 1237,
      "Ġentire": 1238,
      "Ġlack": 1239,
      "Ġbre": 1240,
      "Ġdan": 1241,
      "Ġele": 1242,
      "olute": 1243,
      "Ġanim": 1244,
      "umb": 1245,
      "Ġtit": 1246,
      "Ġtop": 1247,
      "Ġface": 1248,
      "Ġheart": 1249,
      "vin": 1250,
      "Ġsus": 1251,
      "Ġfull": 1252,
      "Ġav": 1253,
      "Ġconsider": 1254,
      "Ġsil": 1255,
      "Ġspe": 1256,
      "Ġcred": 1257,
      "Ġportray": 1258,
      "Ġ4": 1259,
      "Ġearly": 1260,
      "Ġret": 1261,
      "Ġprov": 1262,
      "icture": 1263,
      "Ġtalent": 1264,
      "Ġemotion": 1265,
      "Ġcamera": 1266,
      "10": 1267,
      "Ġpicture": 1268,
      "Ġserious": 1269,
      "Ġgener": 1270,
      "Ġclassic": 1271,
      "Ġmor": 1272,
      "Ġfollow": 1273,
      "Ġwife": 1274,
      "ird": 1275,
      "ared": 1276,
      "Ġwonderful": 1277,
      "mov": 1278,
      "Ġpa": 1279,
      "Ġbar": 1280,
      "Ġdet": 1281,
      "this": 1282,
      "ideo": 1283,
      "Ġevent": 1284,
      "cer": 1285,
      "oice": 1286,
      "ward": 1287,
      "Ġsong": 1288,
      "Ġpiece": 1289,
      "lease": 1290,
      "Ġused": 1291,
      "Ġhuman": 1292,
      "Ġlow": 1293,
      "Ġbeh": 1294,
      "Ġdist": 1295,
      "Ġcompletely": 1296,
      "Ġstup": 1297,
      "Ġalong": 1298,
      "Ġval": 1299,
      "aps": 1300,
      "Ġwrong": 1301,
      "yle": 1302,
      "ers": 1303,
      "Ġfather": 1304,
      "Ġwin": 1305,
      "Ġgame": 1306,
      "Ġpred": 1307,
      "itten": 1308,
      "Ġabsolute": 1309,
      "iver": 1310,
      "Ġside": 1311,
      "Ġwa": 1312,
      "omb": 1313,
      "ote": 1314,
      "Ġvi": 1315,
      "Ġseeing": 1316,
      "appoint": 1317,
      "Ġhero": 1318,
      "Ġfight": 1319,
      "Ġpain": 1320,
      "que": 1321,
      "Ġfeature": 1322,
      "Ġawful": 1323,
      "Ġcor": 1324,
      "Ġcop": 1325,
      "Ġeither": 1326,
      "elf": 1327,
      "ying": 1328,
      "ired": 1329,
      "Ġstupid": 1330,
      "ex": 1331,
      "ru": 1332,
      "Ġcapt": 1333,
      "arn": 1334,
      "Ġname": 1335,
      "Ġlight": 1336,
      "Ġgiven": 1337,
      "Ġboring": 1338,
      "Ġfavor": 1339,
      "oil": 1340,
      "Ġsort": 1341,
      "Ġhist": 1342,
      "Ġblood": 1343,
      "Ġadv": 1344,
      "ek": 1345,
      "ric": 1346,
      "Ġmess": 1347,
      "Ġdisappoint": 1348,
      "like": 1349,
      "ape": 1350,
      "ien": 1351,
      "Ġir": 1352,
      "Ġcut": 1353,
      "Ġrid": 1354,
      "Ġsever": 1355,
      "Ġvideo": 1356,
      "Ġexper": 1357,
      "Ġbudget": 1358,
      "Ġnum": 1359,
      "Ġword": 1360,
      "Ġsupposed": 1361,
      "Ġfoot": 1362,
      "ised": 1363,
      "Ġcase": 1364,
      "Ġschool": 1365,
      "Ġfinal": 1366,
      "Ġloc": 1367,
      "Ġplaying": 1368,
      "Ġremember": 1369,
      "Ġcouple": 1370,
      "Ġcount": 1371,
      "ently": 1372,
      "olog": 1373,
      "Ġdialogue": 1374,
      "haps": 1375,
      "ĠÂ": 1376,
      "Ġpower": 1377,
      "Ġattempt": 1378,
      "Ġsmall": 1379,
      "but": 1380,
      "Ġ5": 1381,
      "Ġeas": 1382,
      "Ġexcept": 1383,
      "iness": 1384,
      "aker": 1385,
      "oid": 1386,
      "Ġmod": 1387,
      "atur": 1388,
      "Ġmaster": 1389,
      "Ġok": 1390,
      "Ġoft": 1391,
      "Ġfail": 1392,
      "Ġparticul": 1393,
      "Ġhome": 1394,
      "Ġtruly": 1395,
      "Ġcertainly": 1396,
      "Ġ9": 1397,
      "Ġmy": 1398,
      "ork": 1399,
      "Ġclose": 1400,
      "itely": 1401,
      "Ġjoke": 1402,
      "Ġann": 1403,
      "velop": 1404,
      "ton": 1405,
      "Ġmem": 1406,
      "ility": 1407,
      "Ġworse": 1408,
      "Ġbring": 1409,
      "play": 1410,
      "ley": 1411,
      "Ġrich": 1412,
      "Ġnext": 1413,
      "Ġhumor": 1414,
      "Ġoften": 1415,
      "Ġwriter": 1416,
      "Ġkiller": 1417,
      "movie": 1418,
      "Ġbra": 1419,
      "Ġdou": 1420,
      "Ġterrible": 1421,
      "Ġant": 1422,
      "ony": 1423,
      "Ġfine": 1424,
      "ides": 1425,
      "Ġthem": 1426,
      "gest": 1427,
      "Ġfair": 1428,
      "ery": 1429,
      "Ġfre": 1430,
      "Ġexam": 1431,
      "Ġperhaps": 1432,
      "Ġbecomes": 1433,
      "Ġsequence": 1434,
      "ied": 1435,
      "Ġ7": 1436,
      "Ġat": 1437,
      "Ġmatter": 1438,
      "Ġdri": 1439,
      "elt": 1440,
      "Ġgetting": 1441,
      "Ġis": 1442,
      "Ġrom": 1443,
      "ves": 1444,
      "Ġactress": 1445,
      "Ġsuc": 1446,
      "Ġcinema": 1447,
      "ortunately": 1448,
      "dy": 1449,
      "den": 1450,
      "Ġmid": 1451,
      "Ġlost": 1452,
      "Ġhun": 1453,
      "Ġflick": 1454,
      "Ġteen": 1455,
      "Ã©": 1456,
      "Ġgra": 1457,
      "Ġmr": 1458,
      "Ġdav": 1459,
      "Ġge": 1460,
      "Ġreg": 1461,
      "what": 1462,
      "Ġdefinitely": 1463,
      "Ġfant": 1464,
      "Ġlive": 1465,
      "ular": 1466,
      "Ġplan": 1467,
      "Ġadm": 1468,
      "Ġtitle": 1469,
      "Ġabsolutely": 1470,
      "Ġviol": 1471,
      "ring": 1472,
      "enn": 1473,
      "Ġgue": 1474,
      "ief": 1475,
      "Ġdevelop": 1476,
      "Ġvill": 1477,
      "Ġamaz": 1478,
      "Ġpresent": 1479,
      "ract": 1480,
      "Ġconc": 1481,
      "ains": 1482,
      "Ġmeet": 1483,
      "Ġwanted": 1484,
      "Ġfinally": 1485,
      "Ġpop": 1486,
      "ush": 1487,
      "ized": 1488,
      "ient": 1489,
      "Ġrent": 1490,
      "Ġbrilli": 1491,
      "ize": 1492,
      "Ġothers": 1493,
      "Ġseveral": 1494,
      "cy": 1495,
      "Ġmother": 1496,
      "Ġmention": 1497,
      "Ġbrother": 1498,
      "Ġquest": 1499,
      "Ġsusp": 1500,
      "ris": 1501,
      "Ġsat": 1502,
      "Ġmich": 1503,
      "ouch": 1504,
      "outh": 1505,
      "Ġliked": 1506,
      "Ġdirection": 1507,
      "ination": 1508,
      "Ġsn": 1509,
      "reme": 1510,
      "Ġwent": 1511,
      "ided": 1512,
      "cial": 1513,
      "Ġguess": 1514,
      "mer": 1515,
      "Ġla": 1516,
      "Ġet": 1517,
      "Ġstuff": 1518,
      "yn": 1519,
      "Ġmis": 1520,
      "Ġcent": 1521,
      "Ġcost": 1522,
      "Ġwo": 1523,
      "Ġhot": 1524,
      "Ġlist": 1525,
      "ude": 1526,
      "fully": 1527,
      "Ġfrank": 1528,
      "Ġimpress": 1529,
      "Ġentertaining": 1530,
      "lish": 1531,
      "Ġand": 1532,
      "Ġwest": 1533,
      "Ġwaste": 1534,
      "key": 1535,
      "unk": 1536,
      "Ġmag": 1537,
      "Ġquality": 1538,
      "Ġslow": 1539,
      "Ġbecome": 1540,
      "aughter": 1541,
      "ons": 1542,
      "orn": 1543,
      "Ġang": 1544,
      "Ġfeeling": 1545,
      "Ġmad": 1546,
      "Ġwritten": 1547,
      "Ġgod": 1548,
      "Ġra": 1549,
      "Ġdev": 1550,
      "Ġuni": 1551,
      "ument": 1552,
      "ister": 1553,
      "Ġwhite": 1554,
      "Ġcinemat": 1555,
      "Ġcredit": 1556,
      "Ġson": 1557,
      "Ġmark": 1558,
      "Ġfig": 1559,
      "ement": 1560,
      "bo": 1561,
      "Ġgave": 1562,
      "Ġstyle": 1563,
      "ates": 1564,
      "Ġoh": 1565,
      "Ġthrough": 1566,
      "ibly": 1567,
      "Ġdrama": 1568,
      "Ġtotally": 1569,
      "Ġexample": 1570,
      "ler": 1571,
      "Ġspace": 1572,
      "Ġevil": 1573,
      "Ġthrill": 1574,
      "line": 1575,
      "Ġself": 1576,
      "Ġcart": 1577,
      "edi": 1578,
      "ump": 1579,
      "Ġloved": 1580,
      "anger": 1581,
      "sych": 1582,
      "Ġfavorite": 1583,
      "ĠÂĸ": 1584,
      "uation": 1585,
      "Ġpat": 1586,
      "Ġable": 1587,
      "ision": 1588,
      "Ġtalk": 1589,
      "Ġsupport": 1590,
      "Ġnumber": 1591,
      "Ġdoc": 1592,
      "itic": 1593,
      "Ġhit": 1594,
      "Ġstop": 1595,
      "chn": 1596,
      "Ġdem": 1597,
      "Ġyes": 1598,
      "ored": 1599,
      "sp": 1600,
      "Ġcur": 1601,
      "Ġpsych": 1602,
      "Ġwood": 1603,
      "Ġage": 1604,
      "Ġhilar": 1605,
      "ured": 1606,
      "Ġbased": 1607,
      "Ġtod": 1608,
      "Ġtown": 1609,
      "used": 1610,
      "Ġtrans": 1611,
      "leased": 1612,
      "Ġpur": 1613,
      "ator": 1614,
      "oup": 1615,
      "Ġstay": 1616,
      "Ġthank": 1617,
      "Ġinf": 1618,
      "Ġlearn": 1619,
      "aken": 1620,
      "Ġstrong": 1621,
      "Ġsam": 1622,
      "Ġfelt": 1623,
      "Ġtre": 1624,
      "Ġextreme": 1625,
      "Ġunfortunately": 1626,
      "Ġvalue": 1627,
      "Ġquestion": 1628,
      "gu": 1629,
      "ok": 1630,
      "right": 1631,
      "Ġdesp": 1632,
      "Ġbrilliant": 1633,
      "Ġetc": 1634,
      "maker": 1635,
      "oss": 1636,
      "iest": 1637,
      "Ġcolle": 1638,
      "Ġthroughout": 1639,
      "Ġbody": 1640,
      "etic": 1641,
      "Ġmaj": 1642,
      "imes": 1643,
      "Ġmonster": 1644,
      "Ġdream": 1645,
      "Ġpredict": 1646,
      "Ġhilarious": 1647,
      "Ġcool": 1648,
      "Ġfore": 1649,
      "orge": 1650,
      "Ġger": 1651,
      "Ġgold": 1652,
      "Ġstra": 1653,
      "unch": 1654,
      "Ġexact": 1655,
      "Ġ....": 1656,
      "Ġwriting": 1657,
      "Ġ200": 1658,
      "Ġrelation": 1659,
      "Ġcalled": 1660,
      "friend": 1661,
      "Ġtouch": 1662,
      "Ġlate": 1663,
      "Ġmove": 1664,
      "Ġchange": 1665,
      "Ġimm": 1666,
      "Ġtechn": 1667,
      "Ġenjoyed": 1668,
      "he": 1669,
      "Ġpay": 1670,
      "Ġpast": 1671,
      "itive": 1672,
      "ional": 1673,
      "using": 1674,
      "Ġrock": 1675,
      "Ġtype": 1676,
      "Ġexperience": 1677,
      "ming": 1678,
      "zy": 1679,
      "Ġcity": 1680,
      "Ġpick": 1681,
      "Ġtom": 1682,
      "Ġspoil": 1683,
      "ready": 1684,
      "Ġmel": 1685,
      "Ġocc": 1686,
      "Ġprom": 1687,
      "Ġgroup": 1688,
      "Ġinvolved": 1689,
      "use": 1690,
      "Ġtook": 1691,
      "Ġbro": 1692,
      "Ġbrit": 1693,
      "Ġseemed": 1694,
      "Ġteam": 1695,
      "Ġsometimes": 1696,
      "Ġgenre": 1697,
      "Ġcinematography": 1698,
      "af": 1699,
      "ael": 1700,
      "ik": 1701,
      "Ġol": 1702,
      "Ġlar": 1703,
      "Ġdeal": 1704,
      "Ġalready": 1705,
      "Ġcareer": 1706,
      "Ġsuccess": 1707,
      "how": 1708,
      "ys": 1709,
      "Ġmet": 1710,
      "Ġfem": 1711,
      "lev": 1712,
      "enty": 1713,
      "Ġchance": 1714,
      "astic": 1715,
      "Ġprop": 1716,
      "attle": 1717,
      "Ġdeser": 1718,
      "Ġdecent": 1719,
      "Ġago": 1720,
      "where": 1721,
      "Ġsol": 1722,
      "Ġbo": 1723,
      "onest": 1724,
      "rif": 1725,
      "ume": 1726,
      "Ġclich": 1727,
      "ific": 1728,
      "Ġcrap": 1729,
      "Ġsituation": 1730,
      "Ġamazing": 1731,
      "band": 1732,
      "ipp": 1733,
      "Ġsle": 1734,
      "Ġgar": 1735,
      "let": 1736,
      "Ġnorm": 1737,
      "Ġlevel": 1738,
      "Ġreality": 1739,
      "Ġhistory": 1740,
      "Ġtheme": 1741,
      "ax": 1742,
      "by": 1743,
      "ined": 1744,
      "Ġtaking": 1745,
      "urb": 1746,
      "rodu": 1747,
      "Ġoverall": 1748,
      "Ġpaul": 1749,
      "Ġrelationship": 1750,
      "Ġcat": 1751,
      "ctor": 1752,
      "ising": 1753,
      "Ġunc": 1754,
      "Ġconst": 1755,
      "Ġfour": 1756,
      "Ġnone": 1757,
      "Ġcomic": 1758,
      "elling": 1759,
      "Ġrobert": 1760,
      "Ġobviously": 1761,
      "Ġsoon": 1762,
      "Ġ..": 1763,
      "Ġfut": 1764,
      "Ġpass": 1765,
      "arch": 1766,
      "Ġdaughter": 1767,
      "Ġhy": 1768,
      "Ġhell": 1769,
      "ove": 1770,
      "Ġvamp": 1771,
      "Ġknown": 1772,
      "Ġincred": 1773,
      "Ġhighly": 1774,
      "iculous": 1775,
      "Ġpossible": 1776,
      "vable": 1777,
      "Ġfire": 1778,
      "Ġscary": 1779,
      "Ġvict": 1780,
      "usband": 1781,
      "Ġcamp": 1782,
      "Ġswe": 1783,
      "Ġmyster": 1784,
      "Ġmajor": 1785,
      "oe": 1786,
      "wise": 1787,
      "arr": 1788,
      "Ġhear": 1789,
      "ison": 1790,
      "Ġvoice": 1791,
      "Ġleg": 1792,
      "Ġoffer": 1793,
      "Ġ198": 1794,
      "Ġdesc": 1795,
      "Ġmichael": 1796,
      "Ġcartoon": 1797,
      "ino": 1798,
      "Ġwish": 1799,
      "Ġnov": 1800,
      "oph": 1801,
      "ury": 1802,
      "Ġsum": 1803,
      "Ġtwist": 1804,
      "Ġbeginning": 1805,
      "Ġtheater": 1806,
      "Ġavoid": 1807,
      "off": 1808,
      "res": 1809,
      "Ġdog": 1810,
      "Ġhate": 1811,
      "Ġscore": 1812,
      "Ġcoming": 1813,
      "Ġod": 1814,
      "Ġshown": 1815,
      "Ġdirected": 1816,
      "Ġhorrible": 1817,
      "Ġapparent": 1818,
      "gy": 1819,
      "Ġ6": 1820,
      "Ġcult": 1821,
      "Ġdam": 1822,
      "Ġgh": 1823,
      "Ġhusband": 1824,
      "und": 1825,
      "Ġjam": 1826,
      "ution": 1827,
      "....": 1828,
      "Ġprem": 1829,
      "ager": 1830,
      "osp": 1831,
      "Ġsave": 1832,
      "Ġthinking": 1833,
      "Ġacross": 1834,
      "Ġopp": 1835,
      "Ġstrange": 1836,
      "Ġearth": 1837,
      "Ġsym": 1838,
      "Ġbehind": 1839,
      "Ġmist": 1840,
      "Ġbattle": 1841,
      "Ġhu": 1842,
      "Ġreleased": 1843,
      "Ġstri": 1844,
      "ried": 1845,
      "Ġdest": 1846,
      "ival": 1847,
      "Ġdavid": 1848,
      "lin": 1849,
      "uc": 1850,
      "Ġsor": 1851,
      "Ġpot": 1852,
      "Ġtreat": 1853,
      "Ġland": 1854,
      "str": 1855,
      "les": 1856,
      "Ġesc": 1857,
      "ield": 1858,
      "owing": 1859,
      "amed": 1860,
      "rib": 1861,
      "Ġvar": 1862,
      "Ġincluding": 1863,
      "Ġridiculous": 1864,
      "Ġsuspense": 1865,
      "Ġpredictable": 1866,
      "Ġexactly": 1867,
      "piece": 1868,
      "Ġwater": 1869,
      "oward": 1870,
      "Ġfilmmaker": 1871,
      "Ġconvin": 1872,
      "Ġcla": 1873,
      "Ġheard": 1874,
      "Ġeffort": 1875,
      "Ġentertainment": 1876,
      "Ġsequel": 1877,
      "Ġreturn": 1878,
      "Ġfigure": 1879,
      "Ġdespite": 1880,
      "pical": 1881,
      "tra": 1882,
      "Ġbus": 1883,
      "Ġrating": 1884,
      "Ġalien": 1885,
      "antly": 1886,
      "aged": 1887,
      "Ġ197": 1888,
      "Ġcontr": 1889,
      "Ġcheck": 1890,
      "Ġsurprise": 1891,
      "ground": 1892,
      "Ġvillain": 1893,
      "iff": 1894,
      "ted": 1895,
      "inion": 1896,
      "Ġsister": 1897,
      "Ġcover": 1898,
      "any": 1899,
      "Ġvir": 1900,
      "Ġspir": 1901,
      "ause": 1902,
      "Ġcontin": 1903,
      "Ġsimilar": 1904,
      "Ġimport": 1905,
      "Ġturned": 1906,
      "Ġseriously": 1907,
      "Ġcountry": 1908,
      "Ġstraight": 1909,
      "Ġvampire": 1910,
      "br": 1911,
      "ball": 1912,
      "eed": 1913,
      "Ġair": 1914,
      "Ġhold": 1915,
      "Ġno": 1916,
      "Ġstre": 1917,
      "Ġking": 1918,
      "Ġkne": 1919,
      "Ġleave": 1920,
      "Ġroom": 1921,
      "Ġamong": 1922,
      "iving": 1923,
      "Ġmusical": 1924,
      "Ġzomb": 1925,
      "ec": 1926,
      "we": 1927,
      "Ġlou": 1928,
      "Ġband": 1929,
      "eter": 1930,
      "Ġjer": 1931,
      "Ġimage": 1932,
      "Ġprot": 1933,
      "Ġopinion": 1934,
      "Ġhappens": 1935,
      "Ġviolence": 1936,
      "Ġdocument": 1937,
      "bel": 1938,
      "dle": 1939,
      "ii": 1940,
      "Ġmill": 1941,
      "Ġbab": 1942,
      "Ġdu": 1943,
      "Ġhonest": 1944,
      "iety": 1945,
      "urt": 1946,
      "asc": 1947,
      "Ġgrand": 1948,
      "Ġcolor": 1949,
      "Ġhappened": 1950,
      "Ġannoy": 1951,
      "Ġextremely": 1952,
      "Ġnovel": 1953,
      "ior": 1954,
      "uth": 1955,
      "Ġsent": 1956,
      "Ġfast": 1957,
      "Ġpleas": 1958,
      "Ġtim": 1959,
      "Ġdie": 1960,
      "Ġha": 1961,
      "ett": 1962,
      "Ġnear": 1963,
      "Ġosc": 1964,
      "Ġorder": 1965,
      "Ġusual": 1966,
      "Ġcritic": 1967,
      "Ġforget": 1968,
      "Ġenjoyable": 1969,
      "Ġphot": 1970,
      "Ġdeliver": 1971,
      "Ġbreak": 1972,
      "Ġtoday": 1973,
      "Ġtaken": 1974,
      "Ġstun": 1975,
      "rench": 1976,
      "Ġdraw": 1977,
      "Ġfemale": 1978,
      "bor": 1979,
      "head": 1980,
      "ker": 1981,
      "side": 1982,
      "Ġten": 1983,
      "enture": 1984,
      "there": 1985,
      "Ġlee": 1986,
      "Ġwhose": 1987,
      "Ġsaying": 1988,
      "Ġsilly": 1989,
      "body": 1990,
      "ram": 1991,
      "Ġlaw": 1992,
      "Ġwild": 1993,
      "Ġaff": 1994,
      "Ġrelease": 1995,
      "Ġliving": 1996,
      "Ġdeep": 1997,
      "antic": 1998,
      "Ġgore": 1999,
      "itting": 2000,
      "Ġtrag": 2001,
      "Ġkilled": 2002,
      "Ġwithin": 2003,
      "Ġcheap": 2004,
      "Ġwestern": 2005,
      "real": 2006,
      "orable": 2007,
      "Ġstep": 2008,
      "fess": 2009,
      "Ġusually": 2010,
      "Ġdrug": 2011,
      "Ġweek": 2012,
      "Ġdiscover": 2013,
      "Ġoscar": 2014,
      "path": 2015,
      "Ġ#": 2016,
      "Ġtold": 2017,
      "Ġtoward": 2018,
      "Ġseason": 2019,
      "ended": 2020,
      "Ġmanage": 2021,
      "Ġsimple": 2022,
      "Ġenglish": 2023,
      "Ġopening": 2024,
      "Ġ80": 2025,
      "Ġparticularly": 2026,
      "Ġodd": 2027,
      "Ġzombie": 2028,
      "gle": 2029,
      "well": 2030,
      "Ġpure": 2031,
      "Ġparent": 2032,
      "Ġlady": 2033,
      "olf": 2034,
      "Ġshame": 2035,
      "Ġshoot": 2036,
      "Ġbey": 2037,
      "Ġtrou": 2038,
      "Ġshowing": 2039,
      "Ġwhether": 2040,
      "Ġanyway": 2041,
      "Ġtale": 2042,
      "Ġtalking": 2043,
      "Ġapart": 2044,
      "Ġsubject": 2045,
      "Ġbasically": 2046,
      "Ġdoctor": 2047,
      "Ġrichard": 2048,
      "Ġgerman": 2049,
      "back": 2050,
      "fil": 2051,
      "wr": 2052,
      "Ġid": 2053,
      "Ġut": 2054,
      "Ġult": 2055,
      "Ġmer": 2056,
      "Ġmix": 2057,
      "Ġbill": 2058,
      "Ġdumb": 2059,
      "Ġalone": 2060,
      "ational": 2061,
      "Ġindeed": 2062,
      "Ġinsp": 2063,
      "some": 2064,
      "Ġsuck": 2065,
      "Ġprevious": 2066,
      "Ġproject": 2067,
      "Ġflaw": 2068,
      "Ġviewing": 2069,
      "Ġsecret": 2070,
      "Ġbeyond": 2071,
      "bar": 2072,
      "day": 2073,
      "ged": 2074,
      "Ġmost": 2075,
      "Ġpull": 2076,
      "Ġham": 2077,
      "Ġelement": 2078,
      "Ġdisappointed": 2079,
      "Ġmodern": 2080,
      "Ġbritish": 2081,
      "lic": 2082,
      "mas": 2083,
      "ina": 2084,
      "Ġmember": 2085,
      "Ġful": 2086,
      "aling": 2087,
      "Ġnon": 2088,
      "iet": 2089,
      "iment": 2090,
      "ellig": 2091,
      "ously": 2092,
      "esome": 2093,
      "Ġbrought": 2094,
      "Ġdesign": 2095,
      "Ġattention": 2096,
      "Ġpolice": 2097,
      "Ġruss": 2098,
      "Ġsupporting": 2099,
      "Ġfuture": 2100,
      "Ġer": 2101,
      "reci": 2102,
      "Ġplease": 2103,
      "Ġtar": 2104,
      "Ġshock": 2105,
      "usion": 2106,
      "Ġlooked": 2107,
      "Ġsomewhat": 2108,
      "Ġsubt": 2109,
      "Ġstarted": 2110,
      "Ġtruth": 2111,
      "Ġmasterpiece": 2112,
      "Ġgeorge": 2113,
      "Ġknew": 2114,
      "Ġdocumentary": 2115,
      "ike": 2116,
      "iod": 2117,
      "ky": 2118,
      "Ġfell": 2119,
      "Ġfoc": 2120,
      "Ġbox": 2121,
      "Ġdull": 2122,
      "Ġnarr": 2123,
      "ogn": 2124,
      "Ġpos": 2125,
      "Ġ20": 2126,
      "Ġfront": 2127,
      "Ġdecided": 2128,
      "Ġresult": 2129,
      "Ġbuild": 2130,
      "Ġextra": 2131,
      "Ġsingle": 2132,
      "Ġappears": 2133,
      "Ġemotional": 2134,
      "ĠclichÃ©": 2135,
      "Ġghost": 2136,
      "ma": 2137,
      "Ġsold": 2138,
      "Ġpub": 2139,
      "Ġlim": 2140,
      "Ġgun": 2141,
      "ential": 2142,
      "otic": 2143,
      "emy": 2144,
      "Ġcomb": 2145,
      "action": 2146,
      "Ġperiod": 2147,
      "Ġquick": 2148,
      "Ġadapt": 2149,
      "iction": 2150,
      "Ġtrain": 2151,
      "aced": 2152,
      "Ġkilling": 2153,
      "Ġaspect": 2154,
      "Ġlocal": 2155,
      "Ġeasily": 2156,
      "Ġapparently": 2157,
      "Ġspirit": 2158,
      "cl": 2159,
      "ging": 2160,
      "ius": 2161,
      "mosp": 2162,
      "Ġmart": 2163,
      "alian": 2164,
      "ats": 2165,
      "Ġaver": 2166,
      "Ġstate": 2167,
      "Ġrunning": 2168,
      "Ġatmosp": 2169,
      "Ġjames": 2170,
      "Ġmostly": 2171,
      "bt": 2172,
      "een": 2173,
      "for": 2174,
      "light": 2175,
      "wer": 2176,
      "Ġill": 2177,
      "Ġiss": 2178,
      "ening": 2179,
      "Ġwear": 2180,
      "Ġbur": 2181,
      "Ġhop": 2182,
      "iel": 2183,
      "oof": 2184,
      "Ġspend": 2185,
      "ished": 2186,
      "Ġintrodu": 2187,
      "ension": 2188,
      "Ġhappy": 2189,
      "Ġallow": 2190,
      "Ġgeneral": 2191,
      "Ġwait": 2192,
      "go": 2193,
      "row": 2194,
      "ser": 2195,
      "Ġsoc": 2196,
      "Ġfear": 2197,
      "Ġlo": 2198,
      "Ġburn": 2199,
      "Ġrare": 2200,
      "ula": 2201,
      "Ġattack": 2202,
      "Ġintellig": 2203,
      "Ġterm": 2204,
      "Ġrespect": 2205,
      "Ġediting": 2206,
      "Ġstudent": 2207,
      "Ġcopy": 2208,
      "Ġsign": 2209,
      "Ġfrench": 2210,
      "Ġdance": 2211,
      "Ġequ": 2212,
      "ague": 2213,
      "Ġ199": 2214,
      "Ġslight": 2215,
      "Ġkept": 2216,
      "Ġclever": 2217,
      "illiam": 2218,
      "Ġupon": 2219,
      "Ġrefer": 2220,
      "Ġmystery": 2221,
      "film": 2222,
      "bert": 2223,
      "db": 2224,
      "de": 2225,
      "gth": 2226,
      "watch": 2227,
      "Ġve": 2228,
      "Ġcir": 2229,
      "Ġcry": 2230,
      "Ġtaste": 2231,
      "Ġwind": 2232,
      "Ġgone": 2233,
      "oul": 2234,
      "Ġinn": 2235,
      "Ġkn": 2236,
      "Ġjud": 2237,
      "Ġcompl": 2238,
      "ffic": 2239,
      "Ġtelev": 2240,
      "Ġusing": 2241,
      "Ġsurv": 2242,
      "Ġproducer": 2243,
      "Ġtried": 2244,
      "Ġstandard": 2245,
      "Ġfootage": 2246,
      "Ġthriller": 2247,
      "track": 2248,
      "rop": 2249,
      "work": 2250,
      "ald": 2251,
      "Ġbat": 2252,
      "elle": 2253,
      "Ġsci": 2254,
      "Ġscen": 2255,
      "Ġsug": 2256,
      "atever": 2257,
      "Ġprof": 2258,
      "Ġforg": 2259,
      "Ġappreci": 2260,
      "Ġmeaning": 2261,
      "Ġclearly": 2262,
      "Ġcrew": 2263,
      "Ġsuperb": 2264,
      "Ġadventure": 2265,
      "Ġspoiler": 2266,
      "Ġannoying": 2267,
      "Ġcirc": 2268,
      "bl": 2269,
      "rated": 2270,
      "to": 2271,
      "Ġcatch": 2272,
      "Ġhom": 2273,
      "Ġna": 2274,
      "Ġstere": 2275,
      "oty": 2276,
      "Ġmoving": 2277,
      "Ġexist": 2278,
      "Ġclim": 2279,
      "Ġfaith": 2280,
      "Ġ193": 2281,
      "aterial": 2282,
      "Ġvisual": 2283,
      "Ġexpress": 2284,
      "Ġwalk": 2285,
      "Ġmemorable": 2286,
      "ee": 2287,
      "fer": 2288,
      "su": 2289,
      "Ġcan": 2290,
      "Ġfly": 2291,
      "Ġfive": 2292,
      "Ġbut": 2293,
      "Ġdue": 2294,
      "Ġauth": 2295,
      "Ġfilmed": 2296,
      "asy": 2297,
      "Ġunlike": 2298,
      "Ġimdb": 2299,
      "Ġrecogn": 2300,
      "Ġsoundtrack": 2301,
      "Ġexplain": 2302,
      "Ġpremise": 2303,
      "Ġhuge": 2304,
      "Ġsorry": 2305,
      "Ġissue": 2306,
      "Ġtelevision": 2307,
      "yl": 2308,
      "Ġver": 2309,
      "inc": 2310,
      "Ġcu": 2311,
      "Ġwit": 2312,
      "Ġwill": 2313,
      "Ġwilliam": 2314,
      "ili": 2315,
      "Ġhen": 2316,
      "Ġnatur": 2317,
      "ceed": 2318,
      "tern": 2319,
      "Ġpost": 2320,
      "Ġsomehow": 2321,
      "Ġbuy": 2322,
      "Ġsexual": 2323,
      "Ġtypical": 2324,
      "Ġdevelopment": 2325,
      "Ġtrouble": 2326,
      "Ġaverage": 2327,
      "Ġsuggest": 2328,
      "ess": 2329,
      "view": 2330,
      "ze": 2331,
      "Ġmot": 2332,
      "Ġmaterial": 2333,
      "Ġpri": 2334,
      "Ġben": 2335,
      "Ġwhatever": 2336,
      "Ġbackground": 2337,
      "Ġremind": 2338,
      "Ġafric": 2339,
      "Ġchristmas": 2340,
      "Ġmessage": 2341,
      "Ġromantic": 2342,
      "co": 2343,
      "Ġpen": 2344,
      "oth": 2345,
      "Ġjul": 2346,
      "Ġjump": 2347,
      "Ġactual": 2348,
      "Ġstoryline": 2349,
      "agon": 2350,
      "Ġnote": 2351,
      "Ġaccept": 2352,
      "Ġtrack": 2353,
      "Ġweird": 2354,
      "Ġotherwise": 2355,
      "Ġimagine": 2356,
      "Ġanimal": 2357,
      "Ġfairly": 2358,
      "Ġisland": 2359,
      "Ġsweet": 2360,
      "Ġbaby": 2361,
      "Ġsoldier": 2362,
      "fi": 2363,
      "know": 2364,
      "Ġ$": 2365,
      "Ġx": 2366,
      "inary": 2367,
      "Ġsand": 2368,
      "onic": 2369,
      "Ġfasc": 2370,
      "Ġpath": 2371,
      "Ġlang": 2372,
      "Ġda": 2373,
      "Ġdown": 2374,
      "Ġgang": 2375,
      "ively": 2376,
      "Ġjoe": 2377,
      "Ġcrime": 2378,
      "Ġbelievable": 2379,
      "lier": 2380,
      "Ġreading": 2381,
      "Ġdrag": 2382,
      "Ġanimation": 2383,
      "Ġdetail": 2384,
      "Ġeventually": 2385,
      "Ġparticular": 2386,
      "Ġultim": 2387,
      "Ġstereoty": 2388,
      "ned": 2389,
      "time": 2390,
      "Ġfle": 2391,
      "Ġbother": 2392,
      "Ġgay": 2393,
      "Ġreve": 2394,
      "Ġchase": 2395,
      "Ġ100": 2396,
      "berg": 2397,
      "ived": 2398,
      "aving": 2399,
      "Ġforce": 2400,
      "Ġask": 2401,
      "Ġscreenplay": 2402,
      "Ġappro": 2403,
      "Ġstudio": 2404,
      "Ġdoubt": 2405,
      "Ġimportant": 2406,
      "Ġtowards": 2407,
      "na": 2408,
      "ins": 2409,
      "ste": 2410,
      "Ġeur": 2411,
      "Ġhair": 2412,
      "Ġrese": 2413,
      "Ġstage": 2414,
      "oose": 2415,
      "Ġthird": 2416,
      "Ġchoice": 2417,
      "Ġjust": 2418,
      "Ġplain": 2419,
      "Ġdirecting": 2420,
      "anged": 2421,
      "Ġcru": 2422,
      "Ġearlier": 2423,
      "Ġdramatic": 2424,
      "Ġmiddle": 2425,
      "Ġatmosphere": 2426,
      "die": 2427,
      "Ġcap": 2428,
      "Ġfox": 2429,
      "anch": 2430,
      "Ġwrite": 2431,
      "Ġ195": 2432,
      "Ġtrail": 2433,
      "ibility": 2434,
      "Ġexpected": 2435,
      "Ġmissing": 2436,
      "Ġmemory": 2437,
      "Ġvictim": 2438,
      "Ġutter": 2439,
      "Ġsick": 2440,
      "edic": 2441,
      "Ġwall": 2442,
      "Ġgiving": 2443,
      "Ġnor": 2444,
      "omin": 2445,
      "Ġrad": 2446,
      "Ġvan": 2447,
      "Ġmass": 2448,
      "Ġnearly": 2449,
      "Ġconcept": 2450,
      "Ġmanner": 2451,
      "Ġadult": 2452,
      "Ġmeant": 2453,
      "comp": 2454,
      "Ġrealistic": 2455,
      "Ġworked": 2456,
      "Ġslas": 2457,
      "Ġforced": 2458,
      "Ġsurprised": 2459,
      "Ġfantastic": 2460,
      "Ġfantasy": 2461,
      "Ġbusiness": 2462,
      "Ġstreet": 2463,
      "Ġsociety": 2464,
      "'s": 2465,
      "di": 2466,
      "Ġsouth": 2467,
      "Ġmc": 2468,
      "Ġfu": 2469,
      "Ġfit": 2470,
      "Ġbunch": 2471,
      "Ġdress": 2472,
      "Ġnow": 2473,
      "Ġnamed": 2474,
      "Ġring": 2475,
      "rage": 2476,
      "atest": 2477,
      "Ġprofess": 2478,
      "cious": 2479,
      "Ġdisney": 2480,
      "Ġteach": 2481,
      "Ġcrazy": 2482,
      "Ġleading": 2483,
      "Ġclear": 2484,
      "Ġpossibly": 2485,
      "Ġspeak": 2486,
      "Ġeasy": 2487,
      "Ġbrain": 2488,
      "Ġunique": 2489,
      "do": 2490,
      "spe": 2491,
      "Ġsal": 2492,
      "Ġmale": 2493,
      "aly": 2494,
      "Ġber": 2495,
      "ones": 2496,
      "rian": 2497,
      "aster": 2498,
      "Ġless": 2499,
      "esy": 2500,
      "aked": 2501,
      "Ġarm": 2502,
      "Ġflash": 2503,
      "Ġinterested": 2504,
      "Ġweak": 2505,
      "ubb": 2506,
      "Ġdoor": 2507,
      "Ġtheat": 2508,
      "Ġgreatest": 2509,
      "ology": 2510,
      "Ġcostume": 2511,
      "Ġescape": 2512,
      "Ġsix": 2513,
      "Ġmat": 2514,
      "Ġfat": 2515,
      "Ġlame": 2516,
      "Ġrepe": 2517,
      "Ġstore": 2518,
      "Ġthere": 2519,
      "Ġchann": 2520,
      "Ġjim": 2521,
      "Ġjap": 2522,
      "Ġexec": 2523,
      "Ġleaf": 2524,
      "Ġ.....": 2525,
      "Ġfunn": 2526,
      "Ġ194": 2527,
      "Ġcarry": 2528,
      "Ġphil": 2529,
      "Ġindian": 2530,
      "Ġinside": 2531,
      "Ġcreature": 2532,
      "Ġokay": 2533,
      "rific": 2534,
      "Ġfocus": 2535,
      "Ġchannel": 2536,
      "hood": 2537,
      "rit": 2538,
      "Ġera": 2539,
      "Ġmedi": 2540,
      "Ġcal": 2541,
      "Ġcause": 2542,
      "Ġfest": 2543,
      "Ġfree": 2544,
      "Ġpark": 2545,
      "Ġtone": 2546,
      "Ġwast": 2547,
      "Ġbed": 2548,
      "Ġden": 2549,
      "ille": 2550,
      "Ġscare": 2551,
      "Ġscott": 2552,
      "ending": 2553,
      "Ġscream": 2554,
      "ustr": 2555,
      "Ġneeded": 2556,
      "Ġrevol": 2557,
      "Ġbeauty": 2558,
      "Ġoffice": 2559,
      "boy": 2560,
      "gi": 2561,
      "Ġmil": 2562,
      "Ġliter": 2563,
      "Ġbare": 2564,
      "its": 2565,
      "Ġnature": 2566,
      "ette": 2567,
      "ung": 2568,
      "Ġkick": 2569,
      "Ġbeat": 2570,
      "Ġenc": 2571,
      "Ġfake": 2572,
      "Ġworking": 2573,
      "Ġfamous": 2574,
      "while": 2575,
      "Ġcreep": 2576,
      "Ġportrayal": 2577,
      "Ġlarge": 2578,
      "Ġmistake": 2579,
      "Ġapproach": 2580,
      "Ġslasher": 2581,
      "direct": 2582,
      "ding": 2583,
      "ially": 2584,
      "rent": 2585,
      "Ġfred": 2586,
      "Ġstat": 2587,
      "Ġrate": 2588,
      "Ġans": 2589,
      "venge": 2590,
      "Ġtrad": 2591,
      "lessly": 2592,
      "Ġexpecting": 2593,
      "Ġsteve": 2594,
      "Ġdisturb": 2595,
      "Ġpowerful": 2596,
      "Ġplanet": 2597,
      "Ġimmedi": 2598,
      "Ġnormal": 2599,
      "iliar": 2600,
      "ai": 2601,
      "came": 2602,
      "Ġcross": 2603,
      "inger": 2604,
      "Ġess": 2605,
      "itical": 2606,
      "Ġhitch": 2607,
      "olk": 2608,
      "vest": 2609,
      "Ġshake": 2610,
      "Ġscar": 2611,
      "ender": 2612,
      "Ġunless": 2613,
      "Ġ196": 2614,
      "Ġcasting": 2615,
      "Ġsetting": 2616,
      "Ġmissed": 2617,
      "Ġitalian": 2618,
      "Ġlocation": 2619,
      "Ġsympath": 2620,
      "Ġpublic": 2621,
      "Ġanswer": 2622,
      "first": 2623,
      "of": 2624,
      "Ġpu": 2625,
      "Ġpac": 2626,
      "Ġporn": 2627,
      "Ġbored": 2628,
      "itude": 2629,
      "isf": 2630,
      "Ġsuffer": 2631,
      "Ġdiffic": 2632,
      "Ġconne": 2633,
      "Ġspl": 2634,
      "Ġroad": 2635,
      "Ġphys": 2636,
      "Ġgiant": 2637,
      "Ġadded": 2638,
      "Ġpoorly": 2639,
      "Ġappearance": 2640,
      "Ġperfectly": 2641,
      "Ġangel": 2642,
      "Ġsleep": 2643,
      "Ġlegend": 2644,
      "Ġadaptation": 2645,
      "Ġdifficult": 2646,
      "Ġident": 2647,
      "Ġstick": 2648,
      "imp": 2649,
      "Ġsearch": 2650,
      "idden": 2651,
      "Ġunin": 2652,
      "Ġye": 2653,
      "Ġblue": 2654,
      "Ġstrug": 2655,
      "Ġrecently": 2656,
      "Ġtelling": 2657,
      "Ġamerica": 2658,
      "Ġcreate": 2659,
      "Ġcommon": 2660,
      "Ġsinging": 2661,
      "Ġdeserves": 2662,
      "Ġvarious": 2663,
      "Ġcontinu": 2664,
      "Ġidi": 2665,
      "Ġquickly": 2666,
      "saw": 2667,
      "Ġmatch": 2668,
      "Ġcold": 2669,
      "Ġlen": 2670,
      "Ġlose": 2671,
      "Ġbreat": 2672,
      "illy": 2673,
      "ital": 2674,
      "cted": 2675,
      "Ġrequ": 2676,
      "isingly": 2677,
      "Ġram": 2678,
      "Ġroll": 2679,
      "Ġine": 2680,
      "Ġscience": 2681,
      "Ġplus": 2682,
      "Ġplenty": 2683,
      "Ġbecame": 2684,
      "istry": 2685,
      "Ġclos": 2686,
      "Ġbadly": 2687,
      "come": 2688,
      "acy": 2689,
      "Ġforward": 2690,
      "Ġdecide": 2691,
      "Ġpointless": 2692,
      "Ġ30": 2693,
      "Ġtrip": 2694,
      "Ġaccent": 2695,
      "Ġtalented": 2696,
      "Ġ70": 2697,
      "Ġromance": 2698,
      "Ġoccas": 2699,
      "Ġolder": 2700,
      "resent": 2701,
      "Ġmanages": 2702,
      "Ġpositive": 2703,
      "not": 2704,
      "par": 2705,
      "por": 2706,
      "uct": 2707,
      "Ġign": 2708,
      "iny": 2709,
      "Ġcute": 2710,
      "Ġpal": 2711,
      "Ġlu": 2712,
      "Ġball": 2713,
      "Ġgem": 2714,
      "aper": 2715,
      "Ġtravel": 2716,
      "Ġintri": 2717,
      "Ġgenius": 2718,
      "Ġaward": 2719,
      "Ġawesome": 2720,
      "Ġcheesy": 2721,
      "Ġthrow": 2722,
      "Ġpersonal": 2723,
      "standing": 2724,
      "Ġdelight": 2725,
      "Ġjew": 2726,
      "Ġavail": 2727,
      "rupt": 2728,
      "Ġregard": 2729,
      "Ġpurp": 2730,
      "Ġthanks": 2731,
      "Ġlangu": 2732,
      "dden": 2733,
      "lu": 2734,
      "Ġspect": 2735,
      "Ġsoul": 2736,
      "rest": 2737,
      "Ġlos": 2738,
      "Ġdanger": 2739,
      "ishing": 2740,
      "Ġthor": 2741,
      "opp": 2742,
      "iring": 2743,
      "urch": 2744,
      "Ġdied": 2745,
      "Ġbrut": 2746,
      "Ġended": 2747,
      "ization": 2748,
      "ivid": 2749,
      "Ġremake": 2750,
      "Ġyounger": 2751,
      "Ġoutside": 2752,
      "Ġdancing": 2753,
      "Ġfighting": 2754,
      "Ġbrings": 2755,
      "Ġpopular": 2756,
      "Ġcentury": 2757,
      "ele": 2758,
      "look": 2759,
      "more": 2760,
      "oke": 2761,
      "uce": 2762,
      "Ġsar": 2763,
      "Ġsens": 2764,
      "Ġmir": 2765,
      "Ġmotion": 2766,
      "Ġcell": 2767,
      "Ġwitch": 2768,
      "ato": 2769,
      "Ġbase": 2770,
      "Ġdon": 2771,
      "Ġgri": 2772,
      "Ġast": 2773,
      "itation": 2774,
      "Ġrand": 2775,
      "rass": 2776,
      "ella": 2777,
      "ounter": 2778,
      "Ġnecess": 2779,
      "Ġuns": 2780,
      "Ġyork": 2781,
      "itty": 2782,
      "Ġamusing": 2783,
      "ective": 2784,
      "Ġnotice": 2785,
      "Ġslap": 2786,
      "Ġgirlfriend": 2787,
      "Ġeffective": 2788,
      "Ġrecord": 2789,
      "Ġdepth": 2790,
      "Ġoffic": 2791,
      "Ġwaiting": 2792,
      "Ġdrive": 2793,
      "Ġgrace": 2794,
      "Ġtragedy": 2795,
      "Ġimmediately": 2796,
      "Ġlanguage": 2797,
      "``": 2798,
      "just": 2799,
      "lie": 2800,
      "Ġtough": 2801,
      "Ġbal": 2802,
      "Ġrevenge": 2803,
      "sequ": 2804,
      "Ġsuit": 2805,
      "Ġsudden": 2806,
      "Ġdig": 2807,
      "aine": 2808,
      "aint": 2809,
      "Ġsport": 2810,
      "Ġplayer": 2811,
      "Ġprin": 2812,
      "Ġflat": 2813,
      "izing": 2814,
      "Ġcontains": 2815,
      "Ġhardly": 2816,
      "Ġrelig": 2817,
      "Ġsilent": 2818,
      "Ġhistor": 2819,
      "Ġdemon": 2820,
      "Ġcontrol": 2821,
      "Ġmillion": 2822,
      "agonist": 2823,
      "Ġreveal": 2824,
      "Ġpurpose": 2825,
      "aff": 2826,
      "ga": 2827,
      "gen": 2828,
      "gan": 2829,
      "ining": 2830,
      "read": 2831,
      "Ġmere": 2832,
      "Ġpeter": 2833,
      "Ġtest": 2834,
      "Ġtear": 2835,
      "Ġbull": 2836,
      "star": 2837,
      "Ġdad": 2838,
      "eth": 2839,
      "une": 2840,
      "Ġshe": 2841,
      "Ġlover": 2842,
      "Ġresp": 2843,
      "anese": 2844,
      "Ġlaughing": 2845,
      "Ġepic": 2846,
      "Ġbasic": 2847,
      "Ġconsist": 2848,
      "Ġsurprisingly": 2849,
      "Ġcommun": 2850,
      "otten": 2851,
      "Ġbeautifully": 2852,
      "Ġconsidered": 2853,
      "Ġportrayed": 2854,
      "Ġcapture": 2855,
      "Ġexception": 2856,
      "Ġfails": 2857,
      "Ġ90": 2858,
      "Ġteenager": 2859,
      "Ġmagn": 2860,
      "Ġunivers": 2861,
      "belie": 2862,
      "Ġslightly": 2863,
      "Ġfascin": 2864,
      "Ġeurope": 2865,
      "bage": 2866,
      "cast": 2867,
      "round": 2868,
      "uss": 2869,
      "Ġsnow": 2870,
      "Ġtony": 2871,
      "Ġbiz": 2872,
      "Ġhall": 2873,
      "Ġnud": 2874,
      "Ġren": 2875,
      "chie": 2876,
      "Ġalex": 2877,
      "Ġneither": 2878,
      "ppy": 2879,
      "Ġarmy": 2880,
      "Ġground": 2881,
      "Ġcontri": 2882,
      "ensive": 2883,
      "Ġinvolving": 2884,
      "Ġfailed": 2885,
      "Ġadmit": 2886,
      "Ġmentioned": 2887,
      "Ġincredible": 2888,
      "Ġincredibly": 2889,
      "Ġconvincing": 2890,
      "Ġclaim": 2891,
      "Ġsubtle": 2892,
      "Ġauthor": 2893,
      "known": 2894,
      "Ġfestival": 2895,
      "con": 2896,
      "gl": 2897,
      "Ġi": 2898,
      "Ġment": 2899,
      "Ġcgi": 2900,
      "Ġtort": 2901,
      "Ġlie": 2902,
      "Ġlone": 2903,
      "ceived": 2904,
      "unny": 2905,
      "Ġchem": 2906,
      "Ġchurch": 2907,
      "irty": 2908,
      "urd": 2909,
      "Ġsher": 2910,
      "Ġjour": 2911,
      "anda": 2912,
      "ander": 2913,
      "Ġcharm": 2914,
      "Ġcharles": 2915,
      "Ġheav": 2916,
      "Ġintended": 2917,
      "Ġembar": 2918,
      "ify": 2919,
      "Ġterror": 2920,
      "Ġfamiliar": 2921,
      "Ġpersonality": 2922,
      "Ġdepict": 2923,
      "Ġrecommended": 2924,
      "Ġcreated": 2925,
      "Ġjean": 2926,
      "Ġconcern": 2927,
      "Ġbroad": 2928,
      "Ġpotential": 2929,
      "Ġnatural": 2930,
      "stein": 2931,
      "Ġcreepy": 2932,
      "director": 2933,
      "Ġyeah": 2934,
      "lict": 2935,
      "rad": 2936,
      "Ġmoon": 2937,
      "Ġcard": 2938,
      "ana": 2939,
      "arily": 2940,
      "iced": 2941,
      "icide": 2942,
      "Ġstock": 2943,
      "cher": 2944,
      "Ġrap": 2945,
      "Ġinform": 2946,
      "Ġalive": 2947,
      "ased": 2948,
      "asure": 2949,
      "allen": 2950,
      "Ġspent": 2951,
      "Ġhey": 2952,
      "Ġdisplay": 2953,
      "Ġgrant": 2954,
      "Ġremark": 2955,
      "Ġattract": 2956,
      "Ġpersonally": 2957,
      "Ġexpectation": 2958,
      "ashion": 2959,
      "Ġcreative": 2960,
      "Ġrepresent": 2961,
      "Ġtotal": 2962,
      "Ġanti": 2963,
      "Ġimpression": 2964,
      "board": 2965,
      "Ġdestro": 2966,
      "Ġvirt": 2967,
      "Ġstunning": 2968,
      "Ġwasted": 2969,
      "bit": 2970,
      "gress": 2971,
      "Ġon": 2972,
      "Ġcable": 2973,
      "Ġcoll": 2974,
      "anation": 2975,
      "alth": 2976,
      "Ġbott": 2977,
      "stick": 2978,
      "Ġdin": 2979,
      "Ġahead": 2980,
      "oved": 2981,
      "Ġride": 2982,
      "Ġchick": 2983,
      "Ġkar": 2984,
      "Ġju": 2985,
      "Ġjon": 2986,
      "ends": 2987,
      "Ġmach": 2988,
      "andon": 2989,
      "Ġunbelie": 2990,
      "Ġconv": 2991,
      "Ġ15": 2992,
      "Ġspot": 2993,
      "itted": 2994,
      "Ġamount": 2995,
      "Ġdesper": 2996,
      "Ġstarring": 2997,
      "Ġdecides": 2998,
      "Ġcompared": 2999,
      "Ġrecent": 3000,
      "Ġsexy": 3001,
      "Ġaccident": 3002,
      "Ġskill": 3003,
      "Ġsocial": 3004,
      "Ġsatisf": 3005,
      "Ġoccur": 3006,
      "Ġsuccessful": 3007,
      "Ġsolid": 3008,
      "writer": 3009,
      "Ġinnoc": 3010,
      "Ġtradition": 3011,
      "Ġstruggle": 3012,
      "Ġbreath": 3013,
      "Ġnudity": 3014,
      "Ġembarrass": 3015,
      "gin": 3016,
      "ift": 3017,
      "mm": 3018,
      "oh": 3019,
      "rick": 3020,
      "Ġmal": 3021,
      "Ġfolk": 3022,
      "Ġtension": 3023,
      "arre": 3024,
      "Ġlab": 3025,
      "Ġluck": 3026,
      "Ġhack": 3027,
      "Ġhurt": 3028,
      "elly": 3029,
      "Ġstan": 3030,
      "Ġchris": 3031,
      "rap": 3032,
      "Ġmaker": 3033,
      "ateur": 3034,
      "Ġdiv": 3035,
      "Ġunex": 3036,
      "oughly": 3037,
      "Ġparty": 3038,
      "Ġgrow": 3039,
      "Ġremain": 3040,
      "Ġkey": 3041,
      "Ġframe": 3042,
      "Ġbug": 3043,
      "Ġexplanation": 3044,
      "ortunity": 3045,
      "Ġaccur": 3046,
      "Ġgreen": 3047,
      "Ġentirely": 3048,
      "Ġgarbage": 3049,
      "Ġjerry": 3050,
      "Ġreference": 3051,
      "Ġcuri": 3052,
      "Ġtrailer": 3053,
      "Ġnowhere": 3054,
      "Ġavailable": 3055,
      "bud": 3056,
      "cock": 3057,
      "oor": 3058,
      "set": 3059,
      "wor": 3060,
      "zz": 3061,
      "ened": 3062,
      "Ġfield": 3063,
      "Ġlog": 3064,
      "Ġbul": 3065,
      "itor": 3066,
      "Ġnob": 3067,
      "ica": 3068,
      "Ġreach": 3069,
      "Ġstuck": 3070,
      "adow": 3071,
      "riage": 3072,
      "uring": 3073,
      "Ġscient": 3074,
      "Ġjones": 3075,
      "Ġbear": 3076,
      "Ġneigh": 3077,
      "Ġamateur": 3078,
      "Ġrealize": 3079,
      "athan": 3080,
      "Ġremains": 3081,
      "Ġtrash": 3082,
      "Ġcrow": 3083,
      "Ġimposs": 3084,
      "Ġorigin": 3085,
      "Ġsmith": 3086,
      "Ġcompar": 3087,
      "Ġaside": 3088,
      "Ġmonkey": 3089,
      "Ġartist": 3090,
      "Ġdeli": 3091,
      "Ġfinish": 3092,
      "onto": 3093,
      "Ġreviewer": 3094,
      "Ġconsidering": 3095,
      "Ġfollows": 3096,
      "Ġpainful": 3097,
      "Ġhotel": 3098,
      "Ġsummer": 3099,
      "ribly": 3100,
      "Ġnarrative": 3101,
      "Ġjapanese": 3102,
      "Ġchemistry": 3103,
      "ech": 3104,
      "fr": 3105,
      "gory": 3106,
      "lusion": 3107,
      "making": 3108,
      "sen": 3109,
      "Ġsqu": 3110,
      "erous": 3111,
      "Ġfal": 3112,
      "Ġpack": 3113,
      "Ġlond": 3114,
      "Ġlatter": 3115,
      "Ġwil": 3116,
      "Ġhill": 3117,
      "Ġnaked": 3118,
      "iday": 3119,
      "idge": 3120,
      "Ġchallen": 3121,
      "Ġship": 3122,
      "Ġjane": 3123,
      "Ġmanaged": 3124,
      "Ġimpl": 3125,
      "Ġwhat": 3126,
      "Ġadam": 3127,
      "Ġprim": 3128,
      "Ġintern": 3129,
      "Ġsurround": 3130,
      "Ġdecade": 3131,
      "Ġsomewhere": 3132,
      "Ġsmart": 3133,
      "Ġcinematic": 3134,
      "Ġagent": 3135,
      "Ġglad": 3136,
      "Ġabsurd": 3137,
      "Ġformer": 3138,
      "Ġsadly": 3139,
      "Ġchristian": 3140,
      "Ġopportunity": 3141,
      "Ġbuilding": 3142,
      "Ġclimax": 3143,
      "Ġdisturbing": 3144,
      "Ġlondon": 3145,
      "fic": 3146,
      "father": 3147,
      "Ġsitting": 3148,
      "Ġfro": 3149,
      "Ġpun": 3150,
      "Ġdy": 3151,
      "Ġdar": 3152,
      "Ġachie": 3153,
      "Ġthreat": 3154,
      "Ġchanged": 3155,
      "ask": 3156,
      "Ġacted": 3157,
      "Ġneg": 3158,
      "Ġles": 3159,
      "plot": 3160,
      "epend": 3161,
      "Ġord": 3162,
      "ipul": 3163,
      "Ġsurf": 3164,
      "Ġopera": 3165,
      "Ġintention": 3166,
      "Ġbiggest": 3167,
      "Ġmarried": 3168,
      "Ġcompet": 3169,
      "Ġcompany": 3170,
      "Ġbelief": 3171,
      "Ġlonger": 3172,
      "Ġagree": 3173,
      "Ġcourt": 3174,
      "Ġvision": 3175,
      "Ġfollowing": 3176,
      "Ġculture": 3177,
      "Ġfully": 3178,
      "Ġappreciate": 3179,
      "Ġstereotype": 3180,
      "Ġspectac": 3181,
      "fore": 3182,
      "low": 3183,
      "uit": 3184,
      "zen": 3185,
      "Ġ%": 3186,
      "rea": 3187,
      "rel": 3188,
      "Ġted": 3189,
      "Ġwide": 3190,
      "Ġbomb": 3191,
      "Ġeast": 3192,
      "chest": 3193,
      "unt": 3194,
      "Ġlikely": 3195,
      "Ġleaving": 3196,
      "Ġbruce": 3197,
      "Ġsav": 3198,
      "Ġarri": 3199,
      "Ġdesire": 3200,
      "Ġremote": 3201,
      "Ġimpr": 3202,
      "Ġterrific": 3203,
      "Ġexciting": 3204,
      "Ġdanny": 3205,
      "Ġcollege": 3206,
      "Ġteacher": 3207,
      "budget": 3208,
      "Ġneighbor": 3209,
      "bu": 3210,
      "good": 3211,
      "gment": 3212,
      "ken": 3213,
      "spect": 3214,
      "Ġown": 3215,
      "Ġmary": 3216,
      "Ġmult": 3217,
      "Ġfashion": 3218,
      "Ġwas": 3219,
      "Ġdate": 3220,
      "Ġhole": 3221,
      "Ġner": 3222,
      "Ġreaction": 3223,
      "Ġfilled": 3224,
      "under": 3225,
      "oop": 3226,
      "Ġbrief": 3227,
      "aging": 3228,
      "Ġblond": 3229,
      "Ġdrink": 3230,
      "Ġminor": 3231,
      "Ġhumour": 3232,
      "Ġcomplex": 3233,
      "Ġfavour": 3234,
      "Ġcaptain": 3235,
      "ological": 3236,
      "Ġintelligent": 3237,
      "ropri": 3238,
      "Ġwitness": 3239,
      "Ġresem": 3240,
      "Ġbarely": 3241,
      "Ġshakespe": 3242,
      "Ġthoroughly": 3243,
      "Ġfascinating": 3244,
      "Ġbizarre": 3245,
      "Ġnobody": 3246,
      "Ġimpossible": 3247,
      "Ġnegative": 3248,
      "'m": 3249,
      "Ġcro": 3250,
      "Ġcaught": 3251,
      "enstein": 3252,
      "Ġpract": 3253,
      "Ġtor": 3254,
      "Ġbos": 3255,
      "stance": 3256,
      "Ġdim": 3257,
      "Ġdoll": 3258,
      "Ġgut": 3259,
      "Ġash": 3260,
      "Ġhook": 3261,
      "icle": 3262,
      "Ġrepl": 3263,
      "Ġsea": 3264,
      "Ġsean": 3265,
      "iding": 3266,
      "idence": 3267,
      "Ġthus": 3268,
      "sess": 3269,
      "Ġcomedic": 3270,
      "appe": 3271,
      "Ġmanipul": 3272,
      "odram": 3273,
      "soever": 3274,
      "ability": 3275,
      "Ġgrad": 3276,
      "Ġgrade": 3277,
      "Ġserv": 3278,
      "Ġacad": 3279,
      "anging": 3280,
      "Ġcrim": 3281,
      "Ġattitude": 3282,
      "Ġproduced": 3283,
      "Ġphone": 3284,
      "Ġlaughable": 3285,
      "Ġindivid": 3286,
      "Ġindepend": 3287,
      "Ġdifference": 3288,
      "Ġoutstanding": 3289,
      "Ġexplo": 3290,
      "rend": 3291,
      "Ġdepress": 3292,
      "Ġparis": 3293,
      "Ġconflict": 3294,
      "Ġmoral": 3295,
      "Ġpresented": 3296,
      "Ġimpressive": 3297,
      "Ġprotagonist": 3298,
      "Ġhonestly": 3299,
      "Ġscenery": 3300,
      "Ġhitchcock": 3301,
      "Ġintrigu": 3302,
      "Ġwhatsoever": 3303,
      "Ġindividual": 3304,
      "fort": 3305,
      "han": 3306,
      "la": 3307,
      "love": 3308,
      "no": 3309,
      "night": 3310,
      "reen": 3311,
      "Ġmatt": 3312,
      "Ġcand": 3313,
      "Ġfool": 3314,
      "Ġfiction": 3315,
      "Ġpet": 3316,
      "Ġpas": 3317,
      "Ġbi": 3318,
      "Ġder": 3319,
      "Ġdick": 3320,
      "Ġray": 3321,
      "Ġrip": 3322,
      "Ġrush": 3323,
      "Ġlik": 3324,
      "Ġshar": 3325,
      "Ġshare": 3326,
      "Ġsuicide": 3327,
      "Ġcond": 3328,
      "Ġtwenty": 3329,
      "izes": 3330,
      "Ġenter": 3331,
      "Ġdrunk": 3332,
      "Ġmarriage": 3333,
      "Ġinsult": 3334,
      "Ġappeal": 3335,
      "Ġwalking": 3336,
      "Ġantic": 3337,
      "Ġconclusion": 3338,
      "Ġpleasure": 3339,
      "Ġphotography": 3340,
      "Ġliterally": 3341,
      "Ġoccasion": 3342,
      "Ġordinary": 3343,
      "bre": 3344,
      "ese": 3345,
      "hen": 3346,
      "ique": 3347,
      "sides": 3348,
      "vir": 3349,
      "war": 3350,
      "wolf": 3351,
      "Ġsun": 3352,
      "ero": 3353,
      "rey": 3354,
      "Ġmood": 3355,
      "anc": 3356,
      "Ġtem": 3357,
      "Ġlock": 3358,
      "Ġlord": 3359,
      "Ġlyn": 3360,
      "Ġble": 3361,
      "Ġbob": 3362,
      "ilt": 3363,
      "Ġho": 3364,
      "Ġhidden": 3365,
      "che": 3366,
      "ooper": 3367,
      "Ġfilming": 3368,
      "Ġseven": 3369,
      "Ġchap": 3370,
      "Ġindu": 3371,
      "Ġinvest": 3372,
      "Ġkiss": 3373,
      "uted": 3374,
      "Ġplane": 3375,
      "Ġbesides": 3376,
      "pped": 3377,
      "ppet": 3378,
      "Ġbland": 3379,
      "Ġprison": 3380,
      "Ġtwice": 3381,
      "Ġinterview": 3382,
      "pected": 3383,
      "Ġfinding": 3384,
      "Ġobsess": 3385,
      "Ġproduct": 3386,
      "Ġbuck": 3387,
      "Ġturning": 3388,
      "azy": 3389,
      "Ġappeared": 3390,
      "Ġholm": 3391,
      "Ġpresident": 3392,
      "Ġsteal": 3393,
      "Ġbuddy": 3394,
      "Ġpolitical": 3395,
      "Ġprovides": 3396,
      "Ġgenerally": 3397,
      "Ġdetective": 3398,
      "Ġwooden": 3399,
      "Ġmelodram": 3400,
      "Ġpassion": 3401,
      "Ġshakespeare": 3402,
      "Ġcriminal": 3403,
      "even": 3404,
      "field": 3405,
      "ron": 3406,
      "ral": 3407,
      "ta": 3408,
      "wart": 3409,
      "yan": 3410,
      "Ġing": 3411,
      "ergy": 3412,
      "Ġmob": 3413,
      "ano": 3414,
      "Ġgag": 3415,
      "Ġarea": 3416,
      "Ġhat": 3417,
      "Ġstone": 3418,
      "isc": 3419,
      "Ġrain": 3420,
      "olic": 3421,
      "vert": 3422,
      "Ġlived": 3423,
      "ura": 3424,
      "ained": 3425,
      "Ġspan": 3426,
      "Ġarg": 3427,
      "Ġlovely": 3428,
      "Ġaccom": 3429,
      "Ġability": 3430,
      "Ġcastle": 3431,
      "ified": 3432,
      "Ġcompelling": 3433,
      "Ġthrown": 3434,
      "Ġexcuse": 3435,
      "Ġrelative": 3436,
      "Ġpresence": 3437,
      "Ġspeaking": 3438,
      "aturing": 3439,
      "Ġdouble": 3440,
      "Ġviolent": 3441,
      "Ġloud": 3442,
      "Ġdrawn": 3443,
      "Ġhenry": 3444,
      "Ġlength": 3445,
      "Ġrandom": 3446,
      "Ġjourney": 3447,
      "hor": 3448,
      "mark": 3449,
      "oking": 3450,
      "ercial": 3451,
      "rew": 3452,
      "Ġmine": 3453,
      "Ġciv": 3454,
      "Ġpair": 3455,
      "Ġbon": 3456,
      "Ġbond": 3457,
      "Ġdut": 3458,
      "oud": 3459,
      "oted": 3460,
      "opher": 3461,
      "uter": 3462,
      "room": 3463,
      "terest": 3464,
      "Ġprep": 3465,
      "Ġ18": 3466,
      "Ġcloth": 3467,
      "Ġspring": 3468,
      "Ġshowed": 3469,
      "ource": 3470,
      "iously": 3471,
      "Ġfeaturing": 3472,
      "Ġcrash": 3473,
      "ooth": 3474,
      "Ġmont": 3475,
      "Ġmonth": 3476,
      "Ġnightm": 3477,
      "Ġsoft": 3478,
      "Ġrede": 3479,
      "Ġanimated": 3480,
      "Ġinflu": 3481,
      "Ġforever": 3482,
      "Ġuncle": 3483,
      "Ġ60": 3484,
      "Ġmixed": 3485,
      "Ġwindow": 3486,
      "Ġultimately": 3487,
      "Ġsheriff": 3488,
      "Ġbottom": 3489,
      "med": 3490,
      "pret": 3491,
      "uous": 3492,
      "uine": 3493,
      "Ġii": 3494,
      "Ġsab": 3495,
      "reg": 3496,
      "Ġmount": 3497,
      "Ġpush": 3498,
      "Ġbol": 3499,
      "Ġbought": 3500,
      "Ġgover": 3501,
      "Ġest": 3502,
      "Ġhated": 3503,
      "overt": 3504,
      "ented": 3505,
      "Ġthats": 3506,
      "irt": 3507,
      "ural": 3508,
      "rast": 3509,
      "udge": 3510,
      "Ġ.......": 3511,
      "Ġunderst": 3512,
      "Ġcrappy": 3513,
      "life": 3514,
      "Ġsuppose": 3515,
      "Ġheld": 3516,
      "Ġsteven": 3517,
      "Ġsinger": 3518,
      "Ġsyn": 3519,
      "Ġinclude": 3520,
      "Ġimagination": 3521,
      "ruction": 3522,
      "Ġlighting": 3523,
      "Ġirrit": 3524,
      "Ġ50": 3525,
      "Ġfresh": 3526,
      "Ġdeveloped": 3527,
      "Ġtechnical": 3528,
      "Ġvictor": 3529,
      "Ġdamn": 3530,
      "watched": 3531,
      "Ġafrica": 3532,
      "Ġpathetic": 3533,
      "Ġ1950": 3534,
      "Ġnorth": 3535,
      "Ġradio": 3536,
      "Ġfunniest": 3537,
      "Ġsuddenly": 3538,
      "Ġmagnific": 3539,
      "Ġunbelievable": 3540,
      "ey": 3541,
      "ford": 3542,
      "kin": 3543,
      "rical": 3544,
      "table": 3545,
      "erm": 3546,
      "Ġms": 3547,
      "Ġcas": 3548,
      "Ġcash": 3549,
      "Ġpan": 3550,
      "Ġwere": 3551,
      "Ġban": 3552,
      "Ġbank": 3553,
      "Ġnast": 3554,
      "Ġnick": 3555,
      "Ġstation": 3556,
      "Ġrh": 3557,
      "ribe": 3558,
      "Ġvac": 3559,
      "elled": 3560,
      "acting": 3561,
      "Ġconvers": 3562,
      "Ġtrust": 3563,
      "Ġqueen": 3564,
      "Ġprice": 3565,
      "Ġpriest": 3566,
      "ploy": 3567,
      "Ġknowing": 3568,
      "Ġjoan": 3569,
      "Ġwanting": 3570,
      "Ġdesert": 3571,
      "Ġdecision": 3572,
      "Ġsmile": 3573,
      "Ġcompare": 3574,
      "Ġleader": 3575,
      "ledge": 3576,
      "Ġboyfriend": 3577,
      "Ġrobin": 3578,
      "retch": 3579,
      "Ġdread": 3580,
      "Ġafter": 3581,
      "Ġprovide": 3582,
      "Ġsucceed": 3583,
      "Ġteenage": 3584,
      "Ġslowly": 3585,
      "Ġcollection": 3586,
      "Ġgolden": 3587,
      "Ġproper": 3588,
      "Ġrussian": 3589,
      "Ġequally": 3590,
      "Ġexpression": 3591,
      "Ġafrican": 3592,
      "Ġjustice": 3593,
      "Ġslapstick": 3594,
      "Ġspectacular": 3595,
      "Ġfavourite": 3596,
      "Ġacademy": 3597,
      "Ġcivil": 3598,
      "cra": 3599,
      "eper": 3600,
      "fet": 3601,
      "fight": 3602,
      "ham": 3603,
      "ki": 3604,
      "with": 3605,
      "year": 3606,
      "ini": 3607,
      "Ġmic": 3608,
      "Ġcate": 3609,
      "Ġfate": 3610,
      "Ġfame": 3611,
      "Ġtune": 3612,
      "Ġwel": 3613,
      "Ġbrian": 3614,
      "Ġdun": 3615,
      "Ġdying": 3616,
      "Ġgal": 3617,
      "Ġnons": 3618,
      "Ġmovement": 3619,
      "Ġinit": 3620,
      "irth": 3621,
      "raid": 3622,
      "Ġshadow": 3623,
      "Ġunknown": 3624,
      "inder": 3625,
      "Ġtrick": 3626,
      "Ġprefer": 3627,
      "ograp": 3628,
      "Ġprogress": 3629,
      "Ġclue": 3630,
      "Ġfault": 3631,
      "Ġdisaster": 3632,
      "Ġdisappe": 3633,
      "Ġamb": 3634,
      "Ġanybody": 3635,
      "Ġsurreal": 3636,
      "Ġintense": 3637,
      "Ġgenuine": 3638,
      "Ġasian": 3639,
      "Ġsurely": 3640,
      "Ġmission": 3641,
      "Ġsurprising": 3642,
      "Ġcommercial": 3643,
      "Ġelect": 3644,
      "Ġ40": 3645,
      "Ġbehav": 3646,
      "Ġhund": 3647,
      "Ġmiser": 3648,
      "Ġtrek": 3649,
      "Ġtouching": 3650,
      "Ġpicked": 3651,
      "Ġconstantly": 3652,
      "Ġsymb": 3653,
      "Ġtreated": 3654,
      "Ġvirgin": 3655,
      "Ġsentiment": 3656,
      "Ġhaun": 3657,
      "Ġstunt": 3658,
      "Ġfellow": 3659,
      "Ġlimited": 3660,
      "Ġwearing": 3661,
      "Ġhoping": 3662,
      "Ġjudge": 3663,
      "Ġflesh": 3664,
      "Ġmedium": 3665,
      "Ġeuropean": 3666,
      "Ġtorture": 3667,
      "Ġmulti": 3668,
      "Ġnightmare": 3669,
      "Ġconversation": 3670,
      "ographer": 3671,
      "aven": 3672,
      "bell": 3673,
      "hab": 3674,
      "house": 3675,
      "lock": 3676,
      "may": 3677,
      "ped": 3678,
      "zan": 3679,
      "¡Â": 3680,
      "Ġice": 3681,
      "Ġsight": 3682,
      "Ġfab": 3683,
      "Ġfond": 3684,
      "Ġpaper": 3685,
      "Ġtur": 3686,
      "Ġlam": 3687,
      "atra": 3688,
      "stry": 3689,
      "Ġgraph": 3690,
      "itz": 3691,
      "Ġchuck": 3692,
      "see": 3693,
      "irm": 3694,
      "Ġdebut": 3695,
      "Ġunus": 3696,
      "allow": 3697,
      "Ġwatchable": 3698,
      "Ġenergy": 3699,
      "pping": 3700,
      "Ġarch": 3701,
      "Ġwrote": 3702,
      "Ġnoticed": 3703,
      "fted": 3704,
      "ivity": 3705,
      "Ġcontrast": 3706,
      "Ġoper": 3707,
      "Ġstruct": 3708,
      "Ġnews": 3709,
      "Ġhighlight": 3710,
      "000": 3711,
      "Ġedge": 3712,
      "Ġready": 3713,
      "Ġrobot": 3714,
      "Ġassist": 3715,
      "Ġengland": 3716,
      "Ġformula": 3717,
      "Ġdisappointment": 3718,
      "Ġnumerous": 3719,
      "Ġcenter": 3720,
      "Ġcentral": 3721,
      "Ġandy": 3722,
      "Ġdescrib": 3723,
      "Ġaffect": 3724,
      "ominated": 3725,
      "Ġlesson": 3726,
      "Ġtheatre": 3727,
      "Ġencounter": 3728,
      "Ġidiot": 3729,
      "Ġhistorical": 3730,
      "Ġdestroy": 3731,
      "Ġjonathan": 3732,
      "Ġunexpected": 3733,
      "Ġindependent": 3734,
      "Ġintriguing": 3735,
      "Ġaccompl": 3736,
      "Ġredeem": 3737,
      "Ġgovern": 3738,
      "cula": 3739,
      "hs": 3740,
      "ping": 3741,
      "sch": 3742,
      "tw": 3743,
      "yc": 3744,
      "Ġow": 3745,
      "Ġonto": 3746,
      "Ġmouth": 3747,
      "Ġcant": 3748,
      "ency": 3749,
      "Ġfright": 3750,
      "alle": 3751,
      "orter": 3752,
      "Ġlay": 3753,
      "Ġbilly": 3754,
      "stem": 3755,
      "Ġgon": 3756,
      "lect": 3757,
      "Ġnich": 3758,
      "Ġstren": 3759,
      "entially": 3760,
      "Ġrat": 3761,
      "Ġchore": 3762,
      "vey": 3763,
      "Ġalt": 3764,
      "Ġjoy": 3765,
      "Ġjason": 3766,
      "Ġvol": 3767,
      "arded": 3768,
      "Ġclub": 3769,
      "Ġbrand": 3770,
      "Ġblow": 3771,
      "Ġeverybody": 3772,
      "overall": 3773,
      "Ġenth": 3774,
      "Ġminim": 3775,
      "Ġunderrated": 3776,
      "Ġobject": 3777,
      "Ġcheer": 3778,
      "Ġinstance": 3779,
      "Ġhappening": 3780,
      "gram": 3781,
      "Ġcameo": 3782,
      "Ġcaptured": 3783,
      "Ġhunter": 3784,
      "Ġadmir": 3785,
      "Ġimpressed": 3786,
      "heart": 3787,
      "Ġ1980": 3788,
      "Ġaffair": 3789,
      "Ġtragic": 3790,
      "Ġshooting": 3791,
      "Ġinspir": 3792,
      "Ġintelligence": 3793,
      "Ġpriv": 3794,
      "Ġcruel": 3795,
      "Ġprofessional": 3796,
      "Ġsympathetic": 3797,
      "Ġpacing": 3798,
      "Ġbrutal": 3799,
      "Ġcrowd": 3800,
      "Ġblonde": 3801,
      "Ġlikable": 3802,
      "Ġindustry": 3803,
      "Ġwerewolf": 3804,
      "Ġgraphic": 3805,
      "ront": 3806,
      "val": 3807,
      "Ġic": 3808,
      "Ġmore": 3809,
      "Ġcaine": 3810,
      "Ġpace": 3811,
      "ara": 3812,
      "Ġled": 3813,
      "Ġwhere": 3814,
      "Ġdubb": 3815,
      "Ġgam": 3816,
      "Ġgig": 3817,
      "Ġgorge": 3818,
      "itle": 3819,
      "Ġhost": 3820,
      "Ġrape": 3821,
      "Ġryan": 3822,
      "Ġsem": 3823,
      "Ġven": 3824,
      "illa": 3825,
      "Ġbeach": 3826,
      "icked": 3827,
      "agger": 3828,
      "Ġquiet": 3829,
      "osition": 3830,
      "Ġseemingly": 3831,
      "Ġmini": 3832,
      "Ġcontent": 3833,
      "Ġstranger": 3834,
      "Ġimpact": 3835,
      "Ġcarol": 3836,
      "Ġcomputer": 3837,
      "Ġbuff": 3838,
      "Ġeddie": 3839,
      "Ġborn": 3840,
      "Ġassass": 3841,
      "Ġskip": 3842,
      "Ġdracula": 3843,
      "Ġsoap": 3844,
      "Ġafraid": 3845,
      "Ġincludes": 3846,
      "Ġchristopher": 3847,
      "Ġgeneration": 3848,
      "Ġcorrect": 3849,
      "Ġvillage": 3850,
      "Ġcurrent": 3851,
      "oken": 3852,
      "Ġbroken": 3853,
      "Ġinspired": 3854,
      "Ġtarzan": 3855,
      "Ġknock": 3856,
      "Ġsurvive": 3857,
      "Ġbatman": 3858,
      "Ġforgotten": 3859,
      "Ġflashback": 3860,
      "Ġinformation": 3861,
      "Ġscientist": 3862,
      "Ġcomparison": 3863,
      "Ġmagnificent": 3864,
      "Ġhundred": 3865,
      "Ġstrength": 3866,
      "aus": 3867,
      "ault": 3868,
      "bc": 3869,
      "bing": 3870,
      "dom": 3871,
      "ext": 3872,
      "gant": 3873,
      "mar": 3874,
      "yer": 3875,
      "Ġmi": 3876,
      "Ġfra": 3877,
      "Ġtight": 3878,
      "Ġloose": 3879,
      "Ġwid": 3880,
      "Ġwolf": 3881,
      "Ġbag": 3882,
      "Ġaim": 3883,
      "Ġhide": 3884,
      "ading": 3885,
      "Ġron": 3886,
      "Ġrout": 3887,
      "Ġsegment": 3888,
      "Ġthin": 3889,
      "ament": 3890,
      "americ": 3891,
      "Ġliber": 3892,
      "ther": 3893,
      "that": 3894,
      "Ġkore": 3895,
      "Ġshop": 3896,
      "Ġunreal": 3897,
      "Ġyouth": 3898,
      "Ġcharlie": 3899,
      "Ġprogram": 3900,
      "earing": 3901,
      "Ġbrook": 3902,
      "Ġbrown": 3903,
      "Ġblame": 3904,
      "Ġblock": 3905,
      "Ġdisg": 3906,
      "appy": 3907,
      "Ġhorse": 3908,
      "Ġcontem": 3909,
      "Ġcarl": 3910,
      "Ġcrack": 3911,
      "Ġbecoming": 3912,
      "Ġletter": 3913,
      "Ġskin": 3914,
      "Ġjohnny": 3915,
      "Ġtheory": 3916,
      "Ġvisit": 3917,
      "Ġparody": 3918,
      "Ġunderstanding": 3919,
      "Ġconfront": 3920,
      "Ġjackson": 3921,
      "Ġfollowed": 3922,
      "Ġmodel": 3923,
      "Ġdougl": 3924,
      "Ġfreak": 3925,
      "Ġtransl": 3926,
      "ipped": 3927,
      "Ġ1970": 3928,
      "eteran": 3929,
      "Ġdelivered": 3930,
      "Ġstephen": 3931,
      "Ġapartment": 3932,
      "Ġintroduced": 3933,
      "Ġ1930": 3934,
      "Ġcanad": 3935,
      "Ġwilliams": 3936,
      "Ġjulie": 3937,
      "Ġrepeated": 3938,
      "Ġrespons": 3939,
      "Ġuniversal": 3940,
      "Ġheavy": 3941,
      "Ġinnocent": 3942,
      "Ġdelivers": 3943,
      "Ġgorgeous": 3944,
      "Ġdouglas": 3945,
      "aur": 3946,
      "ja": 3947,
      "law": 3948,
      "rate": 3949,
      "ten": 3950,
      "taking": 3951,
      "win": 3952,
      "Ġ/": 3953,
      "Ġern": 3954,
      "Ġsell": 3955,
      "Ġmut": 3956,
      "Ġmcc": 3957,
      "Ġcyn": 3958,
      "Ġfare": 3959,
      "Ġpil": 3960,
      "Ġpra": 3961,
      "Ġpenn": 3962,
      "Ġlon": 3963,
      "Ġbog": 3964,
      "Ġgross": 3965,
      "Ġaustr": 3966,
      "icate": 3967,
      "Ġstink": 3968,
      "Ġstretch": 3969,
      "aded": 3970,
      "Ġrace": 3971,
      "Ġroman": 3972,
      "oler": 3973,
      "ulous": 3974,
      "urity": 3975,
      "Ġdean": 3976,
      "Ġveteran": 3977,
      "Ġ12": 3978,
      "enever": 3979,
      "olds": 3980,
      "Ġserial": 3981,
      "Ġabandon": 3982,
      "Ġhigher": 3983,
      "Ġweap": 3984,
      "Ġwealth": 3985,
      "Ġobser": 3986,
      "Ġkidn": 3987,
      "Ġcolumb": 3988,
      "Ġzero": 3989,
      "Ġaccord": 3990,
      "Ġdepart": 3991,
      "Ġsystem": 3992,
      "Ġharris": 3993,
      "Ġruin": 3994,
      "Ġrule": 3995,
      "Ġjeff": 3996,
      "Ġexpert": 3997,
      "Ġfeatured": 3998,
      "Ġdisappointing": 3999,
      "Ġmagic": 4000,
      "Ġdevil": 4001,
      "Ġpatient": 4002,
      "Ġdemand": 4003,
      "Ġ2001": 4004,
      "Ġboard": 4005,
      "Ġlouis": 4006,
      "Ġmartin": 4007,
      "Ġmartial": 4008,
      "Ġmotiv": 4009,
      "Ġreminds": 4010,
      "Ġutterly": 4011,
      "Ġphysical": 4012,
      "Ġmerely": 4013,
      "Ġmental": 4014,
      "Ġmachine": 4015,
      "Ġchallenge": 4016,
      "Ġmountain": 4017,
      "Ġstructure": 4018,
      "bra": 4019,
      "ipe": 4020,
      "kward": 4021,
      "long": 4022,
      "oom": 4023,
      "oci": 4024,
      "port": 4025,
      "town": 4026,
      "vent": 4027,
      "you": 4028,
      "inct": 4029,
      "Ġmed": 4030,
      "Ġmouse": 4031,
      "alist": 4032,
      "Ġton": 4033,
      "Ġtong": 4034,
      "Ġwise": 4035,
      "Ġbright": 4036,
      "Ġbik": 4037,
      "story": 4038,
      "Ġgent": 4039,
      "Ġeight": 4040,
      "omination": 4041,
      "Ġround": 4042,
      "Ġrac": 4043,
      "Ġrub": 4044,
      "Ġranger": 4045,
      "Ġfill": 4046,
      "ooge": 4047,
      "Ġsepar": 4048,
      "Ġthom": 4049,
      "Ġchill": 4050,
      "Ġkate": 4051,
      "Ġkath": 4052,
      "Ġcomfort": 4053,
      "Ġvote": 4054,
      "ousy": 4055,
      "Ġyell": 4056,
      "inese": 4057,
      "Ġpress": 4058,
      "Ġbridge": 4059,
      "osoph": 4060,
      "Ġprint": 4061,
      "Ġproud": 4062,
      "Ġheck": 4063,
      "Ġheaven": 4064,
      "Ġemploy": 4065,
      "ensional": 4066,
      "Ġterribly": 4067,
      "Ġaware": 4068,
      "Ġawkward": 4069,
      "screen": 4070,
      "azz": 4071,
      "Ġrelate": 4072,
      "Ġagre": 4073,
      "Ġkinda": 4074,
      "Ġputting": 4075,
      "ashed": 4076,
      "Ġtruck": 4077,
      "Ġpossess": 4078,
      "Ġharm": 4079,
      "Ġconfused": 4080,
      "Ġcommentary": 4081,
      "Ġspeech": 4082,
      "Ġpaid": 4083,
      "Ġbarbar": 4084,
      "Ġfrankly": 4085,
      "Ġcurt": 4086,
      "Ġpromise": 4087,
      "Ġdeserve": 4088,
      "Ġconstant": 4089,
      "Ġprotect": 4090,
      "Ġallowed": 4091,
      "Ġsignific": 4092,
      "Ġveh": 4093,
      "Ġwilling": 4094,
      "Ġdemonstr": 4095,
      "Ġremarkable": 4096,
      "Ġvirtually": 4097,
      "Ġdollar": 4098,
      "teresting": 4099,
      "Ġclothes": 4100,
      "Ġnasty": 4101,
      "Ġnichol": 4102,
      "Ġweapon": 4103,
      "bi": 4104,
      "cut": 4105,
      "cere": 4106,
      "gly": 4107,
      "ium": 4108,
      "ka": 4109,
      "min": 4110,
      "nie": 4111,
      "xic": 4112,
      "Ġsan": 4113,
      "Ġsite": 4114,
      "erson": 4115,
      "really": 4116,
      "Ġmike": 4117,
      "Ġcow": 4118,
      "Ġcann": 4119,
      "Ġcele": 4120,
      "Ġfi": 4121,
      "Ġfid": 4122,
      "Ġped": 4123,
      "Ġpage": 4124,
      "Ġtable": 4125,
      "Ġluc": 4126,
      "stit": 4127,
      "leep": 4128,
      "Ġhon": 4129,
      "Ġhood": 4130,
      "Ġnet": 4131,
      "Ġreceived": 4132,
      "add": 4133,
      "Ġrow": 4134,
      "Ġrise": 4135,
      "Ġraw": 4136,
      "Ġrank": 4137,
      "Ġrange": 4138,
      "tha": 4139,
      "Ġkane": 4140,
      "Ġkelly": 4141,
      "Ġscared": 4142,
      "herent": 4143,
      "Ġund": 4144,
      "Ġunited": 4145,
      "Ġconsequ": 4146,
      "inda": 4147,
      "Ġprocess": 4148,
      "Ġroy": 4149,
      "Ġrose": 4150,
      "Ġpeace": 4151,
      "ourne": 4152,
      "Ġwhenever": 4153,
      "Ġloving": 4154,
      "Ġknowledge": 4155,
      "Ġwayne": 4156,
      "Ġjoin": 4157,
      "Ġsafe": 4158,
      "Ġsimpl": 4159,
      "Ġbelong": 4160,
      "awn": 4161,
      "Ġkevin": 4162,
      "Ġresc": 4163,
      "Ġlaught": 4164,
      "Ġsincere": 4165,
      "Ġproduce": 4166,
      "Ġrelief": 4167,
      "Ġartistic": 4168,
      "Ġhelped": 4169,
      "Ġstewart": 4170,
      "Ġsuperior": 4171,
      "Ġcreating": 4172,
      "Ġportrays": 4173,
      "Ġbloody": 4174,
      "Ġfootball": 4175,
      "Ġfairy": 4176,
      "Ġfrequ": 4177,
      "Ġrental": 4178,
      "Ġlaure": 4179,
      "Ġlisten": 4180,
      "Ġangle": 4181,
      "Ġdevice": 4182,
      "Ġlearned": 4183,
      "Ġforeign": 4184,
      "Ġpropag": 4185,
      "Ġnormally": 4186,
      "Ġdescribe": 4187,
      "Ġoppos": 4188,
      "Ġtreatment": 4189,
      "Ġflying": 4190,
      "Ġtheatrical": 4191,
      "Ġtherefore": 4192,
      "Ġofficer": 4193,
      "Ġattractive": 4194,
      "Ġmelodrama": 4195,
      "Ġvacation": 4196,
      "Ġdisappear": 4197,
      "Ġgovernment": 4198,
      "19": 4199,
      "away": 4200,
      "bed": 4201,
      "bling": 4202,
      "ca": 4203,
      "rous": 4204,
      "vation": 4205,
      "rem": 4206,
      "Ġmile": 4207,
      "Ġtape": 4208,
      "Ġww": 4209,
      "Ġwed": 4210,
      "Ġdated": 4211,
      "Ġgy": 4212,
      "Ġgord": 4213,
      "itary": 4214,
      "Ġhim": 4215,
      "Ġhere": 4216,
      "ication": 4217,
      "icious": 4218,
      "omen": 4219,
      "Ġran": 4220,
      "Ġris": 4221,
      "Ġrog": 4222,
      "Ġchair": 4223,
      "Ġkim": 4224,
      "Ġalan": 4225,
      "Ġscr": 4226,
      "Ġjun": 4227,
      "asm": 4228,
      "Ġvon": 4229,
      "Ġcharming": 4230,
      "Ġenemy": 4231,
      "Ġclip": 4232,
      "Ġblind": 4233,
      "Ġugly": 4234,
      "coming": 4235,
      "Ġsaving": 4236,
      "Ġanywhere": 4237,
      "Ġinterpret": 4238,
      "Ġaccomp": 4239,
      "Ġscrew": 4240,
      "Ġincident": 4241,
      "Ġasleep": 4242,
      "Ġcamer": 4243,
      "when": 4244,
      "Ġswitch": 4245,
      "ugos": 4246,
      "Ġtrib": 4247,
      "Ġunfunny": 4248,
      "Ġcoach": 4249,
      "Ġimagery": 4250,
      "Ġpredator": 4251,
      "Ġcorny": 4252,
      "Ġexperiment": 4253,
      "Ġfinale": 4254,
      "Ġmarket": 4255,
      "Ġpsycho": 4256,
      "Ġrarely": 4257,
      "Ġmedioc": 4258,
      "Ġdangerous": 4259,
      "Ġnecessary": 4260,
      "Ġreligious": 4261,
      "Ġcommunity": 4262,
      "Ġcontrived": 4263,
      "Ġconcerned": 4264,
      "Ġkarl": 4265,
      "Ġconvention": 4266,
      "Ġaccurate": 4267,
      "spective": 4268,
      "Ġdreadful": 4269,
      "Ġcategory": 4270,
      "Ġnonsense": 4271,
      "Ġkorean": 4272,
      "Ġernest": 4273,
      "Ġvehicle": 4274,
      "Ġgordon": 4275,
      "bian": 4276,
      "fit": 4277,
      "gm": 4278,
      "gar": 4279,
      "ha": 4280,
      "hh": 4281,
      "vit": 4282,
      "ville": 4283,
      "xual": 4284,
      "Ġsant": 4285,
      "Ġcinder": 4286,
      "Ġfinger": 4287,
      "ancy": 4288,
      "Ġpunch": 4289,
      "oring": 4290,
      "oration": 4291,
      "Ġwound": 4292,
      "Ġwave": 4293,
      "Ġbird": 4294,
      "Ġbbc": 4295,
      "style": 4296,
      "Ġdod": 4297,
      "Ġdirty": 4298,
      "Ġaut": 4299,
      "Ġhint": 4300,
      "Ġnin": 4301,
      "Ġnic": 4302,
      "icit": 4303,
      "olly": 4304,
      "Ġchinese": 4305,
      "vement": 4306,
      "Ġaltern": 4307,
      "Ġjaw": 4308,
      "Ġjenn": 4309,
      "usi": 4310,
      "Ġperspective": 4311,
      "Ġ11": 4312,
      "Ġmexic": 4313,
      "Ġpartner": 4314,
      "apping": 4315,
      "Ġgrat": 4316,
      "Ġinteraction": 4317,
      "izen": 4318,
      "Ġperforming": 4319,
      "beat": 4320,
      "ission": 4321,
      "Ġempt": 4322,
      "Ġford": 4323,
      "Ġwarning": 4324,
      "Ġfactor": 4325,
      "Ġsubplot": 4326,
      "whel": 4327,
      "Ġinsane": 4328,
      "Ġappealing": 4329,
      "Ġworthy": 4330,
      "Ġaccount": 4331,
      "Ġcoinc": 4332,
      "Ġkeeping": 4333,
      "Ġassum": 4334,
      "Ġmurderer": 4335,
      "Ġparalle": 4336,
      "Ġjess": 4337,
      "Ġdarkness": 4338,
      "Ġdiscuss": 4339,
      "Ġconfusing": 4340,
      "Ġwinning": 4341,
      "Ġcorrupt": 4342,
      "Ġmyth": 4343,
      "Ġmrs": 4344,
      "Ġdavis": 4345,
      "Ġsatire": 4346,
      "Ġanderson": 4347,
      "Ġangry": 4348,
      "Ġfigured": 4349,
      "Ġtransform": 4350,
      "Ġtreasure": 4351,
      "Ġtechnique": 4352,
      "Ġlarry": 4353,
      "Ġcontinue": 4354,
      "Ġcombination": 4355,
      "Ġexplained": 4356,
      "Ġprior": 4357,
      "Ġultimate": 4358,
      "Ġasks": 4359,
      "Ġresearch": 4360,
      "Ġphilosoph": 4361,
      "Ġpacino": 4362,
      "Ġdelightful": 4363,
      "Ġtraditional": 4364,
      "Ġsharp": 4365,
      "Ġoccasionally": 4366,
      "Ġchaplin": 4367,
      "Ġholmes": 4368,
      "Ġsymbol": 4369,
      "Ġunusual": 4370,
      "Ġdisgust": 4371,
      "Ġlaughter": 4372,
      "Ġmediocre": 4373,
      "Ġcinderella": 4374,
      "Ġparallel": 4375,
      "80": 4376,
      "aver": 4377,
      "col": 4378,
      "gue": 4379,
      "hol": 4380,
      "list": 4381,
      "mate": 4382,
      "mary": 4383,
      "ronic": 4384,
      "sky": 4385,
      "Ġsel": 4386,
      "Ġcit": 4387,
      "Ġcore": 4388,
      "Ġfer": 4389,
      "Ġfict": 4390,
      "anic": 4391,
      "Ġtick": 4392,
      "Ġtoy": 4393,
      "Ġtired": 4394,
      "ario": 4395,
      "Ġlugos": 4396,
      "Ġwing": 4397,
      "Ġdor": 4398,
      "Ġdust": 4399,
      "Ġgard": 4400,
      "iling": 4401,
      "Ġnaz": 4402,
      "Ġnational": 4403,
      "Ġnominated": 4404,
      "Ġsty": 4405,
      "isa": 4406,
      "ione": 4407,
      "Ġthous": 4408,
      "Ġkung": 4409,
      "asing": 4410,
      "Ġcomed": 4411,
      "Ġvhs": 4412,
      "rob": 4413,
      "Ġbeer": 4414,
      "Ġunne": 4415,
      "Ġunint": 4416,
      "Ġleon": 4417,
      "Ġworry": 4418,
      "alled": 4419,
      "fest": 4420,
      "Ġcharacterization": 4421,
      "cient": 4422,
      "Ġbrun": 4423,
      "Ġblade": 4424,
      "Ġcass": 4425,
      "Ġcaused": 4426,
      "ressed": 4427,
      "Ġentry": 4428,
      "Ġusa": 4429,
      "ifer": 4430,
      "Ġfrance": 4431,
      "Ġincre": 4432,
      "reek": 4433,
      "Ġmarsh": 4434,
      "Ġweb": 4435,
      "Ġresol": 4436,
      "Ġsinatra": 4437,
      "Ġsecurity": 4438,
      "Ġinsight": 4439,
      "Ġswim": 4440,
      "Ġglor": 4441,
      "Ġcreation": 4442,
      "ortune": 4443,
      "Ġaddition": 4444,
      "Ġassoci": 4445,
      "Ġnicely": 4446,
      "Ġpolitic": 4447,
      "Ġcourage": 4448,
      "Ġallen": 4449,
      "anna": 4450,
      "Ġsuspect": 4451,
      "Ġprove": 4452,
      "Ġwonderfully": 4453,
      "Ġadvice": 4454,
      "Ġiron": 4455,
      "Ġanton": 4456,
      "Ġdriver": 4457,
      "Ġrented": 4458,
      "Ġmysterious": 4459,
      "Ġhearing": 4460,
      "Ġconvince": 4461,
      "Ġnoir": 4462,
      "Ġpleasant": 4463,
      "Ġtarget": 4464,
      "ĠclichÃ©s": 4465,
      "Ġtraining": 4466,
      "ellect": 4467,
      "Ġprofound": 4468,
      "Ġgangster": 4469,
      "Ġrevolution": 4470,
      "Ġuninsp": 4471,
      "porary": 4472,
      "Ġbreathtaking": 4473,
      "Ġamateurish": 4474,
      "Ġowner": 4475,
      "ropriate": 4476,
      "Ġlynch": 4477,
      "Ġinvestig": 4478,
      "Ġbehavior": 4479,
      "Ġenthusi": 4480,
      "Ġprivate": 4481,
      "american": 4482,
      "Ġmotivation": 4483,
      "Ġtongue": 4484,
      "Ġbarbara": 4485,
      "Ġcelebr": 4486,
      "Ġpropaganda": 4487,
      "Ġopposite": 4488,
      "Ġempty": 4489,
      "Ġlugosi": 4490,
      "Ġthousand": 4491,
      "aire": 4492,
      "bled": 4493,
      "great": 4494,
      "iac": 4495,
      "lor": 4496,
      "lot": 4497,
      "mother": 4498,
      "produ": 4499,
      "rol": 4500,
      "rant": 4501,
      "sed": 4502,
      "Ġsake": 4503,
      "Ġsoph": 4504,
      "Ġsource": 4505,
      "Ġmock": 4506,
      "Ġmgm": 4507,
      "Ġfix": 4508,
      "ings": 4509,
      "alg": 4510,
      "Ġpin": 4511,
      "Ġting": 4512,
      "arant": 4513,
      "Ġwrest": 4514,
      "Ġbene": 4515,
      "Ġboot": 4516,
      "Ġdent": 4517,
      "Ġeat": 4518,
      "ita": 4519,
      "Ġhart": 4520,
      "Ġnative": 4521,
      "Ġreun": 4522,
      "entic": 4523,
      "isible": 4524,
      "Ġranch": 4525,
      "Ġmoved": 4526,
      "Ġseat": 4527,
      "Ġthat": 4528,
      "Ġchic": 4529,
      "Ġchos": 4530,
      "Ġincomp": 4531,
      "raction": 4532,
      "Ġjr": 4533,
      "Ġjan": 4534,
      "hero": 4535,
      "Ġexh": 4536,
      "Ġbeast": 4537,
      "aped": 4538,
      "Ġuniver": 4539,
      "udd": 4540,
      "Ġ14": 4541,
      "Ġstoryt": 4542,
      "pper": 4543,
      "abe": 4544,
      "agree": 4545,
      "Ġsac": 4546,
      "Ġfloor": 4547,
      "Ġguarant": 4548,
      "Ġcontext": 4549,
      "Ġcring": 4550,
      "Ġintellect": 4551,
      "Ġemph": 4552,
      "Ġstring": 4553,
      "Ġinco": 4554,
      "Ġmarvel": 4555,
      "Ġcraw": 4556,
      "Ġfriendship": 4557,
      "Ġexcited": 4558,
      "Ġbuilt": 4559,
      "Ġasking": 4560,
      "Ġasked": 4561,
      "Ġlaughed": 4562,
      "Ġinvent": 4563,
      "Ġinvisible": 4564,
      "Ġwondering": 4565,
      "Ġeduc": 4566,
      "Ġgiall": 4567,
      "cessary": 4568,
      "Ġtrium": 4569,
      "Ġclean": 4570,
      "Ġideal": 4571,
      "Ġmainly": 4572,
      "Ġsky": 4573,
      "Ġmurdered": 4574,
      "Ġharry": 4575,
      "Ġaftern": 4576,
      "Ġlacking": 4577,
      "Ġmorning": 4578,
      "Ġirre": 4579,
      "Ġisol": 4580,
      "Ġregret": 4581,
      "ennis": 4582,
      "Ġsnake": 4583,
      "Ġpatri": 4584,
      "Ġpromising": 4585,
      "however": 4586,
      "Ġcriticism": 4587,
      "Ġlawyer": 4588,
      "Ġdiscovered": 4589,
      "Ġgermany": 4590,
      "Ġsucked": 4591,
      "Ġfunnier": 4592,
      "Ġmilitary": 4593,
      "Ġstatus": 4594,
      "Ġconnection": 4595,
      "Ġidentity": 4596,
      "Ġinept": 4597,
      "Ġinevit": 4598,
      "Ġdonald": 4599,
      "Ġbalance": 4600,
      "Ġbullet": 4601,
      "Ġlesbian": 4602,
      "chester": 4603,
      "Ġservice": 4604,
      "Ġdescribed": 4605,
      "Ġinspiration": 4606,
      "Ġcontemporary": 4607,
      "Ġrescue": 4608,
      "Ġcitizen": 4609,
      "Ġchosen": 4610,
      "Ġafternoon": 4611,
      "cur": 4612,
      "cise": 4613,
      "des": 4614,
      "down": 4615,
      "gn": 4616,
      "gree": 4617,
      "jack": 4618,
      "men": 4619,
      "mal": 4620,
      "pse": 4621,
      "power": 4622,
      "rich": 4623,
      "sm": 4624,
      "Ġeric": 4625,
      "Ġsed": 4626,
      "Ġsir": 4627,
      "Ġmand": 4628,
      "Ġcoun": 4629,
      "Ġcage": 4630,
      "anced": 4631,
      "Ġpool": 4632,
      "Ġtour": 4633,
      "Ġlion": 4634,
      "Ġlake": 4635,
      "atory": 4636,
      "Ġbore": 4637,
      "Ġbirth": 4638,
      "ston": 4639,
      "Ġdil": 4640,
      "Ġgory": 4641,
      "Ġgain": 4642,
      "lyn": 4643,
      "ilty": 4644,
      "Ġaust": 4645,
      "Ġhick": 4646,
      "Ġhaw": 4647,
      "Ġnost": 4648,
      "Ġnav": 4649,
      "Ġredu": 4650,
      "Ġstro": 4651,
      "entious": 4652,
      "Ġrated": 4653,
      "imate": 4654,
      "Ġmovies": 4655,
      "oooo": 4656,
      "sec": 4657,
      "sey": 4658,
      "Ġdegree": 4659,
      "Ġjunk": 4660,
      "Ġviet": 4661,
      "Ġmac": 4662,
      "Ġmax": 4663,
      "Ġplastic": 4664,
      "anted": 4665,
      "Ġunre": 4666,
      "quel": 4667,
      "Ġproceed": 4668,
      "Ġroot": 4669,
      "Ġwho": 4670,
      "Ġheight": 4671,
      "Ġrealism": 4672,
      "person": 4673,
      "Ġanymore": 4674,
      "Ġorgan": 4675,
      "Ġtext": 4676,
      "Ġperformer": 4677,
      "Ġdrop": 4678,
      "Ġwarm": 4679,
      "Ġwarned": 4680,
      "Ġawe": 4681,
      "ups": 4682,
      "ription": 4683,
      "Ġscreenwriter": 4684,
      "Ġbegan": 4685,
      "Ġhandled": 4686,
      "Ġexplains": 4687,
      "Ġspecific": 4688,
      "Ġglimp": 4689,
      "Ġfinished": 4690,
      "Ġstanding": 4691,
      "Ġdoom": 4692,
      "Ġfalling": 4693,
      "Ġengaging": 4694,
      "Ġruth": 4695,
      "Ġincluded": 4696,
      "Ġdaniel": 4697,
      "Ġheroine": 4698,
      "Ġhumorous": 4699,
      "Ġfreed": 4700,
      "Ġdriving": 4701,
      "Ġhunt": 4702,
      "Ġbrilliantly": 4703,
      "Ġtechnology": 4704,
      "Ġpaying": 4705,
      "ipping": 4706,
      "Ġsleazy": 4707,
      "Ġuncon": 4708,
      "Ġhyster": 4709,
      "Ġcovered": 4710,
      "Ġgrandfather": 4711,
      "Ġrussell": 4712,
      "Ġforgot": 4713,
      "Ġreminded": 4714,
      "Ġsandra": 4715,
      "Ġexecution": 4716,
      "Ġcontinuity": 4717,
      "worth": 4718,
      "Ġcondition": 4719,
      "Ġspanish": 4720,
      "Ġmickey": 4721,
      "Ġunrealistic": 4722,
      "Ġpilot": 4723,
      "Ġwedding": 4724,
      "Ġtribute": 4725,
      "Ġjennifer": 4726,
      "Ġcomedian": 4727,
      "Ġunnecessary": 4728,
      "Ġuniverse": 4729,
      "Ġincoherent": 4730,
      "Ġnostalg": 4731,
      "11": 4732,
      "egr": 4733,
      "fill": 4734,
      "gate": 4735,
      "made": 4736,
      "part": 4737,
      "urist": 4738,
      "wis": 4739,
      "Ġire": 4740,
      "inative": 4741,
      "ream": 4742,
      "Ġmorm": 4743,
      "Ġmild": 4744,
      "onna": 4745,
      "Ġfur": 4746,
      "Ġfbi": 4747,
      "Ġto": 4748,
      "arm": 4749,
      "orig": 4750,
      "Ġlin": 4751,
      "Ġlat": 4752,
      "Ġlower": 4753,
      "Ġwicked": 4754,
      "Ġby": 4755,
      "Ġboo": 4756,
      "Ġbell": 4757,
      "Ġdennis": 4758,
      "Ġeth": 4759,
      "Ġstal": 4760,
      "Ġlibr": 4761,
      "Ġshut": 4762,
      "Ġshaw": 4763,
      "Ġshoe": 4764,
      "Ġshallow": 4765,
      "usive": 4766,
      "actic": 4767,
      "aph": 4768,
      "Ġunable": 4769,
      "Ġleague": 4770,
      "Ġtran": 4771,
      "ogy": 4772,
      "esty": 4773,
      "Ġ13": 4774,
      "Ġspoof": 4775,
      "Ġbron": 4776,
      "Ġjose": 4777,
      "atty": 4778,
      "apped": 4779,
      "she": 4780,
      "Ġnoted": 4781,
      "Ġtele": 4782,
      "Ġcave": 4783,
      "Ġacqu": 4784,
      "Ġcontain": 4785,
      "Ġfranc": 4786,
      "Ġmarch": 4787,
      "Ġviewed": 4788,
      "Ġcheese": 4789,
      "Ġhardy": 4790,
      "scape": 4791,
      "ubrick": 4792,
      "Ġsounded": 4793,
      "Ġswed": 4794,
      "Ġholiday": 4795,
      "Ġexplos": 4796,
      "ortunate": 4797,
      "Ġpossibility": 4798,
      "Ġcommand": 4799,
      "Ġdozen": 4800,
      "Ġsimpson": 4801,
      "Ġinvolves": 4802,
      "Ġups": 4803,
      "Ġreflect": 4804,
      "Ġproved": 4805,
      "Ġhumanity": 4806,
      "ruct": 4807,
      "Ġexperien": 4808,
      "Ġsupposedly": 4809,
      "Ġremembered": 4810,
      "Ġfailure": 4811,
      "Ġfinest": 4812,
      "Ġregular": 4813,
      "Ġandrew": 4814,
      "Ġpsychological": 4815,
      "after": 4816,
      "levant": 4817,
      "Ġdeserved": 4818,
      "Ġboat": 4819,
      "Ġhyp": 4820,
      "Ġstrike": 4821,
      "Ġdeeply": 4822,
      "written": 4823,
      "Ġfulci": 4824,
      "Ġload": 4825,
      "Ġauthentic": 4826,
      "Ġnaturally": 4827,
      "Ġbothered": 4828,
      "Ġlesser": 4829,
      "Ġencou": 4830,
      "Ġ1960": 4831,
      "Ġuninteresting": 4832,
      "Ġjewish": 4833,
      "Ġloser": 4834,
      "Ġlosing": 4835,
      "Ġprinci": 4836,
      "Ġreligion": 4837,
      "Ġsheer": 4838,
      "Ġdepicted": 4839,
      "Ġdivor": 4840,
      "Ġcurious": 4841,
      "Ġoriginally": 4842,
      "Ġfalse": 4843,
      "Ġwilson": 4844,
      "Ġsurface": 4845,
      "uitous": 4846,
      "Ġimprov": 4847,
      "Ġcroc": 4848,
      "breaking": 4849,
      "Ġlocked": 4850,
      "Ġinfluence": 4851,
      "Ġredeeming": 4852,
      "Ġliberal": 4853,
      "Ġabandoned": 4854,
      "Ġaccording": 4855,
      "Ġaccompan": 4856,
      "Ġtriumph": 4857,
      "Ġvietn": 4858,
      "Ġmormon": 4859,
      "Ġfrancis": 4860,
      ".-": 4861,
      "bod": 4862,
      "cont": 4863,
      "don": 4864,
      "dim": 4865,
      "fin": 4866,
      "hum": 4867,
      "jo": 4868,
      "natur": 4869,
      "pent": 4870,
      "pir": 4871,
      "pass": 4872,
      "point": 4873,
      "rid": 4874,
      "vy": 4875,
      "vis": 4876,
      "za": 4877,
      "zil": 4878,
      "Â¡Â": 4879,
      "Ġsend": 4880,
      "ered": 4881,
      "Ġmam": 4882,
      "Ġmas": 4883,
      "Ġcooper": 4884,
      "Ġfet": 4885,
      "Ġfood": 4886,
      "Ġtay": 4887,
      "Ġly": 4888,
      "Ġlousy": 4889,
      "Ġwend": 4890,
      "Ġbow": 4891,
      "Ġdare": 4892,
      "Ġdry": 4893,
      "Ġduck": 4894,
      "leman": 4895,
      "Ġeld": 4896,
      "Ġreject": 4897,
      "Ġstooge": 4898,
      "Ġral": 4899,
      "Ġrod": 4900,
      "Ġrubb": 4901,
      "Ġthief": 4902,
      "Ġchamp": 4903,
      "Ġchoose": 4904,
      "Ġlifet": 4905,
      "thur": 4906,
      "Ġjay": 4907,
      "Ġjac": 4908,
      "Ġvague": 4909,
      "tered": 4910,
      "Ġlewis": 4911,
      "umber": 4912,
      "aren": 4913,
      "Ġ16": 4914,
      "Ġens": 4915,
      "Ġcliff": 4916,
      "Ġspark": 4917,
      "Ġendless": 4918,
      "Ġquir": 4919,
      "Ġrealized": 4920,
      "Ġsaved": 4921,
      "Ġgru": 4922,
      "Ġgray": 4923,
      "Ġgrim": 4924,
      "Ġgrowing": 4925,
      "Ġguilty": 4926,
      "Ġ25": 4927,
      "iforn": 4928,
      "Ġfranch": 4929,
      "Ġmarc": 4930,
      "Ġmarry": 4931,
      "Ġterrit": 4932,
      "Ġcarr": 4933,
      "Ġoverlook": 4934,
      "Ġobl": 4935,
      "Ġthrowing": 4936,
      "Ġresident": 4937,
      "every": 4938,
      "Ġphen": 4939,
      "Ġstarting": 4940,
      "Ġhoward": 4941,
      "Ġinsist": 4942,
      "Ġoutrage": 4943,
      "Ġentertained": 4944,
      "Ġchildhood": 4945,
      "Ġmindless": 4946,
      "Ġcox": 4947,
      "ographed": 4948,
      "Ġadding": 4949,
      "Ġreport": 4950,
      "Ġwalter": 4951,
      "Ġupset": 4952,
      "Ġstudy": 4953,
      "Ġbreast": 4954,
      "Ġspeed": 4955,
      "Ġemotionally": 4956,
      "wards": 4957,
      "Ġwinner": 4958,
      "Ġpainting": 4959,
      "Ġpainfully": 4960,
      "Ġpresentation": 4961,
      "Ġmeeting": 4962,
      "Ġlaura": 4963,
      "Ġlistening": 4964,
      "Ġfrankenstein": 4965,
      "Ġraise": 4966,
      "Ġraised": 4967,
      "Ġstaying": 4968,
      "Ġthankfully": 4969,
      "Ġcliche": 4970,
      "urban": 4971,
      "Ġoffered": 4972,
      "Ġdestruction": 4973,
      "Ġholding": 4974,
      "Ġduke": 4975,
      "Ġdiscovers": 4976,
      "Ġhamlet": 4977,
      "Ġlimit": 4978,
      "series": 4979,
      "Ġdressed": 4980,
      "Ġrepeat": 4981,
      "Ġscreaming": 4982,
      "Ġfreddy": 4983,
      "Ġessentially": 4984,
      "Ġpuppet": 4985,
      "Ġporno": 4986,
      "Ġcloser": 4987,
      "Ġsarc": 4988,
      "Ġmirror": 4989,
      "Ġnecessarily": 4990,
      "Ġbroadway": 4991,
      "Ġsatisfying": 4992,
      "Ġinternational": 4993,
      "Ġwashing": 4994,
      "Ġmiserably": 4995,
      "Ġmultiple": 4996,
      "ausible": 4997,
      "Ġresponsible": 4998,
      "Ġpraise": 4999,
      "Ġconsequence": 5000,
      "Ġinterpretation": 5001,
      "Ġgratuitous": 5002,
      "Ġnazi": 5003,
      "Ġglimpse": 5004,
      "Ġtaylor": 5005,
      "Ġlifetime": 5006,
      "Ġterritory": 5007,
      "60": 5008,
      "aid": 5009,
      "bid": 5010,
      "core": 5011,
      "eel": 5012,
      "fire": 5013,
      "hi": 5014,
      "iation": 5015,
      "jud": 5016,
      "kick": 5017,
      "mon": 5018,
      "rom": 5019,
      "tv": 5020,
      "top": 5021,
      "uge": 5022,
      "ww": 5023,
      "Â´": 5024,
      "ering": 5025,
      "reh": 5026,
      "Ġmun": 5027,
      "Ġcath": 5028,
      "Ġcounter": 5029,
      "onment": 5030,
      "anny": 5031,
      "alia": 5032,
      "Ġpit": 5033,
      "Ġpie": 5034,
      "Ġpaced": 5035,
      "Ġtou": 5036,
      "Ġtoler": 5037,
      "order": 5038,
      "Ġloy": 5039,
      "Ġlane": 5040,
      "Ġbath": 5041,
      "Ġgary": 5042,
      "Ġai": 5043,
      "Ġeating": 5044,
      "Ġecc": 5045,
      "Ġhang": 5046,
      "Ġhbo": 5047,
      "Ġnu": 5048,
      "Ġnem": 5049,
      "Ġnation": 5050,
      "Ġree": 5051,
      "eting": 5052,
      "Ġrul": 5053,
      "Ġrival": 5054,
      "verse": 5055,
      "uls": 5056,
      "Ġkubrick": 5057,
      "rix": 5058,
      "Ġdeeper": 5059,
      "Ġala": 5060,
      "Ġalbert": 5061,
      "Ġshr": 5062,
      "eman": 5063,
      "Ġjar": 5064,
      "Ġvin": 5065,
      "Ġvinc": 5066,
      "ushing": 5067,
      "utation": 5068,
      "ges": 5069,
      "antage": 5070,
      "arter": 5071,
      "Ġneat": 5072,
      "Ġdict": 5073,
      "Ġanch": 5074,
      "Ġancient": 5075,
      "ives": 5076,
      "umble": 5077,
      "umstance": 5078,
      "Ġcharism": 5079,
      "udo": 5080,
      "Ġprejud": 5081,
      "Ġenvir": 5082,
      "ago": 5083,
      "Ġquote": 5084,
      "Ġadvert": 5085,
      "osity": 5086,
      "ishment": 5087,
      "Ġrealizes": 5088,
      "overs": 5089,
      "Ġgrin": 5090,
      "Ġgritty": 5091,
      "Ġtex": 5092,
      "iano": 5093,
      "Ġbetty": 5094,
      "Ġfrustr": 5095,
      "Ġfriday": 5096,
      "Ġoverwhel": 5097,
      "Ġpretentious": 5098,
      "Ġgotten": 5099,
      "Ġneedle": 5100,
      "Ġeditor": 5101,
      "Ġsword": 5102,
      "Ġtrial": 5103,
      "rence": 5104,
      "Ġcoff": 5105,
      "Ġposse": 5106,
      "Ġassume": 5107,
      "Ġformat": 5108,
      "Ġrepet": 5109,
      "Ġgrew": 5110,
      "Ġdeadly": 5111,
      "Ġexpensive": 5112,
      "annabe": 5113,
      "Ġitaly": 5114,
      "Ġdeterm": 5115,
      "ologist": 5116,
      "Ġbringing": 5117,
      "Ġmidnight": 5118,
      "Ġmadness": 5119,
      "Ġdealing": 5120,
      "Ġmeth": 5121,
      "Ġdescription": 5122,
      "Ġtwisted": 5123,
      "Ġstrip": 5124,
      "Ġstrict": 5125,
      "belief": 5126,
      "Ġforgettable": 5127,
      "Ġpulled": 5128,
      "Ġdesigned": 5129,
      "Ġcombat": 5130,
      "Ġintroduction": 5131,
      "Ġscenario": 5132,
      "Ġcircle": 5133,
      "Ġcircumstance": 5134,
      "Ġfaithful": 5135,
      "Ġstereotypical": 5136,
      "Ġjimmy": 5137,
      "Ġphilip": 5138,
      "Ġconnect": 5139,
      "Ġsplend": 5140,
      "Ġidentify": 5141,
      "Ġloses": 5142,
      "Ġaston": 5143,
      "Ġrevealed": 5144,
      "Ġbullock": 5145,
      "Ġcontribut": 5146,
      "Ġembarrassing": 5147,
      "Ġlucky": 5148,
      "Ġfrost": 5149,
      "Ġsavage": 5150,
      "buster": 5151,
      "Ġdepressing": 5152,
      "Ġprepared": 5153,
      "Ġstevens": 5154,
      "Ġirritating": 5155,
      "Ġsentimental": 5156,
      "Ġhaunting": 5157,
      "Ġassistant": 5158,
      "Ġsemi": 5159,
      "Ġcanadian": 5160,
      "Ġunintention": 5161,
      "Ġuninspired": 5162,
      "Ġchicago": 5163,
      "Ġemphas": 5164,
      "dimensional": 5165,
      "natural": 5166,
      "Ġelder": 5167,
      "Ġgruesome": 5168,
      "Ġphenomen": 5169,
      "'ve": 5170,
      "cr": 5171,
      "girl": 5172,
      "hand": 5173,
      "kind": 5174,
      "mail": 5175,
      "nd": 5176,
      "tle": 5177,
      "Ġsink": 5178,
      "Ġsole": 5179,
      "Ġsib": 5180,
      "Ġmst": 5181,
      "Ġmitch": 5182,
      "Ġmask": 5183,
      "Ġcab": 5184,
      "Ġcob": 5185,
      "Ġfortune": 5186,
      "another": 5187,
      "also": 5188,
      "Ġpitch": 5189,
      "Ġta": 5190,
      "Ġtie": 5191,
      "Ġtree": 5192,
      "aris": 5193,
      "Ġlav": 5194,
      "Ġloss": 5195,
      "Ġward": 5196,
      "Ġba": 5197,
      "Ġboll": 5198,
      "Ġbourne": 5199,
      "Ġdub": 5200,
      "Ġgoof": 5201,
      "Ġgreek": 5202,
      "Ġeg": 5203,
      "itar": 5204,
      "itement": 5205,
      "Ġhosp": 5206,
      "Ġnur": 5207,
      "icated": 5208,
      "oven": 5209,
      "Ġstorm": 5210,
      "ety": 5211,
      "iser": 5212,
      "ises": 5213,
      "change": 5214,
      "Ġriver": 5215,
      "Ġsection": 5216,
      "amor": 5217,
      "seen": 5218,
      "Ġlip": 5219,
      "Ġinhab": 5220,
      "Ġkrist": 5221,
      "ribut": 5222,
      "Ġdeb": 5223,
      "Ġalb": 5224,
      "Ġshelf": 5225,
      "Ġvul": 5226,
      "Ġvast": 5227,
      "Ġexcess": 5228,
      "antino": 5229,
      "Ġneck": 5230,
      "Ġsup": 5231,
      "istent": 5232,
      "acky": 5233,
      "ortion": 5234,
      "Ġseeking": 5235,
      "Ġclar": 5236,
      "Ġspare": 5237,
      "Ġspite": 5238,
      "Ġspider": 5239,
      "Ġbrad": 5240,
      "Ġblown": 5241,
      "Ġade": 5242,
      "Ġuk": 5243,
      "osaur": 5244,
      "Ġprime": 5245,
      "Ġpride": 5246,
      "Ġgreatly": 5247,
      "oster": 5248,
      "Ġdirectly": 5249,
      "Ġdisbelief": 5250,
      "augh": 5251,
      "Ġorchest": 5252,
      "ocaly": 5253,
      "Ġflu": 5254,
      "Ġguard": 5255,
      "Ġguide": 5256,
      "Ġslaughter": 5257,
      "angle": 5258,
      "Ġforth": 5259,
      "Ġcarrad": 5260,
      "Ġpretend": 5261,
      "Ġsubstance": 5262,
      "aneously": 5263,
      "Ġgoth": 5264,
      "Ġexcitement": 5265,
      "Ġbitter": 5266,
      "Ġfarce": 5267,
      "Ġeliz": 5268,
      "Ġrecall": 5269,
      "why": 5270,
      "Ġedward": 5271,
      "Ġmusician": 5272,
      "Ġhandle": 5273,
      "Ġhandsome": 5274,
      "Ġworthwhile": 5275,
      "Ġboris": 5276,
      "Ġcreates": 5277,
      "Ġunfor": 5278,
      "Ġmainst": 5279,
      "Ġdepiction": 5280,
      "Ġcommitted": 5281,
      "Ġjeal": 5282,
      "Ġwalked": 5283,
      "Ġrefuse": 5284,
      "Ġsilver": 5285,
      "Ġcredibility": 5286,
      "Ġprovided": 5287,
      "Ġbarry": 5288,
      "Ġdistract": 5289,
      "Ġwinter": 5290,
      "Ġheroic": 5291,
      "Ġriding": 5292,
      "Ġbrazil": 5293,
      "Ġbrilliance": 5294,
      "Ġmadonna": 5295,
      "Ġthrilling": 5296,
      "Ġpatrick": 5297,
      "Ġpursu": 5298,
      "Ġtremend": 5299,
      "rified": 5300,
      "ipper": 5301,
      "Ġpassing": 5302,
      "Ġcampy": 5303,
      "Ġmajority": 5304,
      "oebe": 5305,
      "Ġlandscape": 5306,
      "stron": 5307,
      "Ġvariety": 5308,
      "Ġtiming": 5309,
      "Ġdelivery": 5310,
      "Ġtarantino": 5311,
      "Ġshocking": 5312,
      "Ġsubtitle": 5313,
      "Ġburton": 5314,
      "Ġhopper": 5315,
      "Ġspends": 5316,
      "Ġallows": 5317,
      "Ġburned": 5318,
      "Ġappreciated": 5319,
      "blance": 5320,
      "Ġexists": 5321,
      "Ġcapable": 5322,
      "Ġmassac": 5323,
      "Ġ......": 5324,
      "Ġcaliforn": 5325,
      "Ġparker": 5326,
      "Ġrevolves": 5327,
      "Ġscarlet": 5328,
      "Ġphysically": 5329,
      "Ġsarah": 5330,
      "Ġrecording": 5331,
      "Ġdesperate": 5332,
      "from": 5333,
      "Ġtedious": 5334,
      "laim": 5335,
      "Ġanticip": 5336,
      "Ġrelatively": 5337,
      "Ġsucceeds": 5338,
      "Ġelectric": 5339,
      "Ġfonda": 5340,
      "Ġroutine": 5341,
      "Ġwealthy": 5342,
      "Ġrisk": 5343,
      "Ġbruno": 5344,
      "Ġstorytelling": 5345,
      "Ġgiallo": 5346,
      "Ġfreedom": 5347,
      "uristic": 5348,
      "Ġexplosion": 5349,
      "Ġwashington": 5350,
      "Ġenvironment": 5351,
      "Ġtexas": 5352,
      "Ġmethod": 5353,
      "Ġhospital": 5354,
      "Ġcarradine": 5355,
      "aa": 5356,
      "bot": 5357,
      "burn": 5358,
      "case": 5359,
      "face": 5360,
      "hill": 5361,
      "hold": 5362,
      "kh": 5363,
      "pal": 5364,
      "pol": 5365,
      "pically": 5366,
      "rum": 5367,
      "ued": 5368,
      "wy": 5369,
      "zed": 5370,
      "Ġou": 5371,
      "Ġur": 5372,
      "inn": 5373,
      "Ġsatur": 5374,
      "Ġsund": 5375,
      "Ġmo": 5376,
      "Ġcust": 5377,
      "enced": 5378,
      "Ġfish": 5379,
      "Ġfury": 5380,
      "Ġpse": 5381,
      "Ġpier": 5382,
      "Ġpleased": 5383,
      "Ġtend": 5384,
      "Ġtall": 5385,
      "Ġtire": 5386,
      "Ġtiny": 5387,
      "Ġlol": 5388,
      "Ġlink": 5389,
      "Ġlore": 5390,
      "Ġwow": 5391,
      "Ġwong": 5392,
      "Ġwake": 5393,
      "Ġwannabe": 5394,
      "Ġbone": 5395,
      "Ġbri": 5396,
      "Ġbust": 5397,
      "Ġgil": 5398,
      "Ġgro": 5399,
      "ilst": 5400,
      "Ġaid": 5401,
      "Ġeis": 5402,
      "itter": 5403,
      "Ġhired": 5404,
      "Ġhanging": 5405,
      "Ġnut": 5406,
      "Ġnail": 5407,
      "Ġnuc": 5408,
      "icrous": 5409,
      "omic": 5410,
      "Ġstom": 5411,
      "Ġstiff": 5412,
      "ada": 5413,
      "Ġrough": 5414,
      "Ġrick": 5415,
      "Ġcha": 5416,
      "Ġchose": 5417,
      "Ġinj": 5418,
      "thr": 5419,
      "Ġkud": 5420,
      "Ġkhan": 5421,
      "Ġdefe": 5422,
      "Ġalle": 5423,
      "Ġalbe": 5424,
      "Ġalco": 5425,
      "Ġshine": 5426,
      "Ġshyl": 5427,
      "Ġjig": 5428,
      "Ġjes": 5429,
      "Ġjail": 5430,
      "Ġvo": 5431,
      "ells": 5432,
      "Ġplague": 5433,
      "Ġseek": 5434,
      "Ġmuppet": 5435,
      "Ġposter": 5436,
      "Ġmakeup": 5437,
      "aky": 5438,
      "Ġblat": 5439,
      "Ġblair": 5440,
      "Ġeverywhere": 5441,
      "Ġdisgu": 5442,
      "Ġfunction": 5443,
      "theless": 5444,
      "Ġgrown": 5445,
      "shi": 5446,
      "Ġserve": 5447,
      "Ġ192": 5448,
      "Ġremin": 5449,
      "Ġcontact": 5450,
      "Ġintegr": 5451,
      "ifty": 5452,
      "Ġovercome": 5453,
      "Ġunderground": 5454,
      "Ġphoebe": 5455,
      "ception": 5456,
      "Ġpersona": 5457,
      "Ġbasis": 5458,
      "Ġexplore": 5459,
      "Ġglass": 5460,
      "Ġborrow": 5461,
      "Ġfinan": 5462,
      "Ġfallen": 5463,
      "Ġsitcom": 5464,
      "Ġvisually": 5465,
      "Ġreporter": 5466,
      "Ġconfusion": 5467,
      "Ġelegant": 5468,
      "vincing": 5469,
      "Ġspec": 5470,
      "Ġportraying": 5471,
      "Ġmorris": 5472,
      "Ġirony": 5473,
      "Ġcutting": 5474,
      "Ġsevere": 5475,
      "Ġbrave": 5476,
      "Ġhung": 5477,
      "Ġdavy": 5478,
      "Ġlaid": 5479,
      "Ġdevoted": 5480,
      "Ġcarter": 5481,
      "Ġcurse": 5482,
      "Ġpurch": 5483,
      "Ġforest": 5484,
      "Ġcampbell": 5485,
      "Ġdamon": 5486,
      "Ġhugh": 5487,
      "Ġextraord": 5488,
      "Ġcircus": 5489,
      "Ġbutt": 5490,
      "othy": 5491,
      "Ġdaily": 5492,
      "Ġprofessor": 5493,
      "Ġsuffers": 5494,
      "Ġlegendary": 5495,
      "Ġrequire": 5496,
      "Ġignore": 5497,
      "opped": 5498,
      "Ġofficial": 5499,
      "Ġdinosaur": 5500,
      "Ġaccidentally": 5501,
      "Ġstanwy": 5502,
      "Ġwilder": 5503,
      "Ġarrives": 5504,
      "Ġneighborhood": 5505,
      "Ġresemble": 5506,
      "Ġpractically": 5507,
      "Ġobsessed": 5508,
      "Ġrhy": 5509,
      "Ġwelcome": 5510,
      "Ġturkey": 5511,
      "school": 5512,
      "Ġowen": 5513,
      "Ġaltogether": 5514,
      "Ġassassin": 5515,
      "Ġaustralian": 5516,
      "Ġcolumbo": 5517,
      "Ġdepartment": 5518,
      "Ġrubber": 5519,
      "Ġseparate": 5520,
      "Ġthomas": 5521,
      "Ġnicholson": 5522,
      "Ġkarloff": 5523,
      "Ġsanta": 5524,
      "Ġfictional": 5525,
      "Ġgarden": 5526,
      "Ġstylish": 5527,
      "Ġisolated": 5528,
      "Ġunconvincing": 5529,
      "original": 5530,
      "Ġexperienced": 5531,
      "Ġralph": 5532,
      "Ġeisenstein": 5533,
      "Ġnucle": 5534,
      "Ġalbeit": 5535,
      "Ġshylock": 5536,
      "50": 5537,
      "70": 5538,
      "bad": 5539,
      "dan": 5540,
      "drop": 5541,
      "ev": 5542,
      "fl": 5543,
      "iffer": 5544,
      "mond": 5545,
      "nn": 5546,
      "ns": 5547,
      "obe": 5548,
      "ran": 5549,
      "say": 5550,
      "tal": 5551,
      "vo": 5552,
      "west": 5553,
      "yes": 5554,
      "zo": 5555,
      "zzy": 5556,
      "Ġom": 5557,
      "Ġovert": 5558,
      "Ġsize": 5559,
      "erie": 5560,
      "reck": 5561,
      "Ġce": 5562,
      "Ġcook": 5563,
      "Ġcock": 5564,
      "ena": 5565,
      "Ġfirm": 5566,
      "anion": 5567,
      "anity": 5568,
      "Ġpul": 5569,
      "Ġpir": 5570,
      "Ġpile": 5571,
      "Ġpunk": 5572,
      "Ġtap": 5573,
      "Ġtaught": 5574,
      "Ġtied": 5575,
      "Ġtorn": 5576,
      "Ġlap": 5577,
      "Ġlum": 5578,
      "Ġlud": 5579,
      "Ġbak": 5580,
      "Ġbass": 5581,
      "Ġbac": 5582,
      "Ġbern": 5583,
      "Ġbush": 5584,
      "Ġdom": 5585,
      "Ġdude": 5586,
      "Ġgap": 5587,
      "Ġgender": 5588,
      "ilogy": 5589,
      "lection": 5590,
      "Ġhong": 5591,
      "Ġhire": 5592,
      "Ġhipp": 5593,
      "Ġrece": 5594,
      "Ġrevel": 5595,
      "eld": 5596,
      "isite": 5597,
      "chan": 5598,
      "ched": 5599,
      "ado": 5600,
      "Ġrome": 5601,
      "Ġthis": 5602,
      "Ġchan": 5603,
      "Ġchanging": 5604,
      "sem": 5605,
      "Ġinner": 5606,
      "Ġinex": 5607,
      "ulation": 5608,
      "ulated": 5609,
      "Ġkong": 5610,
      "Ġshark": 5611,
      "Ġscale": 5612,
      "ashing": 5613,
      "Ġcomical": 5614,
      "Ġexagger": 5615,
      "Ġplant": 5616,
      "actor": 5617,
      "Ġneil": 5618,
      "ffy": 5619,
      "Ġunm": 5620,
      "Ġconfess": 5621,
      "Ġyou": 5622,
      "Ġmanager": 5623,
      "ortal": 5624,
      "Ġtrilogy": 5625,
      "esis": 5626,
      "fection": 5627,
      "Ġpregn": 5628,
      "ounding": 5629,
      "Ġevening": 5630,
      "Ġspin": 5631,
      "Ġspoken": 5632,
      "abeth": 5633,
      "Ġeveryday": 5634,
      "aust": 5635,
      "thew": 5636,
      "Ġsail": 5637,
      "Ġarr": 5638,
      "Ġpartic": 5639,
      "Ġflam": 5640,
      "Ġflight": 5641,
      "Ġbetray": 5642,
      "Ġnevertheless": 5643,
      "Ġhorribly": 5644,
      "mann": 5645,
      "angel": 5646,
      "Ġsimon": 5647,
      "acle": 5648,
      "oses": 5649,
      "osexual": 5650,
      "Ġcris": 5651,
      "Ġdecl": 5652,
      "Ġsomebody": 5653,
      "Ġbigger": 5654,
      "Ġcaring": 5655,
      "Ġoverly": 5656,
      "Ġcompanion": 5657,
      "Ġbelieved": 5658,
      "achel": 5659,
      "Ġreser": 5660,
      "Ġfriendly": 5661,
      "Ġbuying": 5662,
      "Ġrelax": 5663,
      "Ġinvite": 5664,
      "Ġinstit": 5665,
      "Ġschem": 5666,
      "Ġborder": 5667,
      "Ġunfortunate": 5668,
      "Ġharlow": 5669,
      "Ġdrew": 5670,
      "Ġreputation": 5671,
      "Ġuseless": 5672,
      "movies": 5673,
      "Ġsidekick": 5674,
      "Ġpaint": 5675,
      "Ġgrave": 5676,
      "Ġadmire": 5677,
      "Ġtodd": 5678,
      "Ġtransfer": 5679,
      "Ġstayed": 5680,
      "Ġlearns": 5681,
      "Ġstrongly": 5682,
      "Ġtouched": 5683,
      "Ġlatest": 5684,
      "Ġoliver": 5685,
      "ification": 5686,
      "Ġdestiny": 5687,
      "Ġnoise": 5688,
      "Ġjerk": 5689,
      "Ġgrandmother": 5690,
      "Ġcolorful": 5691,
      "Ġsentence": 5692,
      "Ġphoto": 5693,
      "Ġoddly": 5694,
      "Ġultra": 5695,
      "Ġflawed": 5696,
      "Ġflawless": 5697,
      "Ġrussia": 5698,
      "Ġerotic": 5699,
      "Ġshocked": 5700,
      "class": 5701,
      "Ġcomplaint": 5702,
      "Ġbutcher": 5703,
      "Ġrecognized": 5704,
      "Ġrecognize": 5705,
      "Ġhench": 5706,
      "Ġdaffy": 5707,
      "Ġdragon": 5708,
      "Ġsouthern": 5709,
      "Ġspeaks": 5710,
      "Ġmatthew": 5711,
      "Ġfatal": 5712,
      "Ġexecut": 5713,
      "Ġstatement": 5714,
      "Ġrequired": 5715,
      "Ġluci": 5716,
      "looking": 5717,
      "Ġprincess": 5718,
      "Ġheavily": 5719,
      "Ġterrorist": 5720,
      "Ġcuriosity": 5721,
      "Ġremotely": 5722,
      "Ġcandy": 5723,
      "Ġargent": 5724,
      "Ġduty": 5725,
      "Ġinitial": 5726,
      "Ġfrightening": 5727,
      "Ġdubbed": 5728,
      "Ġwidow": 5729,
      "Ġbiko": 5730,
      "Ġsignificant": 5731,
      "stitute": 5732,
      "Ġnetwork": 5733,
      "Ġgyp": 5734,
      "Ġcoincidence": 5735,
      "Ġdisgusting": 5736,
      "Ġticket": 5737,
      "Ġpolitics": 5738,
      "Ġtingle": 5739,
      "Ġguarantee": 5740,
      "Ġcringe": 5741,
      "Ġintellectual": 5742,
      "Ġlibrary": 5743,
      "Ġchampion": 5744,
      "Ġtourist": 5745,
      "Ġvincent": 5746,
      "Ġprejudice": 5747,
      "Ġelizabeth": 5748,
      "Ġmassacre": 5749,
      "Ġcalifornia": 5750,
      "Ġscarlett": 5751,
      "Ġsaturday": 5752,
      "Ġnuclear": 5753,
      "Ġludicrous": 5754,
      "ba": 5755,
      "bur": 5756,
      "cil": 5757,
      "cÃ©": 5758,
      "crow": 5759,
      "fun": 5760,
      "hile": 5761,
      "lo": 5762,
      "mind": 5763,
      "mod": 5764,
      "sing": 5765,
      "self": 5766,
      "inist": 5767,
      "Ġmate": 5768,
      "Ġmason": 5769,
      "oned": 5770,
      "Ġpitt": 5771,
      "Ġtill": 5772,
      "Ġtempt": 5773,
      "Ġtoss": 5774,
      "Ġtender": 5775,
      "Ġtask": 5776,
      "Ġlad": 5777,
      "Ġwra": 5778,
      "aton": 5779,
      "Ġbound": 5780,
      "stone": 5781,
      "Ġgas": 5782,
      "Ġgene": 5783,
      "lee": 5784,
      "Ġape": 5785,
      "Ġastron": 5786,
      "itled": 5787,
      "Ġhur": 5788,
      "Ġnomination": 5789,
      "Ġrene": 5790,
      "oma": 5791,
      "Ġstir": 5792,
      "Ġstall": 5793,
      "isy": 5794,
      "ays": 5795,
      "chant": 5796,
      "cest": 5797,
      "imag": 5798,
      "idy": 5799,
      "Ġthro": 5800,
      "Ġthirty": 5801,
      "Ġchand": 5802,
      "Ġchest": 5803,
      "Ġinapp": 5804,
      "Ġken": 5805,
      "Ġkurt": 5806,
      "Ġalf": 5807,
      "Ġalice": 5808,
      "Ġshould": 5809,
      "Ġscow": 5810,
      "eller": 5811,
      "Ġplaced": 5812,
      "ounce": 5813,
      "Ġsuther": 5814,
      "Ġunp": 5815,
      "Ġconven": 5816,
      "Ġconcer": 5817,
      "Ġanth": 5818,
      "Ġyu": 5819,
      "Ġyelling": 5820,
      "ummy": 5821,
      "Ġcharge": 5822,
      "istically": 5823,
      "orted": 5824,
      "Ġtrite": 5825,
      "esque": 5826,
      "odile": 5827,
      "Ġpreview": 5828,
      "Ġprevent": 5829,
      "Ġspread": 5830,
      "Ġpoet": 5831,
      "aki": 5832,
      "Ġbride": 5833,
      "Ġimitation": 5834,
      "abor": 5835,
      "Ġqual": 5836,
      "Ġwhilst": 5837,
      "Ġblast": 5838,
      "Ġproof": 5839,
      "place": 5840,
      "plane": 5841,
      "Ġmeat": 5842,
      "Ġmeasure": 5843,
      "Ġheist": 5844,
      "Ġargu": 5845,
      "Ġarthur": 5846,
      "Ġflor": 5847,
      "Ġslave": 5848,
      "Ġtrap": 5849,
      "Ġtraum": 5850,
      "Ġsimult": 5851,
      "Ġattraction": 5852,
      "Ġapocaly": 5853,
      "Ġemer": 5854,
      "Ġstarred": 5855,
      "Ġmarg": 5856,
      "Ġmarie": 5857,
      "Ġnewsp": 5858,
      "Ġcarpent": 5859,
      "Ġsmooth": 5860,
      "Ġawhile": 5861,
      "Ġsubsequ": 5862,
      "Ġevol": 5863,
      "Ġobsc": 5864,
      "ached": 5865,
      "Ġoriginality": 5866,
      "Ġcared": 5867,
      "Ġindie": 5868,
      "Ġedited": 5869,
      "Ġhelping": 5870,
      "Ġtypically": 5871,
      "Ġcoe": 5872,
      "Ġsteam": 5873,
      "Ġcommit": 5874,
      "Ġsupernatural": 5875,
      "Ġassault": 5876,
      "Ġskate": 5877,
      "Ġblackmail": 5878,
      "Ġengine": 5879,
      "Ġengaged": 5880,
      "Ġhopefully": 5881,
      "Ġjackie": 5882,
      "Ġrefres": 5883,
      "Ġlacked": 5884,
      "Ġdancer": 5885,
      "Ġtopic": 5886,
      "Ġretarded": 5887,
      "Ġcorner": 5888,
      "Ġcaptiv": 5889,
      "Ġadvantage": 5890,
      "Ġmodesty": 5891,
      "Ġconcert": 5892,
      "Ġsatan": 5893,
      "Ġmagical": 5894,
      "Ġsaman": 5895,
      "Ġcollect": 5896,
      "Ġtechnically": 5897,
      "Ġpromin": 5898,
      "Ġpauline": 5899,
      "Ġfuturistic": 5900,
      "ophob": 5901,
      "Ġsummary": 5902,
      "borough": 5903,
      "Ġhammer": 5904,
      "Ġerror": 5905,
      "Ġspiritual": 5906,
      "Ġspending": 5907,
      "watching": 5908,
      "Ġinnov": 5909,
      "Ġjulia": 5910,
      "Ġjumping": 5911,
      "Ġrevealing": 5912,
      "Ġnorris": 5913,
      "Ġlargely": 5914,
      "Ġessential": 5915,
      "Ġsearching": 5916,
      "Ġoccasional": 5917,
      "Ġignored": 5918,
      "Ġregardless": 5919,
      "Ġbaseball": 5920,
      "Ġgripping": 5921,
      "Ġreveals": 5922,
      "Ġuniversity": 5923,
      "Ġauthority": 5924,
      "Ġdinner": 5925,
      "Ġlogic": 5926,
      "Ġinternet": 5927,
      "Ġdrinking": 5928,
      "Ġreplace": 5929,
      "Ġingen": 5930,
      "Ġestab": 5931,
      "Ġfabulous": 5932,
      "Ġminimal": 5933,
      "hearted": 5934,
      "Ġsimplistic": 5935,
      "Ġfrequently": 5936,
      "Ġmexican": 5937,
      "Ġleonard": 5938,
      "Ġreunion": 5939,
      "Ġinventive": 5940,
      "Ġhysterical": 5941,
      "Ġencourage": 5942,
      "Ġcrocodile": 5943,
      "Ġvietnam": 5944,
      "Ġwendy": 5945,
      "Ġrubbish": 5946,
      "Ġquirky": 5947,
      "Ġfranchise": 5948,
      "Ġstrictly": 5949,
      "Ġnurse": 5950,
      "Ġalbum": 5951,
      "Ġreminisc": 5952,
      "Ġhughes": 5953,
      "Ġstanwyck": 5954,
      "Ġsutherland": 5955,
      "Ġconcerning": 5956,
      "Ġnewspaper": 5957,
      "Ġcarpenter": 5958,
      "bon": 5959,
      "bast": 5960,
      "called": 5961,
      "dr": 5962,
      "done": 5963,
      "gal": 5964,
      "high": 5965,
      "ket": 5966,
      "lv": 5967,
      "len": 5968,
      "mel": 5969,
      "nes": 5970,
      "put": 5971,
      "ration": 5972,
      "sor": 5973,
      "ube": 5974,
      "vol": 5975,
      "wal": 5976,
      "woman": 5977,
      "âĢ": 5978,
      "Ġ{": 5979,
      "ĠâĢ": 5980,
      "eral": 5981,
      "Ġmes": 5982,
      "Ġmath": 5983,
      "Ġcous": 5984,
      "Ġcure": 5985,
      "Ġcode": 5986,
      "enger": 5987,
      "enborough": 5988,
      "Ġfort": 5989,
      "Ġfift": 5990,
      "Ġfoster": 5991,
      "Ġpi": 5992,
      "Ġpow": 5993,
      "Ġpig": 5994,
      "Ġpovert": 5995,
      "Ġpione": 5996,
      "Ġtag": 5997,
      "Ġtense": 5998,
      "Ġtax": 5999,
      "arc": 6000,
      "Ġlust": 6001,
      "Ġlazy": 6002,
      "atically": 6003,
      "Ġbam": 6004,
      "Ġdal": 6005,
      "Ġdedic": 6006,
      "Ġdomin": 6007,
      "lying": 6008,
      "Ġeve": 6009,
      "Ġetern": 6010,
      "ites": 6011,
      "Ġhay": 6012,
      "Ġhind": 6013,
      "Ġhence": 6014,
      "Ġhab": 6015,
      "Ġhollow": 6016,
      "Ġnat": 6017,
      "Ġreward": 6018,
      "eled": 6019,
      "Ġstu": 6020,
      "Ġstella": 6021,
      "entric": 6022,
      "cha": 6023,
      "Ġrab": 6024,
      "amous": 6025,
      "Ġcher": 6026,
      "Ġchop": 6027,
      "Ġchip": 6028,
      "Ġchief": 6029,
      "Ġinher": 6030,
      "think": 6031,
      "Ġkenn": 6032,
      "Ġkells": 6033,
      "rase": 6034,
      "Ġvance": 6035,
      "Ġvoc": 6036,
      "Ġmaint": 6037,
      "roid": 6038,
      "acted": 6039,
      "aphor": 6040,
      "Ġanime": 6041,
      "igan": 6042,
      "Ġyard": 6043,
      "Ġoz": 6044,
      "Ġoce": 6045,
      "Ġtimes": 6046,
      "aret": 6047,
      "Ġclum": 6048,
      "Ġclock": 6049,
      "Ġgoal": 6050,
      "Ġspook": 6051,
      "eness": 6052,
      "Ġshower": 6053,
      "Ġfaced": 6054,
      "Ġadele": 6055,
      "Ġhep": 6056,
      "Ġdisagree": 6057,
      "Ġfund": 6058,
      "Ġarc": 6059,
      "Ġgrudge": 6060,
      "Ġflow": 6061,
      "shot": 6062,
      "Ġgust": 6063,
      "Ġguest": 6064,
      "Ġnotable": 6065,
      "Ġbett": 6066,
      "Ġhorrend": 6067,
      "Ġperformed": 6068,
      "many": 6069,
      "Ġtracy": 6070,
      "acing": 6071,
      "Ġcrook": 6072,
      "Ġattenborough": 6073,
      "Ġsurpass": 6074,
      "Ġbelly": 6075,
      "Ġbeloved": 6076,
      "Ġabuse": 6077,
      "olesc": 6078,
      "Ġincor": 6079,
      "Ġmarine": 6080,
      "Ġoveracting": 6081,
      "Ġunderw": 6082,
      "Ġcrafted": 6083,
      "ache": 6084,
      "Ġresist": 6085,
      "Ġeffectively": 6086,
      "Ġscreening": 6087,
      "Ġcolon": 6088,
      "Ġagain": 6089,
      "Ġconspir": 6090,
      "ashi": 6091,
      "aird": 6092,
      "Ġrobber": 6093,
      "attered": 6094,
      "Ġassign": 6095,
      "Ġcreator": 6096,
      "rett": 6097,
      "Ġappearing": 6098,
      "Ġinvolvement": 6099,
      "Ġsof": 6100,
      "Ġsoci": 6101,
      "Ġoffensive": 6102,
      "anned": 6103,
      "Ġwalsh": 6104,
      "Ġmorgan": 6105,
      "Ġbarney": 6106,
      "Ġdistribut": 6107,
      "Ġwax": 6108,
      "Ġatl": 6109,
      "Ġatro": 6110,
      "Ġdriven": 6111,
      "Ġgrab": 6112,
      "Ġmichelle": 6113,
      "lished": 6114,
      "spoil": 6115,
      "Ġimmense": 6116,
      "heim": 6117,
      "Ġmetaphor": 6118,
      "Ġcultural": 6119,
      "Ġstrangely": 6120,
      "liner": 6121,
      "Ġsuspenseful": 6122,
      "Ġairplane": 6123,
      "Ġnoble": 6124,
      "Ġamongst": 6125,
      "Ġjeremy": 6126,
      "Ġodds": 6127,
      "Ġinspiring": 6128,
      "Ġpreviously": 6129,
      "Ġposition": 6130,
      "Ġintroduce": 6131,
      "Ġ1990": 6132,
      "Ġcomplain": 6133,
      "Ġnaive": 6134,
      "Ġbutton": 6135,
      "Ġexecuted": 6136,
      "Ġ1940": 6137,
      "boys": 6138,
      "Ġsympathy": 6139,
      "Ġsuffered": 6140,
      "Ġrambo": 6141,
      "Ġclosing": 6142,
      "Ġignor": 6143,
      "Ġjewel": 6144,
      "oppy": 6145,
      "Ġconsists": 6146,
      "Ġrender": 6147,
      "Ġsubtlety": 6148,
      "Ġrapid": 6149,
      "Ġgranted": 6150,
      "Ġsatisfied": 6151,
      "Ġinnocence": 6152,
      "Ġsquare": 6153,
      "Ġthreatening": 6154,
      "Ġleslie": 6155,
      "Ġresemblance": 6156,
      "Ġdimension": 6157,
      "Ġashamed": 6158,
      "Ġhooker": 6159,
      "Ġreplaced": 6160,
      "Ġdutch": 6161,
      "Ġspringer": 6162,
      "Ġpushed": 6163,
      "Ġunderstood": 6164,
      "craft": 6165,
      "fighter": 6166,
      "maybe": 6167,
      "Ġbrando": 6168,
      "Ġwhereas": 6169,
      "Ġstinker": 6170,
      "Ġyellow": 6171,
      "Ġcowboy": 6172,
      "Ġassociated": 6173,
      "Ġantonio": 6174,
      "Ġmildly": 6175,
      "Ġtransc": 6176,
      "Ġoutrageous": 6177,
      "Ġcatholic": 6178,
      "Ġanchor": 6179,
      "Ġrepetitive": 6180,
      "Ġgoofy": 6181,
      "Ġorchestra": 6182,
      "Ġmainstream": 6183,
      "Ġpseudo": 6184,
      "Ġjigsaw": 6185,
      "Ġjesus": 6186,
      "Ġfinancial": 6187,
      "Ġextraordinary": 6188,
      "Ġrevelation": 6189,
      "Ġpregnant": 6190,
      "Ġparticip": 6191,
      "Ġexecutive": 6192,
      "Ġgypsy": 6193,
      "Ġshoulder": 6194,
      "Ġsimultaneously": 6195,
      "Ġrefreshing": 6196,
      "Ġreminiscent": 6197,
      "Ġfifteen": 6198,
      "Ġpoverty": 6199,
      "aq": 6200,
      "bro": 6201,
      "box": 6202,
      "cle": 6203,
      "cingly": 6204,
      "ew": 6205,
      "gun": 6206,
      "gling": 6207,
      "gger": 6208,
      "hal": 6209,
      "honest": 6210,
      "iot": 6211,
      "iven": 6212,
      "kill": 6213,
      "make": 6214,
      "ril": 6215,
      "rument": 6216,
      "som": 6217,
      "tr": 6218,
      "take": 6219,
      "uel": 6220,
      "uch": 6221,
      "vous": 6222,
      "will": 6223,
      "wife": 6224,
      "ya": 6225,
      "Ã¨": 6226,
      "Ġ}": 6227,
      "Ġiv": 6228,
      "inate": 6229,
      "Ġsic": 6230,
      "Ġsque": 6231,
      "Ġsaint": 6232,
      "erate": 6233,
      "Ġmature": 6234,
      "Ġcd": 6235,
      "Ġcy": 6236,
      "Ġcia": 6237,
      "Ġfel": 6238,
      "Ġfortunately": 6239,
      "although": 6240,
      "Ġpant": 6241,
      "Ġpity": 6242,
      "Ġpony": 6243,
      "Ġtower": 6244,
      "Ġtoil": 6245,
      "orc": 6246,
      "oria": 6247,
      "Ġlisa": 6248,
      "Ġwitty": 6249,
      "Ġbin": 6250,
      "Ġbless": 6251,
      "Ġbald": 6252,
      "Ġdur": 6253,
      "Ġdud": 6254,
      "Ġgib": 6255,
      "ilton": 6256,
      "itant": 6257,
      "Ġhain": 6258,
      "Ġhag": 6259,
      "Ġhust": 6260,
      "Ġhoff": 6261,
      "Ġnine": 6262,
      "Ġnancy": 6263,
      "Ġreel": 6264,
      "Ġstole": 6265,
      "Ġstyl": 6266,
      "ioned": 6267,
      "char": 6268,
      "Ġric": 6269,
      "Ġrag": 6270,
      "Ġriv": 6271,
      "Ġrif": 6272,
      "unn": 6273,
      "unning": 6274,
      "Ġthumb": 6275,
      "uloid": 6276,
      "opath": 6277,
      "Ġkat": 6278,
      "irk": 6279,
      "Ġdeaf": 6280,
      "Ġshod": 6281,
      "Ġshape": 6282,
      "Ġvent": 6283,
      "Ġvia": 6284,
      "ello": 6285,
      "geon": 6286,
      "Ġexceed": 6287,
      "Ġexchange": 6288,
      "Ġbee": 6289,
      "Ġbeing": 6290,
      "Ġbeating": 6291,
      "Ġdiff": 6292,
      "Ġuncom": 6293,
      "Ġuneven": 6294,
      "Ġworship": 6295,
      "Ġconn": 6296,
      "Ġanger": 6297,
      "Ġperfection": 6298,
      "pton": 6299,
      "Ġenlight": 6300,
      "Ġspike": 6301,
      "Ġspiel": 6302,
      "Ġpoison": 6303,
      "olding": 6304,
      "agal": 6305,
      "Ġendearing": 6306,
      "Ġwheel": 6307,
      "Ġblah": 6308,
      "Ġtwin": 6309,
      "they": 6310,
      "Ġarro": 6311,
      "Ġarrest": 6312,
      "pered": 6313,
      "Ġflower": 6314,
      "Ġnotion": 6315,
      "Ġminus": 6316,
      "atherine": 6317,
      "avor": 6318,
      "Ġempath": 6319,
      "Ġhappily": 6320,
      "Ġgeneric": 6321,
      "Ġcaric": 6322,
      "Ġoverlong": 6323,
      "Ġsmoke": 6324,
      "Ġsmoking": 6325,
      "Ġsubm": 6326,
      "Ġcraft": 6327,
      "Ġresort": 6328,
      "aney": 6329,
      "liked": 6330,
      "Ġsupply": 6331,
      "aze": 6332,
      "Ġfancy": 6333,
      "Ġinstrument": 6334,
      "Ġsexually": 6335,
      "Ġgift": 6336,
      "nery": 6337,
      "iculty": 6338,
      "Ġaudio": 6339,
      "Ġoutlaw": 6340,
      "Ġletting": 6341,
      "Ġstealing": 6342,
      "Ġearl": 6343,
      "Ġparad": 6344,
      "Ġharsh": 6345,
      "Ġrestra": 6346,
      "Ġafro": 6347,
      "Ġopened": 6348,
      "Ġjackass": 6349,
      "Ġimaginative": 6350,
      "Ġelev": 6351,
      "Ġmoron": 6352,
      "Ġmessed": 6353,
      "ologue": 6354,
      "Ġclosely": 6355,
      "Ġgeek": 6356,
      "Ġamazingly": 6357,
      "Ġconcent": 6358,
      "Ġuniform": 6359,
      "Ġcinematographer": 6360,
      "Ġwoody": 6361,
      "Ġinfin": 6362,
      "Ġinfamous": 6363,
      "Ġhilariously": 6364,
      "Ġpicking": 6365,
      "Ġtomato": 6366,
      "ysis": 6367,
      "Ġmetal": 6368,
      "Ġpassed": 6369,
      "Ġhype": 6370,
      "Ġhyper": 6371,
      "Ġoffering": 6372,
      "gypt": 6373,
      "Ġclaud": 6374,
      "anyway": 6375,
      "Ġimportantly": 6376,
      "Ġphotographer": 6377,
      "ramer": 6378,
      "Ġweekend": 6379,
      "Ġpurely": 6380,
      "Ġmerit": 6381,
      "Ġpulling": 6382,
      "Ġcombine": 6383,
      "Ġadapted": 6384,
      "Ġillness": 6385,
      "Ġcleverly": 6386,
      "Ġmeaningful": 6387,
      "Ġhomage": 6388,
      "Ġexistence": 6389,
      "Ġcanc": 6390,
      "Ġaccepted": 6391,
      "Ġdetailed": 6392,
      "Ġmassive": 6393,
      "Ġscarecrow": 6394,
      "Ġidiotic": 6395,
      "Ġintrigue": 6396,
      "Ġgriff": 6397,
      "genre": 6398,
      "Ġhallow": 6399,
      "Ġchicken": 6400,
      "Ġdesperately": 6401,
      "Ġoccurs": 6402,
      "Ġstanley": 6403,
      "Ġcompetent": 6404,
      "Ġexploitation": 6405,
      "Ġdrunken": 6406,
      "Ġprisoner": 6407,
      "Ġobsession": 6408,
      "Ġmontage": 6409,
      "Ġbollywood": 6410,
      "Ġ...........": 6411,
      "Ġhaunted": 6412,
      "Ġchuckle": 6413,
      "Ġdubbing": 6414,
      "Ġpossessed": 6415,
      "Ġlauren": 6416,
      "Ġscratch": 6417,
      "Ġdodge": 6418,
      "Ġmarshall": 6419,
      "Ġresolution": 6420,
      "Ġdentist": 6421,
      "Ġinevitable": 6422,
      "Ġmandy": 6423,
      "Ġaustin": 6424,
      "Ġswedish": 6425,
      "Ġeccentric": 6426,
      "Ġcoffee": 6427,
      "Ġastonishing": 6428,
      "Ġadequ": 6429,
      "Ġunforget": 6430,
      "Ġhenchman": 6431,
      "Ġastronaut": 6432,
      "Ġthroat": 6433,
      "Ġsamantha": 6434,
      "Ġcousin": 6435,
      "Ġocean": 6436,
      "Ġconspiracy": 6437,
      "Ġhoffman": 6438,
      "Ġrifle": 6439,
      "Ġdifficulty": 6440,
      "acious": 6441,
      "bly": 6442,
      "bear": 6443,
      "bins": 6444,
      "date": 6445,
      "dram": 6446,
      "eur": 6447,
      "found": 6448,
      "gie": 6449,
      "got": 6450,
      "iently": 6451,
      "lim": 6452,
      "nell": 6453,
      "rr": 6454,
      "rie": 6455,
      "rating": 6456,
      "ski": 6457,
      "tz": 6458,
      "ule": 6459,
      "Ġ]": 6460,
      "Ġally": 6461,
      "ines": 6462,
      "Ġske": 6463,
      "Ġsig": 6464,
      "Ġsends": 6465,
      "Ġsappy": 6466,
      "erk": 6467,
      "erior": 6468,
      "Ġcole": 6469,
      "Ġcup": 6470,
      "Ġcub": 6471,
      "anim": 6472,
      "alysis": 6473,
      "Ġple": 6474,
      "Ġpill": 6475,
      "Ġpink": 6476,
      "Ġpiano": 6477,
      "Ġtad": 6478,
      "Ġtooth": 6479,
      "Ġlinda": 6480,
      "Ġbay": 6481,
      "Ġbum": 6482,
      "Ġbaff": 6483,
      "Ġbaird": 6484,
      "Ġdane": 6485,
      "Ġdyn": 6486,
      "Ġga": 6487,
      "Ġgather": 6488,
      "Ġegypt": 6489,
      "Ġhut": 6490,
      "Ġhank": 6491,
      "Ġhitting": 6492,
      "Ġnose": 6493,
      "Ġreh": 6494,
      "Ġrein": 6495,
      "Ġstated": 6496,
      "kees": 6497,
      "child": 6498,
      "Ġrook": 6499,
      "Ġrural": 6500,
      "Ġrachel": 6501,
      "Ġchronic": 6502,
      "ulg": 6503,
      "ops": 6504,
      "Ġker": 6505,
      "Ġkitty": 6506,
      "rier": 6507,
      "rious": 6508,
      "urai": 6509,
      "Ġdee": 6510,
      "Ġdece": 6511,
      "Ġsha": 6512,
      "Ġshir": 6513,
      "Ġshade": 6514,
      "Ġshirt": 6515,
      "emic": 6516,
      "Ġjos": 6517,
      "asant": 6518,
      "Ġmaid": 6519,
      "Ġplausible": 6520,
      "ante": 6521,
      "Ġbefriend": 6522,
      "Ġdire": 6523,
      "Ġdiane": 6524,
      "Ġlear": 6525,
      "Ġconvey": 6526,
      "Ġanne": 6527,
      "iger": 6528,
      "venile": 6529,
      "istoc": 6530,
      "Ġperry": 6531,
      "Ġtroma": 6532,
      "ogical": 6533,
      "Ġgos": 6534,
      "Ġspy": 6535,
      "Ġross": 6536,
      "Ġshowcase": 6537,
      "ciating": 6538,
      "Ġfavel": 6539,
      "Ġblend": 6540,
      "Ġblank": 6541,
      "Ġadrian": 6542,
      "Ġadolesc": 6543,
      "Ġpron": 6544,
      "Ġhealth": 6545,
      "pless": 6546,
      "Ġamy": 6547,
      "Ġarrow": 6548,
      "Ġaristoc": 6549,
      "Ġfeed": 6550,
      "Ġfever": 6551,
      "Ġpartly": 6552,
      "Ġorange": 6553,
      "Ġflop": 6554,
      "Ġfluff": 6555,
      "Ġworker": 6556,
      "Ġteeth": 6557,
      "Ġbette": 6558,
      "Ġcausing": 6559,
      "Ġserf": 6560,
      "Ġenters": 6561,
      "Ġacid": 6562,
      "ivor": 6563,
      "Ġuser": 6564,
      "redient": 6565,
      "Ġdrum": 6566,
      "Ġcrude": 6567,
      "Ġattend": 6568,
      "Ġopt": 6569,
      "Ġintr": 6570,
      "Ġabrupt": 6571,
      "phy": 6572,
      "Ġstaring": 6573,
      "Ġwarner": 6574,
      "Ġmarl": 6575,
      "Ġnewly": 6576,
      "Ġoverrated": 6577,
      "versity": 6578,
      "Ġweight": 6579,
      "Ġevidence": 6580,
      "Ġcraig": 6581,
      "Ġresource": 6582,
      "Ġsinister": 6583,
      "Ġharder": 6584,
      "lied": 6585,
      "Ġbitch": 6586,
      "Ġfarm": 6587,
      "Ġelli": 6588,
      "Ġelvir": 6589,
      "azine": 6590,
      "Ġappropri": 6591,
      "prise": 6592,
      "Ġindia": 6593,
      "Ġmeanwhile": 6594,
      "Ġcolour": 6595,
      "Ġinstantly": 6596,
      "Ġzone": 6597,
      "Ġexplicit": 6598,
      "Ġspecif": 6599,
      "Ġtriangle": 6600,
      "Ġchildish": 6601,
      "Ġsuperhero": 6602,
      "grade": 6603,
      "Ġengage": 6604,
      "Ġpolic": 6605,
      "ointed": 6606,
      "Ġgrey": 6607,
      "Ġbread": 6608,
      "Ġsusan": 6609,
      "Ġcredible": 6610,
      "Ġdistinct": 6611,
      "Ġvalley": 6612,
      "Ġfighter": 6613,
      "ructed": 6614,
      "ruciating": 6615,
      "Ġcountless": 6616,
      "Ġattempting": 6617,
      "Ġanna": 6618,
      "Ġlisted": 6619,
      "Ġfrankie": 6620,
      "Ġmagazine": 6621,
      "Ġtransition": 6622,
      "Ġsamm": 6623,
      "Ġsamurai": 6624,
      "okay": 6625,
      "Ġ2006": 6626,
      "Ġtommy": 6627,
      "Ġoliv": 6628,
      "rifice": 6629,
      "Ġfourth": 6630,
      "Ġhyde": 6631,
      "Ġ1987": 6632,
      "Ġconvincingly": 6633,
      "Ġclaire": 6634,
      "Ġreturning": 6635,
      "Ġduo": 6636,
      "Ġfulfill": 6637,
      "force": 6638,
      "Ġillogical": 6639,
      "Ġvega": 6640,
      "Ġknight": 6641,
      "Ġcompliment": 6642,
      "Ġsurvivor": 6643,
      "Ġsuperbly": 6644,
      "Ġhomosexual": 6645,
      "Ġcube": 6646,
      "Ġmotor": 6647,
      "Ġacceptable": 6648,
      "Ġdownhill": 6649,
      "Ġjustin": 6650,
      "Ġprofession": 6651,
      "Ġcarrying": 6652,
      "Ġsuffering": 6653,
      "Ġconnected": 6654,
      "Ġsplit": 6655,
      "Ġsleeping": 6656,
      "Ġcontinues": 6657,
      "Ġcloset": 6658,
      "Ġluke": 6659,
      "Ġbrutally": 6660,
      "Ġprince": 6661,
      "gae": 6662,
      "Ġconsistently": 6663,
      "Ġsnowman": 6664,
      "Ġalexander": 6665,
      "Ġlonely": 6666,
      "Ġbroadcast": 6667,
      "Ġcardboard": 6668,
      "Ġjuvenile": 6669,
      "Ġscientific": 6670,
      "Ġpackage": 6671,
      "Ġprimarily": 6672,
      "Ġsurrounding": 6673,
      "Ġintentionally": 6674,
      "Ġcompetition": 6675,
      "Ġnerd": 6676,
      "Ġtorch": 6677,
      "Ġmanipulative": 6678,
      "Ġgradually": 6679,
      "Ġservant": 6680,
      "Ġexploit": 6681,
      "Ġrushed": 6682,
      "Ġbleak": 6683,
      "Ġhokey": 6684,
      "Ġingredient": 6685,
      "horror": 6686,
      "Ġvictoria": 6687,
      "Ġproperly": 6688,
      "Ġgenuinely": 6689,
      "Ġmiserable": 6690,
      "Ġassassination": 6691,
      "Ġblockbuster": 6692,
      "Ġkidnapped": 6693,
      "Ġracist": 6694,
      "Ġcurtis": 6695,
      "Ġsincerely": 6696,
      "Ġwwii": 6697,
      "Ġjungle": 6698,
      "Ġcameron": 6699,
      "Ġrevolutionary": 6700,
      "Ġwrestling": 6701,
      "Ġexhib": 6702,
      "Ġsacrifice": 6703,
      "Ġmarvelous": 6704,
      "Ġreduced": 6705,
      "Ġstroke": 6706,
      "Ġwhoever": 6707,
      "Ġruthless": 6708,
      "Ġjoseph": 6709,
      "Ġreef": 6710,
      "Ġdictator": 6711,
      "Ġdetermined": 6712,
      "Ġcabin": 6713,
      "Ġouter": 6714,
      "Ġsunday": 6715,
      "Ġstomach": 6716,
      "Ġkudos": 6717,
      "Ġpurchase": 6718,
      "Ġbakshi": 6719,
      "Ġstallone": 6720,
      "Ġinappropriate": 6721,
      "bastian": 6722,
      "ketball": 6723,
      "Ġpioneer": 6724,
      "Ġdalton": 6725,
      "Ġhabit": 6726,
      "Ġhepburn": 6727,
      "Ġhorrendous": 6728,
      "Ġponyo": 6729,
      "Ġspielberg": 6730,
      "Ġunforgettable": 6731,
      "'d": 6732,
      "agh": 6733,
      "book": 6734,
      "bott": 6735,
      "billy": 6736,
      "cile": 6737,
      "cons": 6738,
      "dis": 6739,
      "dog": 6740,
      "ez": 6741,
      "fus": 6742,
      "gic": 6743,
      "ho": 6744,
      "hard": 6745,
      "hes": 6746,
      "iat": 6747,
      "ko": 6748,
      "last": 6749,
      "master": 6750,
      "nox": 6751,
      "pite": 6752,
      "sby": 6753,
      "video": 6754,
      "venty": 6755,
      "ware": 6756,
      "Ã¼": 6757,
      "Ġ0": 6758,
      "Ġ[": 6759,
      "Ġian": 6760,
      "Ġurban": 6761,
      "Ġsid": 6762,
      "Ġsway": 6763,
      "Ġmoo": 6764,
      "Ġmolly": 6765,
      "Ġcad": 6766,
      "Ġcatherine": 6767,
      "Ġfed": 6768,
      "Ġfist": 6769,
      "Ġfog": 6770,
      "Ġpoo": 6771,
      "Ġpound": 6772,
      "Ġpear": 6773,
      "Ġpump": 6774,
      "Ġtab": 6775,
      "edly": 6776,
      "oric": 6777,
      "Ġlur": 6778,
      "Ġlind": 6779,
      "Ġwan": 6780,
      "Ġwes": 6781,
      "Ġburt": 6782,
      "Ġbrend": 6783,
      "Ġbrett": 6784,
      "stage": 6785,
      "Ġdish": 6786,
      "Ġdave": 6787,
      "Ġdump": 6788,
      "Ġgate": 6789,
      "Ġgab": 6790,
      "Ġgere": 6791,
      "Ġgolf": 6792,
      "ilted": 6793,
      "Ġack": 6794,
      "itically": 6795,
      "Ġhud": 6796,
      "Ġhiding": 6797,
      "Ġned": 6798,
      "Ġnod": 6799,
      "Ġnude": 6800,
      "Ġreyn": 6801,
      "Ġreese": 6802,
      "eland": 6803,
      "elson": 6804,
      "Ġstol": 6805,
      "Ġstake": 6806,
      "Ġstaff": 6807,
      "ader": 6808,
      "Ġrit": 6809,
      "Ġrant": 6810,
      "Ġrug": 6811,
      "Ġrider": 6812,
      "Ġramp": 6813,
      "Ġseagal": 6814,
      "Ġsebastian": 6815,
      "Ġseventy": 6816,
      "amber": 6817,
      "very": 6818,
      "Ġliv": 6819,
      "Ġliking": 6820,
      "Ġincest": 6821,
      "ulate": 6822,
      "Ġkitch": 6823,
      "Ġkramer": 6824,
      "rior": 6825,
      "iro": 6826,
      "Ġdeer": 6827,
      "Ġalright": 6828,
      "Ġshear": 6829,
      "Ġshining": 6830,
      "aser": 6831,
      "heric": 6832,
      "Ġvivid": 6833,
      "Ġmack": 6834,
      "Ġexorc": 6835,
      "illat": 6836,
      "Ġunoriginal": 6837,
      "Ġleap": 6838,
      "Ġconqu": 6839,
      "umed": 6840,
      "Ġmans": 6841,
      "alling": 6842,
      "Ġcharacters": 6843,
      "Ġpreach": 6844,
      "Ġpreced": 6845,
      "Ġprecious": 6846,
      "Ġprecise": 6847,
      "ester": 6848,
      "estic": 6849,
      "Ġclark": 6850,
      "Ġpoign": 6851,
      "Ġrochester": 6852,
      "cia": 6853,
      "about": 6854,
      "oyd": 6855,
      "Ġbaddie": 6856,
      "Ġfacial": 6857,
      "Ġquinn": 6858,
      "Ġwhim": 6859,
      "Ġuwe": 6860,
      "Ġpray": 6861,
      "plo": 6862,
      "Ġdism": 6863,
      "Ġdislike": 6864,
      "Ġamuse": 6865,
      "Ġjoker": 6866,
      "Ġanyways": 6867,
      "Ġflag": 6868,
      "Ġnotch": 6869,
      "izable": 6870,
      "Ġhorrific": 6871,
      "Ġbackdrop": 6872,
      "Ġslice": 6873,
      "Ġtrapped": 6874,
      "Ġdrown": 6875,
      "Ġcrush": 6876,
      "Ġcritical": 6877,
      "Ġintent": 6878,
      "phant": 6879,
      "teen": 6880,
      "Ġforb": 6881,
      "Ġkeaton": 6882,
      "Ġmarion": 6883,
      "Ġcarried": 6884,
      "Ġhighest": 6885,
      "Ġweather": 6886,
      "Ġsmug": 6887,
      "Ġcomposition": 6888,
      "Ġevident": 6889,
      "Ġobnox": 6890,
      "Ġenjoyment": 6891,
      "Ġcheek": 6892,
      "Ġexcruciating": 6893,
      "Ġscripted": 6894,
      "Ġmonkees": 6895,
      "Ġrecon": 6896,
      "Ġthoughtful": 6897,
      "ibal": 6898,
      "Ġinvented": 6899,
      "Ġaged": 6900,
      "Ġouts": 6901,
      "Ġexploration": 6902,
      "Ġinterestingly": 6903,
      "Ġtrio": 6904,
      "Ġtribe": 6905,
      "Ġglamor": 6906,
      "obby": 6907,
      "Ġrunner": 6908,
      "Ġabsor": 6909,
      "ographic": 6910,
      "Ġaddict": 6911,
      "Ġdepend": 6912,
      "Ġsuperfic": 6913,
      "Ġmenace": 6914,
      "Ġjohnson": 6915,
      "Ġsings": 6916,
      "Ġruined": 6917,
      "Ġoffended": 6918,
      "Ġsadistic": 6919,
      "Ġimagined": 6920,
      "Ġimaginary": 6921,
      "Ġbreaking": 6922,
      "Ġbreillat": 6923,
      "umbled": 6924,
      "Ġcredited": 6925,
      "Ġdistance": 6926,
      "Ġpainted": 6927,
      "Ġstupidity": 6928,
      "ĠÂ¡Â": 6929,
      "Ġsmaller": 6930,
      "Ġhunting": 6931,
      "Ġlively": 6932,
      "Ġadmitted": 6933,
      "Ġdevelops": 6934,
      "Ġmiscast": 6935,
      "Ġandroid": 6936,
      "Ġgodfather": 6937,
      "Ġselfish": 6938,
      "Ġstopped": 6939,
      "Ġtransport": 6940,
      "Ġcollector": 6941,
      "Ġcolleague": 6942,
      "Ġ2007": 6943,
      "Ġbroke": 6944,
      "Ġbritain": 6945,
      "Ġboast": 6946,
      "Ġgarbo": 6947,
      "Ġnorman": 6948,
      "Ġsweep": 6949,
      "Ġlegal": 6950,
      "Ġmistaken": 6951,
      "Ġreturned": 6952,
      "Ġ1977": 6953,
      "Ġimportance": 6954,
      "Ġmiller": 6955,
      "Ġdiscovery": 6956,
      "Ġtroubled": 6957,
      "Ġfrontier": 6958,
      "ĠclichÃ©d": 6959,
      "Ġatmospheric": 6960,
      "Ġburst": 6961,
      "Ġsurvival": 6962,
      "Ġhomer": 6963,
      "Ġvisuals": 6964,
      "Ġflynn": 6965,
      "Ġwillis": 6966,
      "Ġwillard": 6967,
      "Ġsexuality": 6968,
      "Ġsuggests": 6969,
      "Ġmotif": 6970,
      "Ġdownright": 6971,
      "Ġdragged": 6972,
      "Ġsixty": 6973,
      "Ġmatth": 6974,
      "Ġwasting": 6975,
      "Ġbedroom": 6976,
      "Ġcelluloid": 6977,
      "Ġbasement": 6978,
      "Ġastaire": 6979,
      "Ġmentally": 6980,
      "Ġvirtual": 6981,
      "bitious": 6982,
      "Ġlabor": 6983,
      "Ġprimary": 6984,
      "Ġashley": 6985,
      "Ġargument": 6986,
      "eyed": 6987,
      "Ġdeserted": 6988,
      "Ġaccomplish": 6989,
      "ycle": 6990,
      "Ġlayer": 6991,
      "Ġminimum": 6992,
      "Ġloosely": 6993,
      "Ġaimed": 6994,
      "Ġcynical": 6995,
      "Ġagrees": 6996,
      "Ġdemonstrated": 6997,
      "Ġhonor": 6998,
      "Ġalternate": 6999,
      "Ġjessica": 7000,
      "Ġdiscussion": 7001,
      "production": 7002,
      "Ġincompet": 7003,
      "Ġcrawl": 7004,
      "despite": 7005,
      "Ġbirthday": 7006,
      "worthy": 7007,
      "Ġnostalgia": 7008,
      "Ġprincipal": 7009,
      "Ġdivorce": 7010,
      "Ġaccompanied": 7011,
      "Â¡Â¦": 7012,
      "Ġensure": 7013,
      "Ġoverlooked": 7014,
      "Ġoblig": 7015,
      "Ġgrinch": 7016,
      "Ġelderly": 7017,
      "Ġsibling": 7018,
      "Ġmitchell": 7019,
      "Ġvulner": 7020,
      "Ġtremendous": 7021,
      "Ġcustom": 7022,
      "Ġscheme": 7023,
      "Ġwrapped": 7024,
      "Ġapocalypse": 7025,
      "Ġrabbit": 7026,
      "Ġcolonel": 7027,
      "heimer": 7028,
      "Ġgriffith": 7029,
      "Ġhalloween": 7030,
      "Ġadolescent": 7031,
      "Ġelvira": 7032,
      "Ġmoore": 7033,
      "Ġreynolds": 7034,
      "Ġkitchen": 7035,
      "30": 7036,
      "90": 7037,
      "bs": 7038,
      "bow": 7039,
      "buck": 7040,
      "dow": 7041,
      "dra": 7042,
      "dition": 7043,
      "ecess": 7044,
      "felt": 7045,
      "fortunately": 7046,
      "hist": 7047,
      "hance": 7048,
      "happy": 7049,
      "iable": 7050,
      "iber": 7051,
      "ji": 7052,
      "jointed": 7053,
      "kins": 7054,
      "lan": 7055,
      "loyd": 7056,
      "mart": 7057,
      "nic": 7058,
      "nity": 7059,
      "ps": 7060,
      "pre": 7061,
      "roll": 7062,
      "rina": 7063,
      "ux": 7064,
      "ÂĹ": 7065,
      "ince": 7066,
      "Ġsg": 7067,
      "Ġsally": 7068,
      "Ġsod": 7069,
      "Ġsore": 7070,
      "Ġsane": 7071,
      "rec": 7072,
      "Ġmud": 7073,
      "Ġmund": 7074,
      "Ġcri": 7075,
      "Ġcarly": 7076,
      "Ġcody": 7077,
      "Ġfo": 7078,
      "Ġfought": 7079,
      "Ġfoil": 7080,
      "ani": 7081,
      "alty": 7082,
      "Ġpap": 7083,
      "Ġtoo": 7084,
      "aring": 7085,
      "arthe": 7086,
      "org": 7087,
      "orse": 7088,
      "Ġlit": 7089,
      "Ġloo": 7090,
      "Ġlately": 7091,
      "Ġlying": 7092,
      "Ġlinger": 7093,
      "Ġlloyd": 7094,
      "Ġbart": 7095,
      "Ġboun": 7096,
      "Ġbite": 7097,
      "Ġbark": 7098,
      "still": 7099,
      "Ġdoo": 7100,
      "Ġdarn": 7101,
      "Ġdove": 7102,
      "ilight": 7103,
      "ilarly": 7104,
      "Ġeh": 7105,
      "Ġey": 7106,
      "ito": 7107,
      "Ġhi": 7108,
      "Ġhoney": 7109,
      "Ġnun": 7110,
      "Ġnap": 7111,
      "icism": 7112,
      "ovich": 7113,
      "Ġreck": 7114,
      "els": 7115,
      "elley": 7116,
      "Ġstim": 7117,
      "Ġstab": 7118,
      "Ġstead": 7119,
      "Ġstumble": 7120,
      "etch": 7121,
      "ethe": 7122,
      "isher": 7123,
      "Ġrot": 7124,
      "Ġrum": 7125,
      "Ġrage": 7126,
      "Ġrav": 7127,
      "Ġrave": 7128,
      "Ġrising": 7129,
      "Ġroose": 7130,
      "Ġripped": 7131,
      "imately": 7132,
      "Ġfilmmaking": 7133,
      "ssey": 7134,
      "olin": 7135,
      "aman": 7136,
      "Ġchasing": 7137,
      "Ġinject": 7138,
      "then": 7139,
      "thought": 7140,
      "Ġkr": 7141,
      "Ġkent": 7142,
      "Ġkaren": 7143,
      "Ġdear": 7144,
      "Ġshield": 7145,
      "Ġjill": 7146,
      "Ġvs": 7147,
      "Ġvig": 7148,
      "Ġvoy": 7149,
      "Ġvign": 7150,
      "Ġvicious": 7151,
      "enda": 7152,
      "roe": 7153,
      "roy": 7154,
      "rock": 7155,
      "astard": 7156,
      "Ġlikewise": 7157,
      "Ġleigh": 7158,
      "quin": 7159,
      "Ġoil": 7160,
      "Ġody": 7161,
      "Ġcharlot": 7162,
      "esking": 7163,
      "Ġgoodness": 7164,
      "Ġtimeless": 7165,
      "ogue": 7166,
      "Ġensu": 7167,
      "Ġensem": 7168,
      "Ġenhance": 7169,
      "Ġclay": 7170,
      "Ġclown": 7171,
      "Ġspell": 7172,
      "cience": 7173,
      "orman": 7174,
      "never": 7175,
      "neider": 7176,
      "Ġimperson": 7177,
      "Ġenduring": 7178,
      "Ġblunt": 7179,
      "Ġadjust": 7180,
      "osm": 7181,
      "Ġgreatness": 7182,
      "Ġmechan": 7183,
      "Ġdisjointed": 7184,
      "Ġambitious": 7185,
      "Ġrealise": 7186,
      "Ġgris": 7187,
      "Ġlifestyle": 7188,
      "type": 7189,
      "Ġflore": 7190,
      "Ġflock": 7191,
      "show": 7192,
      "Ġguitar": 7193,
      "iancÃ©": 7194,
      "izek": 7195,
      "ipment": 7196,
      "Ġ23": 7197,
      "Ġ24": 7198,
      "Ġcontest": 7199,
      "Ġcontract": 7200,
      "Ġsimilarly": 7201,
      "accur": 7202,
      "issa": 7203,
      "avoid": 7204,
      "awful": 7205,
      "Ġemb": 7206,
      "Ġemily": 7207,
      "Ġembra": 7208,
      "ifet": 7209,
      "Ġstruck": 7210,
      "Ġfran": 7211,
      "ensity": 7212,
      "Ġwarren": 7213,
      "velt": 7214,
      "Ġenjoying": 7215,
      "Ġphant": 7216,
      "Ġrecre": 7217,
      "Ġreluct": 7218,
      "Ġhelpless": 7219,
      "Ġhowdy": 7220,
      "Ġartsy": 7221,
      "Ġartwork": 7222,
      "Ġoutfit": 7223,
      "Ġreader": 7224,
      "Ġhandful": 7225,
      "Ġglob": 7226,
      "Ġglenn": 7227,
      "obi": 7228,
      "Ġmurphy": 7229,
      "Ġdefense": 7230,
      "Ġextent": 7231,
      "Ġrobbins": 7232,
      "Ġherr": 7233,
      "Ġtyler": 7234,
      "Ġaccused": 7235,
      "Ġskull": 7236,
      "Ġmurdering": 7237,
      "Ġhalfway": 7238,
      "Ġcreativity": 7239,
      "Ġharvey": 7240,
      "Ġallowing": 7241,
      "Ġrukh": 7242,
      "Ġhousehold": 7243,
      "Ġelsewhere": 7244,
      "Ġgregory": 7245,
      "Ġdiscus": 7246,
      "Ġstudying": 7247,
      "Ġsadness": 7248,
      "Ġelephant": 7249,
      "Ġvalid": 7250,
      "Ġpredecess": 7251,
      "Ġcapturing": 7252,
      "Ġadvise": 7253,
      "Ġirish": 7254,
      "Ġironic": 7255,
      "veloped": 7256,
      "played": 7257,
      "Ġmidler": 7258,
      "Ġplanning": 7259,
      "Ġconclud": 7260,
      "Ġrenting": 7261,
      "Ġmisunder": 7262,
      "Ġandre": 7263,
      "Ġdevast": 7264,
      "Ġspacey": 7265,
      "Ġpatience": 7266,
      "Ġtodesking": 7267,
      "Ġtrem": 7268,
      "guin": 7269,
      "Ġ2004": 7270,
      "ika": 7271,
      "Ġsuccessfully": 7272,
      "rifying": 7273,
      "axy": 7274,
      "Ġconstructed": 7275,
      "Ġ1983": 7276,
      "respect": 7277,
      "Ġmistress": 7278,
      "Ġpotato": 7279,
      "Ġridiculously": 7280,
      "Ġclaude": 7281,
      "Ġcontrad": 7282,
      "Ġcontrovers": 7283,
      "Ġstreep": 7284,
      "Ġknee": 7285,
      "Ġbabe": 7286,
      "Ġpleasantly": 7287,
      "Ġtimothy": 7288,
      "Ġphotographed": 7289,
      "Ġdelivering": 7290,
      "Ġdrawing": 7291,
      "Ġafford": 7292,
      "Ġsecretly": 7293,
      "Ġfocused": 7294,
      "Ġcombined": 7295,
      "Ġillustr": 7296,
      "Ġhoped": 7297,
      "Ġintroducing": 7298,
      "Ġburnt": 7299,
      "Ġequal": 7300,
      "Ġequipment": 7301,
      "developed": 7302,
      "Ġtasteless": 7303,
      "Ġcomplicated": 7304,
      "Ġclimactic": 7305,
      "Ġunlikely": 7306,
      "Ġposted": 7307,
      "Ġsuggestion": 7308,
      "Ġpenet": 7309,
      "Ġpenguin": 7310,
      "Ġjulian": 7311,
      "Ġdaisy": 7312,
      "Ġcapital": 7313,
      "Ġmatrix": 7314,
      "Ġrepeating": 7315,
      "Ġjapan": 7316,
      "Ġcalm": 7317,
      "Ġstatue": 7318,
      "Ġessay": 7319,
      "Ġboredom": 7320,
      "Ġpalance": 7321,
      "Ġregarding": 7322,
      "okes": 7323,
      "Ġdepicting": 7324,
      "anagh": 7325,
      "Ġraped": 7326,
      "Ġrepresented": 7327,
      "Ġembarrassed": 7328,
      "Ġremaining": 7329,
      "Ġlogical": 7330,
      "Ġhillbilly": 7331,
      "Ġprimitive": 7332,
      "Ġachieve": 7333,
      "Ġachieved": 7334,
      "Ġsurfing": 7335,
      "Ġeastwood": 7336,
      "Ġimproved": 7337,
      "Ġnervous": 7338,
      "Ġcomplexity": 7339,
      "Ġcrosby": 7340,
      "Ġinsulting": 7341,
      "Ġmelodramatic": 7342,
      "Ġhatred": 7343,
      "Ġbanana": 7344,
      "Ġdunno": 7345,
      "Ġinitially": 7346,
      "Ġambig": 7347,
      "Ġoperation": 7348,
      "Ġaffection": 7349,
      "Ġvolume": 7350,
      "Ġcarlos": 7351,
      "Ġrepeatedly": 7352,
      "Ġmutant": 7353,
      "Ġaustralia": 7354,
      "Ġgentleman": 7355,
      "Ġracism": 7356,
      "Ġagreed": 7357,
      "minute": 7358,
      "Ġfido": 7359,
      "Ġlaurel": 7360,
      "Ġsubplots": 7361,
      "Ġtransformation": 7362,
      "Ġphilosophy": 7363,
      "Ġcassidy": 7364,
      "Ġenthusiasm": 7365,
      "Ġbenefit": 7366,
      "Ġirrelevant": 7367,
      "queline": 7368,
      "Ġproceeds": 7369,
      "Ġirene": 7370,
      "Ġbronson": 7371,
      "Ġcharismatic": 7372,
      "Ġfrustration": 7373,
      "Ġsplendid": 7374,
      "Ġunintentionally": 7375,
      "Ġphenomenon": 7376,
      "Ġlava": 7377,
      "Ġegg": 7378,
      "Ġgothic": 7379,
      "Ġtiresome": 7380,
      "through": 7381,
      "Ġdefeat": 7382,
      "Ġbernard": 7383,
      "Ġsailor": 7384,
      "Ġinstitution": 7385,
      "function": 7386,
      "Ġkurtz": 7387,
      "Ġalfred": 7388,
      "Ġscowl": 7389,
      "Ġskateboard": 7390,
      "ophobic": 7391,
      "Ġtaxi": 7392,
      "Ġstuart": 7393,
      "Ġvocal": 7394,
      "iveness": 7395,
      "somet": 7396,
      "Ġtoilet": 7397,
      "Ġhaines": 7398,
      "Ġriveting": 7399,
      "Ġarrogant": 7400,
      "Ġcaricature": 7401,
      "Ġgosling": 7402,
      "Ġappropriately": 7403,
      "Ġspecifically": 7404,
      "Ġhudson": 7405,
      "Ġshearer": 7406,
      "Ġobnoxious": 7407,
      "Ġsuperficial": 7408,
      "artheid": 7409,
      "Ġroosevelt": 7410,
      "Ġvignette": 7411,
      "Ġodyssey": 7412,
      "Ġcharlotte": 7413,
      "Ġensemble": 7414,
      "Ġglobal": 7415,
      "Ġpredecessor": 7416,
      "Ġcontroversial": 7417,
      "'re": 7418,
      "boo": 7419,
      "bble": 7420,
      "best": 7421,
      "can": 7422,
      "car": 7423,
      "corn": 7424,
      "dam": 7425,
      "fan": 7426,
      "fact": 7427,
      "gor": 7428,
      "gom": 7429,
      "gman": 7430,
      "hy": 7431,
      "har": 7432,
      "his": 7433,
      "hour": 7434,
      "hetic": 7435,
      "mak": 7436,
      "much": 7437,
      "nan": 7438,
      "note": 7439,
      "pa": 7440,
      "po": 7441,
      "pet": 7442,
      "pro": 7443,
      "rat": 7444,
      "sel": 7445,
      "shing": 7446,
      "too": 7447,
      "taker": 7448,
      "title": 7449,
      "uke": 7450,
      "uate": 7451,
      "uelle": 7452,
      "wow": 7453,
      "word": 7454,
      "Ã¡": 7455,
      "Ã´": 7456,
      "Ġq": 7457,
      "Ġil": 7458,
      "Ġath": 7459,
      "iner": 7460,
      "Ġsill": 7461,
      "Ġsne": 7462,
      "Ġsale": 7463,
      "rell": 7464,
      "Ġmim": 7465,
      "Ġmck": 7466,
      "Ġmend": 7467,
      "Ġmii": 7468,
      "Ġmudd": 7469,
      "Ġcunning": 7470,
      "enjoy": 7471,
      "enheimer": 7472,
      "oner": 7473,
      "onent": 7474,
      "onse": 7475,
      "Ġfitting": 7476,
      "Ġfifty": 7477,
      "Ġpy": 7478,
      "Ġpam": 7479,
      "Ġpod": 7480,
      "Ġpope": 7481,
      "Ġpale": 7482,
      "Ġpix": 7483,
      "Ġpause": 7484,
      "Ġtip": 7485,
      "Ġtail": 7486,
      "Ġturt": 7487,
      "Ġtonto": 7488,
      "Ġtoken": 7489,
      "arian": 7490,
      "ors": 7491,
      "Ġlem": 7492,
      "Ġlamp": 7493,
      "Ġluth": 7494,
      "Ġwb": 7495,
      "Ġwore": 7496,
      "Ġwishing": 7497,
      "Ġwacky": 7498,
      "atum": 7499,
      "atisf": 7500,
      "Ġbing": 7501,
      "Ġbang": 7502,
      "Ġbunny": 7503,
      "stop": 7504,
      "step": 7505,
      "Ġdol": 7506,
      "Ġdill": 7507,
      "Ġgov": 7508,
      "Ġgest": 7509,
      "Ġapt": 7510,
      "Ġaute": 7511,
      "Ġauss": 7512,
      "Ġaunt": 7513,
      "Ġeb": 7514,
      "Ġeager": 7515,
      "Ġecon": 7516,
      "Ġeerie": 7517,
      "Ġhk": 7518,
      "Ġhul": 7519,
      "Ġhoc": 7520,
      "Ġhark": 7521,
      "Ġhip": 7522,
      "Ġny": 7523,
      "Ġniel": 7524,
      "Ġnelson": 7525,
      "icable": 7526,
      "Ġrely": 7527,
      "Ġrelevant": 7528,
      "eliness": 7529,
      "Ġstair": 7530,
      "Ġstatic": 7531,
      "othing": 7532,
      "adv": 7533,
      "adays": 7534,
      "Ġrio": 7535,
      "Ġrail": 7536,
      "Ġrotten": 7537,
      "ima": 7538,
      "Ġfilth": 7539,
      "ida": 7540,
      "Ġthick": 7541,
      "Ġthread": 7542,
      "Ġthunder": 7543,
      "amic": 7544,
      "amiliar": 7545,
      "Ġchain": 7546,
      "Ġchains": 7547,
      "Ġchaney": 7548,
      "Ġchamber": 7549,
      "Ġinane": 7550,
      "opard": 7551,
      "Ġka": 7552,
      "rik": 7553,
      "rio": 7554,
      "rial": 7555,
      "Ġdeed": 7556,
      "rael": 7557,
      "Ġali": 7558,
      "Ġshed": 7559,
      "Ġshaky": 7560,
      "Ġjord": 7561,
      "Ġjaded": 7562,
      "Ġjazz": 7563,
      "asingly": 7564,
      "Ġcommend": 7565,
      "utes": 7566,
      "Ġexqu": 7567,
      "Ġplod": 7568,
      "arted": 7569,
      "Ġnev": 7570,
      "Ġdiam": 7571,
      "Ġunw": 7572,
      "Ġunit": 7573,
      "Ġunple": 7574,
      "Ġunden": 7575,
      "Ġunwatch": 7576,
      "Ġworried": 7577,
      "ousing": 7578,
      "Ġconceived": 7579,
      "Ġconnery": 7580,
      "...": 7581,
      "uma": 7582,
      "Ġoss": 7583,
      "Ġtrooper": 7584,
      "Ġprostitute": 7585,
      "ptic": 7586,
      "Ġclothing": 7587,
      "Ġspit": 7588,
      "Ġpole": 7589,
      "neath": 7590,
      "icking": 7591,
      "abs": 7592,
      "Ġpeck": 7593,
      "Ġpeak": 7594,
      "Ġquarter": 7595,
      "oser": 7596,
      "osing": 7597,
      "osuke": 7598,
      "Ġlovable": 7599,
      "pled": 7600,
      "irsty": 7601,
      "mentioned": 7602,
      "Ġtwilight": 7603,
      "Ġmeg": 7604,
      "Ġheat": 7605,
      "Ġdisreg": 7606,
      "Ġamanda": 7607,
      "Ġrealised": 7608,
      "Ġark": 7609,
      "short": 7610,
      "Ġguiness": 7611,
      "Ġguilt": 7612,
      "Ġtea": 7613,
      "pector": 7614,
      "Ġserved": 7615,
      "ressing": 7616,
      "izz": 7617,
      "izard": 7618,
      "Ġhorrid": 7619,
      "Ġperforms": 7620,
      "manuelle": 7621,
      "Ġslim": 7622,
      "Ġslack": 7623,
      "Ġslick": 7624,
      "Ġdrove": 7625,
      "Ġtalked": 7626,
      "Ġbela": 7627,
      "Ġintimate": 7628,
      "Ġintensity": 7629,
      "Ġabc": 7630,
      "phan": 7631,
      "Ġapril": 7632,
      "Ġapartheid": 7633,
      "text": 7634,
      "ifying": 7635,
      "Ġdecline": 7636,
      "Ġincons": 7637,
      "Ġwarn": 7638,
      "Ġwarrior": 7639,
      "Ġmarx": 7640,
      "Ġmaria": 7641,
      "Ġnewman": 7642,
      "Ġterry": 7643,
      "Ġfactory": 7644,
      "Ġsmell": 7645,
      "Ġcompreh": 7646,
      "Ġsuburb": 7647,
      "Ġresur": 7648,
      "Ġphony": 7649,
      "Ġfarmer": 7650,
      "Ġelabor": 7651,
      "Ġkidding": 7652,
      "Ġcarefully": 7653,
      "Ġmonk": 7654,
      "azard": 7655,
      "Ġappropriate": 7656,
      "who": 7657,
      "Ġinsert": 7658,
      "Ġedgy": 7659,
      "Ġinstant": 7660,
      "Ġbasketball": 7661,
      "Ġlasting": 7662,
      "Ġclassical": 7663,
      "Ġzizek": 7664,
      "Ġouting": 7665,
      "Ġexplod": 7666,
      "Ġglover": 7667,
      "Ġglobe": 7668,
      "Ġmurray": 7669,
      "Ġcream": 7670,
      "Ġunfair": 7671,
      "xton": 7672,
      "Ġherring": 7673,
      "Ġcalling": 7674,
      "Ġacclaim": 7675,
      "Ġshortly": 7676,
      "Ġearn": 7677,
      "Ġassure": 7678,
      "Ġportion": 7679,
      "Ġheaded": 7680,
      "Ġrepuls": 7681,
      "Ġgreed": 7682,
      "Ġgreedy": 7683,
      "Ġexped": 7684,
      "Ġexposed": 7685,
      "Ġdarker": 7686,
      "amped": 7687,
      "Ġupdate": 7688,
      "Ġrefuge": 7689,
      "Ġheartbreaking": 7690,
      "Ġ45": 7691,
      "Ġretro": 7692,
      "Ġmorbid": 7693,
      "Ġpaxton": 7694,
      "Ġbaron": 7695,
      "Ġbehave": 7696,
      "Ġdistant": 7697,
      "Ġalongside": 7698,
      "Ġwinchester": 7699,
      "Ġcorn": 7700,
      "Ġcorpse": 7701,
      "Ġfailing": 7702,
      "Ġantagonist": 7703,
      "onym": 7704,
      "Ġdrivel": 7705,
      "Ġisrael": 7706,
      "Ġadmission": 7707,
      "Ġamazed": 7708,
      "Ġpopcorn": 7709,
      "Ġsnap": 7710,
      "Ġguessing": 7711,
      "unky": 7712,
      "Ġmadsen": 7713,
      "Ġraf": 7714,
      "Ġraider": 7715,
      "Ġracial": 7716,
      "Ġinferior": 7717,
      "Ġ2005": 7718,
      "Ġ2008": 7719,
      "heard": 7720,
      "Ġrocket": 7721,
      "Ġlarger": 7722,
      "Ġdealt": 7723,
      "Ġsolve": 7724,
      "Ġfirefighter": 7725,
      "Ġopposed": 7726,
      "Ġpotentially": 7727,
      "Ġvariation": 7728,
      "Ġconvinced": 7729,
      "Ġbusy": 7730,
      "Ġ1972": 7731,
      "Ġ1976": 7732,
      "Ġcontroll": 7733,
      "Ġvirus": 7734,
      "Ġsimilarity": 7735,
      "weight": 7736,
      "etti": 7737,
      "Ġordered": 7738,
      "Ġwilde": 7739,
      "Ġsecretary": 7740,
      "Ġhamilton": 7741,
      "Ġboxing": 7742,
      "Ġnarration": 7743,
      "Ġmarty": 7744,
      "forward": 7745,
      "Ġslightest": 7746,
      "Ġreferring": 7747,
      "Ġvein": 7748,
      "Ġknife": 7749,
      "Ġscenes": 7750,
      "Ġforgive": 7751,
      "Ġrecognition": 7752,
      "Ġsandler": 7753,
      "Ġcruise": 7754,
      "Ġfoxx": 7755,
      "Ġmannerism": 7756,
      "Ġnowadays": 7757,
      "Ġsalman": 7758,
      "Ġsalvation": 7759,
      "Ġberlin": 7760,
      "Ġbergman": 7761,
      "Ġkicked": 7762,
      "Ġpuzz": 7763,
      "Ġrolling": 7764,
      "Ġregarded": 7765,
      "opping": 7766,
      "Ġsensitive": 7767,
      "Ġmirac": 7768,
      "Ġgrip": 7769,
      "Ġunsett": 7770,
      "Ġsuitable": 7771,
      "Ġexceptionally": 7772,
      "Ġjourn": 7773,
      "andering": 7774,
      "Ġrepresents": 7775,
      "Ġbottle": 7776,
      "ifting": 7777,
      "Ġluckily": 7778,
      "Ġunexpl": 7779,
      "Ġaccurately": 7780,
      "Ġreaching": 7781,
      "Ġsurrounded": 7782,
      "Ġfrog": 7783,
      "Ġfrozen": 7784,
      "Ġpunishment": 7785,
      "Ġdaring": 7786,
      "Ġachievement": 7787,
      "related": 7788,
      "Ġarrive": 7789,
      "Ġwitnessed": 7790,
      "Ġhooked": 7791,
      "Ġdepression": 7792,
      "Ġcandid": 7793,
      "Ġpete": 7794,
      "Ġenterprise": 7795,
      "warming": 7796,
      "Ġmoody": 7797,
      "Ġblandings": 7798,
      "Ġpassionate": 7799,
      "Ġbonus": 7800,
      "Ġmontgom": 7801,
      "Ġsynops": 7802,
      "Ġcivilization": 7803,
      "Ġgalaxy": 7804,
      "Ġfabric": 7805,
      "Ġdestroyed": 7806,
      "Ġaccomplished": 7807,
      "two": 7808,
      "Ġchoreography": 7809,
      "Ġicon": 7810,
      "Ġmiy": 7811,
      "Ġconfrontation": 7812,
      "Ġtranslation": 7813,
      "Ġcanada": 7814,
      "Ġtonight": 7815,
      "Ġchilling": 7816,
      "Ġcomfortable": 7817,
      "Ġpedest": 7818,
      "Ġjunior": 7819,
      "Ġcameraman": 7820,
      "Ġninety": 7821,
      "Ġjesse": 7822,
      "Ġcorruption": 7823,
      "Ġphilosophical": 7824,
      "Ġsophistic": 7825,
      "Ġpatriot": 7826,
      "Ġdoomed": 7827,
      "Ġnostalgic": 7828,
      "Ġireland": 7829,
      "Ġhypnot": 7830,
      "finally": 7831,
      "Ġlyric": 7832,
      "Ġcounterpart": 7833,
      "Ġnemesis": 7834,
      "Ġoverwhelming": 7835,
      "Ġemphasis": 7836,
      "Ġsupreme": 7837,
      "Ġjealous": 7838,
      "Ġchaos": 7839,
      "Ġinjury": 7840,
      "Ġspecie": 7841,
      "Ġwilderness": 7842,
      "Ġargento": 7843,
      "Ġanthony": 7844,
      "Ġingenious": 7845,
      "Ġforty": 7846,
      "Ġdedicated": 7847,
      "Ġmaintain": 7848,
      "Ġbettie": 7849,
      "Ġincorpor": 7850,
      "spoiler": 7851,
      "honestly": 7852,
      "Ġshoddy": 7853,
      "Ġconcentrate": 7854,
      "Ġclaudius": 7855,
      "Ġadequate": 7856,
      "Ġegyptian": 7857,
      "Ġlearning": 7858,
      "Ġolivier": 7859,
      "aghetti": 7860,
      "Ġpearl": 7861,
      "ĠÂ¡Â§": 7862,
      "Ġmatthau": 7863,
      "Ġreluctant": 7864,
      "Ġmiike": 7865,
      "Ġlampoon": 7866,
      "Ġluther": 7867,
      "Ġaussie": 7868,
      "Ġchainsaw": 7869,
      "Ġunpleasant": 7870,
      "Ġmontgomery": 7871,
      "Ġsynopsis": 7872,
      "'.": 7873,
      "15": 7874,
      "40": 7875,
      "bal": 7876,
      "bearing": 7877,
      "cent": 7878,
      "cult": 7879,
      "cause": 7880,
      "dict": 7881,
      "dled": 7882,
      "eal": 7883,
      "eff": 7884,
      "ease": 7885,
      "eider": 7886,
      "fall": 7887,
      "fish": 7888,
      "hem": 7889,
      "hatt": 7890,
      "ih": 7891,
      "iper": 7892,
      "lime": 7893,
      "lord": 7894,
      "mund": 7895,
      "nce": 7896,
      "name": 7897,
      "number": 7898,
      "sl": 7899,
      "tt": 7900,
      "uh": 7901,
      "ues": 7902,
      "uity": 7903,
      "va": 7904,
      "vas": 7905,
      "want": 7906,
      "wick": 7907,
      "wyn": 7908,
      "zel": 7909,
      "Ã¶": 7910,
      "Ġought": 7911,
      "Ġille": 7912,
      "Ġsf": 7913,
      "Ġsag": 7914,
      "erve": 7915,
      "ercise": 7916,
      "Ġmoh": 7917,
      "Ġmortal": 7918,
      "Ġcod": 7919,
      "Ġcue": 7920,
      "Ġcary": 7921,
      "Ġcens": 7922,
      "Ġcoward": 7923,
      "encing": 7924,
      "enberg": 7925,
      "ongest": 7926,
      "Ġfx": 7927,
      "Ġfay": 7928,
      "Ġfade": 7929,
      "Ġfurn": 7930,
      "Ġfang": 7931,
      "Ġfren": 7932,
      "ĠfiancÃ©": 7933,
      "aning": 7934,
      "Ġpg": 7935,
      "Ġpom": 7936,
      "Ġpad": 7937,
      "Ġtow": 7938,
      "Ġtack": 7939,
      "Ġtank": 7940,
      "Ġtomb": 7941,
      "Ġtrend": 7942,
      "Ġtiger": 7943,
      "arse": 7944,
      "eday": 7945,
      "Ġlor": 7946,
      "Ġlun": 7947,
      "Ġlup": 7948,
      "Ġwy": 7949,
      "Ġwat": 7950,
      "Ġwag": 7951,
      "Ġwizard": 7952,
      "atement": 7953,
      "Ġbim": 7954,
      "Ġbard": 7955,
      "Ġbible": 7956,
      "Ġbaker": 7957,
      "Ġbouch": 7958,
      "stal": 7959,
      "Ġdw": 7960,
      "Ġdic": 7961,
      "Ġdid": 7962,
      "Ġdame": 7963,
      "Ġdating": 7964,
      "Ġdere": 7965,
      "Ġdah": 7966,
      "Ġdwell": 7967,
      "Ġgim": 7968,
      "Ġgear": 7969,
      "Ġgull": 7970,
      "leading": 7971,
      "Ġak": 7972,
      "Ġax": 7973,
      "Ġaug": 7974,
      "Ġeats": 7975,
      "Ġeste": 7976,
      "Ġhan": 7977,
      "Ġhog": 7978,
      "Ġholl": 7979,
      "Ġhann": 7980,
      "Ġhmm": 7981,
      "Ġnik": 7982,
      "Ġnarc": 7983,
      "icity": 7984,
      "icament": 7985,
      "ova": 7986,
      "Ġreed": 7987,
      "omy": 7988,
      "Ġstilted": 7989,
      "oto": 7990,
      "oting": 7991,
      "otesque": 7992,
      "isand": 7993,
      "ching": 7994,
      "christ": 7995,
      "Ġrust": 7996,
      "Ġrup": 7997,
      "Ġrope": 7998,
      "Ġrib": 7999,
      "Ġriot": 8000,
      "imat": 8001,
      "unfortunately": 8002,
      "Ġthre": 8003,
      "Ġthrew": 8004,
      "ama": 8005,
      "Ġlily": 8006,
      "Ġlibert": 8007,
      "Ġinaccur": 8008,
      "uli": 8009,
      "thm": 8010,
      "Ġkyle": 8011,
      "Ġkerm": 8012,
      "ira": 8013,
      "urpr": 8014,
      "Ġalter": 8015,
      "Ġalarm": 8016,
      "Ġsho": 8017,
      "Ġshy": 8018,
      "Ġshall": 8019,
      "emed": 8020,
      "emet": 8021,
      "emark": 8022,
      "Ġscan": 8023,
      "Ġscot": 8024,
      "asured": 8025,
      "Ġvint": 8026,
      "Ġvile": 8027,
      "ellar": 8028,
      "Ġactivity": 8029,
      "Ġmast": 8030,
      "Ġmabel": 8031,
      "Ġexotic": 8032,
      "Ġexercise": 8033,
      "Ġplat": 8034,
      "road": 8035,
      "anded": 8036,
      "andra": 8037,
      "acts": 8038,
      "Ġbeard": 8039,
      "Ġbeatty": 8040,
      "astly": 8041,
      "Ġnegle": 8042,
      "Ġdiver": 8043,
      "Ġunt": 8044,
      "Ġunimag": 8045,
      "Ġcongr": 8046,
      "Ġanaly": 8047,
      "Ġanalysis": 8048,
      "Ġyok": 8049,
      "Ġmaniac": 8050,
      "Ġmanhatt": 8051,
      "Ġtrade": 8052,
      "Ġtroop": 8053,
      "uder": 8054,
      "Ġcharacteristic": 8055,
      "Ġ17": 8056,
      "ption": 8057,
      "Ġenhan": 8058,
      "Ġenlist": 8059,
      "Ġclut": 8060,
      "Ġclosed": 8061,
      "Ġspaghetti": 8062,
      "new": 8063,
      "Ġfac": 8064,
      "Ġwhoop": 8065,
      "Ġblur": 8066,
      "Ġbloom": 8067,
      "Ġadorable": 8068,
      "erty": 8069,
      "comple": 8070,
      "comedy": 8071,
      "akest": 8072,
      "Ġheifet": 8073,
      "Ġdisp": 8074,
      "Ġdisorder": 8075,
      "austr": 8076,
      "Ġfuneral": 8077,
      "Ġrealm": 8078,
      "Ġrealizing": 8079,
      "Ġsaul": 8080,
      "overed": 8081,
      "Ġarcher": 8082,
      "perhaps": 8083,
      "Ġgrotesque": 8084,
      "Ġorient": 8085,
      "Ġorphan": 8086,
      "ocol": 8087,
      "ocaust": 8088,
      "berately": 8089,
      "Ġflood": 8090,
      "Ġflowing": 8091,
      "shine": 8092,
      "Ġnotor": 8093,
      "Ġcav": 8094,
      "izer": 8095,
      "Ġhorrified": 8096,
      "Ġaccess": 8097,
      "Ġ21": 8098,
      "Ġtraffic": 8099,
      "Ġminer": 8100,
      "Ġtalbot": 8101,
      "Ġbelle": 8102,
      "ensible": 8103,
      "Ġhappiness": 8104,
      "Ġimprob": 8105,
      "Ġcarn": 8106,
      "Ġunderneath": 8107,
      "Ġawa": 8108,
      "Ġcomposer": 8109,
      "Ġsubtext": 8110,
      "Ġsublime": 8111,
      "Ġobt": 8112,
      "Ġcheated": 8113,
      "Ġexcl": 8114,
      "Ġasia": 8115,
      "Ġrecyc": 8116,
      "azaki": 8117,
      "Ġrelated": 8118,
      "prov": 8119,
      "Ġindiffer": 8120,
      "Ġneeding": 8121,
      "Ġinspector": 8122,
      "Ġinstinct": 8123,
      "Ġconscious": 8124,
      "Ġclassmate": 8125,
      "Ġzim": 8126,
      "Ġgifted": 8127,
      "Ġswear": 8128,
      "Ġscheider": 8129,
      "Ġoutdo": 8130,
      "Ġholocaust": 8131,
      "Ġexploring": 8132,
      "Ġreasonable": 8133,
      "airo": 8134,
      "Ġglory": 8135,
      "Ġgloss": 8136,
      "Ġversus": 8137,
      "Ġesp": 8138,
      "xtap": 8139,
      "Ġsteer": 8140,
      "Ġsteel": 8141,
      "Ġearned": 8142,
      "Ġrecommendation": 8143,
      "Ġassem": 8144,
      "Ġsketch": 8145,
      "Ġmurderous": 8146,
      "ucky": 8147,
      "Ġvisible": 8148,
      "Ġvisitor": 8149,
      "Ġsylv": 8150,
      "Ġpolitically": 8151,
      "Ġparan": 8152,
      "Ġunderstands": 8153,
      "Ġdreary": 8154,
      "Ġrestored": 8155,
      "Ġjeopard": 8156,
      "Ġexcellently": 8157,
      "Ġdiscon": 8158,
      "Ġdefinition": 8159,
      "gery": 8160,
      "Ġitem": 8161,
      "Ġentirety": 8162,
      "umbling": 8163,
      "Ġtitled": 8164,
      "Ġtitanic": 8165,
      "Ġgenerate": 8166,
      "Ġbarrel": 8167,
      "Ġpredicament": 8168,
      "Ġcorpor": 8169,
      "Ġiraq": 8170,
      "ologically": 8171,
      "Ġeasier": 8172,
      "Ġannoun": 8173,
      "Ġfreeman": 8174,
      "Ġatomic": 8175,
      "Ġdrift": 8176,
      "Ġisab": 8177,
      "Ġregion": 8178,
      "ennett": 8179,
      "Ġsuspend": 8180,
      "Ġsuspension": 8181,
      "Ġsnatch": 8182,
      "Ġsniper": 8183,
      "Ġcostello": 8184,
      "boat": 8185,
      "Ġthrilled": 8186,
      "Ġpatric": 8187,
      "spot": 8188,
      "Ġcurly": 8189,
      "Ġpsychotic": 8190,
      "Ġpsychiat": 8191,
      "Ġstronger": 8192,
      "Ġ2003": 8193,
      "Ġrocky": 8194,
      "Ġspoiled": 8195,
      "Ġprompt": 8196,
      "Ġsleaze": 8197,
      "Ġgarfield": 8198,
      "Ġhello": 8199,
      "Ġ1989": 8200,
      "Ġavoided": 8201,
      "Ġdamme": 8202,
      "Ġghastly": 8203,
      "Ġstripe": 8204,
      "Ġsorcer": 8205,
      "Ġlanding": 8206,
      "Ġescaped": 8207,
      "Ġclaus": 8208,
      "Ġchecked": 8209,
      "Ġstreisand": 8210,
      "Ġkingdom": 8211,
      "Ġduv": 8212,
      "Ġduel": 8213,
      "Ġnearby": 8214,
      "Ġcriticize": 8215,
      "Ġwildly": 8216,
      "Ġshamelessly": 8217,
      "Ġrichardson": 8218,
      "Ġmerchant": 8219,
      "Ġhammy": 8220,
      "going": 8221,
      "seriously": 8222,
      "Ġattacked": 8223,
      "Ġtermin": 8224,
      "Ġrespected": 8225,
      "Ġ1992": 8226,
      "Ġjudgment": 8227,
      "Ġsurviving": 8228,
      "Ġsurvived": 8229,
      "Ġmeaningless": 8230,
      "Ġcatching": 8231,
      "Ġexisting": 8232,
      "Ġexpressed": 8233,
      "Ġunlikeable": 8234,
      "Ġexplaining": 8235,
      "essione": 8236,
      "Ġjuliet": 8237,
      "Ġsandy": 8238,
      "Ġmcg": 8239,
      "Ġsalv": 8240,
      "Ġbeaten": 8241,
      "Ġtrademark": 8242,
      "Ġdisturbed": 8243,
      "Ġessence": 8244,
      "Ġangela": 8245,
      "Ġlucy": 8246,
      "Ġdigital": 8247,
      "Ġdaddy": 8248,
      "Ġrespond": 8249,
      "Ġresponse": 8250,
      "Ġcommunicate": 8251,
      "Ġreno": 8252,
      "Ġtortured": 8253,
      "Ġdepicts": 8254,
      "Ġdestroying": 8255,
      "Ġjuxtap": 8256,
      "Ġdesperation": 8257,
      "Ġembarrassment": 8258,
      "Ġgrows": 8259,
      "Ġaccuracy": 8260,
      "Ġbully": 8261,
      "Ġreached": 8262,
      "Ġdeliberately": 8263,
      "Ġsquad": 8264,
      "Ġpacked": 8265,
      "Ġchallenging": 8266,
      "Ġsurroundings": 8267,
      "Ġeastern": 8268,
      "Ġimprove": 8269,
      "Ġfashioned": 8270,
      "Ġnerve": 8271,
      "Ġbriefly": 8272,
      "Ġmanipulating": 8273,
      "Ġbiography": 8274,
      "Ġmobster": 8275,
      "Ġprepare": 8276,
      "Ġiii": 8277,
      "reggae": 8278,
      "Ġunderstated": 8279,
      "Ġrhett": 8280,
      "Ġwelles": 8281,
      "Ġclueless": 8282,
      "Ġlambert": 8283,
      "Ġchoreographed": 8284,
      "Ġaltman": 8285,
      "Ġadmirably": 8286,
      "Ġmoreover": 8287,
      "Ġvenge": 8288,
      "Ġvenice": 8289,
      "Ġwidmark": 8290,
      "Ġroute": 8291,
      "Ġresponsibility": 8292,
      "Ġkathy": 8293,
      "Ġemployee": 8294,
      "Ġcurtain": 8295,
      "Ġdemonstrates": 8296,
      "Ġcannon": 8297,
      "Ġbelongs": 8298,
      "Ġroger": 8299,
      "Ġautom": 8300,
      "Ġnicol": 8301,
      "Ġmexico": 8302,
      "Ġferr": 8303,
      "Ġincreasingly": 8304,
      "Ġinsightful": 8305,
      "Ġcrawford": 8306,
      "Ġseduct": 8307,
      "Ġdilem": 8308,
      "Ġnavy": 8309,
      "second": 8310,
      "Ġauthenticity": 8311,
      "Ġimprovement": 8312,
      "Ġrejected": 8313,
      "Ġjacqueline": 8314,
      "Ġsarcastic": 8315,
      "Ġsarcasm": 8316,
      "Ġtolerable": 8317,
      "Ġnemo": 8318,
      "Ġsolely": 8319,
      "Ġdubious": 8320,
      "Ġpierre": 8321,
      "Ġalcohol": 8322,
      "Ġblatant": 8323,
      "Ġdisguise": 8324,
      "Ġresembles": 8325,
      "Ġrhythm": 8326,
      "Ġpirate": 8327,
      "Ġexaggerated": 8328,
      "Ġbetrayal": 8329,
      "Ġcrisis": 8330,
      "minded": 8331,
      "Ġtempted": 8332,
      "Ġchandler": 8333,
      "Ġpoetry": 8334,
      "Ġsubsequent": 8335,
      "Ġestablished": 8336,
      "Ġassignment": 8337,
      "Ġatrocious": 8338,
      "Ġignorant": 8339,
      "Ġtranscend": 8340,
      "Ġricci": 8341,
      "Ġafroreggae": 8342,
      "Ġchronicle": 8343,
      "Ġfavela": 8344,
      "Ġacknow": 8345,
      "Ġritual": 8346,
      "Ġmansion": 8347,
      "esterday": 8348,
      "Ġoutsider": 8349,
      "Ġobligatory": 8350,
      "Ġmundane": 8351,
      "Ġphantom": 8352,
      "Ġcontradict": 8353,
      "makers": 8354,
      "Ġsilliness": 8355,
      "Ġmuddled": 8356,
      "Ġhockey": 8357,
      "Ġunwatchable": 8358,
      "Ġossessione": 8359,
      "absolute": 8360,
      "Ġdisregard": 8361,
      "Ġresurrect": 8362,
      "Ġexpedition": 8363,
      "Ġmiyazaki": 8364,
      "Ġpedestrian": 8365,
      "Ġcensor": 8366,
      "Ġbimbo": 8367,
      "Ġderek": 8368,
      "Ġgulliver": 8369,
      "Ġrupert": 8370,
      "Ġliberty": 8371,
      "Ġkermit": 8372,
      "Ġvintage": 8373,
      "Ġmanhattan": 8374,
      "Ġheifetz": 8375,
      "Ġjeopardy": 8376,
      "99": 8377,
      "ae": 8378,
      "bet": 8379,
      "big": 8380,
      "bound": 8381,
      "based": 8382,
      "cies": 8383,
      "creen": 8384,
      "da": 8385,
      "did": 8386,
      "dec": 8387,
      "eau": 8388,
      "fare": 8389,
      "foot": 8390,
      "gled": 8391,
      "happ": 8392,
      "hole": 8393,
      "holic": 8394,
      "held": 8395,
      "iour": 8396,
      "iably": 8397,
      "jim": 8398,
      "mp": 8399,
      "mick": 8400,
      "must": 8401,
      "och": 8402,
      "pin": 8403,
      "paced": 8404,
      "ridden": 8405,
      "sa": 8406,
      "sper": 8407,
      "speci": 8408,
      "uve": 8409,
      "uated": 8410,
      "ufact": 8411,
      "vably": 8412,
      "vention": 8413,
      "wed": 8414,
      "wit": 8415,
      "went": 8416,
      "would": 8417,
      "wide": 8418,
      "yo": 8419,
      "yll": 8420,
      "zer": 8421,
      "Ġ=": 8422,
      "Ġ@": 8423,
      "Ġard": 8424,
      "inous": 8425,
      "inable": 8426,
      "erv": 8427,
      "erile": 8428,
      "Ġmul": 8429,
      "Ġmoses": 8430,
      "Ġcul": 8431,
      "Ġcig": 8432,
      "Ġcake": 8433,
      "Ġcoc": 8434,
      "Ġcattle": 8435,
      "Ġcycle": 8436,
      "Ġcemet": 8437,
      "enne": 8438,
      "encer": 8439,
      "onenberg": 8440,
      "Ġfence": 8441,
      "Ġfried": 8442,
      "anne": 8443,
      "ancing": 8444,
      "almost": 8445,
      "Ġpb": 8446,
      "Ġpic": 8447,
      "Ġponder": 8448,
      "Ġpatter": 8449,
      "Ġtame": 8450,
      "Ġtatt": 8451,
      "Ġtaut": 8452,
      "Ġtacky": 8453,
      "arming": 8454,
      "edith": 8455,
      "orus": 8456,
      "orney": 8457,
      "Ġlic": 8458,
      "Ġwt": 8459,
      "Ġwet": 8460,
      "Ġwire": 8461,
      "Ġwider": 8462,
      "Ġwides": 8463,
      "Ġwashed": 8464,
      "Ġwreck": 8465,
      "Ġbent": 8466,
      "Ġbick": 8467,
      "Ġbib": 8468,
      "Ġbates": 8469,
      "Ġbike": 8470,
      "Ġbastard": 8471,
      "Ġbennett": 8472,
      "Ġdene": 8473,
      "Ġdyl": 8474,
      "Ġdwar": 8475,
      "Ġdazz": 8476,
      "Ġdawn": 8477,
      "Ġdaph": 8478,
      "Ġgall": 8479,
      "oub": 8480,
      "oured": 8481,
      "lymp": 8482,
      "leg": 8483,
      "lete": 8484,
      "leton": 8485,
      "Ġaest": 8486,
      "Ġaka": 8487,
      "Ġestr": 8488,
      "Ġego": 8489,
      "itable": 8490,
      "Ġhes": 8491,
      "Ġhub": 8492,
      "cture": 8493,
      "Ġnas": 8494,
      "Ġnaught": 8495,
      "Ġnathan": 8496,
      "Ġrever": 8497,
      "omon": 8498,
      "elve": 8499,
      "elope": 8500,
      "Ġstood": 8501,
      "isation": 8502,
      "gham": 8503,
      "Ġroof": 8504,
      "Ġripping": 8505,
      "Ġfiller": 8506,
      "oosing": 8507,
      "Ġseedy": 8508,
      "olte": 8509,
      "Ġthug": 8510,
      "Ġchen": 8511,
      "Ġchina": 8512,
      "Ġchoosing": 8513,
      "sex": 8514,
      "ully": 8515,
      "ulating": 8516,
      "thirsty": 8517,
      "Ġkil": 8518,
      "Ġkaz": 8519,
      "Ġkirk": 8520,
      "irical": 8521,
      "rait": 8522,
      "Ġalike": 8523,
      "Ġaltered": 8524,
      "Ġsham": 8525,
      "Ġshout": 8526,
      "Ġshred": 8527,
      "Ġscout": 8528,
      "Ġscope": 8529,
      "Ġjen": 8530,
      "asion": 8531,
      "Ġvel": 8532,
      "Ġvice": 8533,
      "Ġventure": 8534,
      "Ġvaugh": 8535,
      "Ġactive": 8536,
      "endo": 8537,
      "Ġexit": 8538,
      "Ġplate": 8539,
      "people": 8540,
      "robe": 8541,
      "ando": 8542,
      "illing": 8543,
      "anter": 8544,
      "asted": 8545,
      "Ġsue": 8546,
      "Ġsust": 8547,
      "Ġsuffic": 8548,
      "Ġdiab": 8549,
      "Ġunjust": 8550,
      "Ġunbear": 8551,
      "Ġlester": 8552,
      "Ġleather": 8553,
      "Ġworn": 8554,
      "Ġconve": 8555,
      "Ġconrad": 8556,
      "quer": 8557,
      "quet": 8558,
      "igold": 8559,
      "Ġyawn": 8560,
      "Ġolymp": 8561,
      "atched": 8562,
      "Ġmann": 8563,
      "Ġmanic": 8564,
      "Ġmankind": 8565,
      "Ġmanufact": 8566,
      "ortant": 8567,
      "Ġperm": 8568,
      "Ġpersu": 8569,
      "Ġperpet": 8570,
      "odore": 8571,
      "Ġgoodman": 8572,
      "reated": 8573,
      "ounds": 8574,
      "Ġclo": 8575,
      "Ġclone": 8576,
      "Ġclint": 8577,
      "Ġclair": 8578,
      "Ġclient": 8579,
      "Ġspine": 8580,
      "Ġspinal": 8581,
      "earth": 8582,
      "Ġsomeday": 8583,
      "neck": 8584,
      "neill": 8585,
      "Ġimo": 8586,
      "Ġimit": 8587,
      "Ġimper": 8588,
      "ourse": 8589,
      "agraph": 8590,
      "Ġquant": 8591,
      "Ġwhats": 8592,
      "Ġgreater": 8593,
      "mented": 8594,
      "Ġmeal": 8595,
      "Ġheimat": 8596,
      "ryn": 8597,
      "Ġdisliked": 8598,
      "Ġamor": 8599,
      "Ġjoel": 8600,
      "Ġjoined": 8601,
      "Ġsax": 8602,
      "Ġfeast": 8603,
      "Ġgrief": 8604,
      "Ġworks": 8605,
      "Ġbeth": 8606,
      "Ġplotted": 8607,
      "Ġserum": 8608,
      "Ġyears": 8609,
      "duct": 8610,
      "Ġbackwards": 8611,
      "Ġmayor": 8612,
      "ivative": 8613,
      "Ġ22": 8614,
      "Ġremade": 8615,
      "Ġremove": 8616,
      "Ġremoved": 8617,
      "Ġslam": 8618,
      "Ġslut": 8619,
      "Ġslum": 8620,
      "Ġtrait": 8621,
      "redited": 8622,
      "angled": 8623,
      "Ġminutes": 8624,
      "Ġcronenberg": 8625,
      "Ġattached": 8626,
      "Ġattorney": 8627,
      "Ġsurgery": 8628,
      "Ġintim": 8629,
      "Ġintro": 8630,
      "Ġintric": 8631,
      "ilda": 8632,
      "Ġabortion": 8633,
      "Ġdirectorial": 8634,
      "Ġemma": 8635,
      "ifth": 8636,
      "Ġstrongest": 8637,
      "Ġstargate": 8638,
      "Ġfruit": 8639,
      "Ġdecor": 8640,
      "ensical": 8641,
      "iao": 8642,
      "Ġmartha": 8643,
      "ustrated": 8644,
      "Ġcarrey": 8645,
      "Ġoverbearing": 8646,
      "Ġweave": 8647,
      "Ġweakest": 8648,
      "Ġcomposed": 8649,
      "Ġcompelled": 8650,
      "Ġoldest": 8651,
      "Ġeva": 8652,
      "Ġenjoys": 8653,
      "Ġbelieving": 8654,
      "Ġpointed": 8655,
      "Ġhardcore": 8656,
      "Ġproducing": 8657,
      "Ġyoungest": 8658,
      "Ġbuster": 8659,
      "Ġburied": 8660,
      "Ġbuzz": 8661,
      "Ġelmer": 8662,
      "Ġcambod": 8663,
      "Ġmonty": 8664,
      "Ġmonologue": 8665,
      "Ġrecur": 8666,
      "Ġapply": 8667,
      "opez": 8668,
      "ublic": 8669,
      "Ġhelen": 8670,
      "Ġindic": 8671,
      "Ġinvited": 8672,
      "Ġedgar": 8673,
      "Ġinstall": 8674,
      "Ġaging": 8675,
      "Ġagency": 8676,
      "Ġzane": 8677,
      "Ġswing": 8678,
      "Ġschlock": 8679,
      "Ġschmal": 8680,
      "Ġoutcome": 8681,
      "Ġholly": 8682,
      "Ġ35": 8683,
      "Ġglance": 8684,
      "Ġworthless": 8685,
      "Ġdelicate": 8686,
      "Ġmomentum": 8687,
      "Ġaddress": 8688,
      "Ġassured": 8689,
      "Ġskating": 8690,
      "Ġportrait": 8691,
      "Ġstandout": 8692,
      "Ġmenacing": 8693,
      "otto": 8694,
      "Ġformed": 8695,
      "Ġparam": 8696,
      "Ġparano": 8697,
      "Ġparagraph": 8698,
      "Ġharold": 8699,
      "Ġharvest": 8700,
      "Ġredempt": 8701,
      "Ġunderstandable": 8702,
      "Ġrepublic": 8703,
      "Ġexpense": 8704,
      "Ġconfident": 8705,
      "Ġdefinite": 8706,
      "Ġchristie": 8707,
      "Ġcommenting": 8708,
      "Ġbreed": 8709,
      "Ġtitular": 8710,
      "Ġheartfelt": 8711,
      "Ġconsiderable": 8712,
      "Ġsilence": 8713,
      "Ġgenerous": 8714,
      "Ġwins": 8715,
      "Ġwaited": 8716,
      "Ġpainter": 8717,
      "Ġcorb": 8718,
      "Ġnamely": 8719,
      "Ġlightly": 8720,
      "Ġbloodthirsty": 8721,
      "Ġadvance": 8722,
      "Ġmessy": 8723,
      "Ġattempted": 8724,
      "Ġ95": 8725,
      "Ġmyers": 8726,
      "Ġclosest": 8727,
      "Ġannie": 8728,
      "Ġbravo": 8729,
      "eryl": 8730,
      "Ġbrotherhood": 8731,
      "Ġsatirical": 8732,
      "Ġsnipe": 8733,
      "Ġguessed": 8734,
      "Ġangst": 8735,
      "Ġdemonic": 8736,
      "Ġpsychic": 8737,
      "Ġpsychology": 8738,
      "Ġpsychopath": 8739,
      "Ġpurple": 8740,
      "Ġsammy": 8741,
      "Ġ2002": 8742,
      "Ġimmig": 8743,
      "Ġimmature": 8744,
      "Ġrocked": 8745,
      "minger": 8746,
      "Ġpromotion": 8747,
      "uses": 8748,
      "Ġbritney": 8749,
      "Ġdealer": 8750,
      "Ġfeminist": 8751,
      "Ġsolution": 8752,
      "Ġsolomon": 8753,
      "Ġboom": 8754,
      "Ġcliched": 8755,
      "Ġconstit": 8756,
      "Ġconstruction": 8757,
      "Ġ1982": 8758,
      "Ġ1988": 8759,
      "Ġdescent": 8760,
      "Ġdogtown": 8761,
      "Ġjamie": 8762,
      "Ġpotter": 8763,
      "Ġescap": 8764,
      "ribute": 8765,
      "Ġairport": 8766,
      "Ġlouise": 8767,
      "Ġduch": 8768,
      "Ġannoyed": 8769,
      "Ġdiet": 8770,
      "headed": 8771,
      "pathetic": 8772,
      "Ġidol": 8773,
      "Ġmeredith": 8774,
      "cla": 8775,
      "Ġrespective": 8776,
      "Ġrespectable": 8777,
      "Ġ1996": 8778,
      "Ġ1997": 8779,
      "Ġ1999": 8780,
      "Ġcrystal": 8781,
      "Ġappreciation": 8782,
      "Ġhomicide": 8783,
      "Ġ1932": 8784,
      "Ġwalken": 8785,
      "suit": 8786,
      "Ġbutler": 8787,
      "Ġwillie": 8788,
      "Ġsuggested": 8789,
      "Ġprize": 8790,
      "Ġacceptance": 8791,
      "Ġtracking": 8792,
      "Ġfascination": 8793,
      "Ġjoey": 8794,
      "Ġeuro": 8795,
      "Ġsickening": 8796,
      "Ġdressler": 8797,
      "Ġberry": 8798,
      "Ġsixth": 8799,
      "Ġthereby": 8800,
      "Ġ1942": 8801,
      "Ġ1945": 8802,
      "Ġdeny": 8803,
      "Ġscottish": 8804,
      "Ġliterature": 8805,
      "vesty": 8806,
      "Ġ1968": 8807,
      "Ġsplatter": 8808,
      "important": 8809,
      "notch": 8810,
      "Ġtraveling": 8811,
      "Ġpopularity": 8812,
      "Ġunsatisf": 8813,
      "Ġdignity": 8814,
      "Ġhistoric": 8815,
      "Ġsheet": 8816,
      "Ġfascinated": 8817,
      "Ġrendition": 8818,
      "Ġlonesome": 8819,
      "Ġstockwell": 8820,
      "Ġdisplayed": 8821,
      "Ġremarkably": 8822,
      "Ġconvict": 8823,
      "Ġgrowth": 8824,
      "world": 8825,
      "Ġpractical": 8826,
      "Ġdimensional": 8827,
      "Ġgraduation": 8828,
      "Ġexploited": 8829,
      "Ġpetty": 8830,
      "Ġbiased": 8831,
      "Ġderivative": 8832,
      "Ġcondem": 8833,
      "Ġtemper": 8834,
      "cheek": 8835,
      "Ġchapter": 8836,
      "Ġbucket": 8837,
      "Ġargue": 8838,
      "Ġinfluenced": 8839,
      "Ġsabrina": 8840,
      "Ġestate": 8841,
      "Ġunderstatement": 8842,
      "Ġcasper": 8843,
      "Ġpriceless": 8844,
      "Ġafterward": 8845,
      "Ġsucceeded": 8846,
      "Ġambition": 8847,
      "Ġunexpectedly": 8848,
      "Ġobjective": 8849,
      "Ġadmirer": 8850,
      "Ġcurrently": 8851,
      "Ġbrooklyn": 8852,
      "Ġtranslate": 8853,
      "Ġcynicism": 8854,
      "Ġloneliness": 8855,
      "Ġcolumbia": 8856,
      "Ġdemanding": 8857,
      "Ġmedical": 8858,
      "Ġeighty": 8859,
      "Ġkathryn": 8860,
      "Ġpressure": 8861,
      "Ġharmless": 8862,
      "Ġcannibal": 8863,
      "added": 8864,
      "Ġpeaceful": 8865,
      "Ġfrequent": 8866,
      "Ġdisappears": 8867,
      "remember": 8868,
      "Ġscrewed": 8869,
      "Ġconventional": 8870,
      "Ġninja": 8871,
      "Ġalternative": 8872,
      "Ġassuming": 8873,
      "Ġdiscussing": 8874,
      "Ġmythology": 8875,
      "Ġswimming": 8876,
      "richard": 8877,
      "Ġausten": 8878,
      "Ġaweigh": 8879,
      "Ġcaveman": 8880,
      "ructive": 8881,
      "john": 8882,
      "Â¡Â¨": 8883,
      "Ġfetish": 8884,
      "Ġsparkle": 8885,
      "rehensible": 8886,
      "Ġpitiful": 8887,
      "Ġcharisma": 8888,
      "Ġadvertising": 8889,
      "Ġunintentional": 8890,
      "Ġphenomenal": 8891,
      "Ġcobra": 8892,
      "Ġwardrobe": 8893,
      "Ġdistracting": 8894,
      "Ġpursuit": 8895,
      "Ġanticipation": 8896,
      "Ġelectricity": 8897,
      "Ġurge": 8898,
      "Ġtendency": 8899,
      "Ġalleged": 8900,
      "Ġalcoholic": 8901,
      "Ġvoight": 8902,
      "Ġborrowed": 8903,
      "Ġpulp": 8904,
      "Ġbacall": 8905,
      "Ġreceives": 8906,
      "Ġinexpl": 8907,
      "Ġreserved": 8908,
      "Ġarguably": 8909,
      "Ġobscure": 8910,
      "Ġcaptivating": 8911,
      "Ġinnovative": 8912,
      "Ġeternal": 8913,
      "Ġclumsy": 8914,
      "Ġgustav": 8915,
      "Ġunderwater": 8916,
      "Ġimmensely": 8917,
      "Ġintroduces": 8918,
      "Ġrapidly": 8919,
      "Ġbaldwin": 8920,
      "unnel": 8921,
      "Ġuncomfort": 8922,
      "Ġrestraint": 8923,
      "Ġdynamic": 8924,
      "Ġmarlon": 8925,
      "conscious": 8926,
      "Ġstolen": 8927,
      "Ġrugby": 8928,
      "Ġexorcist": 8929,
      "Ġprecisely": 8930,
      "Ġpoignant": 8931,
      "ploitation": 8932,
      "Ġdismiss": 8933,
      "Ġforbidden": 8934,
      "Ġvulnerable": 8935,
      "Ġsorely": 8936,
      "Ġbounty": 8937,
      "Ġensues": 8938,
      "Ġmechanical": 8939,
      "Ġflorence": 8940,
      "Ġambiguous": 8941,
      "Ġskateboarding": 8942,
      "something": 8943,
      "Ġexquisite": 8944,
      "onymous": 8945,
      "Ġunsettling": 8946,
      "Ġillegal": 8947,
      "Ġlupino": 8948,
      "Ġgimmick": 8949,
      "Ġnarciss": 8950,
      "Ġyokai": 8951,
      "provoking": 8952,
      "Ġsylvia": 8953,
      "Ġsorcerer": 8954,
      "Ġduvall": 8955,
      "Ġdilemma": 8956,
      "Ġcemetery": 8957,
      "Ġwidescreen": 8958,
      "Ġdeneuve": 8959,
      "Ġdylan": 8960,
      "Ġdwarf": 8961,
      "Ġdaphne": 8962,
      "Ġaesthetic": 8963,
      "Ġparanoia": 8964,
      "13": 8965,
      "20": 8966,
      "aise": 8967,
      "bye": 8968,
      "bury": 8969,
      "cal": 8970,
      "dvd": 8971,
      "eu": 8972,
      "five": 8973,
      "hel": 8974,
      "hanger": 8975,
      "iri": 8976,
      "iant": 8977,
      "ju": 8978,
      "lar": 8979,
      "met": 8980,
      "mus": 8981,
      "mpathetic": 8982,
      "oj": 8983,
      "oked": 8984,
      "pit": 8985,
      "pire": 8986,
      "piring": 8987,
      "rd": 8988,
      "run": 8989,
      "rup": 8990,
      "rowing": 8991,
      "sk": 8992,
      "sight": 8993,
      "sily": 8994,
      "sley": 8995,
      "swe": 8996,
      "since": 8997,
      "uri": 8998,
      "uster": 8999,
      "vyn": 9000,
      "wing": 9001,
      "wind": 9002,
      "wash": 9003,
      "wald": 9004,
      "yard": 9005,
      "yfus": 9006,
      "Ã¯": 9007,
      "Ġ~": 9008,
      "Ġ00": 9009,
      "Ġons": 9010,
      "inine": 9011,
      "inity": 9012,
      "inction": 9013,
      "Ġsen": 9014,
      "Ġsov": 9015,
      "Ġsau": 9016,
      "Ġsigh": 9017,
      "Ġsob": 9018,
      "Ġselling": 9019,
      "Ġsunny": 9020,
      "Ġsosuke": 9021,
      "erpt": 9022,
      "erved": 9023,
      "Ġmum": 9024,
      "Ġmute": 9025,
      "Ġmelt": 9026,
      "Ġmik": 9027,
      "Ġmoe": 9028,
      "Ġmtv": 9029,
      "enz": 9030,
      "ona": 9031,
      "Ġfart": 9032,
      "Ġfod": 9033,
      "Ġfry": 9034,
      "Ġfoll": 9035,
      "Ġfont": 9036,
      "Ġfien": 9037,
      "Ġfoul": 9038,
      "anu": 9039,
      "anio": 9040,
      "ala": 9041,
      "als": 9042,
      "aled": 9043,
      "along": 9044,
      "Ġpor": 9045,
      "Ġpard": 9046,
      "Ġpfe": 9047,
      "Ġpork": 9048,
      "Ġporter": 9049,
      "Ġpadded": 9050,
      "Ġtorm": 9051,
      "Ġtok": 9052,
      "Ġtoe": 9053,
      "Ġtunnel": 9054,
      "ari": 9055,
      "Ġlom": 9056,
      "Ġlure": 9057,
      "Ġlens": 9058,
      "Ġlaz": 9059,
      "Ġlush": 9060,
      "Ġlump": 9061,
      "Ġlobby": 9062,
      "Ġlopez": 9063,
      "Ġwis": 9064,
      "Ġwagon": 9065,
      "Ġwandering": 9066,
      "athing": 9067,
      "Ġbod": 9068,
      "Ġbatt": 9069,
      "Ġboss": 9070,
      "sted": 9071,
      "storm": 9072,
      "Ġdc": 9073,
      "Ġdose": 9074,
      "Ġdope": 9075,
      "Ġdys": 9076,
      "Ġgian": 9077,
      "Ġglee": 9078,
      "ila": 9079,
      "lected": 9080,
      "Ġah": 9081,
      "Ġairl": 9082,
      "Ġaired": 9083,
      "Ġease": 9084,
      "iture": 9085,
      "itious": 9086,
      "ities": 9087,
      "Ġhis": 9088,
      "Ġhav": 9089,
      "Ġhoot": 9090,
      "Ġhoe": 9091,
      "Ġhtt": 9092,
      "Ġnit": 9093,
      "Ġniece": 9094,
      "Ġnolte": 9095,
      "ieval": 9096,
      "icing": 9097,
      "icion": 9098,
      "icid": 9099,
      "icien": 9100,
      "ovsky": 9101,
      "Ġreci": 9102,
      "Ġreform": 9103,
      "elity": 9104,
      "Ġstaged": 9105,
      "Ġstaling": 9106,
      "etically": 9107,
      "isle": 9108,
      "ayer": 9109,
      "ayashi": 9110,
      "adm": 9111,
      "aden": 9112,
      "adle": 9113,
      "Ġraz": 9114,
      "Ġripper": 9115,
      "Ġfilter": 9116,
      "unte": 9117,
      "ssion": 9118,
      "Ġsept": 9119,
      "Ġsession": 9120,
      "oluted": 9121,
      "ami": 9122,
      "amy": 9123,
      "Ġchin": 9124,
      "Ġchow": 9125,
      "Ġchocol": 9126,
      "Ġchorus": 9127,
      "sect": 9128,
      "Ġlift": 9129,
      "Ġinfect": 9130,
      "ulf": 9131,
      "opa": 9132,
      "Ġkap": 9133,
      "Ġkob": 9134,
      "Ġkairo": 9135,
      "irting": 9136,
      "Ġdegr": 9137,
      "Ġdebt": 9138,
      "Ġdegen": 9139,
      "rable": 9140,
      "Ġalert": 9141,
      "Ġshaking": 9142,
      "Ġshared": 9143,
      "Ġshiny": 9144,
      "Ġshelley": 9145,
      "emp": 9146,
      "Ġjol": 9147,
      "Ġjur": 9148,
      "Ġjared": 9149,
      "Ġjune": 9150,
      "Ġvood": 9151,
      "Ġvain": 9152,
      "Ġviv": 9153,
      "Ġvib": 9154,
      "Ġvoted": 9155,
      "Ġvault": 9156,
      "ellite": 9157,
      "Ġmacy": 9158,
      "pest": 9159,
      "roit": 9160,
      "illip": 9161,
      "actually": 9162,
      "Ġbefore": 9163,
      "oodle": 9164,
      "Ġneo": 9165,
      "Ġneur": 9166,
      "Ġsuff": 9167,
      "Ġsucc": 9168,
      "apid": 9169,
      "Ġunqu": 9170,
      "Ġunsy": 9171,
      "Ġconan": 9172,
      "Ġconver": 9173,
      "quire": 9174,
      "igo": 9175,
      "Ġyak": 9176,
[...]
