{
  "version": "1.0",
  "truncation": null,
  "padding": null,
  "added_tokens": [],
  "normalizer": null,
  "pre_tokenizer": {
    "type": "ByteLevel",
    "add_prefix_space": false,
    "trim_offsets": true,
    "use_regex": true
  },
  "post_processor": {
    "type": "ByteLevel",
    "add_prefix_space": true,
    "trim_offsets": false,
    "use_regex": true
  },
  "decoder": {
    "type": "ByteLevel",
    "add_prefix_space": true,
    "trim_offsets": true,
    "use_regex": true
  },
  "model": {
    "type": "BPE",
    "dropout": null,
    "unk_token": null,
    "continuing_subword_prefix": null,
    "end_of_word_suffix": null,
    "fuse_unk": false,
    "byte_fallback": false,
    "vocab": {
      "!": 0,
      "\"": 1,
      "#": 2,
      "$": 3,
      "%": 4,
      "&": 5,
      "'": 6,
      "(": 7,
      ")": 8,
      "*": 9,
      "+": 10,
      ",": 11,
      "-": 12,
      ".": 13,
      "/": 14,
      "0": 15,
      "1": 16,
      "2": 17,
      "3": 18,
      "4": 19,
      "5": 20,
      "6": 21,
      "7": 22,
      "8": 23,
      "9": 24,
      ":": 25,
      ";": 26,
      "<": 27,
      "=": 28,
      ">": 29,
      "?": 30,
      "@": 31,
      "A": 32,
      "B": 33,
      "C": 34,
      "D": 35,
      "E": 36,
      "F": 37,
      "G": 38,
      "H": 39,
      "I": 40,
      "J": 41,
      "K": 42,
      "L": 43,
      "M": 44,
      "N": 45,
      "O": 46,
      "P": 47,
      "Q": 48,
      "R": 49,
      "S": 50,
      "T": 51,
      "U": 52,
      "V": 53,
      "W": 54,
      "X": 55,
      "Y": 56,
      "Z": 57,
      "[": 58,
      "\\": 59,
      "]": 60,
      "^": 61,
      "_": 62,
      "`": 63,
      "a": 64,
      "b": 65,
      "c": 66,
      "d": 67,
      "e": 68,
      "f": 69,
      "g": 70,
      "h": 71,
      "i": 72,
      "j": 73,
      "k": 74,
      "l": 75,
      "m": 76,
      "n": 77,
      "o": 78,
      "p": 79,
      "q": 80,
      "r": 81,
      "s": 82,
      "t": 83,
      "u": 84,
      "v": 85,
      "w": 86,
      "x": 87,
      "y": 88,
      "z": 89,
      "{": 90,
      "|": 91,
      "}": 92,
      "~": 93,
      "¡": 94,
      "¢": 95,
      "£": 96,
      "¤": 97,
      "¥": 98,
      "¦": 99,
      "§": 100,
      "¨": 101,
      "©": 102,
      "ª": 103,
      "«": 104,
      "¬": 105,
      "®": 106,
      "¯": 107,
      "°": 108,
      "±": 109,
      "²": 110,
      "³": 111,
      "´": 112,
      "µ": 113,
      "¶": 114,
      "·": 115,
      "¸": 116,
      "¹": 117,
      "º": 118,
      "»": 119,
      "¼": 120,
      "½": 121,
      "¾": 122,
      "¿": 123,
      "À": 124,
      "Á": 125,
      "Â": 126,
      "Ã": 127,
      "Ä": 128,
      "Å": 129,
      "Æ": 130,
      "Ç": 131,
      "È": 132,
      "É": 133,
      "Ê": 134,
      "Ë": 135,
      "Ì": 136,
      "Í": 137,
      "Î": 138,
      "Ï": 139,
      "Ð": 140,
      "Ñ": 141,
      "Ò": 142,
      "Ó": 143,
      "Ô": 144,
      "Õ": 145,
      "Ö": 146,
      "×": 147,
      "Ø": 148,
      "Ù": 149,
      "Ú": 150,
      "Û": 151,
      "Ü": 152,
      "Ý": 153,
      "Þ": 154,
      "ß": 155,
      "à": 156,
      "á": 157,
      "â": 158,
      "ã": 159,
      "ä": 160,
      "å": 161,
      "æ": 162,
      "ç": 163,
      "è": 164,
      "é": 165,
      "ê": 166,
      "ë": 167,
      "ì": 168,
      "í": 169,
      "î": 170,
      "ï": 171,
      "ð": 172,
      "ñ": 173,
      "ò": 174,
      "ó": 175,
      "ô": 176,
      "õ": 177,
      "ö": 178,
      "÷": 179,
      "ø": 180,
      "ù": 181,
      "ú": 182,
      "û": 183,
      "ü": 184,
      "ý": 185,
      "þ": 186,
      "ÿ": 187,
      "Ā": 188,
      "ā": 189,
      "Ă": 190,
      "ă": 191,
      "Ą": 192,
      "ą": 193,
      "Ć": 194,
      "ć": 195,
      "Ĉ": 196,
      "ĉ": 197,
      "Ċ": 198,
      "ċ": 199,
      "Č": 200,
      "č": 201,
      "Ď": 202,
      "ď": 203,
      "Đ": 204,
      "đ": 205,
      "Ē": 206,
      "ē": 207,
      "Ĕ": 208,
      "ĕ": 209,
      "Ė": 210,
      "ė": 211,
      "Ę": 212,
      "ę": 213,
      "Ě": 214,
      "ě": 215,
      "Ĝ": 216,
      "ĝ": 217,
      "Ğ": 218,
      "ğ": 219,
      "Ġ": 220,
      "ġ": 221,
      "Ģ": 222,
      "ģ": 223,
      "Ĥ": 224,
      "ĥ": 225,
      "Ħ": 226,
      "ħ": 227,
      "Ĩ": 228,
      "ĩ": 229,
      "Ī": 230,
      "ī": 231,
      "Ĭ": 232,
      "ĭ": 233,
      "Į": 234,
      "į": 235,
      "İ": 236,
      "ı": 237,
      "Ĳ": 238,
      "ĳ": 239,
      "Ĵ": 240,
      "ĵ": 241,
      "Ķ": 242,
      "ķ": 243,
      "ĸ": 244,
      "Ĺ": 245,
      "ĺ": 246,
      "Ļ": 247,
      "ļ": 248,
      "Ľ": 249,
      "ľ": 250,
      "Ŀ": 251,
      "ŀ": 252,
      "Ł": 253,
      "ł": 254,
      "Ń": 255,
      "in": 256,
      "Ġs": 257,
      "er": 258,
      "Ġ,": 259,
      "Ġ.": 260,
      "re": 261,
      "Ġm": 262,
      "Ġc": 263,
      "en": 264,
      "on": 265,
      "ing": 266,
      "Ġf": 267,
      "an": 268,
      "al": 269,
      "Ġp": 270,
      "Ġt": 271,
      "ar": 272,
      "ed": 273,
      "or": 274,
      "Ġl": 275,
      "Ġw": 276,
      "Ġb": 277,
      "at": 278,
      "st": 279,
      "Ġ'": 280,
      "Ġd": 281,
      "ou": 282,
      "Ġg": 283,
      "ly": 284,
      "il": 285,
      "le": 286,
      "Ġa": 287,
      "Ġe": 288,
      "Ġh": 289,
      "it": 290,
      "ct": 291,
      "Ġn": 292,
      "ie": 293,
      "ic": 294,
      "ov": 295,
      "Ġre": 296,
      "om": 297,
      "el": 298,
      "Ġst": 299,
      "ent": 300,
      "et": 301,
      "ot": 302,
      "is": 303,
      "ion": 304,
      "ay": 305,
      "ke": 306,
      "ch": 307,
      "ow": 308,
      "ce": 309,
      "gh": 310,
      "Ġr": 311,
      "ad": 312,
      "Ġmov": 313,
      "im": 314,
      "Ġfil": 315,
      "Ġmovie": 316,
      "oo": 317,
      "un": 318,
      "one": 319,
      "Ġfilm": 320,
      "ss": 321,
      "Ġse": 322,
      "ol": 323,
      "id": 324,
      "Ġth": 325,
      "Ġch": 326,
      "am": 327,
      "ver": 328,
      "ve": 329,
      "se": 330,
      "Ġli": 331,
      "Ġin": 332,
      "th": 333,
      "ul": 334,
      "op": 335,
      "Ġ)": 336,
      "ally": 337,
      "'t": 338,
      "Ġ`": 339,
      "Ġ(": 340,
      "Ġk": 341,
      "ri": 342,
      "Ġ``": 343,
      "ir": 344,
      "Ġ''": 345,
      "Ġde": 346,
      "ck": 347,
      "ra": 348,
      "Ġsh": 349,
      "Ġal": 350,
      "ur": 351,
      "em": 352,
      "ght": 353,
      "ld": 354,
      "her": 355,
      "Ġj": 356,
      "Ġcom": 357,
      "us": 358,
      "Ġv": 359,
      "as": 360,
      "Ġone": 361,
      "ut": 362,
      "Ġsc": 363,
      "Ġma": 364,
      "ell": 365,
      "Ġ!": 366,
      "end": 367,
      "Ġact": 368,
      "ble": 369,
      "ge": 370,
      "Ġex": 371,
      "pe": 372,
      "Ġpl": 373,
      "ill": 374,
      "art": 375,
      "ro": 376,
      "ant": 377,
      "and": 378,
      "Ġbe": 379,
      "ould": 380,
      "act": 381,
      "ood": 382,
      "ter": 383,
      "oun": 384,
      "ast": 385,
      "Ġne": 386,
      "Ġsu": 387,
      "ate": 388,
      "Ġlike": 389,
      "ap": 390,
      "Ġle": 391,
      "Ġdi": 392,
      "Ġun": 393,
      "ff": 394,
      "Ġan": 395,
      "Ġwor": 396,
      "ous": 397,
      "Ġcon": 398,
      "qu": 399,
      "ime": 400,
      "ig": 401,
      "um": 402,
      "Ġy": 403,
      "ive": 404,
      "ation": 405,
      "ven": 406,
      "ight": 407,
      "ory": 408,
      "Ġo": 409,
      "Ġchar": 410,
      "atch": 411,
      "ist": 412,
      "ack": 413,
      "ard": 414,
      "ain": 415,
      "Ġ?": 416,
      "ind": 417,
      "ook": 418,
      "ort": 419,
      "Ġman": 420,
      "..": 421,
      "Ġtr": 422,
      "Ġever": 423,
      "Ġper": 424,
      "ud": 425,
      "Ġ-": 426,
      "Ġtime": 427,
      "ure": 428,
      "fe": 429,
      "ine": 430,
      "der": 431,
      "all": 432,
      "Ġgood": 433,
      "acter": 434,
      "Ġcharacter": 435,
      "es": 436,
      "Ġgo": 437,
      "Ġsee": 438,
      "ity": 439,
      "ong": 440,
      "Ġget": 441,
      "Ġwatch": 442,
      "reat": 443,
      "og": 444,
      "Ġmu": 445,
      "Ġ1": 446,
      "Ġpro": 447,
      "ough": 448,
      "ound": 449,
      "are": 450,
      "Ġstory": 451,
      "Ġen": 452,
      "Ġpre": 453,
      "Ġwould": 454,
      "est": 455,
      "ite": 456,
      "ful": 457,
      "Ġpo": 458,
      "pt": 459,
      "Ġeven": 460,
      "ue": 461,
      "Ġcl": 462,
      "ance": 463,
      "able": 464,
      "ide": 465,
      "od": 466,
      "Ġmake": 467,
      "ence": 468,
      "ene": 469,
      "Ġsp": 470,
      "hing": 471,
      "Ġreally": 472,
      "Ġ...": 473,
      "Ġshow": 474,
      "ear": 475,
      "Ġsom": 476,
      "ab": 477,
      "Ġro": 478,
      "Ġbr": 479,
      "ak": 480,
      "orm": 481,
      "ci": 482,
      "oy": 483,
      "ink": 484,
      "ick": 485,
      "old": 486,
      "other": 487,
      "pp": 488,
      "ne": 489,
      "itt": 490,
      "Ġpe": 491,
      "Ġwell": 492,
      "so": 493,
      "Ġim": 494,
      "our": 495,
      "Ġend": 496,
      "ag": 497,
      "ade": 498,
      "now": 499,
      "age": 500,
      "Ġscene": 501,
      "Ġqu": 502,
      "Ġbad": 503,
      "ice": 504,
      "ious": 505,
      "ake": 506,
      "rect": 507,
      "ment": 508,
      "Ġpr": 509,
      "Ġmuch": 510,
      "Ġlook": 511,
      "Ġad": 512,
      "Ġbl": 513,
      "ame": 514,
      "Ġu": 515,
      "Ġwh": 516,
      "Ġ:": 517,
      "os": 518,
      "Ġlov": 519,
      "ople": 520,
      "Ġcould": 521,
      "Ġevery": 522,
      "ert": 523,
      "Ġfa": 524,
      "Ġdis": 525,
      "out": 526,
      "ost": 527,
      "Ġpeople": 528,
      "ple": 529,
      "Ġme": 530,
      "pl": 531,
      "Ġplay": 532,
      "Ġgreat": 533,
      "ish": 534,
      "irst": 535,
      "Ġam": 536,
      "au": 537,
      "Ġalso": 538,
      "Ġtw": 539,
      "int": 540,
      "red": 541,
      "Ġthink": 542,
      "Ġhe": 543,
      "Ġdirect": 544,
      "the": 545,
      "Ġknow": 546,
      "ry": 547,
      "Ġjo": 548,
      "Ġway": 549,
      "way": 550,
      "com": 551,
      "Ġar": 552,
      "Ġsa": 553,
      "Ġfun": 554,
      "Ġpart": 555,
      "Ġreal": 556,
      "over": 557,
      "Ġthing": 558,
      "Ġfirst": 559,
      "per": 560,
      "ect": 561,
      "app": 562,
      "Ġfe": 563,
      "Ġmade": 564,
      "att": 565,
      "Ġseem": 566,
      "ary": 567,
      "oc": 568,
      "Ġwr": 569,
      "Ġany": 570,
      "ore": 571,
      "Ġlife": 572,
      "Ġsay": 573,
      "ep": 574,
      "Ġinter": 575,
      "ty": 576,
      "sh": 577,
      "ical": 578,
      "ber": 579,
      "Ġnot": 580,
      "Ġfl": 581,
      "ute": 582,
      "ated": 583,
      "iew": 584,
      "son": 585,
      "Ġgr": 586,
      "ian": 587,
      "ually": 588,
      "Ġlove": 589,
      "Ġor": 590,
      "Ġ;": 591,
      "Ġwork": 592,
      "Ġser": 593,
      "ass": 594,
      "Ġte": 595,
      "form": 596,
      "Ġactor": 597,
      "pect": 598,
      "ire": 599,
      "ict": 600,
      "ny": 601,
      "Ġmany": 602,
      "Ġnever": 603,
      "Ġseen": 604,
      "Ġbet": 605,
      "Ġplot": 606,
      "ress": 607,
      "ise": 608,
      "Ġgu": 609,
      "Ġca": 610,
      "Ġent": 611,
      "Ġyear": 612,
      "Ġwant": 613,
      "Ġhor": 614,
      "ult": 615,
      "Ġsomet": 616,
      "Ġtwo": 617,
      "iz": 618,
      "ft": 619,
      "ip": 620,
      "iv": 621,
      "Ġdes": 622,
      "ace": 623,
      "Ġacting": 624,
      "urn": 625,
      "inal": 626,
      "Ġbest": 627,
      "ith": 628,
      "ath": 629,
      "ittle": 630,
      "Ġback": 631,
      "Ġ*": 632,
      "Ġlittle": 633,
      "Ġac": 634,
      "ster": 635,
      "du": 636,
      "ond": 637,
      "Ġrem": 638,
      "less": 639,
      "Ġ2": 640,
      "Ġsl": 641,
      "ark": 642,
      "Ġ19": 643,
      "Ġmay": 644,
      "ater": 645,
      "Ġdr": 646,
      "Ġtra": 647,
      "man": 648,
      "ily": 649,
      "Ġstill": 650,
      "Ġcome": 651,
      "ather": 652,
      "Ġus": 653,
      "ang": 654,
      "Ġtake": 655,
      "Ġbetter": 656,
      "king": 657,
      "thing": 658,
      "te": 659,
      "Ġcr": 660,
      "Ġperform": 661,
      "Ġtry": 662,
      "Ġfind": 663,
      "ertain": 664,
      "peci": 665,
      "ich": 666,
      "ual": 667,
      "ac": 668,
      "Ġatt": 669,
      "Ġmin": 670,
      "igh": 671,
      "Ġab": 672,
      "Ġop": 673,
      "ought": 674,
      "Ġfor": 675,
      "Ġsomething": 676,
      "ose": 677,
      "riend": 678,
      "Ġbel": 679,
      "Ġtal": 680,
      "ffer": 681,
      "ph": 682,
      "ild": 683,
      "oll": 684,
      "Ġkill": 685,
      "Ġcont": 686,
      "Ġsim": 687,
      "Ġnew": 688,
      "Ġcast": 689,
      "Ġeff": 690,
      "be": 691,
      "ree": 692,
      "ens": 693,
      "Ġgive": 694,
      "Ġfeel": 695,
      "iss": 696,
      "own": 697,
      "Ġ--": 698,
      "av": 699,
      "Ġem": 700,
      "Ġdirector": 701,
      "Ġint": 702,
      "irl": 703,
      "ating": 704,
      "ense": 705,
      "ror": 706,
      "oman": 707,
      "Ġstr": 708,
      "Ġke": 709,
      "ia": 710,
      "Ġinterest": 711,
      "Ġsome": 712,
      "ole": 713,
      "Ġhapp": 714,
      "aw": 715,
      "ction": 716,
      "Ġimp": 717,
      "ience": 718,
      "Ġhum": 719,
      "Ġmus": 720,
      "Ġlot": 721,
      "Ġperformance": 722,
      "Ġsur": 723,
      "Ġcomp": 724,
      "ies": 725,
      "Ġap": 726,
      "if": 727,
      "ting": 728,
      "Ġinc": 729,
      "Ġgen": 730,
      "edy": 731,
      "Ġbig": 732,
      "ning": 733,
      "ust": 734,
      "reen": 735,
      "Ġpoint": 736,
      "Ġcar": 737,
      "ably": 738,
      "Ġstar": 739,
      "ason": 740,
      "Ġguy": 741,
      "Ġwe": 742,
      "Ġwatching": 743,
      "Ġev": 744,
      "ock": 745,
      "Ġgirl": 746,
      "Ġfam": 747,
      "arly": 748,
      "Ġwar": 749,
      "up": 750,
      "vers": 751,
      "Ġsm": 752,
      "Ġold": 753,
      "Ġdec": 754,
      "Ġres": 755,
      "Ġob": 756,
      "Ġthough": 757,
      "ull": 758,
      "Ġhigh": 759,
      "nt": 760,
      "Ġfunny": 761,
      "joy": 762,
      "Ġset": 763,
      "Ġter": 764,
      "Ġche": 765,
      "Ġnothing": 766,
      "ever": 767,
      "ach": 768,
      "Ġunder": 769,
      "ere": 770,
      "Ġmar": 771,
      "Ġfr": 772,
      "Ġfact": 773,
      "Ġlong": 774,
      "Ġlau": 775,
      "ial": 776,
      "vel": 777,
      "Ġover": 778,
      "Ġactually": 779,
      "Ġwoman": 780,
      "Ġthr": 781,
      "Ġbelie": 782,
      "ool": 783,
      "Ġgoing": 784,
      "Ġenjoy": 785,
      "Ġpret": 786,
      "Ġday": 787,
      "ase": 788,
      "Ġgot": 789,
      "az": 790,
      "ome": 791,
      "Ġaw": 792,
      "Ġstart": 793,
      "Ġsub": 794,
      "Ġrole": 795,
      "Ġel": 796,
      "Ġview": 797,
      "get": 798,
      "Ġyoun": 799,
      "Ġwith": 800,
      "Ġprodu": 801,
      "Ġorig": 802,
      "Ġas": 803,
      "Ġexc": 804,
      "Ġyoung": 805,
      "li": 806,
      "Ġanother": 807,
      "Ġph": 808,
      "ane": 809,
      "Ġbu": 810,
      "Ġfriend": 811,
      "ank": 812,
      "Ġturn": 813,
      "Ġcra": 814,
      "onder": 815,
      "Ġsec": 816,
      "Ġworld": 817,
      "Ġsupp": 818,
      "Ġhard": 819,
      "oot": 820,
      "ible": 821,
      "Ġbit": 822,
      "Ġeffect": 823,
      "Ġ&": 824,
      "Ġsin": 825,
      "Ġseems": 826,
      "Ġrel": 827,
      "Ġed": 828,
      "Ġhorror": 829,
      "Ġhow": 830,
      "Ġes": 831,
      "Ġcomedy": 832,
      "Ġfan": 833,
      "Ġkid": 834,
      "Ġhel": 835,
      "Ġwonder": 836,
      "Ġquite": 837,
      "Ġlaugh": 838,
      "ub": 839,
      "ript": 840,
      "Ġmean": 841,
      "Ġfar": 842,
      "Ġaction": 843,
      "Ġapp": 844,
      "Ġscreen": 845,
      "cept": 846,
      "Ġcomple": 847,
      "Ġminute": 848,
      "Ġrec": 849,
      "Ġthought": 850,
      "Ġenough": 851,
      "Ġoriginal": 852,
      "ways": 853,
      "Ġz": 854,
      "ention": 855,
      "Ġaround": 856,
      "eric": 857,
      "Ġline": 858,
      "Ġright": 859,
      "Ġneed": 860,
      "Ġpretty": 861,
      "oon": 862,
      "ave": 863,
      "Ġmust": 864,
      "iting": 865,
      "Ġcam": 866,
      "Ġcare": 867,
      "ically": 868,
      "ner": 869,
      "ope": 870,
      "ib": 871,
      "ll": 872,
      "Ġmusic": 873,
      "aut": 874,
      "Ġbas": 875,
      "Ġcol": 876,
      "ord": 877,
      "00": 878,
      "inem": 879,
      "Ġperson": 880,
      "ved": 881,
      "Ġalways": 882,
      "ness": 883,
      "ead": 884,
      "Ġins": 885,
      "pr": 886,
      "Ġind": 887,
      "ced": 888,
      "Ġscript": 889,
      "Ġbo": 890,
      "most": 891,
      "Ġag": 892,
      "Ġkind": 893,
      "Ġmon": 894,
      "Ġbeg": 895,
      "Ġcinem": 896,
      "ign": 897,
      "Ġinst": 898,
      "ile": 899,
      "ately": 900,
      "ody": 901,
      "Ġep": 902,
      "Ġhowever": 903,
      "Ġsex": 904,
      "wh": 905,
      "Ġput": 906,
      "ount": 907,
      "Ġclass": 908,
      "Ġread": 909,
      "Ġinv": 910,
      "Ġleast": 911,
      "ug": 912,
      "Ġmom": 913,
      "icul": 914,
      "cess": 915,
      "Ġtell": 916,
      "ether": 917,
      "ember": 918,
      "Ġshot": 919,
      "vious": 920,
      "Ġbecom": 921,
      "Ġappe": 922,
      "ale": 923,
      "Ġbook": 924,
      "Ġrev": 925,
      "Ġcons": 926,
      "Ġlead": 927,
      "Ġdone": 928,
      "ouse": 929,
      "Ġaud": 930,
      "Ġfamily": 931,
      "Ġsch": 932,
      "Ġsound": 933,
      "Ġwhole": 934,
      "Ġcour": 935,
      "Ġsw": 936,
      "Ġinteresting": 937,
      "Ġwithout": 938,
      "ature": 939,
      "Ġbeaut": 940,
      "Ġalmost": 941,
      "Ġide": 942,
      "ode": 943,
      "Ġart": 944,
      "Ġgi": 945,
      "Ġexpect": 946,
      "Ġexpl": 947,
      "Ġsure": 948,
      "Ġseries": 949,
      "Ġmight": 950,
      "Ġlet": 951,
      "Ġreason": 952,
      "Ġ3": 953,
      "ition": 954,
      "Ġcomplete": 955,
      "Ġlast": 956,
      "iter": 957,
      "era": 958,
      "rible": 959,
      "Ġcle": 960,
      "Ġentertain": 961,
      "ange": 962,
      "Ġhol": 963,
      "Ġmain": 964,
      "Ġdiffer": 965,
      "Ġout": 966,
      "raph": 967,
      "ving": 968,
      "air": 969,
      "ower": 970,
      "Ġtru": 971,
      "Ġanything": 972,
      "iece": 973,
      "Ġbor": 974,
      "Ġchild": 975,
      "Ġworth": 976,
      "Ġameric": 977,
      "Ġspeci": 978,
      "alog": 979,
      "stand": 980,
      "ren": 981,
      "ash": 982,
      "ative": 983,
      "Ġsince": 984,
      "aking": 985,
      "Ġmiss": 986,
      "led": 987,
      "Ġtv": 988,
      "Ġext": 989,
      "Ġhand": 990,
      "Ġaudience": 991,
      "ism": 992,
      "Ġcall": 993,
      "xt": 994,
      "Ġboy": 995,
      "ier": 996,
      "Ġvers": 997,
      "Ġmoment": 998,
      "Ġdialog": 999,
      "vd": 1000,
      "Ġfound": 1001,
      "Ġadd": 1002,
      "Ġdel": 1003,
      "rist": 1004,
      "Ġher": 1005,
      "hn": 1006,
      "Ġgl": 1007,
      "Ġworst": 1008,
      "ail": 1009,
      "Ġtri": 1010,
      "Ġhal": 1011,
      "Ġcomm": 1012,
      "Ġhelp": 1013,
      "here": 1014,
      "Ġprob": 1015,
      "Ġacc": 1016,
      "Ġyet": 1017,
      "Ġrun": 1018,
      "Ġsaw": 1019,
      "Ġbegin": 1020,
      "ject": 1021,
      "Ġplace": 1022,
      "Ġpoor": 1023,
      "Ġrather": 1024,
      "ady": 1025,
      "Ġdvd": 1026,
      "ling": 1027,
      "Ġfin": 1028,
      "Ġty": 1029,
      "Ġ10": 1030,
      "though": 1031,
      "Ġcre": 1032,
      "Ġdef": 1033,
      "Ġcourse": 1034,
      "Ġidea": 1035,
      "ked": 1036,
      "Ġaway": 1037,
      "Ġplayed": 1038,
      "Ġanyone": 1039,
      "ob": 1040,
      "Ġprobably": 1041,
      "sc": 1042,
      "oney": 1043,
      "Ġshort": 1044,
      "Ġnight": 1045,
      "Ġsequ": 1046,
      "cer": 1047,
      "ray": 1048,
      "Ġste": 1049,
      "Ġversion": 1050,
      "iful": 1051,
      "mend": 1052,
      "illi": 1053,
      "Ġsuper": 1054,
      "Ġpol": 1055,
      "Ġepis": 1056,
      "ider": 1057,
      "ality": 1058,
      "Ġunf": 1059,
      "Ġhappen": 1060,
      "Ġsecond": 1061,
      "Ġeverything": 1062,
      "apt": 1063,
      "Ġabs": 1064,
      "Ġbelieve": 1065,
      "Ġport": 1066,
      "Ġdep": 1067,
      "Ġkeep": 1068,
      "io": 1069,
      "Ġtrying": 1070,
      "Ġepisode": 1071,
      "pecially": 1072,
      "otion": 1073,
      "Ġspecial": 1074,
      "Ġblack": 1075,
      "Ġmind": 1076,
      "Ġespecially": 1077,
      "Ġdifferent": 1078,
      "ife": 1079,
      "Ġjohn": 1080,
      "Ġjob": 1081,
      "osed": 1082,
      "ix": 1083,
      "atter": 1084,
      "Ġrob": 1085,
      "wood": 1086,
      "Ġsing": 1087,
      "Ġmaking": 1088,
      "Ġsk": 1089,
      "ither": 1090,
      "Ġsurpr": 1091,
      "fect": 1092,
      "ret": 1093,
      "ograph": 1094,
      "blem": 1095,
      "Ġposs": 1096,
      "ilar": 1097,
      "ah": 1098,
      "Ġpres": 1099,
      "Ġmur": 1100,
      "uck": 1101,
      "Ġending": 1102,
      "Ġhalf": 1103,
      "Ġcertain": 1104,
      "ingly": 1105,
      "Ġalthough": 1106,
      "Ġbeautiful": 1107,
      "commend": 1108,
      "Ġtrue": 1109,
      "Ġproblem": 1110,
      "ont": 1111,
      "itch": 1112,
      "Ġear": 1113,
      "ye": 1114,
      "Ġrest": 1115,
      "ortun": 1116,
      "Ġrecommend": 1117,
      "Ġmen": 1118,
      "Ġlooking": 1119,
      "Ġdo": 1120,
      "Ġhouse": 1121,
      "Ġstand": 1122,
      "me": 1123,
      "ott": 1124,
      "Ġwal": 1125,
      "ogether": 1126,
      "Ġsomeone": 1127,
      "oint": 1128,
      "Ġass": 1129,
      "gr": 1130,
      "Ġbud": 1131,
      "ollow": 1132,
      "ident": 1133,
      "ream": 1134,
      "Ġmoney": 1135,
      "Ġco": 1136,
      "Ġsaid": 1137,
      "Ġthree": 1138,
      "Ġfav": 1139,
      "empt": 1140,
      "istic": 1141,
      "Ġsy": 1142,
      "Ġthe": 1143,
      "lud": 1144,
      "Ġmaybe": 1145,
      "Ġcou": 1146,
      "Ġhead": 1147,
      "Ġrele": 1148,
      "aught": 1149,
      "Ġother": 1150,
      "aste": 1151,
      "Ġobvious": 1152,
      "Ġeng": 1153,
      "Ġamerican": 1154,
      "Ġsense": 1155,
      "Ġele": 1156,
      "Ġhar": 1157,
      "Ġlater": 1158,
      "Ġdra": 1159,
      "sy": 1160,
      "Ġcreat": 1161,
      "Ġrep": 1162,
      "ship": 1163,
      "Ġdram": 1164,
      "Ġso": 1165,
      "atic": 1166,
      "Ġopen": 1167,
      "ney": 1168,
      "Ġform": 1169,
      "Ġelse": 1170,
      "Ġreview": 1171,
      "Ġuse": 1172,
      "Ġvis": 1173,
      "Ġnice": 1174,
      "Ġleft": 1175,
      "Ġperfect": 1176,
      "ellent": 1177,
      "Ġsit": 1178,
      "Ġhour": 1179,
      "Ġeveryone": 1180,
      "Ġtogether": 1181,
      "cing": 1182,
      "Ġru": 1183,
      "Ġfollow": 1184,
      "ann": 1185,
      "Ġhope": 1186,
      "Ġholly": 1187,
      "Ġdeath": 1188,
      "Ġall": 1189,
      "Ġsimp": 1190,
      "Ġdead": 1191,
      "Ġanim": 1192,
      "Ġhuman": 1193,
      "ger": 1194,
      "Ġconf": 1195,
      "Ġappear": 1196,
      "Ġunderstand": 1197,
      "Ġsus": 1198,
      "Ġcame": 1199,
      "umb": 1200,
      "Ġfall": 1201,
      "Ġtot": 1202,
      "cc": 1203,
      "Ġinstead": 1204,
      "ited": 1205,
      "arent": 1206,
      "Ġple": 1207,
      "ross": 1208,
      "Ġseeing": 1209,
      "Ġtop": 1210,
      "this": 1211,
      "ward": 1212,
      "land": 1213,
      "Ġfight": 1214,
      "omb": 1215,
      "Ġoff": 1216,
      "Ġwatched": 1217,
      "Ġviewer": 1218,
      "10": 1219,
      "Ġcor": 1220,
      "Ġdisc": 1221,
      "Ġlow": 1222,
      "Ġdet": 1223,
      "Ġexp": 1224,
      "Ġpar": 1225,
      "Ġexcellent": 1226,
      "Ġmurder": 1227,
      "Ġbar": 1228,
      "Ġname": 1229,
      "Ġlack": 1230,
      "Ġsil": 1231,
      "Ġinclud": 1232,
      "yle": 1233,
      "Ġentire": 1234,
      "Ġinvol": 1235,
      "Ġir": 1236,
      "Ġ4": 1237,
      "Ġit": 1238,
      "ote": 1239,
      "Ġwonderful": 1240,
      "Ġeye": 1241,
      "Ġsimply": 1242,
      "Ġface": 1243,
      "Ġspe": 1244,
      "Ġwife": 1245,
      "Ġprov": 1246,
      "Ġserious": 1247,
      "Ġevent": 1248,
      "Ġportray": 1249,
      "ern": 1250,
      "Ġret": 1251,
      "Ġbeh": 1252,
      "Ġcompletely": 1253,
      "Ġdark": 1254,
      "Ġje": 1255,
      "Ġheart": 1256,
      "vin": 1257,
      "Ġpiece": 1258,
      "Ġstup": 1259,
      "ird": 1260,
      "Ġred": 1261,
      "Ġcomment": 1262,
      "ideo": 1263,
      "Ġproduction": 1264,
      "mov": 1265,
      "Ġcop": 1266,
      "Ġhome": 1267,
      "Ġremember": 1268,
      "uff": 1269,
      "ans": 1270,
      "Ġused": 1271,
      "Ġclassic": 1272,
      "ape": 1273,
      "Ġann": 1274,
      "Ġdefin": 1275,
      "Ġref": 1276,
      "Ġdist": 1277,
      "Ġattempt": 1278,
      "Ġsong": 1279,
      "Ġrom": 1280,
      "Ġchrist": 1281,
      "Ġtit": 1282,
      "Ġstupid": 1283,
      "oice": 1284,
      "Ġpower": 1285,
      "Ġsad": 1286,
      "Ġalong": 1287,
      "Ġexper": 1288,
      "aps": 1289,
      "ired": 1290,
      "Ġmor": 1291,
      "Ġfather": 1292,
      "Ġvi": 1293,
      "Ġwrong": 1294,
      "icture": 1295,
      "Ġword": 1296,
      "ography": 1297,
      "Ġdan": 1298,
      "Ġeither": 1299,
      "Ġtalent": 1300,
      "Ġhollywood": 1301,
      "Ġpicture": 1302,
      "Ġstud": 1303,
      "itten": 1304,
      "Ġmy": 1305,
      "Ġparticul": 1306,
      "appoint": 1307,
      "Ġschool": 1308,
      "Ġ8": 1309,
      "cy": 1310,
      "Ġcred": 1311,
      "olute": 1312,
      "Ġgener": 1313,
      "my": 1314,
      "Ġhero": 1315,
      "Ġhist": 1316,
      "Ġcamera": 1317,
      "Ġmess": 1318,
      "Ġup": 1319,
      "Ã©": 1320,
      "Ġvideo": 1321,
      "ased": 1322,
      "Ġboring": 1323,
      "Ġgiven": 1324,
      "ex": 1325,
      "Ġdisappoint": 1326,
      "Ġ5": 1327,
      "elf": 1328,
      "ised": 1329,
      "Ġnext": 1330,
      "ility": 1331,
      "Ġexcept": 1332,
      "que": 1333,
      "Ġsupposed": 1334,
      "elt": 1335,
      "Ġjack": 1336,
      "Ġamaz": 1337,
      "Ġemotion": 1338,
      "Ġconsider": 1339,
      "Ġloc": 1340,
      "iver": 1341,
      "Ġfull": 1342,
      "Ġcouple": 1343,
      "Ġawful": 1344,
      "Ġdialogue": 1345,
      "ying": 1346,
      "Ġbre": 1347,
      "idd": 1348,
      "Ġfavor": 1349,
      "haps": 1350,
      "Ġeas": 1351,
      "Ġcount": 1352,
      "ony": 1353,
      "ared": 1354,
      "Ġdou": 1355,
      "Ġav": 1356,
      "amp": 1357,
      "Ġexam": 1358,
      "Ġabsolute": 1359,
      "Ġaf": 1360,
      "Ġsever": 1361,
      "arn": 1362,
      "Ġsmall": 1363,
      "Ġmother": 1364,
      "Ġbudget": 1365,
      "oil": 1366,
      "ers": 1367,
      "Ġpa": 1368,
      "Ġside": 1369,
      "Ġreg": 1370,
      "Ġfail": 1371,
      "Ġcut": 1372,
      "Ġgame": 1373,
      "Ġlight": 1374,
      "Ġgre": 1375,
      "ract": 1376,
      "Ġimag": 1377,
      "Ġcase": 1378,
      "Ġhumor": 1379,
      "Ġsuc": 1380,
      "Ġadv": 1381,
      "ient": 1382,
      "Ġfre": 1383,
      "Ġblood": 1384,
      "Ġtruly": 1385,
      "ize": 1386,
      "movie": 1387,
      "Ġsort": 1388,
      "Ġpain": 1389,
      "Ġgra": 1390,
      "ley": 1391,
      "Ġval": 1392,
      "Ġfinal": 1393,
      "ork": 1394,
      "gest": 1395,
      "dd": 1396,
      "Ġsat": 1397,
      "Ġwa": 1398,
      "Ġwin": 1399,
      "Ġterrible": 1400,
      "Ġ7": 1401,
      "Ġoft": 1402,
      "but": 1403,
      "ument": 1404,
      "Ġhit": 1405,
      "ied": 1406,
      "Ġdri": 1407,
      "like": 1408,
      "Ġcent": 1409,
      "ĠÂ": 1410,
      "Ġfeature": 1411,
      "ru": 1412,
      "Ġfine": 1413,
      "olog": 1414,
      "unk": 1415,
      "Ġperhaps": 1416,
      "itely": 1417,
      "Ġjoke": 1418,
      "Ġnum": 1419,
      "Ġgetting": 1420,
      "Ġthem": 1421,
      "Ġmr": 1422,
      "Ġmaster": 1423,
      "Ġflick": 1424,
      "Ġrich": 1425,
      "Ġoften": 1426,
      "ief": 1427,
      "Ġbrilli": 1428,
      "Ġslow": 1429,
      "Ġcinema": 1430,
      "Ġbring": 1431,
      "play": 1432,
      "Ġlive": 1433,
      "iness": 1434,
      "Ġsequence": 1435,
      "Ġdeal": 1436,
      "Ġmention": 1437,
      "Ġbra": 1438,
      "velop": 1439,
      "Ġat": 1440,
      "Ġlost": 1441,
      "ons": 1442,
      "Ġgue": 1443,
      "Ġearly": 1444,
      "Ġliked": 1445,
      "Ġwriter": 1446,
      "oid": 1447,
      "Ġ9": 1448,
      "enn": 1449,
      "ric": 1450,
      "Ġmich": 1451,
      "ison": 1452,
      "Ġactress": 1453,
      "Ġfoot": 1454,
      "Ġteen": 1455,
      "Ġclose": 1456,
      "Ġis": 1457,
      "ton": 1458,
      "Ġbrother": 1459,
      "reme": 1460,
      "fully": 1461,
      "Ġcertainly": 1462,
      "Ġviol": 1463,
      "Ġfant": 1464,
      "ently": 1465,
      "what": 1466,
      "lish": 1467,
      "Ġplaying": 1468,
      "Ġcapt": 1469,
      "Ġmeet": 1470,
      "Ġant": 1471,
      "Ġok": 1472,
      "Ġmem": 1473,
      "outh": 1474,
      "Ġang": 1475,
      "Ġguess": 1476,
      "ides": 1477,
      "Ġfinally": 1478,
      "Ġseveral": 1479,
      "Ġrid": 1480,
      "Ġexample": 1481,
      "ush": 1482,
      "Ġentertaining": 1483,
      "Ġstrong": 1484,
      "Ġdoc": 1485,
      "Ġimpress": 1486,
      "Ġsn": 1487,
      "Ġwritten": 1488,
      "Ġstyle": 1489,
      "Ġvill": 1490,
      "dy": 1491,
      "Ġworse": 1492,
      "aker": 1493,
      "Ġsusp": 1494,
      "Ġfelt": 1495,
      "Ġkiller": 1496,
      "Ġothers": 1497,
      "Ġdefinitely": 1498,
      "Ġmatter": 1499,
      "cial": 1500,
      "ek": 1501,
      "Ġdem": 1502,
      "Ġdirection": 1503,
      "Ġtitle": 1504,
      "Ġmis": 1505,
      "Ġwaste": 1506,
      "Ġstop": 1507,
      "Ġfair": 1508,
      "Ġevil": 1509,
      "ves": 1510,
      "ouch": 1511,
      "Ġhun": 1512,
      "Ġcost": 1513,
      "Ġpop": 1514,
      "Ġbrilliant": 1515,
      "orn": 1516,
      "Ġfeeling": 1517,
      "Ġdevelop": 1518,
      "Ġloved": 1519,
      "Ġseemed": 1520,
      "Ġquality": 1521,
      "he": 1522,
      "Ġbecome": 1523,
      "ision": 1524,
      "Ġadm": 1525,
      "ister": 1526,
      "Ġabsolutely": 1527,
      "Ġmag": 1528,
      "unch": 1529,
      "used": 1530,
      "aughter": 1531,
      "Ġtotally": 1532,
      "ring": 1533,
      "Ġnov": 1534,
      "Ġpred": 1535,
      "ortunately": 1536,
      "ement": 1537,
      "Ġdesp": 1538,
      "Ġthrough": 1539,
      "Ġrelation": 1540,
      "Ġwent": 1541,
      "Ġlist": 1542,
      "ery": 1543,
      "Ġfavorite": 1544,
      "yn": 1545,
      "Ġwo": 1546,
      "ude": 1547,
      "Ġquest": 1548,
      "Ġbased": 1549,
      "Ġextreme": 1550,
      "Ġtype": 1551,
      "Ġwest": 1552,
      "ler": 1553,
      "line": 1554,
      "Ġpass": 1555,
      "Ġgod": 1556,
      "ready": 1557,
      "ates": 1558,
      "ump": 1559,
      "Ġwhite": 1560,
      "mer": 1561,
      "atur": 1562,
      "Ġdrama": 1563,
      "bo": 1564,
      "ined": 1565,
      "edi": 1566,
      "Ġhu": 1567,
      "ibly": 1568,
      "Ġmo": 1569,
      "Ġtod": 1570,
      "Ġalready": 1571,
      "aken": 1572,
      "Ġbro": 1573,
      "ional": 1574,
      "Ġinf": 1575,
      "Ġwanted": 1576,
      "Ġsupport": 1577,
      "Ġson": 1578,
      "right": 1579,
      "ized": 1580,
      "Ġocc": 1581,
      "Ġpresent": 1582,
      "friend": 1583,
      "Ġbecomes": 1584,
      "Ġlate": 1585,
      "Ġge": 1586,
      "Ġself": 1587,
      "ided": 1588,
      "Ġthrill": 1589,
      "Ġthroughout": 1590,
      "Ġwriting": 1591,
      "ael": 1592,
      "cl": 1593,
      "ator": 1594,
      "af": 1595,
      "Ġfem": 1596,
      "Ġdav": 1597,
      "Ġdev": 1598,
      "sych": 1599,
      "ker": 1600,
      "ming": 1601,
      "Ġoh": 1602,
      "ains": 1603,
      "Ġpat": 1604,
      "Ġcalled": 1605,
      "gu": 1606,
      "oup": 1607,
      "Ġhilar": 1608,
      "Ġrent": 1609,
      "Ġtalk": 1610,
      "Ġcredit": 1611,
      "ination": 1612,
      "Ġcolle": 1613,
      "Ġet": 1614,
      "Ġyes": 1615,
      "Ġfore": 1616,
      "Ġstuff": 1617,
      "ular": 1618,
      "Ġamazing": 1619,
      "Ġtown": 1620,
      "Ġ200": 1621,
      "Ġla": 1622,
      "anger": 1623,
      "Ġsuccess": 1624,
      "Ġnumber": 1625,
      "les": 1626,
      "itic": 1627,
      "Ġlearn": 1628,
      "ien": 1629,
      "Ġbeginning": 1630,
      "Ġpsych": 1631,
      "Ġgave": 1632,
      "Ġrock": 1633,
      "Ġable": 1634,
      "Ġdeser": 1635,
      "Ġenjoyed": 1636,
      "Ġmark": 1637,
      "Ġdream": 1638,
      "Ġtouch": 1639,
      "Ġgenre": 1640,
      "ĠÂĸ": 1641,
      "Ġnovel": 1642,
      "ured": 1643,
      "Ġprop": 1644,
      "Ġrelationship": 1645,
      "Ġpast": 1646,
      "Ġstay": 1647,
      "Ġmaj": 1648,
      "use": 1649,
      "ys": 1650,
      "chn": 1651,
      "uation": 1652,
      "Ġstra": 1653,
      "Ġshoot": 1654,
      "Ġuni": 1655,
      "Ġimport": 1656,
      "Ġpur": 1657,
      "Ġchange": 1658,
      "Ġsave": 1659,
      "ried": 1660,
      "Ġspoil": 1661,
      "Ġ....": 1662,
      "Ġexperience": 1663,
      "Ġdocument": 1664,
      "Ġhilarious": 1665,
      "Ġlar": 1666,
      "let": 1667,
      "Ġmove": 1668,
      "Ġplan": 1669,
      "Ġimm": 1670,
      "Ġexact": 1671,
      "Ġtrans": 1672,
      "Ġquestion": 1673,
      "Ġra": 1674,
      "Ġbehind": 1675,
      "Ġmichael": 1676,
      "Ġbody": 1677,
      "Ġmyster": 1678,
      "uc": 1679,
      "Ġcity": 1680,
      "etic": 1681,
      "Ġhorrible": 1682,
      "eter": 1683,
      "Ġand": 1684,
      "enty": 1685,
      "Ġhistory": 1686,
      "Ġhell": 1687,
      "Ġspace": 1688,
      "Ġgroup": 1689,
      "Ġ6": 1690,
      "Ġage": 1691,
      "rif": 1692,
      "ution": 1693,
      "Ġcareer": 1694,
      "Ġcur": 1695,
      "orge": 1696,
      "Ġannoy": 1697,
      "sp": 1698,
      "Ġcinemat": 1699,
      "oss": 1700,
      "ris": 1701,
      "Ġfig": 1702,
      "Ġger": 1703,
      "Ġgun": 1704,
      "Ġprom": 1705,
      "Ġtheme": 1706,
      "Ġsle": 1707,
      "Ġcart": 1708,
      "Ġpick": 1709,
      "Ġtwist": 1710,
      "Ġhighly": 1711,
      "Ġsoon": 1712,
      "Ġpot": 1713,
      "Ġgar": 1714,
      "Ġaff": 1715,
      "Ġhot": 1716,
      "Ġvoice": 1717,
      "Ġtoday": 1718,
      "Ġol": 1719,
      "itive": 1720,
      "how": 1721,
      "ik": 1722,
      "Ġwood": 1723,
      "Ġorder": 1724,
      "Ġdog": 1725,
      "Ġthank": 1726,
      "Ġoverall": 1727,
      "imes": 1728,
      "osp": 1729,
      "Ġmajor": 1730,
      "Ġsol": 1731,
      "urb": 1732,
      "Ġlevel": 1733,
      "Ġ..": 1734,
      "ax": 1735,
      "Ġcult": 1736,
      "where": 1737,
      "iest": 1738,
      "Ġdirected": 1739,
      "onest": 1740,
      "using": 1741,
      "Ġtechn": 1742,
      "Ġzomb": 1743,
      "Ġelement": 1744,
      "Ġdespite": 1745,
      "Ġetc": 1746,
      "Ġcontin": 1747,
      "Ġincred": 1748,
      "Ġdecent": 1749,
      "Ġunfortunately": 1750,
      "Ġmad": 1751,
      "Ġcool": 1752,
      "any": 1753,
      "Ġstre": 1754,
      "Ġwish": 1755,
      "elling": 1756,
      "Ġcrap": 1757,
      "by": 1758,
      "Ġdaughter": 1759,
      "astic": 1760,
      "Ġjam": 1761,
      "Ġprem": 1762,
      "Ġtele": 1763,
      "iculous": 1764,
      "bel": 1765,
      "vable": 1766,
      "Ġheard": 1767,
      "Ġtom": 1768,
      "Ġleg": 1769,
      "Ġbus": 1770,
      "Ġscore": 1771,
      "Ġthinking": 1772,
      "Ġhappens": 1773,
      "Ġsituation": 1774,
      "oul": 1775,
      "Ġrating": 1776,
      "Ġchance": 1777,
      "Ġeffort": 1778,
      "gy": 1779,
      "off": 1780,
      "Ġtre": 1781,
      "Ġhold": 1782,
      "Ġvict": 1783,
      "ume": 1784,
      "Ġdesc": 1785,
      "Ġreturn": 1786,
      "iet": 1787,
      "Ġsometimes": 1788,
      "Ġobviously": 1789,
      "ii": 1790,
      "Ġpay": 1791,
      "Ġunc": 1792,
      "iving": 1793,
      "Ġdocumentary": 1794,
      "band": 1795,
      "Ġtook": 1796,
      "arr": 1797,
      "Ġland": 1798,
      "Ġhear": 1799,
      "Ġclich": 1800,
      "ino": 1801,
      "Ġmet": 1802,
      "Ġknown": 1803,
      "ctor": 1804,
      "Ġleave": 1805,
      "Ġkilled": 1806,
      "Ġzombie": 1807,
      "ipp": 1808,
      "ok": 1809,
      "Ġsold": 1810,
      "ral": 1811,
      "Ġinvolved": 1812,
      "res": 1813,
      "Ġgore": 1814,
      "Ġshown": 1815,
      "aged": 1816,
      "Ġago": 1817,
      "Ġmill": 1818,
      "Ġoffer": 1819,
      "Ġbrit": 1820,
      "ific": 1821,
      "Ġrobert": 1822,
      "Ġimportant": 1823,
      "Ġfire": 1824,
      "rench": 1825,
      "Ġreleased": 1826,
      "Ġvalue": 1827,
      "Ġridiculous": 1828,
      "tra": 1829,
      "Ġfour": 1830,
      "Ġbab": 1831,
      "Ġroom": 1832,
      "Ġacross": 1833,
      "Ġ198": 1834,
      "Ġpossible": 1835,
      "Ġsuspense": 1836,
      "body": 1837,
      "Ġsam": 1838,
      "amed": 1839,
      "Ġdeep": 1840,
      "Ġtheater": 1841,
      "Ġextremely": 1842,
      "Ġten": 1843,
      "rib": 1844,
      "antic": 1845,
      "Ġcountry": 1846,
      "Ġfut": 1847,
      "Ġtold": 1848,
      "Ġesc": 1849,
      "Ġfemale": 1850,
      "Ġstraight": 1851,
      "Ġmel": 1852,
      "Ġtaken": 1853,
      "Ġair": 1854,
      "usband": 1855,
      "ause": 1856,
      "Ġparticularly": 1857,
      "Ġnorm": 1858,
      "ising": 1859,
      "key": 1860,
      "Ġopp": 1861,
      "Ġfrank": 1862,
      "Ġmonster": 1863,
      "maker": 1864,
      "Ġconst": 1865,
      "Ġmusical": 1866,
      "Ġapparent": 1867,
      "Ġcinematography": 1868,
      "Ġlady": 1869,
      "Ġnon": 1870,
      "Ġcamp": 1871,
      "bt": 1872,
      "ged": 1873,
      "new": 1874,
      "Ġhappened": 1875,
      "zy": 1876,
      "Ġhonest": 1877,
      "oph": 1878,
      "Ġcoming": 1879,
      "Ġconvin": 1880,
      "Ġphot": 1881,
      "Ġexactly": 1882,
      "Ġbey": 1883,
      "lin": 1884,
      "ival": 1885,
      "Ġseriously": 1886,
      "Ġpredict": 1887,
      "ield": 1888,
      "Ġliving": 1889,
      "ellig": 1890,
      "Ġprot": 1891,
      "Ġteam": 1892,
      "Ġstrange": 1893,
      "Ġswe": 1894,
      "ior": 1895,
      "iety": 1896,
      "rodu": 1897,
      "Ġsubject": 1898,
      "Ġhusband": 1899,
      "Ġincluding": 1900,
      "Ġhuge": 1901,
      "Ġbeyond": 1902,
      "inion": 1903,
      "Ġgold": 1904,
      "Ġhy": 1905,
      "Ġno": 1906,
      "Ġstep": 1907,
      "Ġalone": 1908,
      "Ġsum": 1909,
      "day": 1910,
      "Ġgh": 1911,
      "fess": 1912,
      "Ġdiscover": 1913,
      "Ġer": 1914,
      "arch": 1915,
      "ended": 1916,
      "owing": 1917,
      "Ġseason": 1918,
      "Ġvar": 1919,
      "Ġcartoon": 1920,
      "Ġtreat": 1921,
      "Ġlaw": 1922,
      "Ġdest": 1923,
      "Ġcheck": 1924,
      "Ġearth": 1925,
      "Ġtaking": 1926,
      "Ġopinion": 1927,
      "ox": 1928,
      "Ġcover": 1929,
      "ential": 1930,
      "Ġforget": 1931,
      "Ġcontr": 1932,
      "Ġsomewhat": 1933,
      "gle": 1934,
      "to": 1935,
      "Ġfast": 1936,
      "Ġanyway": 1937,
      "Ġsimple": 1938,
      "Ġpaul": 1939,
      "Ġbatt": 1940,
      "iment": 1941,
      "utter": 1942,
      "Ġsingle": 1943,
      "ground": 1944,
      "Ġsym": 1945,
      "Ġsister": 1946,
      "Ġnone": 1947,
      "Ġresult": 1948,
      "Ġlou": 1949,
      "there": 1950,
      "vision": 1951,
      "Ġsent": 1952,
      "Ġequ": 1953,
      "ational": 1954,
      "dern": 1955,
      "side": 1956,
      "Ġsor": 1957,
      "Ġau": 1958,
      "Ġquick": 1959,
      "Ġsaying": 1960,
      "Ġbreak": 1961,
      "Ġdavid": 1962,
      "Ġcat": 1963,
      "Ġcomic": 1964,
      "Ġnear": 1965,
      "Ġlooked": 1966,
      "ostly": 1967,
      "Ġreality": 1968,
      "Ġsequel": 1969,
      "Ġopening": 1970,
      "ec": 1971,
      "ina": 1972,
      "oward": 1973,
      "unt": 1974,
      "Ġshock": 1975,
      "ury": 1976,
      "Ġstarted": 1977,
      "iddle": 1978,
      "Ġvillain": 1979,
      "br": 1980,
      "ma": 1981,
      "oe": 1982,
      "pical": 1983,
      "itting": 1984,
      "Ġwhose": 1985,
      "Ġamong": 1986,
      "Ġusually": 1987,
      "Ġturned": 1988,
      "Ġenglish": 1989,
      "sw": 1990,
      "Ġwater": 1991,
      "otic": 1992,
      "Ġannoying": 1993,
      "Ġhate": 1994,
      "Ġusual": 1995,
      "Ġintellig": 1996,
      "fil": 1997,
      "ager": 1998,
      "Ġavoid": 1999,
      "Ġstri": 2000,
      "oth": 2001,
      "Ġtale": 2002,
      "Ġwalk": 2003,
      "Ġrichard": 2004,
      "Ġmart": 2005,
      "Ġsimilar": 2006,
      "Ġviolence": 2007,
      "wise": 2008,
      "Ġmember": 2009,
      "Ġha": 2010,
      "urt": 2011,
      "Ġosc": 2012,
      "Ġcheap": 2013,
      "Ġcolor": 2014,
      "Ġhop": 2015,
      "Ġpolice": 2016,
      "for": 2017,
      "ned": 2018,
      "Ġham": 2019,
      "Ġkn": 2020,
      "Ġcritic": 2021,
      "Ġapart": 2022,
      "Ġmessage": 2023,
      "Ġscary": 2024,
      "Ġodd": 2025,
      "Ġpos": 2026,
      "Ġ197": 2027,
      "een": 2028,
      "Ġproducer": 2029,
      "Ġsecret": 2030,
      "Ġentertainment": 2031,
      "Ġoscar": 2032,
      "antly": 2033,
      "Ġmanage": 2034,
      "Ġspir": 2035,
      "Ġbasically": 2036,
      "Ġsoldier": 2037,
      "Ġmostly": 2038,
      "Ġknew": 2039,
      "usion": 2040,
      "Ġdeliver": 2041,
      "Ġfigure": 2042,
      "back": 2043,
      "some": 2044,
      "ension": 2045,
      "Ġjames": 2046,
      "Ġpub": 2047,
      "Ġfilmmaker": 2048,
      "Ġsug": 2049,
      "Ġgrand": 2050,
      "Ġsubt": 2051,
      "bar": 2052,
      "Ġpull": 2053,
      "Ġrespect": 2054,
      "Ġask": 2055,
      "Ġsurprise": 2056,
      "Ġplease": 2057,
      "lic": 2058,
      "Ġpure": 2059,
      "Ġjer": 2060,
      "Ġweek": 2061,
      "Ġthriller": 2062,
      "co": 2063,
      "orable": 2064,
      "Ġtrain": 2065,
      "Ġsilly": 2066,
      "Ġvir": 2067,
      "Ġappears": 2068,
      "Ġmodern": 2069,
      "rew": 2070,
      "Ġparent": 2071,
      "Ġstate": 2072,
      "Ġrelease": 2073,
      "ĠclichÃ©": 2074,
      "Ġnarr": 2075,
      "Ġking": 2076,
      "Ġdoctor": 2077,
      "ball": 2078,
      "wr": 2079,
      "read": 2080,
      "str": 2081,
      "ished": 2082,
      "Ġremind": 2083,
      "Ġdraw": 2084,
      "Ġinn": 2085,
      "iction": 2086,
      "Ġdisappointed": 2087,
      "ove": 2088,
      "enture": 2089,
      "Ġsuck": 2090,
      "Ġbattle": 2091,
      "de": 2092,
      "view": 2093,
      "orth": 2094,
      "Ġdam": 2095,
      "ffic": 2096,
      "aced": 2097,
      "Ġtalking": 2098,
      "iod": 2099,
      "Ġid": 2100,
      "Ġmater": 2101,
      "Ġvamp": 2102,
      "Ġaspect": 2103,
      "Ġextra": 2104,
      "Ġvisual": 2105,
      "head": 2106,
      "Ġult": 2107,
      "Ġmist": 2108,
      "Ġfrench": 2109,
      "Ġrunning": 2110,
      "Ġdetail": 2111,
      "Ġwestern": 2112,
      "ram": 2113,
      "Ġ$": 2114,
      "Ġmiddle": 2115,
      "Ġfoc": 2116,
      "Ġ199": 2117,
      "Ġforg": 2118,
      "Ġruss": 2119,
      "Ġsoc": 2120,
      "Ġexist": 2121,
      "Ġdrug": 2122,
      "illiam": 2123,
      "Ġpleas": 2124,
      "Ġmer": 2125,
      "Ġdie": 2126,
      "Ġdumb": 2127,
      "Ġtruth": 2128,
      "Ġ80": 2129,
      "Ġsupporting": 2130,
      "piece": 2131,
      "Ġtoward": 2132,
      "ett": 2133,
      "oof": 2134,
      "Ġcomb": 2135,
      "Ġbuild": 2136,
      "Ġgerman": 2137,
      "Ġbill": 2138,
      "oose": 2139,
      "asy": 2140,
      "Ġattention": 2141,
      "Ġhappy": 2142,
      "film": 2143,
      "eed": 2144,
      "Ġsign": 2145,
      "Ġcry": 2146,
      "Ġband": 2147,
      "Ġ20": 2148,
      "Ġcrime": 2149,
      "Ġallow": 2150,
      "Ġlocal": 2151,
      "Ġsuggest": 2152,
      "Ġmaterial": 2153,
      "Ġmix": 2154,
      "Ġperiod": 2155,
      "Ġspend": 2156,
      "Ġbox": 2157,
      "Ġtelevision": 2158,
      "Ġfive": 2159,
      "Ġjud": 2160,
      "Ġcompl": 2161,
      "Ġweak": 2162,
      "Ġenjoyable": 2163,
      "Ġiss": 2164,
      "emy": 2165,
      "Ġupon": 2166,
      "track": 2167,
      "Ġpredictable": 2168,
      "Ġill": 2169,
      "Ġfear": 2170,
      "Ġpath": 2171,
      "veal": 2172,
      "Ġcla": 2173,
      "Ġbuy": 2174,
      "Ġstreet": 2175,
      "Ġdown": 2176,
      "ital": 2177,
      "iel": 2178,
      "Ġreveal": 2179,
      "asc": 2180,
      "ously": 2181,
      "Ġattack": 2182,
      "Ġforce": 2183,
      "iff": 2184,
      "Ġviewing": 2185,
      "Ġromantic": 2186,
      "Ġdu": 2187,
      "Ġdue": 2188,
      "Ġshowing": 2189,
      "Ġsetting": 2190,
      "Ġsun": 2191,
      "reci": 2192,
      "Ġtim": 2193,
      "Ġjust": 2194,
      "arely": 2195,
      "Ġbrought": 2196,
      "Ġmystery": 2197,
      "Ġ.....": 2198,
      "Ġwhether": 2199,
      "Ġtrag": 2200,
      "Ġspoiler": 2201,
      "Ġfree": 2202,
      "Ġgang": 2203,
      "Ġsoundtrack": 2204,
      "Ġclearly": 2205,
      "Ġdoubt": 2206,
      "Ġfuture": 2207,
      "bor": 2208,
      "light": 2209,
      "well": 2210,
      "Ġwind": 2211,
      "Ġbritish": 2212,
      "su": 2213,
      "real": 2214,
      "Ġfly": 2215,
      "Ġstage": 2216,
      "Ġdecided": 2217,
      "Ġeasily": 2218,
      "ius": 2219,
      "mosp": 2220,
      "path": 2221,
      "Ġlo": 2222,
      "Ġbother": 2223,
      "Ġpost": 2224,
      "Ġflaw": 2225,
      "Ġsurv": 2226,
      "Ġclear": 2227,
      "Ġwait": 2228,
      "Ġwear": 2229,
      "Ġwilliam": 2230,
      "Ġtried": 2231,
      "Ġanimation": 2232,
      "Ġvampire": 2233,
      "Ġshame": 2234,
      "Ġscen": 2235,
      "Ġparticular": 2236,
      "came": 2237,
      "Ġmil": 2238,
      "Ġcan": 2239,
      "Ġcatch": 2240,
      "Ġlee": 2241,
      "Ġtrou": 2242,
      "Ġadult": 2243,
      "Ġnote": 2244,
      "Ġwithin": 2245,
      "Ġeasy": 2246,
      "Ġatmosp": 2247,
      "Ġsorry": 2248,
      "ike": 2249,
      "we": 2250,
      "Ġve": 2251,
      "itical": 2252,
      "Ġjap": 2253,
      "Ġvan": 2254,
      "Ġterm": 2255,
      "Ġexplain": 2256,
      "Ġgeorge": 2257,
      "Ġdull": 2258,
      "Ġprevious": 2259,
      "Ġweird": 2260,
      "Ġapparently": 2261,
      "cent": 2262,
      "work": 2263,
      "ald": 2264,
      "Ġlim": 2265,
      "ceed": 2266,
      "opp": 2267,
      "Ġproject": 2268,
      "Ġprofess": 2269,
      "Ġslight": 2270,
      "fer": 2271,
      "row": 2272,
      "Ġadapt": 2273,
      "Ġmeaning": 2274,
      "Ġsuperb": 2275,
      "Ġemotional": 2276,
      "Ġpremise": 2277,
      "Ġbaby": 2278,
      "Ġissue": 2279,
      "ula": 2280,
      "Ġimage": 2281,
      "Ġaccept": 2282,
      "aving": 2283,
      "Ġfront": 2284,
      "Ġsexual": 2285,
      "Ġclever": 2286,
      "Ġanimal": 2287,
      "Ġexpress": 2288,
      "db": 2289,
      "rated": 2290,
      "Ġmot": 2291,
      "Ġcu": 2292,
      "ili": 2293,
      "Ġeur": 2294,
      "Ġren": 2295,
      "ague": 2296,
      "gth": 2297,
      "ky": 2298,
      "Ġmale": 2299,
      "ening": 2300,
      "Ġdance": 2301,
      "Ġactual": 2302,
      "Ġtar": 2303,
      "Ġfilmed": 2304,
      "Ġkilling": 2305,
      "Ġcir": 2306,
      "onic": 2307,
      "ander": 2308,
      "esome": 2309,
      "Ġital": 2310,
      "Ġromance": 2311,
      "Ġfell": 2312,
      "ana": 2313,
      "Ġben": 2314,
      "aster": 2315,
      "Ġworking": 2316,
      "Ġinsp": 2317,
      "bert": 2318,
      "ging": 2319,
      "rit": 2320,
      "Ġver": 2321,
      "ins": 2322,
      "Ġbunch": 2323,
      "Ġaver": 2324,
      "Ġna": 2325,
      "esy": 2326,
      "Ġteach": 2327,
      "Ġappreci": 2328,
      "Ġdrag": 2329,
      "Ġgeneral": 2330,
      "Ġauth": 2331,
      "Ġwild": 2332,
      "Ġintrodu": 2333,
      "Ġsomehow": 2334,
      "Ġstandard": 2335,
      "Ġfit": 2336,
      "Ġpri": 2337,
      "Ġwill": 2338,
      "vest": 2339,
      "Ġbecame": 2340,
      "Ġnearly": 2341,
      "Ġediting": 2342,
      "Ġrefer": 2343,
      "Ġarm": 2344,
      "lier": 2345,
      "Ġcrew": 2346,
      "Ġisland": 2347,
      "Ġcirc": 2348,
      "Ġbur": 2349,
      "Ġgiving": 2350,
      "Ġcopy": 2351,
      "go": 2352,
      "rop": 2353,
      "Ġprof": 2354,
      "Ġultim": 2355,
      "Ġcal": 2356,
      "Ġwast": 2357,
      "Ġgone": 2358,
      "action": 2359,
      "Ġsurprised": 2360,
      "Ġjim": 2361,
      "Ġimdb": 2362,
      "Ġpoorly": 2363,
      "Ġfantastic": 2364,
      "Ġspirit": 2365,
      "fficult": 2366,
      "ser": 2367,
      "Ġmid": 2368,
      "Ġsuffer": 2369,
      "Ġconne": 2370,
      "Ġbackground": 2371,
      "Ġforced": 2372,
      "Ġkept": 2373,
      "Ġcause": 2374,
      "Ġburn": 2375,
      "Ġnow": 2376,
      "Ġmoving": 2377,
      "olf": 2378,
      "atest": 2379,
      "first": 2380,
      "Ġsoul": 2381,
      "Ġmat": 2382,
      "Ġlame": 2383,
      "Ġnature": 2384,
      "Ġalien": 2385,
      "Ġdifficult": 2386,
      "ogn": 2387,
      "Ġmasterpiece": 2388,
      "Ġmemorable": 2389,
      "Ġsociety": 2390,
      "Ġrad": 2391,
      "Ġplain": 2392,
      "Ġindeed": 2393,
      "Ġspeak": 2394,
      "Ġvictim": 2395,
      "ze": 2396,
      "Ġcap": 2397,
      "Ġful": 2398,
      "Ġnatur": 2399,
      "atever": 2400,
      "Ġusing": 2401,
      "Ġearlier": 2402,
      "Ġgreatest": 2403,
      "omin": 2404,
      "Ġchang": 2405,
      "Ġeffective": 2406,
      "Ġtheat": 2407,
      "Ġeventually": 2408,
      "Ġsweet": 2409,
      "watch": 2410,
      "Ġmedi": 2411,
      "Ġliter": 2412,
      "ats": 2413,
      "Ġjul": 2414,
      "Ġtypical": 2415,
      "Ġstudent": 2416,
      "Ġbrain": 2417,
      "Ġlarge": 2418,
      "Ġbusiness": 2419,
      "ess": 2420,
      "time": 2421,
      "Ġhair": 2422,
      "Ġplenty": 2423,
      "Ġdesign": 2424,
      "Ġescape": 2425,
      "ted": 2426,
      "Ġclim": 2427,
      "ubb": 2428,
      "Ġghost": 2429,
      "Ġpark": 2430,
      "elle": 2431,
      "Ġfamous": 2432,
      "Ġbelievable": 2433,
      "ibility": 2434,
      "Ġleaf": 2435,
      "Ġstoryline": 2436,
      "Ġtrack": 2437,
      "Ġcarry": 2438,
      "Ġreading": 2439,
      "Ġbeauty": 2440,
      "bl": 2441,
      "Ġbut": 2442,
      "cious": 2443,
      "Ġotherwise": 2444,
      "Ġadventure": 2445,
      "Ġaverage": 2446,
      "ored": 2447,
      "Ġmod": 2448,
      "Ġpeter": 2449,
      "Ġgay": 2450,
      "agon": 2451,
      "Ġcontinu": 2452,
      "mas": 2453,
      "oty": 2454,
      "Ġmass": 2455,
      "Ġjoe": 2456,
      "Ġ195": 2457,
      "Ġforward": 2458,
      "Ġutter": 2459,
      "aling": 2460,
      "Ġunlike": 2461,
      "Ġconcept": 2462,
      "Ġcheesy": 2463,
      "Ġfran": 2464,
      "Ġappro": 2465,
      "Ġfantasy": 2466,
      "know": 2467,
      "Ġwall": 2468,
      "Ġhom": 2469,
      "Ġstere": 2470,
      "Ġwhatever": 2471,
      "Ġstrug": 2472,
      "Ġinterested": 2473,
      "Ġdramatic": 2474,
      "Ġstudio": 2475,
      "Ġimagine": 2476,
      "Ġfootage": 2477,
      "Ġunique": 2478,
      "Ġpublic": 2479,
      "Ġpu": 2480,
      "Ġwit": 2481,
      "Ġdress": 2482,
      "ung": 2483,
      "Ġthird": 2484,
      "dden": 2485,
      "Ġpotential": 2486,
      "Ġpal": 2487,
      "Ġjump": 2488,
      "ounter": 2489,
      "Ġless": 2490,
      "Ġ194": 2491,
      "Ġrevol": 2492,
      "par": 2493,
      "Ġfasc": 2494,
      "Ġnamed": 2495,
      "Ġchoice": 2496,
      "Ġdisney": 2497,
      "Ġworked": 2498,
      "Ġexpected": 2499,
      "Ġpossibly": 2500,
      "annel": 2501,
      "ially": 2502,
      "illy": 2503,
      "cted": 2504,
      "Ġyork": 2505,
      "Ġcreep": 2506,
      "Ġtaste": 2507,
      "Ġrand": 2508,
      "Ġroll": 2509,
      "Ġchannel": 2510,
      "Ġkick": 2511,
      "Ġsudden": 2512,
      "Ġflash": 2513,
      "ived": 2514,
      "Ġpowerful": 2515,
      "Ġfairly": 2516,
      "Ġatmosphere": 2517,
      "Ġpen": 2518,
      "edic": 2519,
      "Ġden": 2520,
      "Ġaust": 2521,
      "Ġstat": 2522,
      "Ġ196": 2523,
      "Ġaccent": 2524,
      "eth": 2525,
      "Ġansw": 2526,
      "aked": 2527,
      "Ġresp": 2528,
      "Ġneeded": 2529,
      "por": 2530,
      "ille": 2531,
      "Ġscreenplay": 2532,
      "while": 2533,
      "Ġregard": 2534,
      "Ġdemon": 2535,
      "Ġoccas": 2536,
      "cast": 2537,
      "of": 2538,
      "Ġjane": 2539,
      "Ġplus": 2540,
      "Ġdirecting": 2541,
      "Ġphil": 2542,
      "Ġamerica": 2543,
      "rific": 2544,
      "lu": 2545,
      "rent": 2546,
      "Ġrepe": 2547,
      "Ġthere": 2548,
      "Ġremake": 2549,
      "Ġtrail": 2550,
      "Ġrecogn": 2551,
      "Ġinside": 2552,
      "Ġanswer": 2553,
      "ding": 2554,
      "Ġhall": 2555,
      "Ġsci": 2556,
      "Ġwrite": 2557,
      "anese": 2558,
      "Ġadmit": 2559,
      "Ġstereoty": 2560,
      "fi": 2561,
      "gan": 2562,
      "oor": 2563,
      "Ġfred": 2564,
      "Ġlang": 2565,
      "Ġstick": 2566,
      "Ġexec": 2567,
      "Ġ15": 2568,
      "itty": 2569,
      "Ġfunn": 2570,
      "Ġdisturb": 2571,
      "ology": 2572,
      "Ġsleep": 2573,
      "Ġmillion": 2574,
      "die": 2575,
      "Ġign": 2576,
      "Ġsick": 2577,
      "Ġfat": 2578,
      "olk": 2579,
      "rass": 2580,
      "Ġjour": 2581,
      "Ġscream": 2582,
      "Ġbeat": 2583,
      "Ġconcer": 2584,
      "Ġtrad": 2585,
      "ivid": 2586,
      "Ġcru": 2587,
      "Ġmissing": 2588,
      "Ġdoor": 2589,
      "Ġcostume": 2590,
      "ee": 2591,
      "Ġmc": 2592,
      "Ġlu": 2593,
      "Ġmach": 2594,
      "Ġrealistic": 2595,
      "Ġdevelopment": 2596,
      "Ġquickly": 2597,
      "look": 2598,
      "Ġmatch": 2599,
      "Ġrese": 2600,
      "und": 2601,
      "Ġunless": 2602,
      "Ġenc": 2603,
      "Ġlocation": 2604,
      "belie": 2605,
      "Ġmissed": 2606,
      "Ġportrayal": 2607,
      "Ġtowards": 2608,
      "Ġfle": 2609,
      "Ġhitch": 2610,
      "ending": 2611,
      "tern": 2612,
      "Ġrealize": 2613,
      "Ġgenius": 2614,
      "Ġidi": 2615,
      "more": 2616,
      "rest": 2617,
      "Ġporn": 2618,
      "Ġber": 2619,
      "Ġbed": 2620,
      "Ġdanger": 2621,
      "itation": 2622,
      "Ġstore": 2623,
      "Ġbadly": 2624,
      "Ġrecord": 2625,
      "Ġcreate": 2626,
      "Ġdeserves": 2627,
      "Ġsouth": 2628,
      "Ġest": 2629,
      "acing": 2630,
      "Ġbrings": 2631,
      "Ġmemory": 2632,
      "Ġfocus": 2633,
      "oke": 2634,
      "Ġinform": 2635,
      "Ġgirlfriend": 2636,
      "Ġbored": 2637,
      "Ġangel": 2638,
      "Ġpositive": 2639,
      "Ġmanages": 2640,
      "``": 2641,
      "di": 2642,
      "Ġsix": 2643,
      "Ġbal": 2644,
      "Ġda": 2645,
      "Ġshe": 2646,
      "Ġblue": 2647,
      "Ġamount": 2648,
      "Ġtrash": 2649,
      "Ġsens": 2650,
      "Ġlie": 2651,
      "Ġbat": 2652,
      "Ġthrow": 2653,
      "cessary": 2654,
      "na": 2655,
      "pose": 2656,
      "Ġident": 2657,
      "asher": 2658,
      "Ġye": 2659,
      "Ġ193": 2660,
      "Ġindian": 2661,
      "Ġtalented": 2662,
      "Ġbroad": 2663,
      "boy": 2664,
      "Ġx": 2665,
      "Ġcute": 2666,
      "Ġtone": 2667,
      "Ġtest": 2668,
      "Ġlen": 2669,
      "Ġluck": 2670,
      "rage": 2671,
      "Ġuns": 2672,
      "Ġprison": 2673,
      "come": 2674,
      "Ġparty": 2675,
      "Ġcommun": 2676,
      "Ġapproach": 2677,
      "gress": 2678,
      "inary": 2679,
      "Ġsal": 2680,
      "Ġmere": 2681,
      "Ġcold": 2682,
      "Ġhen": 2683,
      "Ġfaith": 2684,
      "Ġfollowing": 2685,
      "idden": 2686,
      "Ġ70": 2687,
      "'s": 2688,
      "Ġdar": 2689,
      "Ġgreen": 2690,
      "Ġcommon": 2691,
      "Ġportrayed": 2692,
      "iliar": 2693,
      "Ġsand": 2694,
      "Ġrate": 2695,
      "unning": 2696,
      "Ġalex": 2697,
      "Ġmaker": 2698,
      "berg": 2699,
      "Ġphys": 2700,
      "Ġlaughing": 2701,
      "Ġpersonal": 2702,
      "Ġoffic": 2703,
      "Ġtrouble": 2704,
      "Ġjapanese": 2705,
      "isf": 2706,
      "Ġscott": 2707,
      "Ġlover": 2708,
      "Ġheav": 2709,
      "lessly": 2710,
      "Ġintri": 2711,
      "Ġhardly": 2712,
      "Ġleading": 2713,
      "standing": 2714,
      "Ġcreature": 2715,
      "Ġfu": 2716,
      "Ġdin": 2717,
      "roy": 2718,
      "Ġdepth": 2719,
      "Ġdancing": 2720,
      "Ġokay": 2721,
      "Ġmistake": 2722,
      "Ġcross": 2723,
      "Ġlos": 2724,
      "Ġbomb": 2725,
      "Ġrequ": 2726,
      "Ġprin": 2727,
      "Ġmeant": 2728,
      "comp": 2729,
      "Ġtravel": 2730,
      "Ġaward": 2731,
      "Ġ30": 2732,
      "Ġhistor": 2733,
      "Ġon": 2734,
      "Ġbreat": 2735,
      "Ġdoll": 2736,
      "Ġcrazy": 2737,
      "Ġchristmas": 2738,
      "Ġmentioned": 2739,
      "Ġvarious": 2740,
      "Ġwasted": 2741,
      "lie": 2742,
      "Ġacted": 2743,
      "Ġattract": 2744,
      "Ġtelling": 2745,
      "Ġartist": 2746,
      "Ġdeli": 2747,
      "Ġsocial": 2748,
      "Ġfighting": 2749,
      "saw": 2750,
      "iny": 2751,
      "Ġment": 2752,
      "Ġlog": 2753,
      "Ġess": 2754,
      "chie": 2755,
      "Ġchase": 2756,
      "Ġembar": 2757,
      "Ġcompar": 2758,
      "Ġperfectly": 2759,
      "Ġentirely": 2760,
      "Ġsympath": 2761,
      "Ġitalian": 2762,
      "hood": 2763,
      "spe": 2764,
      "Ġtort": 2765,
      "che": 2766,
      "venge": 2767,
      "Ġmanner": 2768,
      "Ġcasting": 2769,
      "Ġcreated": 2770,
      "Ġfake": 2771,
      "Ġtension": 2772,
      "its": 2773,
      "imp": 2774,
      "Ġplayer": 2775,
      "Ġflat": 2776,
      "Ġslasher": 2777,
      "ensive": 2778,
      "Ġconsist": 2779,
      "Ġdelight": 2780,
      "Ġpolitical": 2781,
      "Ġinnoc": 2782,
      "Ġeurope": 2783,
      "not": 2784,
      "ero": 2785,
      "Ġball": 2786,
      "Ġbiz": 2787,
      "ones": 2788,
      "Ġunbelie": 2789,
      "Ġroad": 2790,
      "Ġdesper": 2791,
      "Ġrecently": 2792,
      "Ġappearance": 2793,
      "Ġfails": 2794,
      "Ġimmedi": 2795,
      "Ġincredibly": 2796,
      "ift": 2797,
      "Ġdad": 2798,
      "ette": 2799,
      "Ġram": 2800,
      "Ġscient": 2801,
      "Ġconv": 2802,
      "Ġ100": 2803,
      "Ġsmart": 2804,
      "Ġterror": 2805,
      "Ġexpecting": 2806,
      "Ġincredible": 2807,
      "Ġlegend": 2808,
      "Ġsubtle": 2809,
      "Ġembarrass": 2810,
      "bage": 2811,
      "ered": 2812,
      "Ġexciting": 2813,
      "Ġcollege": 2814,
      "Ġtend": 2815,
      "Ġnud": 2816,
      "ishing": 2817,
      "Ġring": 2818,
      "Ġspot": 2819,
      "Ġended": 2820,
      "aging": 2821,
      "ization": 2822,
      "Ġpointless": 2823,
      "Ġbelief": 2824,
      "Ġtotal": 2825,
      "Ġ90": 2826,
      "Ġsuccessful": 2827,
      "Ġolder": 2828,
      "Ġintelligent": 2829,
      "Ġauthor": 2830,
      "Ġera": 2831,
      "Ġmood": 2832,
      "arre": 2833,
      "Ġdy": 2834,
      "ained": 2835,
      "Ġamusing": 2836,
      "Ġground": 2837,
      "Ġlonger": 2838,
      "Ġbasic": 2839,
      "Ġgiant": 2840,
      "ashion": 2841,
      "Ġsinging": 2842,
      "Ġdrive": 2843,
      "Ġpurpose": 2844,
      "resent": 2845,
      "lict": 2846,
      "Ġi": 2847,
      "Ġpace": 2848,
      "Ġlose": 2849,
      "irty": 2850,
      "Ġdied": 2851,
      "Ġbrut": 2852,
      "Ġimpr": 2853,
      "Ġcompany": 2854,
      "inating": 2855,
      "Ġsearch": 2856,
      "Ġine": 2857,
      "Ġscare": 2858,
      "Ġspl": 2859,
      "Ġwrote": 2860,
      "Ġagree": 2861,
      "Ġanti": 2862,
      "Ġnormal": 2863,
      "Ġconvincing": 2864,
      "Ġcontrol": 2865,
      "Ġlangu": 2866,
      "direct": 2867,
      "la": 2868,
      "elly": 2869,
      "Ġchick": 2870,
      "urch": 2871,
      "Ġintern": 2872,
      "Ġcompared": 2873,
      "Ġadaptation": 2874,
      "Ġmir": 2875,
      "Ġtun": 2876,
      "Ġdon": 2877,
      "Ġgri": 2878,
      "idence": 2879,
      "Ġchem": 2880,
      "Ġinvest": 2881,
      "Ġkey": 2882,
      "Ġoutside": 2883,
      "Ġskill": 2884,
      "eem": 2885,
      "Ġown": 2886,
      "Ġsqu": 2887,
      "Ġfolk": 2888,
      "Ġted": 2889,
      "Ġast": 2890,
      "Ġreach": 2891,
      "Ġray": 2892,
      "ask": 2893,
      "Ġunin": 2894,
      "Ġspent": 2895,
      "Ġnotice": 2896,
      "Ġremark": 2897,
      "Ġhumour": 2898,
      "Ġfamiliar": 2899,
      "Ġavail": 2900,
      "Ġafric": 2901,
      "Ġimpressive": 2902,
      "inc": 2903,
      "rap": 2904,
      "Ġmarried": 2905,
      "Ġoffice": 2906,
      "Ġsilent": 2907,
      "Ġpopular": 2908,
      "Ġslightly": 2909,
      "Ġnudity": 2910,
      "Ġcaught": 2911,
      "Ġbase": 2912,
      "Ġshake": 2913,
      "Ġscience": 2914,
      "allen": 2915,
      "Ġclos": 2916,
      "itted": 2917,
      "Ġexception": 2918,
      "rupt": 2919,
      "Ġshooting": 2920,
      "Ġgarbage": 2921,
      "Ġclaim": 2922,
      "yan": 2923,
      "Ġfest": 2924,
      "stance": 2925,
      "Ġrap": 2926,
      "Ġdisplay": 2927,
      "Ġcentury": 2928,
      "gi": 2929,
      "Ġ#": 2930,
      "Ġbott": 2931,
      "Ġrevenge": 2932,
      "Ġrip": 2933,
      "Ġleaving": 2934,
      "aine": 2935,
      "Ġamb": 2936,
      "Ġimpression": 2937,
      "Ġyeah": 2938,
      "Ġcoll": 2939,
      "ened": 2940,
      "Ġwitch": 2941,
      "urd": 2942,
      "aint": 2943,
      "Ġinterview": 2944,
      "Ġaccident": 2945,
      "Ġsolid": 2946,
      "Ġlanguage": 2947,
      "gen": 2948,
      "Ġtough": 2949,
      "Ġtear": 2950,
      "Ġbi": 2951,
      "Ġbul": 2952,
      "Ġgem": 2953,
      "rian": 2954,
      "istry": 2955,
      "Ġcontri": 2956,
      "agonist": 2957,
      "ura": 2958,
      "zz": 2959,
      "Ġmal": 2960,
      "Ġnob": 2961,
      "Ġkar": 2962,
      "uter": 2963,
      "Ġcharm": 2964,
      "Ġcompet": 2965,
      "Ġawesome": 2966,
      "Ġglad": 2967,
      "Ġdepict": 2968,
      "Ġfollows": 2969,
      "Ġtradition": 2970,
      "Ġcell": 2971,
      "Ġachie": 2972,
      "itude": 2973,
      "isingly": 2974,
      "Ġimposs": 2975,
      "Ġrecommended": 2976,
      "Ġformer": 2977,
      "Ġchristian": 2978,
      "Ġplanet": 2979,
      "bud": 2980,
      "uce": 2981,
      "war": 2982,
      "Ġmotion": 2983,
      "Ġfox": 2984,
      "Ġpack": 2985,
      "Ġgover": 2986,
      "oved": 2987,
      "Ġyounger": 2988,
      "Ġsadly": 2989,
      "Ġteenager": 2990,
      "Ġoccur": 2991,
      "Ġthanks": 2992,
      "Ġstruggle": 2993,
      "mar": 2994,
      "Ġstunning": 2995,
      "Ġfilled": 2996,
      "unny": 2997,
      "riage": 2998,
      "uted": 2999,
      "Ġdig": 3000,
      "Ġund": 3001,
      "ective": 3002,
      "acy": 3003,
      "Ġability": 3004,
      "Ġsomewhere": 3005,
      "Ġdecides": 3006,
      "Ġrelig": 3007,
      "Ġadded": 3008,
      "Ġjean": 3009,
      "Ġfailed": 3010,
      "Ġbizarre": 3011,
      "fore": 3012,
      "Ġpan": 3013,
      "Ġpet": 3014,
      "Ġbarely": 3015,
      "Ġrece": 3016,
      "oop": 3017,
      "Ġcond": 3018,
      "Ġcharles": 3019,
      "ified": 3020,
      "Ġtrip": 3021,
      "Ġconsidering": 3022,
      "Ġappreciate": 3023,
      "known": 3024,
      "con": 3025,
      "gment": 3026,
      "uss": 3027,
      "ining": 3028,
      "inger": 3029,
      "Ġrare": 3030,
      "Ġchallen": 3031,
      "Ġshar": 3032,
      "Ġalive": 3033,
      "aper": 3034,
      "Ġpersonality": 3035,
      "Ġsexy": 3036,
      "ribly": 3037,
      "Ġcreepy": 3038,
      "Ġspect": 3039,
      "Ġchurch": 3040,
      "room": 3041,
      "Ġminor": 3042,
      "Ġfinish": 3043,
      "Ġreviewer": 3044,
      "Ġii": 3045,
      "Ġare": 3046,
      "Ġhost": 3047,
      "Ġmanaged": 3048,
      "Ġarri": 3049,
      "Ġgenu": 3050,
      "sequ": 3051,
      "Ġsuit": 3052,
      "Ġener": 3053,
      "Ġbrief": 3054,
      "Ġdrunk": 3055,
      "Ġcomputer": 3056,
      "Ġexcuse": 3057,
      "Ġexplo": 3058,
      "Ġinvolving": 3059,
      "Ġirrit": 3060,
      "Ġbuilding": 3061,
      "Ġnowhere": 3062,
      "fort": 3063,
      "ki": 3064,
      "wart": 3065,
      "Ġsar": 3066,
      "Ġfashion": 3067,
      "Ġtony": 3068,
      "Ġlab": 3069,
      "Ġrain": 3070,
      "Ġthor": 3071,
      "Ġship": 3072,
      "Ġles": 3073,
      "Ġproduced": 3074,
      "Ġexpectation": 3075,
      "Ġfavour": 3076,
      "Ġrepresent": 3077,
      "Ġsatisf": 3078,
      "Ġculture": 3079,
      "Ġchemistry": 3080,
      "cock": 3081,
      "Ġing": 3082,
      "Ġsitting": 3083,
      "Ġfal": 3084,
      "Ġgag": 3085,
      "under": 3086,
      "Ġscar": 3087,
      "pped": 3088,
      "ify": 3089,
      "gram": 3090,
      "Ġcentral": 3091,
      "Ġpassion": 3092,
      "Ġdisturbing": 3093,
      "Ġimmediately": 3094,
      "Ġgovern": 3095,
      "ique": 3096,
      "Ġeast": 3097,
      "Ġran": 3098,
      "adow": 3099,
      "sess": 3100,
      "Ġindu": 3101,
      "Ġneg": 3102,
      "Ġgrow": 3103,
      "Ġbiggest": 3104,
      "Ġaside": 3105,
      "Ġrecent": 3106,
      "Ġaddition": 3107,
      "otten": 3108,
      "Ġcuri": 3109,
      "Ġtrailer": 3110,
      "Ġbreath": 3111,
      "Ġavailable": 3112,
      "Ġgenuine": 3113,
      "ele": 3114,
      "alth": 3115,
      "Ġhang": 3116,
      "Ġhole": 3117,
      "anda": 3118,
      "Ġbes": 3119,
      "appe": 3120,
      "Ġenter": 3121,
      "izing": 3122,
      "ondon": 3123,
      "Ġedge": 3124,
      "Ġboyfriend": 3125,
      "Ġconsidered": 3126,
      "Ġdouble": 3127,
      "Ġhurt": 3128,
      "Ġrepl": 3129,
      "Ġneigh": 3130,
      "Ġconcl": 3131,
      "Ġdecide": 3132,
      "Ġcomplex": 3133,
      "Ġepic": 3134,
      "Ġchanged": 3135,
      "Ġnobody": 3136,
      "Ġconclusion": 3137,
      "aur": 3138,
      "Ġcard": 3139,
      "arily": 3140,
      "Ġchris": 3141,
      "Ġju": 3142,
      "ashing": 3143,
      "Ġdiv": 3144,
      "Ġarmy": 3145,
      "Ġserv": 3146,
      "Ġcrim": 3147,
      "Ġsteve": 3148,
      "Ġredeem": 3149,
      "Ġcapture": 3150,
      "Ġjourney": 3151,
      "set": 3152,
      "Ġcand": 3153,
      "Ġpas": 3154,
      "Ġwel": 3155,
      "iring": 3156,
      "epend": 3157,
      "Ġappeal": 3158,
      "Ġoutstanding": 3159,
      "Ġanimated": 3160,
      "Ġgrace": 3161,
      "Ġmagn": 3162,
      "board": 3163,
      "Ġrussian": 3164,
      "Ġpathetic": 3165,
      "aff": 3166,
      "face": 3167,
      "uct": 3168,
      "chest": 3169,
      "olly": 3170,
      "Ġeverybody": 3171,
      "Ġdrink": 3172,
      "Ġindivid": 3173,
      "Ġhonestly": 3174,
      "Ġequally": 3175,
      "Ġreference": 3176,
      "budget": 3177,
      "ech": 3178,
      "Ġfiction": 3179,
      "Ġlondon": 3180,
      "ste": 3181,
      "ilt": 3182,
      "iced": 3183,
      "ella": 3184,
      "Ġbear": 3185,
      "Ġneither": 3186,
      "Ġstarring": 3187,
      "Ġsurprisingly": 3188,
      "Ġconflict": 3189,
      "Ġ50": 3190,
      "Ġloud": 3191,
      "Ġultimately": 3192,
      "Ġliterally": 3193,
      "Ġimpossible": 3194,
      "round": 3195,
      "rick": 3196,
      "Ġdim": 3197,
      "icide": 3198,
      "Ġsher": 3199,
      "ively": 3200,
      "Ġprogram": 3201,
      "Ġagent": 3202,
      "Ġmonth": 3203,
      "Ġbuddy": 3204,
      "Ġpainful": 3205,
      "Ġviolent": 3206,
      "Ġaffair": 3207,
      "Ġjerry": 3208,
      "Ġnarrative": 3209,
      "Ġtragedy": 3210,
      "Ġnatural": 3211,
      "yl": 3212,
      "rel": 3213,
      "Ġahead": 3214,
      "Ġhill": 3215,
      "Ġthreat": 3216,
      "ends": 3217,
      "ateur": 3218,
      "ability": 3219,
      "ppet": 3220,
      "izes": 3221,
      "Ġslap": 3222,
      "Ġobsess": 3223,
      "Ġorigin": 3224,
      "Ġphone": 3225,
      "Ġslowly": 3226,
      "Ġaffect": 3227,
      "Ġphotography": 3228,
      "writer": 3229,
      "Ġintrigu": 3230,
      "Ġindividual": 3231,
      "bre": 3232,
      "kable": 3233,
      "making": 3234,
      "spect": 3235,
      "orter": 3236,
      "Ġbos": 3237,
      "Ġdick": 3238,
      "oud": 3239,
      "irt": 3240,
      "Ġshare": 3241,
      "asure": 3242,
      "Ġdesert": 3243,
      "Ġmarriage": 3244,
      "Ġsurely": 3245,
      "Ġdifference": 3246,
      "Ġ60": 3247,
      "Ġprotagonist": 3248,
      "Ġsuddenly": 3249,
      "Ġoccasion": 3250,
      "Ġscientist": 3251,
      "do": 3252,
      "Ġmouth": 3253,
      "itor": 3254,
      "Ġride": 3255,
      "Ġprim": 3256,
      "Ġamateur": 3257,
      "Ġabsurd": 3258,
      "ological": 3259,
      "Ġunivers": 3260,
      "Ġhitchcock": 3261,
      "Ġgovernment": 3262,
      "aa": 3263,
      "ga": 3264,
      "Ġdate": 3265,
      "iday": 3266,
      "Ġug": 3267,
      "Ġdecade": 3268,
      "Ġbug": 3269,
      "Ġindepend": 3270,
      "Ġwaiting": 3271,
      "Ġinflu": 3272,
      "Ġopportun": 3273,
      "Ġaustral": 3274,
      "Ġheavy": 3275,
      "bu": 3276,
      "ron": 3277,
      "rey": 3278,
      "Ġbond": 3279,
      "star": 3280,
      "stem": 3281,
      "Ġthom": 3282,
      "opher": 3283,
      "irth": 3284,
      "Ġshop": 3285,
      "Ġshall": 3286,
      "Ġ18": 3287,
      "oughly": 3288,
      "Ġremains": 3289,
      "Ġcinematic": 3290,
      "Ġsteal": 3291,
      "Ġdepress": 3292,
      "onto": 3293,
      "Ġjackson": 3294,
      "Ġteacher": 3295,
      "Ġrandom": 3296,
      "wor": 3297,
      "aly": 3298,
      "uring": 3299,
      "Ġlikely": 3300,
      "ppy": 3301,
      "Ġinsult": 3302,
      "Ġbeautifully": 3303,
      "Ġwalking": 3304,
      "Ġ%": 3305,
      "erous": 3306,
      "Ġnaked": 3307,
      "Ġstock": 3308,
      "iding": 3309,
      "Ġcrow": 3310,
      "Ġnews": 3311,
      "Ġmont": 3312,
      "Ġproper": 3313,
      "Ġvirt": 3314,
      "Ġmachine": 3315,
      "Ġfestival": 3316,
      "Ġarea": 3317,
      "ai": 3318,
      "gin": 3319,
      "ped": 3320,
      "Ġfield": 3321,
      "Ġpract": 3322,
      "Ġak": 3323,
      "Ġhack": 3324,
      "Ġround": 3325,
      "Ġshowed": 3326,
      "Ġremote": 3327,
      "Ġcontains": 3328,
      "Ġlaughable": 3329,
      "Ġpersonally": 3330,
      "Ġboard": 3331,
      "Ġcreative": 3332,
      "Ġmysterious": 3333,
      "Ġdestroy": 3334,
      "Ġhoping": 3335,
      "Ġunbelievable": 3336,
      "Ġbesides": 3337,
      "Ġopportunity": 3338,
      "Ġton": 3339,
      "Ġbon": 3340,
      "Ġhook": 3341,
      "itary": 3342,
      "Ġunex": 3343,
      "Ġjoan": 3344,
      "fted": 3345,
      "Ġintention": 3346,
      "Ġintended": 3347,
      "Ġcourt": 3348,
      "Ġfresh": 3349,
      "Ġscenery": 3350,
      "director": 3351,
      "Ġcriminal": 3352,
      "ford": 3353,
      "sen": 3354,
      "val": 3355,
      "Ġmult": 3356,
      "Ġlone": 3357,
      "Ġlord": 3358,
      "Ġloose": 3359,
      "Ġnons": 3360,
      "vey": 3361,
      "Ġjun": 3362,
      "Ġsport": 3363,
      "Ġhey": 3364,
      "Ġsystem": 3365,
      "Ġpresented": 3366,
      "Ġforever": 3367,
      "Ġmedioc": 3368,
      "Ġlesson": 3369,
      "Ġrespons": 3370,
      "Ġenergy": 3371,
      "mm": 3372,
      "med": 3373,
      "uit": 3374,
      "year": 3375,
      "Ġmed": 3376,
      "Ġpun": 3377,
      "Ġaut": 3378,
      "Ġryan": 3379,
      "Ġchap": 3380,
      "Ġplane": 3381,
      "andon": 3382,
      "Ġbruce": 3383,
      "ource": 3384,
      "Ġprice": 3385,
      "Ġarg": 3386,
      "Ġlovely": 3387,
      "Ġhorse": 3388,
      "Ġweap": 3389,
      "rend": 3390,
      "Ġsuspect": 3391,
      "Ġexperiment": 3392,
      "Ġmoral": 3393,
      "Ġgenerally": 3394,
      "Ġafter": 3395,
      "Ġmagic": 3396,
      "aven": 3397,
      "good": 3398,
      "zen": 3399,
      "Ġmary": 3400,
      "Ġtur": 3401,
      "Ġwise": 3402,
      "Ġsea": 3403,
      "Ġthus": 3404,
      "ther": 3405,
      "Ġblow": 3406,
      "Ġbob": 3407,
      "Ġvision": 3408,
      "Ġjew": 3409,
      "Ġcenter": 3410,
      "Ġclimax": 3411,
      "Ġindust": 3412,
      "Ġweapon": 3413,
      "just": 3414,
      "pret": 3415,
      "Ġsight": 3416,
      "Ġfool": 3417,
      "Ġlatter": 3418,
      "Ġder": 3419,
      "Ġcharming": 3420,
      "Ġprogress": 3421,
      "Ġdisg": 3422,
      "Ġterrific": 3423,
      "Ġpresence": 3424,
      "Ġtouching": 3425,
      "Ġprofessional": 3426,
      "Ġdelivers": 3427,
      "Ġnegative": 3428,
      "ey": 3429,
      "ercial": 3430,
      "Ġeat": 3431,
      "Ġhide": 3432,
      "icious": 3433,
      "oted": 3434,
      "cher": 3435,
      "ched": 3436,
      "Ġlived": 3437,
      "Ġinit": 3438,
      "Ġadam": 3439,
      "Ġcompare": 3440,
      "life": 3441,
      "Ġparis": 3442,
      "Ġexpression": 3443,
      "Ġfully": 3444,
      "Ġfascinating": 3445,
      "Ġflashback": 3446,
      "Ġfunniest": 3447,
      "Ġugly": 3448,
      "fic": 3449,
      "field": 3450,
      "gl": 3451,
      "hen": 3452,
      "han": 3453,
      "Ġmine": 3454,
      "Ġtor": 3455,
      "Ġgraph": 3456,
      "Ġnet": 3457,
      "Ġstation": 3458,
      "Ġstuck": 3459,
      "Ġrac": 3460,
      "Ġjones": 3461,
      "aining": 3462,
      "Ġtrick": 3463,
      "Ġspan": 3464,
      "Ġimpl": 3465,
      "Ġquiet": 3466,
      "Ġgrant": 3467,
      "Ġsurround": 3468,
      "Ġholm": 3469,
      "Ġchristopher": 3470,
      "Ġsucceed": 3471,
      "Ġradio": 3472,
      "cle": 3473,
      "rad": 3474,
      "rical": 3475,
      "Ġmild": 3476,
      "eman": 3477,
      "Ġclub": 3478,
      "Ġknowing": 3479,
      "Ġacad": 3480,
      "Ġexplan": 3481,
      "Ġdisappointment": 3482,
      "ropri": 3483,
      "Ġshakespe": 3484,
      "ham": 3485,
      "uous": 3486,
      "vent": 3487,
      "Ġmi": 3488,
      "Ġtem": 3489,
      "Ġbought": 3490,
      "Ġfilming": 3491,
      "Ġchuck": 3492,
      "vert": 3493,
      "Ġvin": 3494,
      "odram": 3495,
      "Ġsmith": 3496,
      "Ġthrown": 3497,
      "Ġsinger": 3498,
      "Ġassist": 3499,
      "Ġsyn": 3500,
      "Ġcorrect": 3501,
      "Ġcommentary": 3502,
      "Ġhotel": 3503,
      "Ġwitness": 3504,
      "Ġencounter": 3505,
      "Ġinnocent": 3506,
      "fr": 3507,
      "ken": 3508,
      "table": 3509,
      "with": 3510,
      "Ġciv": 3511,
      "Ġfate": 3512,
      "Ġwide": 3513,
      "Ġbright": 3514,
      "stick": 3515,
      "Ġnorth": 3516,
      "Ġthats": 3517,
      "ribe": 3518,
      "Ġjoy": 3519,
      "rog": 3520,
      "Ġwatchable": 3521,
      "Ġclue": 3522,
      "Ġdisaster": 3523,
      "Ġgrade": 3524,
      "Ġdesire": 3525,
      "Ġrule": 3526,
      "Ġinclude": 3527,
      "Ġbehav": 3528,
      "Ġhunter": 3529,
      "Ġmartial": 3530,
      "Ġmerely": 3531,
      "Ġbottom": 3532,
      "'m": 3533,
      "cra": 3534,
      "eper": 3535,
      "Ġsell": 3536,
      "Ġmount": 3537,
      "Ġpil": 3538,
      "ica": 3539,
      "Ġrace": 3540,
      "Ġobject": 3541,
      "Ġsuppose": 3542,
      "Ġsteven": 3543,
      "Ġvillage": 3544,
      "Ġdescrib": 3545,
      "Ġstereotype": 3546,
      "Ġlength": 3547,
      "gory": 3548,
      "hic": 3549,
      "oking": 3550,
      "rid": 3551,
      "win": 3552,
      "Ġcgi": 3553,
      "ency": 3554,
      "Ġpra": 3555,
      "Ġhidden": 3556,
      "Ġnick": 3557,
      "Ġrh": 3558,
      "Ġthin": 3559,
      "Ġcomedic": 3560,
      "Ġsuicide": 3561,
      "Ġanth": 3562,
      "Ġsmile": 3563,
      "Ġleader": 3564,
      "Ġletter": 3565,
      "Ġhappening": 3566,
      "anna": 3567,
      "Ġdetective": 3568,
      "Ġteenage": 3569,
      "Ġcollection": 3570,
      "Ġutterly": 3571,
      "Ġtorture": 3572,
      "Ġexplanation": 3573,
      "gar": 3574,
      "rate": 3575,
      "worth": 3576,
      "Ġlay": 3577,
      "Ġhat": 3578,
      "olic": 3579,
      "Ġconvers": 3580,
      "Ġcloth": 3581,
      "plot": 3582,
      "Ġfinding": 3583,
      "Ġimpact": 3584,
      "Ġmainly": 3585,
      "Ġstewart": 3586,
      "Ġconfused": 3587,
      "Ġprovides": 3588,
      "Ġgeneration": 3589,
      "Ġcaptain": 3590,
      "ushed": 3591,
      "Ġcurrent": 3592,
      "Ġmelodram": 3593,
      "Ġpriv": 3594,
      "Ġfavourite": 3595,
      "Ġneighbor": 3596,
      "Ġgraphic": 3597,
      "lock": 3598,
      "erm": 3599,
      "Ġcas": 3600,
      "Ġble": 3601,
      "Ġdying": 3602,
      "Ġgorge": 3603,
      "overt": 3604,
      "see": 3605,
      "Ġshadow": 3606,
      "urate": 3607,
      "Ġconc": 3608,
      "Ġ12": 3609,
      "Ġprep": 3610,
      "Ġqueen": 3611,
      "Ġbland": 3612,
      "Ġblock": 3613,
      "Ġseemingly": 3614,
      "Ġserial": 3615,
      "Ġclean": 3616,
      "Ġcommercial": 3617,
      "Ġsummer": 3618,
      "father": 3619,
      "hs": 3620,
      "hor": 3621,
      "house": 3622,
      "low": 3623,
      "Ġwil": 3624,
      "Ġnast": 3625,
      "....": 3626,
      "Ġrelative": 3627,
      "Ġelect": 3628,
      "Ġangle": 3629,
      "Ġtheatre": 3630,
      "Ġinformation": 3631,
      "Ġindependent": 3632,
      "vir": 3633,
      "zan": 3634,
      "Ġcable": 3635,
      "Ġlyn": 3636,
      "Ġbilly": 3637,
      "Ġhaw": 3638,
      "Ġhosp": 3639,
      "Ġtrust": 3640,
      "abb": 3641,
      "Ġfault": 3642,
      "ploy": 3643,
      "Ġford": 3644,
      "Ġmission": 3645,
      "Ġspeech": 3646,
      "Ġresem": 3647,
      "Ġidiot": 3648,
      "Ġthoroughly": 3649,
      "down": 3650,
      "ja": 3651,
      "oh": 3652,
      "Ġsan": 3653,
      "Ġmoon": 3654,
      "Ġmile": 3655,
      "Ġtired": 3656,
      "Ġaim": 3657,
      "Ġnaz": 3658,
      "Ġreaction": 3659,
      "Ġstan": 3660,
      "Ġsean": 3661,
      "Ġsegment": 3662,
      "Ġjon": 3663,
      "Ġprefer": 3664,
      "Ġwhat": 3665,
      "Ġunderst": 3666,
      "azy": 3667,
      "Ġsoft": 3668,
      "Ġspeaking": 3669,
      "Ġdisappointing": 3670,
      "Ġdrawn": 3671,
      "Ġpleasure": 3672,
      "Ġwindow": 3673,
      "Ġbrutal": 3674,
      "Ġinvestig": 3675,
      "Ġspectac": 3676,
      "Ġirritating": 3677,
      "Ġmediocre": 3678,
      "mare": 3679,
      "Ġsnow": 3680,
      "Ġtape": 3681,
      "Ġban": 3682,
      "Ġbag": 3683,
      "Ġbank": 3684,
      "Ġdread": 3685,
      "Ġner": 3686,
      "Ġvol": 3687,
      "Ġunne": 3688,
      "Ġblond": 3689,
      "Ġtwenty": 3690,
      "Ġheaven": 3691,
      "Ġord": 3692,
      "Ġopera": 3693,
      "Ġcontem": 3694,
      "Ġintense": 3695,
      "Ġhighlight": 3696,
      "Ġbecoming": 3697,
      "Ġsnake": 3698,
      "Ġsentiment": 3699,
      "Ġcanad": 3700,
      "Ġrepeated": 3701,
      "Ġofficer": 3702,
      "Ġhistorical": 3703,
      "Ġshakespeare": 3704,
      "Ġhospital": 3705,
      "mi": 3706,
      "mark": 3707,
      "no": 3708,
      "yer": 3709,
      "ara": 3710,
      "Ġrout": 3711,
      "Ġblind": 3712,
      "Ġtwice": 3713,
      "Ġcarl": 3714,
      "Ġresc": 3715,
      "Ġrobin": 3716,
      "Ġharry": 3717,
      "Ġrefle": 3718,
      "Ġlighting": 3719,
      "Ġmarket": 3720,
      "Ġconstantly": 3721,
      "Ġintelligence": 3722,
      "Ġeuropean": 3723,
      "Ġacademy": 3724,
      "Ġcivil": 3725,
      "bian": 3726,
      "night": 3727,
      "Ġash": 3728,
      "Ġstone": 3729,
      "entially": 3730,
      "aded": 3731,
      "asing": 3732,
      "terest": 3733,
      "Ġunus": 3734,
      "agger": 3735,
      "Ġblame": 3736,
      "Ġcrash": 3737,
      "000": 3738,
      "Ġformula": 3739,
      "Ġwooden": 3740,
      "Ġsymb": 3741,
      "Ġjustice": 3742,
      "Ġmilitary": 3743,
      "Ġdollar": 3744,
      "Ġgorgeous": 3745,
      "even": 3746,
      "fet": 3747,
      "min": 3748,
      "Ġice": 3749,
      "Ġcro": 3750,
      "Ġboo": 3751,
      "Ġmax": 3752,
      "ipul": 3753,
      "text": 3754,
      "Ġcontra": 3755,
      "Ġputting": 3756,
      "Ġappeared": 3757,
      "ledge": 3758,
      "Ġnightmare": 3759,
      "Ġcameo": 3760,
      "Ġdanny": 3761,
      "Ġsupposedly": 3762,
      "Ġuncle": 3763,
      "Ġ1980": 3764,
      "Ġfellow": 3765,
      "bc": 3766,
      "ini": 3767,
      "Ġmob": 3768,
      "Ġstunt": 3769,
      "Ġlikable": 3770,
      "ograp": 3771,
      "Ġdisappe": 3772,
      "Ġfrust": 3773,
      "Ġproduct": 3774,
      "Ġbuck": 3775,
      "Ġeddie": 3776,
      "Ġinvent": 3777,
      "Ġsky": 3778,
      "Ġreminded": 3779,
      "Ġwilling": 3780,
      "Ġcomparison": 3781,
      "Ġindustry": 3782,
      "aus": 3783,
      "inct": 3784,
      "Ġfra": 3785,
      "ano": 3786,
      "Ġbull": 3787,
      "stit": 3788,
      "Ġeight": 3789,
      "Ġempt": 3790,
      "Ġframe": 3791,
      "azz": 3792,
      "Ġkidn": 3793,
      "Ġsuperior": 3794,
      "Ġhund": 3795,
      "Ġpicked": 3796,
      "Ġjudge": 3797,
      "Ġmulti": 3798,
      "rant": 3799,
      "Ġpair": 3800,
      "ato": 3801,
      "Ġdut": 3802,
      "Ġgut": 3803,
      "itle": 3804,
      "Ġstren": 3805,
      "ament": 3806,
      "Ġcharlie": 3807,
      "Ġgrad": 3808,
      "Ġwanting": 3809,
      "Ġaccom": 3810,
      "Ġcompelling": 3811,
      "Ġbuff": 3812,
      "Ġwondering": 3813,
      "Ġfollowed": 3814,
      "Ġmodel": 3815,
      "Ġhenry": 3816,
      "Ġintriguing": 3817,
      "Ġmut": 3818,
      "Ġfright": 3819,
      "Ġled": 3820,
      "icip": 3821,
      "Ġris": 3822,
      "ooper": 3823,
      "Ġkelly": 3824,
      "Ġvac": 3825,
      "icked": 3826,
      "pping": 3827,
      "Ġarch": 3828,
      "apped": 3829,
      "Ġkevin": 3830,
      "Ġdecision": 3831,
      "Ġready": 3832,
      "Ġborn": 3833,
      "Ġ40": 3834,
      "heart": 3835,
      "Ġknock": 3836,
      "ographer": 3837,
      "sing": 3838,
      "ville": 3839,
      "Ġbog": 3840,
      "Ġseven": 3841,
      "rix": 3842,
      "Ġven": 3843,
      "Ġmac": 3844,
      "elled": 3845,
      "ender": 3846,
      "ivity": 3847,
      "Ġoper": 3848,
      "Ġhelped": 3849,
      "Ġaccord": 3850,
      "ruction": 3851,
      "Ġdeveloped": 3852,
      "Ġsurvive": 3853,
      "Ġconnection": 3854,
      "Ġtune": 3855,
      "Ġconversation": 3856,
      "Ġordinary": 3857,
      "bb": 3858,
      "mon": 3859,
      "Ġur": 3860,
      "Ġpacing": 3861,
      "Ġchill": 3862,
      "amb": 3863,
      "Ġvote": 3864,
      "Ġunknown": 3865,
      "inder": 3866,
      "Ġsaving": 3867,
      "Ġanybody": 3868,
      "pected": 3869,
      "Ġlaughed": 3870,
      "aturing": 3871,
      "Ġvictor": 3872,
      "Ġapartment": 3873,
      "Ġtragic": 3874,
      "Ġrevolution": 3875,
      "Ġdisgust": 3876,
      "Ġstrength": 3877,
      "ping": 3878,
      "ta": 3879,
      "tw": 3880,
      "Ġ/": 3881,
      "Ġtight": 3882,
      "Ġlock": 3883,
      "Ġwound": 3884,
      "Ġho": 3885,
      "Ġnin": 3886,
      "raid": 3887,
      "Ġvhs": 3888,
      "illa": 3889,
      "alled": 3890,
      "Ġenemy": 3891,
      "Ġdepart": 3892,
      "Ġrobot": 3893,
      "Ġsurprising": 3894,
      "Ġnicely": 3895,
      "Ġjess": 3896,
      "Ġimagination": 3897,
      "Ġdemand": 3898,
      "Ġpatient": 3899,
      "Ġoppos": 3900,
      "Ġmartin": 3901,
      "Ġwearing": 3902,
      "Ġattractive": 3903,
      "Ġholmes": 3904,
      "Ġcontrast": 3905,
      "Ġonto": 3906,
      "Ġcash": 3907,
      "Ġluc": 3908,
      "Ġbirth": 3909,
      "story": 3910,
      "Ġgig": 3911,
      "ilst": 3912,
      "Ġrog": 3913,
      "Ġrape": 3914,
      "ural": 3915,
      "Ġpress": 3916,
      "Ġrose": 3917,
      "Ġfeaturing": 3918,
      "Ġattitude": 3919,
      "Ġheld": 3920,
      "Ġzero": 3921,
      "Ġinsight": 3922,
      "Ġconfusing": 3923,
      "Ġprovide": 3924,
      "Ġpaid": 3925,
      "Ġdeserved": 3926,
      "Ġcontinue": 3927,
      "ipped": 3928,
      "ĠclichÃ©s": 3929,
      "Ġforgotten": 3930,
      "Ġmixed": 3931,
      "Ġlimited": 3932,
      "Ġmotiv": 3933,
      "Ġintroduced": 3934,
      "Ġtheatrical": 3935,
      "Ġtherefore": 3936,
      "Ġphysical": 3937,
      "Ġowner": 3938,
      "Ġredeeming": 3939,
      "Ġmagnific": 3940,
      "Ġpilot": 3941,
      "Ġclothes": 3942,
      "port": 3943,
      "ration": 3944,
      "wolf": 3945,
      "really": 3946,
      "Ġfish": 3947,
      "Ġpunch": 3948,
      "Ġbath": 3949,
      "Ġdirty": 3950,
      "idge": 3951,
      "Ġjan": 3952,
      "Ġspring": 3953,
      "Ġbrook": 3954,
      "Ġfactor": 3955,
      "Ġturning": 3956,
      "Ġpresident": 3957,
      "Ġengland": 3958,
      "Ġfalling": 3959,
      "Ġimpressed": 3960,
      "Ġdescribe": 3961,
      "oken": 3962,
      "Ġprotect": 3963,
      "Ġinspired": 3964,
      "Ġ1950": 3965,
      "stein": 3966,
      "spective": 3967,
      "Ġnazi": 3968,
      "Ġhundred": 3969,
      "ium": 3970,
      "vant": 3971,
      "Ġsite": 3972,
      "Ġdubb": 3973,
      "Ġhart": 3974,
      "ita": 3975,
      "Ġmanipul": 3976,
      "Ġpartner": 3977,
      "overall": 3978,
      "Ġemb": 3979,
      "Ġaccount": 3980,
      "Ġpolitic": 3981,
      "Ġlisten": 3982,
      "Ġdevil": 3983,
      "Ġasks": 3984,
      "Ġbatman": 3985,
      "Ġreligious": 3986,
      "ten": 3987,
      "reg": 3988,
      "Ġmike": 3989,
      "Ġward": 3990,
      "Ġbene": 3991,
      "Ġgon": 3992,
      "ading": 3993,
      "herent": 3994,
      "Ġjr": 3995,
      "Ġjason": 3996,
      "Ġcomfort": 3997,
      "Ġ11": 3998,
      "soever": 3999,
      "Ġanymore": 4000,
      "Ġfloor": 4001,
      "athan": 4002,
      "Ġcastle": 4003,
      "Ġincident": 4004,
      "Ġhigher": 4005,
      "Ġexplos": 4006,
      "ashed": 4007,
      "Ġbroken": 4008,
      "Ġnoir": 4009,
      "Ġtreated": 4010,
      "Ġflying": 4011,
      "Ġflesh": 4012,
      "Ġnonsense": 4013,
      "Ġwhatsoever": 4014,
      "Ġunnecessary": 4015,
      "Ġempty": 4016,
      "bi": 4017,
      "may": 4018,
      "Ġlion": 4019,
      "Ġboot": 4020,
      "Ġbrian": 4021,
      "Ġdun": 4022,
      "Ġmoved": 4023,
      "Ġ13": 4024,
      "Ġprint": 4025,
      "Ġcrack": 4026,
      "Ġincluded": 4027,
      "Ġincludes": 4028,
      "Ġjeff": 4029,
      "Ġregret": 4030,
      "Ġcaptured": 4031,
      "Ġ1970": 4032,
      "ominated": 4033,
      "Ġunexpected": 4034,
      "Ġaccompl": 4035,
      "fit": 4036,
      "Ġow": 4037,
      "Ġmitch": 4038,
      "Ġfab": 4039,
      "Ġstink": 4040,
      "entious": 4041,
      "Ġchan": 4042,
      "ushing": 4043,
      "Ġlew": 4044,
      "Ġprocess": 4045,
      "Ġpriest": 4046,
      "Ġwhilst": 4047,
      "Ġsac": 4048,
      "appy": 4049,
      "Ġrelief": 4050,
      "Ġmonkey": 4051,
      "Ġinstance": 4052,
      "Ġswim": 4053,
      "Ġwonderfully": 4054,
      "Ġtechnical": 4055,
      "Ġtechnique": 4056,
      "Ġshocking": 4057,
      "Ġdangerous": 4058,
      "Ġremarkable": 4059,
      "Ġcrowd": 4060,
      "Ġmountain": 4061,
      "Ġanthony": 4062,
      "Ġnasty": 4063,
      "ese": 4064,
      "iac": 4065,
      "nie": 4066,
      "Ġcore": 4067,
      "Ġfond": 4068,
      "Ġbird": 4069,
      "ication": 4070,
      "Ġstal": 4071,
      "Ġstret": 4072,
      "Ġrarely": 4073,
      "acting": 4074,
      "Ġunreal": 4075,
      "ousand": 4076,
      "pper": 4077,
      "agal": 4078,
      "Ġcontent": 4079,
      "Ġsurreal": 4080,
      "Ġaware": 4081,
      "Ġeduc": 4082,
      "Ġsoap": 4083,
      "Ġparody": 4084,
      "Ġnumerous": 4085,
      "Ġangry": 4086,
      "Ġtransl": 4087,
      "watched": 4088,
      "Ġlesbian": 4089,
      "Ġthomas": 4090,
      "Ġunusual": 4091,
      "kin": 4092,
      "tv": 4093,
      "Ġsant": 4094,
      "anic": 4095,
      "Ġdor": 4096,
      "itter": 4097,
      "Ġron": 4098,
      "Ġriver": 4099,
      "Ġchore": 4100,
      "Ġalt": 4101,
      "Ġnecessary": 4102,
      "Ġrealism": 4103,
      "awn": 4104,
      "Ġwarm": 4105,
      "Ġobser": 4106,
      "Ġskin": 4107,
      "Ġcreating": 4108,
      "Ġafraid": 4109,
      "Ġrental": 4110,
      "Ġdeserve": 4111,
      "Ġpromise": 4112,
      "Ġtrek": 4113,
      "Ġallowed": 4114,
      "Ġmedium": 4115,
      "Ġcruel": 4116,
      "Ġcommunity": 4117,
      "Ġslapstick": 4118,
      "dom": 4119,
      "gree": 4120,
      "gling": 4121,
      "sch": 4122,
      "Ġsab": 4123,
      "Ġcaine": 4124,
      "Ġfi": 4125,
      "ario": 4126,
      "Ġwow": 4127,
      "Ġgal": 4128,
      "Ġhon": 4129,
      "itz": 4130,
      "icate": 4131,
      "isc": 4132,
      "Ġrub": 4133,
      "Ġthousand": 4134,
      "irm": 4135,
      "Ġalan": 4136,
      "Ġunint": 4137,
      "Ġyouth": 4138,
      "Ġbrand": 4139,
      "Ġsav": 4140,
      "Ġnoticed": 4141,
      "Ġminim": 4142,
      "Ġweb": 4143,
      "Ġobl": 4144,
      "Ġfriendship": 4145,
      "Ġrecall": 4146,
      "Ġkinda": 4147,
      "Ġworthy": 4148,
      "Ġvisit": 4149,
      "Ġruin": 4150,
      "Ġdiscuss": 4151,
      "Ġfailure": 4152,
      "Ġfreak": 4153,
      "Ġbloody": 4154,
      "Ġvirgin": 4155,
      "Ġtarget": 4156,
      "Ġmental": 4157,
      "Ġservice": 4158,
      "ropriate": 4159,
      "Ġprivate": 4160,
      "Ġmatt": 4161,
      "Ġcann": 4162,
      "Ġfare": 4163,
      "Ġwere": 4164,
      "style": 4165,
      "Ġsepar": 4166,
      "sec": 4167,
      "Ġkate": 4168,
      "Ġkiss": 4169,
      "Ġbeach": 4170,
      "inese": 4171,
      "Ġanywhere": 4172,
      "Ġsimpl": 4173,
      "Ġartistic": 4174,
      "Ġpossess": 4175,
      "Ġassum": 4176,
      "Ġstudy": 4177,
      "Ġlearned": 4178,
      "Ġraise": 4179,
      "eteran": 4180,
      "Ġconstant": 4181,
      "Ġrevealed": 4182,
      "Ġwilliams": 4183,
      "porary": 4184,
      "Ġachieve": 4185,
      "ipe": 4186,
      "mother": 4187,
      "Ġmic": 4188,
      "Ġmcc": 4189,
      "Ġcow": 4190,
      "Ġcate": 4191,
      "alist": 4192,
      "Ġtable": 4193,
      "Ġwed": 4194,
      "Ġrow": 4195,
      "urity": 4196,
      "Ġvul": 4197,
      "Ġanne": 4198,
      "Ġseek": 4199,
      "Ġinterpret": 4200,
      "ensional": 4201,
      "Ġcarol": 4202,
      "Ġcheer": 4203,
      "Ġcrappy": 4204,
      "Ġcolumb": 4205,
      "screen": 4206,
      "Ġjohnny": 4207,
      "Ġfreed": 4208,
      "ennis": 4209,
      "Ġreminds": 4210,
      "Ġidentity": 4211,
      "Ġaccording": 4212,
      "bad": 4213,
      "ha": 4214,
      "kward": 4215,
      "law": 4216,
      "natur": 4217,
      "rie": 4218,
      "taking": 4219,
      "xic": 4220,
      "reck": 4221,
      "Ġms": 4222,
      "Ġww": 4223,
      "Ġbow": 4224,
      "Ġgas": 4225,
      "Ġrod": 4226,
      "Ġrange": 4227,
      "sey": 4228,
      "ulation": 4229,
      "Ġveteran": 4230,
      "Ġscr": 4231,
      "Ġscrew": 4232,
      "Ġspy": 4233,
      "Ġbrown": 4234,
      "osaur": 4235,
      "Ġsafe": 4236,
      "Ġdrop": 4237,
      "Ġbelong": 4238,
      "Ġemer": 4239,
      "Ġawkward": 4240,
      "Ġcommand": 4241,
      "Ġaccurate": 4242,
      "Ġassass": 4243,
      "Ġengaging": 4244,
      "Ġunderstanding": 4245,
      "Ġprove": 4246,
      "Ġheroine": 4247,
      "Ġanton": 4248,
      "Ġdeeply": 4249,
      "Ġdiscovered": 4250,
      "Ġimprov": 4251,
      "bell": 4252,
      "ca": 4253,
      "ront": 4254,
      "you": 4255,
      "Ġic": 4256,
      "Ġcele": 4257,
      "alle": 4258,
      "Ġta": 4259,
      "Ġgy": 4260,
      "Ġrank": 4261,
      "add": 4262,
      "Ġseagal": 4263,
      "Ġdebut": 4264,
      "Ġproceed": 4265,
      "Ġgrat": 4266,
      "Ġenth": 4267,
      "Ġabandon": 4268,
      "Ġwarning": 4269,
      "Ġasian": 4270,
      "Ġunfunny": 4271,
      "Ġskip": 4272,
      "Ġmurdered": 4273,
      "Ġfinest": 4274,
      "Ġdealing": 4275,
      "Ġsignific": 4276,
      "Ġconnect": 4277,
      "Ġconcerned": 4278,
      "Ġsheer": 4279,
      "Ġtraditional": 4280,
      "chester": 4281,
      "Ġoccasionally": 4282,
      "Ġmagnificent": 4283,
      "fight": 4284,
      "hi": 4285,
      "love": 4286,
      "Ġsoph": 4287,
      "Ġcounter": 4288,
      "ancy": 4289,
      "edian": 4290,
      "Ġlon": 4291,
      "Ġwhere": 4292,
      "Ġgent": 4293,
      "Ġhated": 4294,
      "Ġchinese": 4295,
      "Ġdegree": 4296,
      "ousy": 4297,
      "olds": 4298,
      "Ġpeace": 4299,
      "Ġemploy": 4300,
      "Ġstranger": 4301,
      "Ġsilver": 4302,
      "Ġgolden": 4303,
      "Ġcriticism": 4304,
      "Ġdamn": 4305,
      "Ġdressed": 4306,
      "looking": 4307,
      "Ġsympathetic": 4308,
      "Ġcondition": 4309,
      "Ġchallenge": 4310,
      "Ġinfluence": 4311,
      "Ġresponsible": 4312,
      "Ġspectacular": 4313,
      "Ġlewis": 4314,
      "great": 4315,
      "Ġ>": 4316,
      "Ġcomedian": 4317,
      "Ġperspective": 4318,
      "Ġspoof": 4319,
      "earing": 4320,
      "Ġknowledge": 4321,
      "Ġorgan": 4322,
      "acle": 4323,
      "Ġproduce": 4324,
      "Ġdeterm": 4325,
      "Ġfrequ": 4326,
      "Ġlaure": 4327,
      "Ġuncon": 4328,
      "Ġcircum": 4329,
      "Ġnaturally": 4330,
      "Ġstatement": 4331,
      "Ġnetwork": 4332,
      "Ġbehavior": 4333,
      "Ġopposite": 4334,
      "cise": 4335,
      "cula": 4336,
      "mate": 4337,
      "xual": 4338,
      "Ġsir": 4339,
      "Ġsource": 4340,
      "Ġfif": 4341,
      "Ġwitty": 4342,
      "Ġhim": 4343,
      "Ġrated": 4344,
      "Ġroman": 4345,
      "Ġfill": 4346,
      "Ġseat": 4347,
      "oler": 4348,
      "Ġjunk": 4349,
      "rob": 4350,
      "umble": 4351,
      "Ġtext": 4352,
      "Ġfrance": 4353,
      "Ġtruck": 4354,
      "rence": 4355,
      "scape": 4356,
      "ortunate": 4357,
      "Ġconfront": 4358,
      "Ġexpert": 4359,
      "Ġlacking": 4360,
      "Ġiron": 4361,
      "Ġregular": 4362,
      "Ġfootball": 4363,
      "Ġdevice": 4364,
      "Ġtreatment": 4365,
      "Ġjulie": 4366,
      "Ġresearch": 4367,
      "Ġcontemporary": 4368,
      "teresting": 4369,
      "away": 4370,
      "bled": 4371,
      "case": 4372,
      "hand": 4373,
      "lor": 4374,
      "mo": 4375,
      "oci": 4376,
      "Ġmore": 4377,
      "Ġfood": 4378,
      "Ġwid": 4379,
      "Ġgross": 4380,
      "Ġnational": 4381,
      "Ġrat": 4382,
      "Ġchoose": 4383,
      "Ġdeb": 4384,
      "Ġshut": 4385,
      "Ġjenn": 4386,
      "abor": 4387,
      "Ġguard": 4388,
      "Ġstruct": 4389,
      "Ġresol": 4390,
      "ooth": 4391,
      "Ġrelate": 4392,
      "Ġhoward": 4393,
      "Ġhelen": 4394,
      "when": 4395,
      "Ġideal": 4396,
      "Ġchildhood": 4397,
      "Ġharm": 4398,
      "Ġfinale": 4399,
      "Ġmrs": 4400,
      "Ġpropag": 4401,
      "ipping": 4402,
      "Ġgermany": 4403,
      "Ġinternational": 4404,
      "Ġafrica": 4405,
      "Ġafrican": 4406,
      "Ġreceived": 4407,
      "Ġcurious": 4408,
      "Ġaustralian": 4409,
      "Ġshallow": 4410,
      "Ġlynch": 4411,
      "Ġblonde": 4412,
      "Ġrescue": 4413,
      "Ġwerewolf": 4414,
      "Ġcircumstance": 4415,
      "gue": 4416,
      "lo": 4417,
      "reh": 4418,
      "Ġcage": 4419,
      "Ġpaper": 4420,
      "Ġtoy": 4421,
      "oring": 4422,
      "Ġbell": 4423,
      "Ġdennis": 4424,
      "iser": 4425,
      "Ġmovement": 4426,
      "thur": 4427,
      "Ġkong": 4428,
      "utation": 4429,
      "aped": 4430,
      "Ġcontext": 4431,
      "Ġheck": 4432,
      "Ġrealized": 4433,
      "Ġbigger": 4434,
      "Ġwealth": 4435,
      "Ġterribly": 4436,
      "Ġunderrated": 4437,
      "Ġlaura": 4438,
      "Ġlaught": 4439,
      "Ġpretentious": 4440,
      "Ġsword": 4441,
      "Ġswitch": 4442,
      "Ġentertained": 4443,
      "Ġdracula": 4444,
      "Ġsatire": 4445,
      "Ġdavis": 4446,
      "Ġcombination": 4447,
      "Ġultimate": 4448,
      "Ġdemonstr": 4449,
      "Ġprinci": 4450,
      "Ġchaplin": 4451,
      "Ġsymbol": 4452,
      "rating": 4453,
      "Ġeric": 4454,
      "Ġsole": 4455,
      "Ġcant": 4456,
      "Ġtree": 4457,
      "orig": 4458,
      "Ġgary": 4459,
      "Ġhint": 4460,
      "Ġthief": 4461,
      "Ġliber": 4462,
      "Ġshine": 4463,
      "Ġleon": 4464,
      "inda": 4465,
      "udd": 4466,
      "Ġmexic": 4467,
      "Ġmarry": 4468,
      "Ġasking": 4469,
      "Ġprovided": 4470,
      "Ġadvice": 4471,
      "Ġdriving": 4472,
      "Ġbrilliantly": 4473,
      "Ġadmir": 4474,
      "Ġcurt": 4475,
      "Ġgangster": 4476,
      "Ġfreddy": 4477,
      "Ġdelightful": 4478,
      "Ġspanish": 4479,
      "Ġpraise": 4480,
      "bur": 4481,
      "gn": 4482,
      "hh": 4483,
      "Ġcyn": 4484,
      "Ġlink": 4485,
      "Ġlake": 4486,
      "Ġwolf": 4487,
      "Ġgene": 4488,
      "Ġhood": 4489,
      "Ġnich": 4490,
      "irk": 4491,
      "Ġconsequ": 4492,
      "ines": 4493,
      "enever": 4494,
      "Ġroy": 4495,
      "atty": 4496,
      "Ġasked": 4497,
      "Ġbegan": 4498,
      "Ġborder": 4499,
      "Ġreporter": 4500,
      "Ġallen": 4501,
      "Ġmorning": 4502,
      "Ġrented": 4503,
      "Ġpsycho": 4504,
      "Ġtransform": 4505,
      "Ġoliv": 4506,
      "Ġstephen": 4507,
      "Ġestab": 4508,
      "Ġdreadful": 4509,
      "Ġdisappear": 4510,
      "Ġlaughter": 4511,
      "hab": 4512,
      "jo": 4513,
      "telling": 4514,
      "Ġsed": 4515,
      "Ġcy": 4516,
      "Ġpin": 4517,
      "Ġpage": 4518,
      "Ġtick": 4519,
      "ston": 4520,
      "Ġdare": 4521,
      "Ġgard": 4522,
      "Ġnur": 4523,
      "icit": 4524,
      "isa": 4525,
      "Ġrubb": 4526,
      "imate": 4527,
      "Ġunited": 4528,
      "Ġenvir": 4529,
      "Ġclip": 4530,
      "Ġproud": 4531,
      "Ġ25": 4532,
      "atherine": 4533,
      "ifer": 4534,
      "Ġmarsh": 4535,
      "Ġagre": 4536,
      "Ġglor": 4537,
      "Ġcourage": 4538,
      "Ġharris": 4539,
      "Ġreport": 4540,
      "Ġbarbar": 4541,
      "Ġhumorous": 4542,
      "Ġwinning": 4543,
      "Ġdriver": 4544,
      "Ġatro": 4545,
      "Ġforeign": 4546,
      "Ġtechnology": 4547,
      "Ġexistence": 4548,
      "opped": 4549,
      "Ġroutine": 4550,
      "men": 4551,
      "onment": 4552,
      "Ġwicked": 4553,
      "aton": 4554,
      "Ġdry": 4555,
      "icated": 4556,
      "Ġreun": 4557,
      "etch": 4558,
      "ces": 4559,
      "Ġranger": 4560,
      "Ġchair": 4561,
      "ulous": 4562,
      "osition": 4563,
      "Ġmarvel": 4564,
      "Ġoverly": 4565,
      "Ġkeeping": 4566,
      "Ġreputation": 4567,
      "Ġportrays": 4568,
      "Ġhitler": 4569,
      "Ġvisuals": 4570,
      "opping": 4571,
      "Ġtarzan": 4572,
      "Ġcapable": 4573,
      "ellect": 4574,
      "Ġsheriff": 4575,
      "Ġoriginally": 4576,
      "Ġamateurish": 4577,
      "natural": 4578,
      "Ġpropaganda": 4579,
      "cr": 4580,
      "cis": 4581,
      "cere": 4582,
      "fin": 4583,
      "mal": 4584,
      "miss": 4585,
      "part": 4586,
      "rous": 4587,
      "Ġ<": 4588,
      "Ġom": 4589,
      "Ġwrest": 4590,
      "Ġbbc": 4591,
      "Ġdated": 4592,
      "Ġnominated": 4593,
      "ama": 4594,
      "Ġdean": 4595,
      "Ġvon": 4596,
      "Ġbeast": 4597,
      "Ġendless": 4598,
      "Ġwhenever": 4599,
      "Ġgru": 4600,
      "Ġbetray": 4601,
      "Ġincre": 4602,
      "Ġgotten": 4603,
      "Ġstarting": 4604,
      "Ġsubstance": 4605,
      "Ġinsane": 4606,
      "Ġdozen": 4607,
      "Ġinvolve": 4608,
      "Ġdaniel": 4609,
      "Ġcutting": 4610,
      "Ġbringing": 4611,
      "Ġmeeting": 4612,
      "Ġstrongly": 4613,
      "Ġmeth": 4614,
      "Ġsucked": 4615,
      "Ġ1960": 4616,
      "Ġlucky": 4617,
      "Ġcontrived": 4618,
      "ba": 4619,
      "point": 4620,
      "Ġloss": 4621,
      "Ġhay": 4622,
      "Ġreject": 4623,
      "Ġrise": 4624,
      "Ġrival": 4625,
      "Ġinex": 4626,
      "Ġkim": 4627,
      "Ġexh": 4628,
      "ousin": 4629,
      "umber": 4630,
      "Ġcharism": 4631,
      "istent": 4632,
      "cient": 4633,
      "Ġremain": 4634,
      "Ġbitter": 4635,
      "Ġsincere": 4636,
      "Ġboat": 4637,
      "Ġassoci": 4638,
      "Ġpatrick": 4639,
      "Ġtreasure": 4640,
      "Ġfrankly": 4641,
      "Ġhyp": 4642,
      "Ġload": 4643,
      "Ġscenario": 4644,
      "Ġvehic": 4645,
      "Ġexplained": 4646,
      "Ġinspir": 4647,
      "Ġdesperate": 4648,
      "Ġsharp": 4649,
      "Ġuniversal": 4650,
      "Ġfreedom": 4651,
      "Ġcelebr": 4652,
      "Ġenvironment": 4653,
      "Ġvehicle": 4654,
      "ault": 4655,
      "fire": 4656,
      "vation": 4657,
      "rem": 4658,
      "Ġmort": 4659,
      "Ġfer": 4660,
      "Ġfinger": 4661,
      "Ġly": 4662,
      "Ġbush": 4663,
      "Ġstom": 4664,
      "Ġalbert": 4665,
      "Ġvague": 4666,
      "Ġyell": 4667,
      "Ġbridge": 4668,
      "Ġloving": 4669,
      "Ġjoin": 4670,
      "coming": 4671,
      "Ġarthur": 4672,
      "Ġemph": 4673,
      "Ġintellect": 4674,
      "Ġexcited": 4675,
      "Ġsecurity": 4676,
      "Ġtheory": 4677,
      "Ġcreator": 4678,
      "Ġhumanity": 4679,
      "Ġcorp": 4680,
      "Ġdancer": 4681,
      "Ġforest": 4682,
      "Ġandy": 4683,
      "however": 4684,
      "Ġnormally": 4685,
      "Ġfranch": 4686,
      "Ġdinosaur": 4687,
      "Ġinept": 4688,
      "Ġbullet": 4689,
      "Ġcontribut": 4690,
      "Ġdepicted": 4691,
      "Ġfalse": 4692,
      "glas": 4693,
      "Ġassistant": 4694,
      "Ġvacation": 4695,
      "Ġmotivation": 4696,
      "Ġcategory": 4697,
      "len": 4698,
      "mary": 4699,
      "iner": 4700,
      "Ġske": 4701,
      "Ġcoun": 4702,
      "Ġcousin": 4703,
      "enstein": 4704,
      "Ġlower": 4705,
      "Ġwave": 4706,
      "Ġbore": 4707,
      "atra": 4708,
      "Ġdub": 4709,
      "Ġgory": 4710,
      "leep": 4711,
      "Ġhong": 4712,
      "Ġny": 4713,
      "unting": 4714,
      "Ġincomp": 4715,
      "Ġkore": 4716,
      "Ġshoe": 4717,
      "Ġviet": 4718,
      "Ġscale": 4719,
      "Ġlear": 4720,
      "Ġleague": 4721,
      "fest": 4722,
      "Ġroot": 4723,
      "Ġguest": 4724,
      "ription": 4725,
      "Ġwalter": 4726,
      "Ġharsh": 4727,
      "Ġformat": 4728,
      "Ġdarkness": 4729,
      "Ġremembered": 4730,
      "Ġmyth": 4731,
      "Ġdouglas": 4732,
      "Ġwinner": 4733,
      "Ġmiser": 4734,
      "Ġdelivered": 4735,
      "Ġpleasant": 4736,
      "Ġexecution": 4737,
      "buster": 4738,
      "Ġmelodrama": 4739,
      "gm": 4740,
      "iven": 4741,
      "jud": 4742,
      "Ġmock": 4743,
      "Ġcass": 4744,
      "Ġfro": 4745,
      "another": 4746,
      "although": 4747,
      "Ġpit": 4748,
      "Ġtack": 4749,
      "Ġtour": 4750,
      "Ġdom": 4751,
      "Ġdol": 4752,
      "Ġdust": 4753,
      "Ġgree": 4754,
      "Ġnative": 4755,
      "americ": 4756,
      "that": 4757,
      "raction": 4758,
      "usive": 4759,
      "Ġscared": 4760,
      "Ġ16": 4761,
      "Ġposter": 4762,
      "theless": 4763,
      "Ġsaved": 4764,
      "Ġflow": 4765,
      "Ġtex": 4766,
      "Ġobsc": 4767,
      "Ġedward": 4768,
      "entional": 4769,
      "ordon": 4770,
      "Ġfinished": 4771,
      "Ġassume": 4772,
      "Ġdeadly": 4773,
      "Ġoffensive": 4774,
      "Ġexperien": 4775,
      "after": 4776,
      "Ġandrew": 4777,
      "Ġdiscovers": 4778,
      "Ġlouis": 4779,
      "Ġstrike": 4780,
      "Ġallows": 4781,
      "Ġfrancis": 4782,
      "Ġphilos": 4783,
      "Ġexploitation": 4784,
      "Ġhanging": 4785,
      "Ġgratuit": 4786,
      "cÃ©": 4787,
      "sm": 4788,
      "sky": 4789,
      "Ġsend": 4790,
      "Ġcook": 4791,
      "Ġfort": 4792,
      "Ġfame": 4793,
      "arant": 4794,
      "Ġwing": 4795,
      "Ġgoof": 4796,
      "lying": 4797,
      "iling": 4798,
      "Ġsty": 4799,
      "ays": 4800,
      "Ġrick": 4801,
      "Ġsection": 4802,
      "usi": 4803,
      "ante": 4804,
      "Ġworry": 4805,
      "arded": 4806,
      "Ġ14": 4807,
      "Ġfeed": 4808,
      "Ġcaused": 4809,
      "izen": 4810,
      "Ġsomebody": 4811,
      "prise": 4812,
      "Ġexplore": 4813,
      "Ġpossibility": 4814,
      "Ġcoach": 4815,
      "Ġspeed": 4816,
      "Ġportraying": 4817,
      "Ġjackie": 4818,
      "urban": 4819,
      "Ġlawyer": 4820,
      "Ġpuppet": 4821,
      "Ġscreaming": 4822,
      "Ġlosing": 4823,
      "Ġtedious": 4824,
      "Ġjennifer": 4825,
      "cont": 4826,
      "girl": 4827,
      "tr": 4828,
      "tle": 4829,
      "uel": 4830,
      "za": 4831,
      "Ġfbi": 4832,
      "Ġtiny": 4833,
      "Ġtask": 4834,
      "Ġwashing": 4835,
      "Ġgordon": 4836,
      "lyn": 4837,
      "ilty": 4838,
      "leman": 4839,
      "Ġhi": 4840,
      "ety": 4841,
      "think": 4842,
      "Ġjaw": 4843,
      "Ġconcent": 4844,
      "aret": 4845,
      "Ġspin": 4846,
      "Ġtwin": 4847,
      "Ġentry": 4848,
      "Ġhorribly": 4849,
      "anged": 4850,
      "Ġevidence": 4851,
      "Ġhelping": 4852,
      "Ġunfor": 4853,
      "Ġcoinc": 4854,
      "Ġruth": 4855,
      "Ġcorrupt": 4856,
      "iverse": 4857,
      "Ġimagin": 4858,
      "Ġpassed": 4859,
      "Ġpurch": 4860,
      "Ġpursu": 4861,
      "Ġpromising": 4862,
      "Ġerotic": 4863,
      "Ġprofessor": 4864,
      "Ġdragon": 4865,
      "Ġprior": 4866,
      "Ġdonald": 4867,
      "Ġwedding": 4868,
      "Ġgruesome": 4869,
      "Ġmethod": 4870,
      "dr": 4871,
      "don": 4872,
      "kind": 4873,
      "long": 4874,
      "oom": 4875,
      "pir": 4876,
      "ule": 4877,
      "vit": 4878,
      "Ġsake": 4879,
      "ering": 4880,
      "Ġmouse": 4881,
      "Ġfel": 4882,
      "Ġfix": 4883,
      "Ġeth": 4884,
      "Ġeating": 4885,
      "Ġnor": 4886,
      "ooge": 4887,
      "tha": 4888,
      "uls": 4889,
      "Ġkung": 4890,
      "Ġaltern": 4891,
      "Ġunable": 4892,
      "ists": 4893,
      "Ġbrad": 4894,
      "Ġquote": 4895,
      "Ġwho": 4896,
      "person": 4897,
      "Ġgrowing": 4898,
      "ires": 4899,
      "Ġcring": 4900,
      "Ġcris": 4901,
      "Ġsimon": 4902,
      "Ġmaria": 4903,
      "Ġoverlook": 4904,
      "Ġasleep": 4905,
      "whel": 4906,
      "Ġdoom": 4907,
      "Ġvisually": 4908,
      "umbling": 4909,
      "Ġfighter": 4910,
      "Ġcorny": 4911,
      "Ġbarry": 4912,
      "Ġproved": 4913,
      "Ġimagery": 4914,
      "Ġgrave": 4915,
      "Ġ2001": 4916,
      "Ġander": 4917,
      "Ġfigured": 4918,
      "Ġtwisted": 4919,
      "Ġpaying": 4920,
      "Ġphotograph": 4921,
      "Ġhyster": 4922,
      "Ġcovered": 4923,
      "written": 4924,
      "Ġsuffers": 4925,
      "Ġignore": 4926,
      "Ġ1930": 4927,
      "Ġdescribed": 4928,
      "stitute": 4929,
      "Ġstructure": 4930,
      "Ġestablish": 4931,
      "Ġgratuitous": 4932,
      "hol": 4933,
      "ued": 4934,
      "vy": 4935,
      "wal": 4936,
      "inn": 4937,
      "eral": 4938,
      "Ġmgm": 4939,
      "alg": 4940,
      "Ġped": 4941,
      "Ġtay": 4942,
      "ors": 4943,
      "Ġloy": 4944,
      "atory": 4945,
      "Ġnic": 4946,
      "entic": 4947,
      "Ġsele": 4948,
      "Ġchic": 4949,
      "thr": 4950,
      "Ġnecess": 4951,
      "Ġuniverse": 4952,
      "Ġanime": 4953,
      "ummy": 4954,
      "ogy": 4955,
      "Ġpregn": 4956,
      "Ġgrim": 4957,
      "Ġnevertheless": 4958,
      "Ġmini": 4959,
      "osexual": 4960,
      "phant": 4961,
      "aze": 4962,
      "Ġbuilt": 4963,
      "Ġedited": 4964,
      "Ġmusician": 4965,
      "Ġappealing": 4966,
      "Ġhandsome": 4967,
      "Ġglimp": 4968,
      "Ġcreation": 4969,
      "Ġmindless": 4970,
      "Ġhopefully": 4971,
      "Ġirre": 4972,
      "Ġrefres": 4973,
      "Ġdistract": 4974,
      "Ġemotionally": 4975,
      "Ġfeatured": 4976,
      "Ġhunt": 4977,
      "Ġpsychological": 4978,
      "othy": 4979,
      "Ġcontinuity": 4980,
      "Ġoccasional": 4981,
      "Ġconcern": 4982,
      "Ġterrorist": 4983,
      "Ġdivor": 4984,
      "Ġvirtually": 4985,
      "Ġcanadian": 4986,
      "ausible": 4987,
      "Ġmultiple": 4988,
      "Ġstretch": 4989,
      "original": 4990,
      "Ġrubbish": 4991,
      "Ġtaylor": 4992,
      "jack": 4993,
      "mind": 4994,
      "top": 4995,
      "Ġern": 4996,
      "Ġmask": 4997,
      "Ġcab": 4998,
      "Ġfict": 4999,
      "Ġpool": 5000,
      "Ġpitch": 5001,
      "Ġtong": 5002,
      "Ġby": 5003,
      "Ġdomin": 5004,
      "Ġeg": 5005,
      "Ġeld": 5006,
      "Ġnom": 5007,
      "omen": 5008,
      "owell": 5009,
      "Ġrush": 5010,
      "oooo": 5011,
      "aming": 5012,
      "seen": 5013,
      "Ġkath": 5014,
      "Ġmaint": 5015,
      "Ġbeer": 5016,
      "Ġconce": 5017,
      "Ġevening": 5018,
      "abe": 5019,
      "Ġbron": 5020,
      "Ġade": 5021,
      "Ġadvert": 5022,
      "ressed": 5023,
      "Ġaccomp": 5024,
      "Ġforth": 5025,
      "achel": 5026,
      "Ġtriv": 5027,
      "anned": 5028,
      "wards": 5029,
      "Ġhung": 5030,
      "belief": 5031,
      "Ġhaunt": 5032,
      "Ġsubtitle": 5033,
      "Ġbothered": 5034,
      "Ġcontinues": 5035,
      "Ġbroadway": 5036,
      "Ġessentially": 5037,
      "Ġloses": 5038,
      "Ġbreathtaking": 5039,
      "Ġdisgusting": 5040,
      "Ġdepartment": 5041,
      "Ġexplosion": 5042,
      "Ġnurse": 5043,
      "Ġemphas": 5044,
      "Ġtexas": 5045,
      "Ġphilosoph": 5046,
      "19": 5047,
      "hum": 5048,
      "mond": 5049,
      "nn": 5050,
      "nam": 5051,
      "produ": 5052,
      "self": 5053,
      "vis": 5054,
      "Ġcit": 5055,
      "Ġfur": 5056,
      "anced": 5057,
      "order": 5058,
      "Ġlat": 5059,
      "Ġnost": 5060,
      "Ġthat": 5061,
      "Ġjail": 5062,
      "asm": 5063,
      "Ġdict": 5064,
      "Ġanger": 5065,
      "Ġconvey": 5066,
      "Ġcharacterization": 5067,
      "aki": 5068,
      "Ġblade": 5069,
      "Ġdisp": 5070,
      "aust": 5071,
      "Ġguarant": 5072,
      "Ġstring": 5073,
      "every": 5074,
      "ception": 5075,
      "Ġsounded": 5076,
      "Ġborrow": 5077,
      "Ġstanding": 5078,
      "Ġmorgan": 5079,
      "Ġlearns": 5080,
      "Ġholding": 5081,
      "Ġlandscape": 5082,
      "Ġhopper": 5083,
      "Ġposition": 5084,
      "Ġpulled": 5085,
      "Ġextraord": 5086,
      "Ġforgot": 5087,
      "Ġlimit": 5088,
      "anagh": 5089,
      "Ġjimmy": 5090,
      "Ġphilip": 5091,
      "Ġbalance": 5092,
      "Ġbroadcast": 5093,
      "Ġrequired": 5094,
      "Ġmirror": 5095,
      "Ġsatisfying": 5096,
      "Ġdepressing": 5097,
      "Ġenthusi": 5098,
      "Ġabandoned": 5099,
      "Ġunconvin": 5100,
      "Ġnichol": 5101,
      "Ġwashington": 5102,
      "Ġrefreshing": 5103,
      "fill": 5104,
      "Ġcath": 5105,
      "ings": 5106,
      "Ġpile": 5107,
      "Ġlousy": 5108,
      "Ġbound": 5109,
      "Ġduck": 5110,
      "oven": 5111,
      "ader": 5112,
      "Ġkane": 5113,
      "Ġdefe": 5114,
      "Ġjay": 5115,
      "Ġancient": 5116,
      "Ġcharl": 5117,
      "esis": 5118,
      "Ġprevent": 5119,
      "abeth": 5120,
      "Ġeverywhere": 5121,
      "Ġwayne": 5122,
      "Ġargu": 5123,
      "Ġarrest": 5124,
      "Ġrealizes": 5125,
      "overs": 5126,
      "Ġflor": 5127,
      "Ġgrown": 5128,
      "Ġgritty": 5129,
      "Ġperformer": 5130,
      "beat": 5131,
      "Ġsurface": 5132,
      "Ġcraw": 5133,
      "Ġcamer": 5134,
      "Ġhandle": 5135,
      "Ġglass": 5136,
      "Ġtrib": 5137,
      "Ġdepiction": 5138,
      "Ġrobb": 5139,
      "Ġsitcom": 5140,
      "Ġpainfully": 5141,
      "Ġwinter": 5142,
      "Ġfairy": 5143,
      "class": 5144,
      "Ġdescription": 5145,
      "Ġcampy": 5146,
      "Ġnoise": 5147,
      "Ġforgettable": 5148,
      "Ġmodest": 5149,
      "Ġrecognize": 5150,
      "Ġembarrassing": 5151,
      "Ġuninteresting": 5152,
      "Ġcloser": 5153,
      "Ġgenuinely": 5154,
      "Ġcandy": 5155,
      "ka": 5156,
      "rol": 5157,
      "vol": 5158,
      "Ġmas": 5159,
      "Ġpie": 5160,
      "oration": 5161,
      "Ġlum": 5162,
      "Ġdent": 5163,
      "Ġdod": 5164,
      "Ġhip": 5165,
      "Ġnut": 5166,
      "Ġnation": 5167,
      "Ġchamp": 5168,
      "Ġlifet": 5169,
      "hero": 5170,
      "ello": 5171,
      "actic": 5172,
      "Ġneck": 5173,
      "Ġcharge": 5174,
      "Ġstorytelling": 5175,
      "Ġdisbelief": 5176,
      "Ġheight": 5177,
      "she": 5178,
      "Ġserf": 5179,
      "Ġacqu": 5180,
      "iforn": 5181,
      "Ġthrowing": 5182,
      "Ġmeanwhile": 5183,
      "Ġinvis": 5184,
      "Ġholiday": 5185,
      "Ġunfortunate": 5186,
      "Ġmurderer": 5187,
      "Ġinvolves": 5188,
      "Ġdistri": 5189,
      "Ġgrew": 5190,
      "Ġsatur": 5191,
      "Ġlatest": 5192,
      "Ġcurse": 5193,
      "Ġthankfully": 5194,
      "Ġmajority": 5195,
      "Ġsuspenseful": 5196,
      "Ġreveals": 5197,
      "Ġauthentic": 5198,
      "Ġprofound": 5199,
      "Ġstatus": 5200,
      "Ġfaithful": 5201,
      "Ġlogic": 5202,
      "Ġuninsp": 5203,
      "Ġpractically": 5204,
      "Ġremotely": 5205,
      "Ġturkey": 5206,
      "Ġrelatively": 5207,
      "Ġreflect": 5208,
      "Ġinterpretation": 5209,
      "Ġanderson": 5210,
      "Ġlifetime": 5211,
      "aire": 5212,
      "dim": 5213,
      "des": 5214,
      "lan": 5215,
      "pal": 5216,
      "town": 5217,
      "wife": 5218,
      "yes": 5219,
      "Ġou": 5220,
      "Ġut": 5221,
      "Ġcooper": 5222,
      "Ġtill": 5223,
      "Ġbone": 5224,
      "Ġbol": 5225,
      "Ġai": 5226,
      "Ġhere": 5227,
      "itious": 5228,
      "Ġnuc": 5229,
      "Ġstorm": 5230,
      "Ġviv": 5231,
      "agree": 5232,
      "Ġdirectly": 5233,
      "they": 5234,
      "apping": 5235,
      "Ġnoted": 5236,
      "Ġexcit": 5237,
      "Ġexplains": 5238,
      "ortune": 5239,
      "Ġuseless": 5240,
      "Ġlistening": 5241,
      "gypt": 5242,
      "Ġhearing": 5243,
      "Ġvariety": 5244,
      "Ġknight": 5245,
      "Ġsuffering": 5246,
      "Ġ1940": 5247,
      "Ġrolling": 5248,
      "Ġrepeat": 5249,
      "Ġfunnier": 5250,
      "Ġloser": 5251,
      "Ġinevit": 5252,
      "Ġsarah": 5253,
      "Ġjungle": 5254,
      "Ġinitial": 5255,
      "Ġelectric": 5256,
      "Ġunrealistic": 5257,
      "Ġconsequence": 5258,
      "american": 5259,
      "Ġglimpse": 5260,
      "Ġcitizen": 5261,
      "called": 5262,
      "ef": 5263,
      "list": 5264,
      "Ġpul": 5265,
      "Ġpian": 5266,
      "Ġpenn": 5267,
      "Ġpush": 5268,
      "Ġtense": 5269,
      "Ġwake": 5270,
      "Ġbik": 5271,
      "stream": 5272,
      "Ġgro": 5273,
      "Ġegypt": 5274,
      "Ġnose": 5275,
      "oween": 5276,
      "Ġthis": 5277,
      "Ġthunder": 5278,
      "Ġlip": 5279,
      "Ġlibr": 5280,
      "Ġala": 5281,
      "Ġalice": 5282,
      "Ġalco": 5283,
      "Ġexagger": 5284,
      "anted": 5285,
      "quel": 5286,
      "alling": 5287,
      "Ġmuppet": 5288,
      "Ġbrun": 5289,
      "ago": 5290,
      "iously": 5291,
      "Ġarr": 5292,
      "Ġguilty": 5293,
      "Ġcontact": 5294,
      "Ġcolon": 5295,
      "Ġpaint": 5296,
      "ruct": 5297,
      "Ġimmense": 5298,
      "Ġequal": 5299,
      "Ġhaunting": 5300,
      "Ġtraining": 5301,
      "Ġmatrix": 5302,
      "Ġchanging": 5303,
      "Ġlegendary": 5304,
      "laim": 5305,
      "Ġaccidentally": 5306,
      "Ġargent": 5307,
      "Ġbarbara": 5308,
      "Ġlearning": 5309,
      "Ġtongue": 5310,
      "Ġnucle": 5311,
      "Ġexcitement": 5312,
      "'ve": 5313,
      "aid": 5314,
      "ease": 5315,
      "nox": 5316,
      "zo": 5317,
      "Ġsink": 5318,
      "enced": 5319,
      "Ġpity": 5320,
      "Ġgather": 5321,
      "Ġaid": 5322,
      "Ġstooge": 5323,
      "Ġraw": 5324,
      "Ġthro": 5325,
      "verse": 5326,
      "sem": 5327,
      "Ġkenn": 5328,
      "Ġdeeper": 5329,
      "aren": 5330,
      "eness": 5331,
      "Ġinteraction": 5332,
      "Ġflu": 5333,
      "Ġteeth": 5334,
      "Ġcrude": 5335,
      "acc": 5336,
      "Ġcheese": 5337,
      "ache": 5338,
      "Ġfarm": 5339,
      "Ġscreenwriter": 5340,
      "Ġoriginality": 5341,
      "Ġbasis": 5342,
      "Ġcolour": 5343,
      "Ġindie": 5344,
      "Ġaddict": 5345,
      "ointed": 5346,
      "Ġcredible": 5347,
      "ologist": 5348,
      "Ġbrave": 5349,
      "Ġtremend": 5350,
      "Ġdownright": 5351,
      "Ġeffectively": 5352,
      "Ġdesigned": 5353,
      "Ġsympathy": 5354,
      "Ġreplace": 5355,
      "breaking": 5356,
      "Ġvincent": 5357,
      "craft": 5358,
      "Ġrisk": 5359,
      "Ġatrocious": 5360,
      "Ġunconvincing": 5361,
      "80": 5362,
      "aver": 5363,
      "bra": 5364,
      "iffer": 5365,
      "pro": 5366,
      "ronic": 5367,
      "zed": 5368,
      "ÂĹ": 5369,
      "Ġsen": 5370,
      "erie": 5371,
      "Ġcatherine": 5372,
      "edly": 5373,
      "Ġbern": 5374,
      "Ġnail": 5375,
      "Ġreel": 5376,
      "Ġrough": 5377,
      "Ġsemi": 5378,
      "Ġcha": 5379,
      "rior": 5380,
      "Ġjes": 5381,
      "Ġvast": 5382,
      "Ġplastic": 5383,
      "aph": 5384,
      "Ġens": 5385,
      "Ġspite": 5386,
      "Ġprime": 5387,
      "Ġuk": 5388,
      "osen": 5389,
      "Ġtrap": 5390,
      "Ġopt": 5391,
      "Ġwarned": 5392,
      "Ġunderground": 5393,
      "Ġscreening": 5394,
      "Ġneedle": 5395,
      "Ġagain": 5396,
      "Ġoutrage": 5397,
      "Ġadding": 5398,
      "Ġpolic": 5399,
      "Ġruined": 5400,
      "Ġparalle": 5401,
      "Ġfreeman": 5402,
      "Ġdriven": 5403,
      "Ġconvince": 5404,
      "Ġknife": 5405,
      "Ġinnov": 5406,
      "Ġspending": 5407,
      "Ġpreviously": 5408,
      "Ġcircle": 5409,
      "Ġcaliforn": 5410,
      "Ġparker": 5411,
      "Ġstereotypical": 5412,
      "Ġsandra": 5413,
      "Ġkarl": 5414,
      "Ġblockbuster": 5415,
      "Ġpolitics": 5416,
      "Ġassassin": 5417,
      "Ġnostalg": 5418,
      "Ġnuclear": 5419,
      "rom": 5420,
      "urist": 5421,
      "Ġ0": 5422,
      "ena": 5423,
      "Ġpant": 5424,
      "Ġpitt": 5425,
      "Ġpac": 5426,
      "Ġto": 5427,
      "Ġtie": 5428,
      "Ġbust": 5429,
      "Ġdude": 5430,
      "ilogy": 5431,
      "Ġnav": 5432,
      "ethe": 5433,
      "Ġinj": 5434,
      "rious": 5435,
      "Ġsha": 5436,
      "Ġshelf": 5437,
      "arter": 5438,
      "Ġunb": 5439,
      "Ġuncom": 5440,
      "fection": 5441,
      "Ġprejud": 5442,
      "Ġusa": 5443,
      "Ġperformed": 5444,
      "Ġforb": 5445,
      "Ġfriday": 5446,
      "Ġbelieved": 5447,
      "Ġelli": 5448,
      "Ġbuying": 5449,
      "Ġappropriate": 5450,
      "Ġcommit": 5451,
      "Ġstealing": 5452,
      "Ġsupernatural": 5453,
      "Ġwalked": 5454,
      "Ġlaid": 5455,
      "Ġlarry": 5456,
      "Ġpurely": 5457,
      "Ġcomplaint": 5458,
      "Ġrender": 5459,
      "Ġitaly": 5460,
      "Ġspeaks": 5461,
      "Ġexecuted": 5462,
      "Ġencou": 5463,
      "Ġofficial": 5464,
      "Ġdinner": 5465,
      "Ġprincess": 5466,
      "Ġwelcome": 5467,
      "Ġresemble": 5468,
      "Ġgarden": 5469,
      "Ġfranchise": 5470,
      "Ġelder": 5471,
      "Ġinvisible": 5472,
      "dimensional": 5473,
      "noxious": 5474,
      "Ġparallel": 5475,
      ".-": 5476,
      "bling": 5477,
      "dam": 5478,
      "eel": 5479,
      "fun": 5480,
      "pass": 5481,
      "sed": 5482,
      "ube": 5483,
      "ona": 5484,
      "Ġpunk": 5485,
      "Ġpaced": 5486,
      "Ġtorn": 5487,
      "Ġlam": 5488,
      "Ġlap": 5489,
      "Ġlud": 5490,
      "Ġwander": 5491,
      "Ġbang": 5492,
      "Ġdump": 5493,
      "Ġreward": 5494,
      "eland": 5495,
      "Ġral": 5496,
      "Ġchop": 5497,
      "Ġchose": 5498,
      "Ġchief": 5499,
      "Ġchosen": 5500,
      "Ġkrist": 5501,
      "rase": 5502,
      "Ġshould": 5503,
      "Ġcomical": 5504,
      "Ġplaced": 5505,
      "Ġoz": 5506,
      "ortion": 5507,
      "Ġcliff": 5508,
      "Ġspoken": 5509,
      "osity": 5510,
      "Ġjose": 5511,
      "Ġguide": 5512,
      "Ġ192": 5513,
      "Ġinco": 5514,
      "Ġrelax": 5515,
      "Ġreader": 5516,
      "Ġtrium": 5517,
      "Ġcoff": 5518,
      "Ġtopic": 5519,
      "Ġstopped": 5520,
      "Ġpassing": 5521,
      "Ġstayed": 5522,
      "Ġsleazy": 5523,
      "Ġphoto": 5524,
      "Ġhamlet": 5525,
      "ĠclichÃ©d": 5526,
      "Ġcombined": 5527,
      "Ġmassac": 5528,
      "Ġregarding": 5529,
      "Ġsouthern": 5530,
      "Ġprisoner": 5531,
      "Ġembarrassed": 5532,
      "Ġobsessed": 5533,
      "Ġobsession": 5534,
      "Ġproperly": 5535,
      "Ġracism": 5536,
      "worthy": 5537,
      "Ġhawk": 5538,
      "Ġcroc": 5539,
      "Ġsanta": 5540,
      "school": 5541,
      "Ġexperienced": 5542,
      "Ġpregnant": 5543,
      "Ġaccompan": 5544,
      "bour": 5545,
      "burn": 5546,
      "cut": 5547,
      "core": 5548,
      "ez": 5549,
      "will": 5550,
      "Ġmst": 5551,
      "Ġcust": 5552,
      "Ġcode": 5553,
      "Ġtire": 5554,
      "Ġwan": 5555,
      "Ġgain": 5556,
      "leg": 5557,
      "Ġhur": 5558,
      "Ġhipp": 5559,
      "Ġnu": 5560,
      "ioned": 5561,
      "ado": 5562,
      "Ġinner": 5563,
      "opath": 5564,
      "Ġvivid": 5565,
      "Ġtrilogy": 5566,
      "Ġpreview": 5567,
      "Ġspider": 5568,
      "Ġbride": 5569,
      "Ġeveryday": 5570,
      "Ġdisgu": 5571,
      "iancÃ©": 5572,
      "Ġremin": 5573,
      "ached": 5574,
      "Ġeliz": 5575,
      "Ġconsum": 5576,
      "Ġhandled": 5577,
      "Ġtrial": 5578,
      "Ġcommitted": 5579,
      "Ġcreates": 5580,
      "Ġassign": 5581,
      "Ġrepet": 5582,
      "Ġcorner": 5583,
      "Ġcorpor": 5584,
      "Ġupset": 5585,
      "Ġamazingly": 5586,
      "Ġbreast": 5587,
      "ologue": 5588,
      "Ġmagical": 5589,
      "Ġpatri": 5590,
      "Ġ2005": 5591,
      "Ġoliver": 5592,
      "Ġoffered": 5593,
      "Ġhammer": 5594,
      "Ġrevolves": 5595,
      "Ġhalloween": 5596,
      "Ġdaily": 5597,
      "Ġreligion": 5598,
      "Ġaka": 5599,
      "Ġlocked": 5600,
      "Ġsignificant": 5601,
      "Ġwhereas": 5602,
      "Ġjesus": 5603,
      "done": 5604,
      "drop": 5605,
      "fl": 5606,
      "kick": 5607,
      "made": 5608,
      "Ġmature": 5609,
      "Ġcub": 5610,
      "anny": 5611,
      "also": 5612,
      "alty": 5613,
      "Ġpi": 5614,
      "Ġtied": 5615,
      "Ġlol": 5616,
      "Ġdyn": 5617,
      "Ġgab": 5618,
      "Ġecc": 5619,
      "itar": 5620,
      "itled": 5621,
      "Ġredu": 5622,
      "Ġstol": 5623,
      "cean": 5624,
      "Ġrabb": 5625,
      "Ġthirty": 5626,
      "Ġchain": 5627,
      "ops": 5628,
      "irky": 5629,
      "Ġdece": 5630,
      "Ġvs": 5631,
      "antino": 5632,
      "Ġneat": 5633,
      "iger": 5634,
      "Ġ17": 5635,
      "Ġrochester": 5636,
      "Ġblat": 5637,
      "Ġfunction": 5638,
      "ensity": 5639,
      "Ġwarrior": 5640,
      "Ġobnoxious": 5641,
      "Ġterrif": 5642,
      "Ġovercome": 5643,
      "Ġoverwhel": 5644,
      "Ġsubplot": 5645,
      "Ġphen": 5646,
      "Ġsinatra": 5647,
      "ugos": 5648,
      "Ġgiall": 5649,
      "Ġspecific": 5650,
      "Ġopened": 5651,
      "annabe": 5652,
      "Ġstupidity": 5653,
      "Ġpainting": 5654,
      "Ġtransfer": 5655,
      "Ġsentence": 5656,
      "Ġexists": 5657,
      "Ġdesperately": 5658,
      "Ġinternet": 5659,
      "Ġwelles": 5660,
      "Ġmontage": 5661,
      "Ġjonathan": 5662,
      "Ġsentimental": 5663,
      "Ġninja": 5664,
      "Ġoblig": 5665,
      "Ġcolumbo": 5666,
      "Ġstomach": 5667,
      "Ġgreek": 5668,
      "Ġstylish": 5669,
      "Ġsaturday": 5670,
      "Ġcalifornia": 5671,
      "col": 5672,
      "gant": 5673,
      "iation": 5674,
      "nel": 5675,
      "pically": 5676,
      "rich": 5677,
      "say": 5678,
      "ww": 5679,
      "yth": 5680,
      "enger": 5681,
      "Ġfift": 5682,
      "Ġpier": 5683,
      "orb": 5684,
      "Ġdid": 5685,
      "Ġdedic": 5686,
      "Ġrevel": 5687,
      "eting": 5688,
      "ises": 5689,
      "chan": 5690,
      "char": 5691,
      "Ġri": 5692,
      "adays": 5693,
      "Ġinte": 5694,
      "rig": 5695,
      "Ġshark": 5696,
      "Ġalf": 5697,
      "Ġvia": 5698,
      "antage": 5699,
      "Ġtran": 5700,
      "udge": 5701,
      "Ġpoign": 5702,
      "Ġmakeup": 5703,
      "Ġspook": 5704,
      "Ġbranagh": 5705,
      "oyd": 5706,
      "Ġblair": 5707,
      "augh": 5708,
      "Ġcave": 5709,
      "ivor": 5710,
      "Ġslug": 5711,
      "Ġslaughter": 5712,
      "Ġperforming": 5713,
      "Ġincor": 5714,
      "Ġcarn": 5715,
      "Ġterrit": 5716,
      "Ġunderw": 5717,
      "Ġpretend": 5718,
      "nery": 5719,
      "Ġelephant": 5720,
      "Ġfallen": 5721,
      "Ġirony": 5722,
      "Ġrefuse": 5723,
      "Ġadvance": 5724,
      "Ġwax": 5725,
      "Ġimportance": 5726,
      "Ġraised": 5727,
      "Ġstrict": 5728,
      "Ġwalken": 5729,
      "Ġdelivery": 5730,
      "Ġrussia": 5731,
      "Ġintroduction": 5732,
      "Ġspiritual": 5733,
      "Ġsuffered": 5734,
      "Ġnowadays": 5735,
      "Ġmassive": 5736,
      "Ġignor": 5737,
      "Ġarrives": 5738,
      "world": 5739,
      "Ġracist": 5740,
      "Ġmildly": 5741,
      "Ġprepared": 5742,
      "Ġunderstood": 5743,
      "Ġduty": 5744,
      "Ġdubbed": 5745,
      "Ġernest": 5746,
      "Ġfictional": 5747,
      "Ġadequ": 5748,
      "Ġpacino": 5749,
      "Ġralph": 5750,
      "Ġincoherent": 5751,
      "Ġintegr": 5752,
      "tal": 5753,
      "ya": 5754,
      "Â´": 5755,
      "inist": 5756,
      "inated": 5757,
      "Ġmoo": 5758,
      "ĠfiancÃ©": 5759,
      "Ġtower": 5760,
      "Ġtoler": 5761,
      "Ġlane": 5762,
      "ilton": 5763,
      "Ġetern": 5764,
      "cest": 5765,
      "thought": 5766,
      "Ġken": 5767,
      "Ġjar": 5768,
      "Ġjac": 5769,
      "asant": 5770,
      "Ġplant": 5771,
      "igner": 5772,
      "Ġocean": 5773,
      "Ġshower": 5774,
      "Ġmeat": 5775,
      "ishment": 5776,
      "Ġhealth": 5777,
      "ocaly": 5778,
      "Ġgray": 5779,
      "Ġhorrif": 5780,
      "avor": 5781,
      "Ġkeaton": 5782,
      "Ġcompan": 5783,
      "Ġcaring": 5784,
      "Ġevol": 5785,
      "Ġwarn": 5786,
      "liked": 5787,
      "Ġgift": 5788,
      "Ġworthwhile": 5789,
      "Ġearn": 5790,
      "Ġirish": 5791,
      "Ġironic": 5792,
      "Ġdistinct": 5793,
      "Ġbreaking": 5794,
      "Ġaftern": 5795,
      "Ġclosely": 5796,
      "Ġoccup": 5797,
      "rifice": 5798,
      "forward": 5799,
      "Ġgrandfather": 5800,
      "Ġspends": 5801,
      "Ġ......": 5802,
      "Ġtarantino": 5803,
      "Ġhomosexual": 5804,
      "Ġjourn": 5805,
      "Ġdrinking": 5806,
      "Ġmedical": 5807,
      "Ġkidnapped": 5808,
      "Ġextraordinary": 5809,
      "Ġouter": 5810,
      "uristic": 5811,
      "Ġreminis": 5812,
      "Ġphenomen": 5813,
      "Ġfifteen": 5814,
      "Ġafternoon": 5815,
      "cul": 5816,
      "dition": 5817,
      "gal": 5818,
      "pent": 5819,
      "Ġsel": 5820,
      "erved": 5821,
      "Ġcob": 5822,
      "Ġpig": 5823,
      "Ġbare": 5824,
      "stone": 5825,
      "elve": 5826,
      "Ġrachel": 5827,
      "Ġmovies": 5828,
      "Ġther": 5829,
      "Ġbeing": 5830,
      "Ġconn": 5831,
      "Ġconrad": 5832,
      "ounding": 5833,
      "Ġspell": 5834,
      "Ġspark": 5835,
      "Ġspread": 5836,
      "Ġshowcase": 5837,
      "nee": 5838,
      "Ġfacial": 5839,
      "Ġparticip": 5840,
      "shot": 5841,
      "Ġnotable": 5842,
      "Ġtrapped": 5843,
      "angle": 5844,
      "Ġabuse": 5845,
      "Ġsurf": 5846,
      "Ġevident": 5847,
      "ups": 5848,
      "Ġcraft": 5849,
      "Ġconspir": 5850,
      "Ġswed": 5851,
      "Ġsuperman": 5852,
      "Ġunfold": 5853,
      "Ġhalfway": 5854,
      "Ġexpensive": 5855,
      "Ġattempting": 5856,
      "Ġpresentation": 5857,
      "Ġtouched": 5858,
      "Ġbusy": 5859,
      "ification": 5860,
      "Ġshocked": 5861,
      "Ġnarration": 5862,
      "Ġforgive": 5863,
      "Ġduke": 5864,
      "Ġjustin": 5865,
      "Ġjapan": 5866,
      "oppy": 5867,
      "Ġwillis": 5868,
      "Ġjulian": 5869,
      "Ġpuzz": 5870,
      "Ġlesser": 5871,
      "Ġphysically": 5872,
      "Ġmentally": 5873,
      "Ġaffection": 5874,
      "Ġaustralia": 5875,
      "Ġlonely": 5876,
      "Ġsucceeds": 5877,
      "Ġfrightening": 5878,
      "Ġrevolutionary": 5879,
      "Ġmitchell": 5880,
      "Ġsacrifice": 5881,
      "Ġinspiration": 5882,
      "Ġintellectual": 5883,
      "Ġchampion": 5884,
      "Ġlibrary": 5885,
      "Ġmassacre": 5886,
      "Ġrabbit": 5887,
      "den": 5888,
      "ew": 5889,
      "har": 5890,
      "jointed": 5891,
      "power": 5892,
      "roll": 5893,
      "sn": 5894,
      "som": 5895,
      "tt": 5896,
      "woman": 5897,
      "Ġcock": 5898,
      "onent": 5899,
      "anity": 5900,
      "Ġll": 5901,
      "Ġlem": 5902,
      "Ġgam": 5903,
      "Ġgate": 5904,
      "Ġah": 5905,
      "Ġnat": 5906,
      "icrous": 5907,
      "Ġstiff": 5908,
      "isation": 5909,
      "ching": 5910,
      "Ġric": 5911,
      "Ġriv": 5912,
      "uloid": 5913,
      "iro": 5914,
      "Ġshape": 5915,
      "Ġalright": 5916,
      "aser": 5917,
      "Ġunre": 5918,
      "Ġseeking": 5919,
      "ester": 5920,
      "Ġclum": 5921,
      "Ġblown": 5922,
      "Ġgreatly": 5923,
      "Ġnotch": 5924,
      "Ġorchest": 5925,
      "Ġserve": 5926,
      "Ġintr": 5927,
      "Ġstarred": 5928,
      "Ġwarner": 5929,
      "Ġviewed": 5930,
      "Ġeditor": 5931,
      "Ġmainstream": 5932,
      "Ġjeal": 5933,
      "Ġatl": 5934,
      "Ġisol": 5935,
      "Ġanticip": 5936,
      "Ġdestro": 5937,
      "Ġfocused": 5938,
      "Ġrussell": 5939,
      "Ġcombine": 5940,
      "Ġillust": 5941,
      "Ġbutt": 5942,
      "Ġignored": 5943,
      "Ġfatal": 5944,
      "Ġdrunken": 5945,
      "Ġeastwood": 5946,
      "Ġenterprise": 5947,
      "ollywood": 5948,
      "Ġjewish": 5949,
      "hearted": 5950,
      "Ġseparate": 5951,
      "Ġfifty": 5952,
      "Ġliberal": 5953,
      "Ġmexican": 5954,
      "Ġticket": 5955,
      "Ġkorean": 5956,
      "Ġunforget": 5957,
      "Ġcoincidence": 5958,
      "Ġnecessarily": 5959,
      "Ġuninspired": 5960,
      "Ġthroat": 5961,
      "Ġdynam": 5962,
      "Ġcompanion": 5963,
      "11": 5964,
      "cons": 5965,
      "fall": 5966,
      "och": 5967,
      "zil": 5968,
      "Ġovert": 5969,
      "Ġsize": 5970,
      "Ġcup": 5971,
      "Ġfed": 5972,
      "Ġpear": 5973,
      "Ġtoo": 5974,
      "Ġtag": 5975,
      "Ġtax": 5976,
      "Ġlad": 5977,
      "Ġape": 5978,
      "Ġhind": 5979,
      "Ġhud": 5980,
      "Ġhoff": 5981,
      "ites": 5982,
      "Ġnem": 5983,
      "Ġreh": 5984,
      "Ġstole": 5985,
      "Ġrig": 5986,
      "Ġrome": 5987,
      "Ġkat": 5988,
      "Ġshr": 5989,
      "Ġshout": 5990,
      "utive": 5991,
      "Ġplat": 5992,
      "Ġconfess": 5993,
      "esque": 5994,
      "Ġquirky": 5995,
      "Ġproof": 5996,
      "Ġdisjointed": 5997,
      "plane": 5998,
      "Ġfund": 5999,
      "Ġflight": 6000,
      "Ġbackdrop": 6001,
      "mann": 6002,
      "many": 6003,
      "Ġcritical": 6004,
      "Ġcraig": 6005,
      "Ġcrafted": 6006,
      "Ġhardy": 6007,
      "Ġfancy": 6008,
      "Ġfarce": 6009,
      "Ġze": 6010,
      "Ġzone": 6011,
      "Ġsexually": 6012,
      "Ġexplod": 6013,
      "Ġsketch": 6014,
      "Ġrestra": 6015,
      "Ġengine": 6016,
      "Ġpleased": 6017,
      "movies": 6018,
      "Ġamazed": 6019,
      "Ġsevere": 6020,
      "Ġgrey": 6021,
      "Ġadvantage": 6022,
      "Ġmichelle": 6023,
      "Ġ2006": 6024,
      "ika": 6025,
      "Ġfourth": 6026,
      "Ġamongst": 6027,
      "Ġcolorful": 6028,
      "Ġweekend": 6029,
      "Ġflynn": 6030,
      "Ġlargely": 6031,
      "Ġcarrying": 6032,
      "Ġalexander": 6033,
      "Ġauthority": 6034,
      "Ġreceive": 6035,
      "Ġrepeatedly": 6036,
      "Ġdetermined": 6037,
      "Ġlauren": 6038,
      "Ġwidow": 6039,
      "Ġleonard": 6040,
      "Ġchicago": 6041,
      "Ġhaunted": 6042,
      "Ġprejudice": 6043,
      "Ġludicrous": 6044,
      "Ġterritory": 6045,
      "lim": 6046,
      "pet": 6047,
      "rr": 6048,
      "Ġire": 6049,
      "Ġsne": 6050,
      "Ġcul": 6051,
      "onna": 6052,
      "aring": 6053,
      "Ġwreck": 6054,
      "Ġboun": 6055,
      "Ġdil": 6056,
      "Ġaunt": 6057,
      "Ġhick": 6058,
      "Ġhired": 6059,
      "Ġliz": 6060,
      "Ġinhab": 6061,
      "Ġali": 6062,
      "ges": 6063,
      "Ġexcess": 6064,
      "Ġplague": 6065,
      "illip": 6066,
      "Ġmans": 6067,
      "Ġgoal": 6068,
      "Ġpoet": 6069,
      "Ġqual": 6070,
      "Ġpray": 6071,
      "osh": 6072,
      "Ġtwelve": 6073,
      "thew": 6074,
      "Ġbeloved": 6075,
      "phy": 6076,
      "Ġmarc": 6077,
      "Ġmarg": 6078,
      "lied": 6079,
      "Ġspecif": 6080,
      "Ġhandful": 6081,
      "Ġanna": 6082,
      "Ġcountless": 6083,
      "Ġantic": 6084,
      "Ġpredator": 6085,
      "Ġmetal": 6086,
      "Ġconvinced": 6087,
      "Ġmerit": 6088,
      "Ġtiming": 6089,
      "Ġflawless": 6090,
      "Ġmeaningful": 6091,
      "Ġmatth": 6092,
      "Ġmatthew": 6093,
      "watching": 6094,
      "Ġidiotic": 6095,
      "Ġinnocence": 6096,
      "Ġsplend": 6097,
      "Ġaston": 6098,
      "Ġbasement": 6099,
      "Ġcompetition": 6100,
      "Ġconcert": 6101,
      "Ġhonor": 6102,
      "Ġsavage": 6103,
      "Ġminimal": 6104,
      "Ġmickey": 6105,
      "Ġfrequently": 6106,
      "Ġolivier": 6107,
      "Ġmarshall": 6108,
      "Ġvietnam": 6109,
      "Ġcringe": 6110,
      "Ġtrivial": 6111,
      "Ġtribute": 6112,
      "Ġbruno": 6113,
      "Ġelizabeth": 6114,
      "70": 6115,
      "crow": 6116,
      "iere": 6117,
      "nd": 6118,
      "Ġsid": 6119,
      "Ġsends": 6120,
      "Ġmate": 6121,
      "Ġpink": 6122,
      "Ġtou": 6123,
      "Ġlazy": 6124,
      "Ġwat": 6125,
      "Ġwra": 6126,
      "Ġba": 6127,
      "Ġbay": 6128,
      "Ġbald": 6129,
      "Ġdrew": 6130,
      "lee": 6131,
      "Ġack": 6132,
      "Ġey": 6133,
      "Ġeve": 6134,
      "oviet": 6135,
      "ented": 6136,
      "ada": 6137,
      "Ġka": 6138,
      "Ġexer": 6139,
      "Ġsup": 6140,
      "Ġyu": 6141,
      "Ġyard": 6142,
      "Ġmanager": 6143,
      "...": 6144,
      "Ġperfection": 6145,
      "Ġadop": 6146,
      "Ġwheel": 6147,
      "Ġgreater": 6148,
      "Ġhep": 6149,
      "Ġfuneral": 6150,
      "show": 6151,
      "Ġflower": 6152,
      "Ġtraum": 6153,
      "Ġuser": 6154,
      "angel": 6155,
      "Ġattraction": 6156,
      "Ġintensity": 6157,
      "Ġcarried": 6158,
      "Ġresort": 6159,
      "Ġresident": 6160,
      "Ġindia": 6161,
      "Ġcalling": 6162,
      "Ġconfusion": 6163,
      "Ġira": 6164,
      "Ġheroic": 6165,
      "Ġsatan": 6166,
      "Ġbrilliance": 6167,
      "Ġcaptiv": 6168,
      "Ġmiscast": 6169,
      "Ġcollect": 6170,
      "Ġstaying": 6171,
      "Ġcultural": 6172,
      "Ġfuturistic": 6173,
      "ophob": 6174,
      "liner": 6175,
      "Ġerror": 6176,
      "Ġdestruction": 6177,
      "Ġ1990": 6178,
      "Ġcombat": 6179,
      "Ġsuggests": 6180,
      "Ġvega": 6181,
      "Ġaccepted": 6182,
      "Ġburton": 6183,
      "Ġburned": 6184,
      "blance": 6185,
      "Ġregardless": 6186,
      "Ġrapid": 6187,
      "Ġcelluloid": 6188,
      "Ġleslie": 6189,
      "Ġreplaced": 6190,
      "Ġdimension": 6191,
      "Ġgranted": 6192,
      "from": 6193,
      "overty": 6194,
      "Ġfabulous": 6195,
      "Ġrubber": 6196,
      "Ġdiscussion": 6197,
      "Ġcowboy": 6198,
      "iveness": 6199,
      "Ġpiano": 6200,
      "Ġrevelation": 6201,
      "Ġconspiracy": 6202,
      "book": 6203,
      "iat": 6204,
      "pol": 6205,
      "Ġurban": 6206,
      "Ġsib": 6207,
      "Ġcd": 6208,
      "Ġcole": 6209,
      "Ġfet": 6210,
      "Ġpir": 6211,
      "Ġpoverty": 6212,
      "Ġtad": 6213,
      "Ġlore": 6214,
      "Ġlugos": 6215,
      "Ġwas": 6216,
      "Ġwend": 6217,
      "Ġbible": 6218,
      "cho": 6219,
      "Ġrum": 6220,
      "Ġinfect": 6221,
      "rier": 6222,
      "Ġalbe": 6223,
      "Ġvo": 6224,
      "Ġbeck": 6225,
      "Ġtrite": 6226,
      "udos": 6227,
      "Ġtimeless": 6228,
      "Ġcharacters": 6229,
      "Ġclar": 6230,
      "Ġclint": 6231,
      "Ġclown": 6232,
      "Ġspiel": 6233,
      "Ġross": 6234,
      "orman": 6235,
      "Ġdisagree": 6236,
      "Ġamy": 6237,
      "Ġnotor": 6238,
      "Ġgrin": 6239,
      "Ġworker": 6240,
      "Ġhorrend": 6241,
      "Ġdrum": 6242,
      "Ġcontain": 6243,
      "ifies": 6244,
      "Ġsmoke": 6245,
      "Ġschem": 6246,
      "Ġjohnson": 6247,
      "Ġposse": 6248,
      "Ġrelevant": 6249,
      "Ġparad": 6250,
      "Ġcredibility": 6251,
      "Ġups": 6252,
      "Ġsidekick": 6253,
      "Ġriding": 6254,
      "Ġhugh": 6255,
      "Ġtommy": 6256,
      "Ġmiller": 6257,
      "Ġoffering": 6258,
      "Ġlawrence": 6259,
      "oebe": 6260,
      "Ġstriking": 6261,
      "Ġoddly": 6262,
      "Ġdetailed": 6263,
      "Ġsunday": 6264,
      "Ġsurvivor": 6265,
      "Ġbutton": 6266,
      "Ġidentify": 6267,
      "Ġcomparing": 6268,
      "Ġclosing": 6269,
      "Ġdigital": 6270,
      "Ġingen": 6271,
      "Ġuniversity": 6272,
      "Ġautom": 6273,
      "Ġmiy": 6274,
      "horror": 6275,
      "Ġroger": 6276,
      "Ġbenefit": 6277,
      "Ġwwii": 6278,
      "Ġsophistic": 6279,
      "Ġwealthy": 6280,
      "Ġincompet": 6281,
      "Ġdistribut": 6282,
      "etheless": 6283,
      "Ġtriumph": 6284,
      "Ġmoore": 6285,
      "Ġreminiscent": 6286,
      "Ġunforgettable": 6287,
      "Ġspecifically": 6288,
      "Ġlugosi": 6289,
      "Ġalbeit": 6290,
      "50": 6291,
      "can": 6292,
      "eve": 6293,
      "gie": 6294,
      "hill": 6295,
      "sel": 6296,
      "Ġiv": 6297,
      "Ġmam": 6298,
      "Ġmath": 6299,
      "Ġcig": 6300,
      "Ġcia": 6301,
      "Ġfortunately": 6302,
      "anim": 6303,
      "Ġpowell": 6304,
      "Ġlisa": 6305,
      "Ġwannabe": 6306,
      "atically": 6307,
      "stop": 6308,
      "iled": 6309,
      "leton": 6310,
      "Ġhire": 6311,
      "Ġholl": 6312,
      "Ġhbo": 6313,
      "Ġnine": 6314,
      "Ġreed": 6315,
      "eld": 6316,
      "eled": 6317,
      "oting": 6318,
      "isher": 6319,
      "isand": 6320,
      "isite": 6321,
      "change": 6322,
      "Ġsev": 6323,
      "then": 6324,
      "Ġdee": 6325,
      "raw": 6326,
      "Ġalb": 6327,
      "Ġvoy": 6328,
      "Ġsuther": 6329,
      "Ġpoison": 6330,
      "mentioned": 6331,
      "Ġpride": 6332,
      "Ġdislike": 6333,
      "redient": 6334,
      "Ġheat": 6335,
      "Ġheist": 6336,
      "Ġarn": 6337,
      "Ġarrog": 6338,
      "ipment": 6339,
      "Ġslave": 6340,
      "Ġcaric": 6341,
      "Ġweight": 6342,
      "Ġenjoyment": 6343,
      "Ġbuster": 6344,
      "Ġpersona": 6345,
      "Ġinspect": 6346,
      "Ġmissile": 6347,
      "grade": 6348,
      "Ġengaged": 6349,
      "Ġlacked": 6350,
      "Ġannoun": 6351,
      "Ġbrazil": 6352,
      "Ġbroke": 6353,
      "lett": 6354,
      "Ġandre": 6355,
      "Ġnorman": 6356,
      "Ġnonetheless": 6357,
      "Ġphotographer": 6358,
      "Ġstrip": 6359,
      "Ġattacked": 6360,
      "Ġrenting": 6361,
      "Ġrendition": 6362,
      "series": 6363,
      "Ġcapital": 6364,
      "Ġfulci": 6365,
      "Ġjulia": 6366,
      "Ġboredom": 6367,
      "Ġheavily": 6368,
      "Ġessence": 6369,
      "Ġsplit": 6370,
      "Ġchicken": 6371,
      "Ġgripping": 6372,
      "Ġexploit": 6373,
      "Ġingredient": 6374,
      "Ġcuriosity": 6375,
      "Ġdestroyed": 6376,
      "Ġhooked": 6377,
      "Ġinitially": 6378,
      "maybe": 6379,
      "Ġachievement": 6380,
      "Ġscratch": 6381,
      "Ġresolution": 6382,
      "Ġgoofy": 6383,
      "Ġwhoever": 6384,
      "Ġdictator": 6385,
      "Ġdentist": 6386,
      "Ġoutrageous": 6387,
      "Ġshoulder": 6388,
      "Ġgiallo": 6389,
      "Ġhepburn": 6390,
      "Ġsutherland": 6391,
      "hard": 6392,
      "hour": 6393,
      "ko": 6394,
      "kins": 6395,
      "name": 6396,
      "sl": 6397,
      "take": 6398,
      "Ġsoviet": 6399,
      "rell": 6400,
      "Ġcinder": 6401,
      "Ġpushed": 6402,
      "Ġtall": 6403,
      "Ġlust": 6404,
      "Ġbac": 6405,
      "Ġboll": 6406,
      "Ġdur": 6407,
      "Ġaired": 6408,
      "Ġastr": 6409,
      "itically": 6410,
      "entric": 6411,
      "ioni": 6412,
      "imag": 6413,
      "ssie": 6414,
      "Ġthread": 6415,
      "Ġshel": 6416,
      "road": 6417,
      "aphor": 6418,
      "Ġconnery": 6419,
      "Ġendearing": 6420,
      "Ġblast": 6421,
      "Ġfac": 6422,
      "plic": 6423,
      "Ġbetty": 6424,
      "Ġguilt": 6425,
      "Ġhorrific": 6426,
      "Ġ21": 6427,
      "Ġslim": 6428,
      "teen": 6429,
      "Ġcrook": 6430,
      "Ġcontract": 6431,
      "Ġstruck": 6432,
      "Ġsmug": 6433,
      "Ġresist": 6434,
      "Ġmarine": 6435,
      "Ġsubsequ": 6436,
      "Ġphoebe": 6437,
      "Ġfriendly": 6438,
      "Ġinstantly": 6439,
      "Ġexplicit": 6440,
      "Ġletting": 6441,
      "Ġacclaim": 6442,
      "obi": 6443,
      "Ġportion": 6444,
      "Ġwalker": 6445,
      "Ġsimpson": 6446,
      "Ġcorn": 6447,
      "Ġdiscus": 6448,
      "Ġretarded": 6449,
      "Ġdealt": 6450,
      "Ġguessing": 6451,
      "Ġadmitted": 6452,
      "Ġmagaz": 6453,
      "box": 6454,
      "Ġinfam": 6455,
      "Ġselfish": 6456,
      "Ġthrilling": 6457,
      "Ġ2000": 6458,
      "Ġrocket": 6459,
      "Ġlarger": 6460,
      "Ġimmig": 6461,
      "Ġmadness": 6462,
      "anyway": 6463,
      "Ġstreisand": 6464,
      "Ġcliche": 6465,
      "Ġmetaphor": 6466,
      "Ġsummary": 6467,
      "Ġequipment": 6468,
      "Ġgrandmother": 6469,
      "Ġdrawing": 6470,
      "Ġflawed": 6471,
      "Ġcanc": 6472,
      "Ġtroubled": 6473,
      "Ġappreciated": 6474,
      "Ġunlikely": 6475,
      "Ġstruggling": 6476,
      "Ġconcerning": 6477,
      "Ġluke": 6478,
      "Ġberg": 6479,
      "Ġintrigue": 6480,
      "Ġconsists": 6481,
      "Ġconvention": 6482,
      "Ġsubtlety": 6483,
      "Ġsearching": 6484,
      "Ġraped": 6485,
      "uracy": 6486,
      "Ġcompetent": 6487,
      "Ġwilson": 6488,
      "Ġchilling": 6489,
      "Ġstinker": 6490,
      "Ġaltogether": 6491,
      "Ġvulner": 6492,
      "Ġcharismatic": 6493,
      "Ġunbear": 6494,
      "Ġlloyd": 6495,
      "Ġhoffman": 6496,
      "Ġexercise": 6497,
      "bs": 6498,
      "bod": 6499,
      "ho": 6500,
      "hold": 6501,
      "mit": 6502,
      "site": 6503,
      "uge": 6504,
      "va": 6505,
      "vably": 6506,
      "wer": 6507,
      "west": 6508,
      "Ġq": 6509,
      "Ġsally": 6510,
      "Ġsill": 6511,
      "Ġcried": 6512,
      "Ġfoul": 6513,
      "Ġtempt": 6514,
      "ari": 6515,
      "arm": 6516,
      "Ġbless": 6517,
      "Ġbark": 6518,
      "Ġbunny": 6519,
      "Ġdal": 6520,
      "Ġgil": 6521,
      "Ġgall": 6522,
      "Ġax": 6523,
      "Ġeager": 6524,
      "Ġhust": 6525,
      "Ġstair": 6526,
      "chant": 6527,
      "Ġrug": 6528,
      "Ġfilth": 6529,
      "ida": 6530,
      "Ġchasing": 6531,
      "amor": 6532,
      "Ġliking": 6533,
      "Ġshy": 6534,
      "Ġshaw": 6535,
      "Ġalter": 6536,
      "eller": 6537,
      "Ġdiff": 6538,
      "Ġunp": 6539,
      "Ġunt": 6540,
      "udo": 6541,
      "Ġprostitute": 6542,
      "ptic": 6543,
      "aky": 6544,
      "bergh": 6545,
      "Ġflop": 6546,
      "Ġcontest": 6547,
      "Ġemma": 6548,
      "Ġkeith": 6549,
      "Ġhappiness": 6550,
      "Ġsmoking": 6551,
      "Ġsmooth": 6552,
      "Ġmarie": 6553,
      "ibal": 6554,
      "Ġboom": 6555,
      "Ġclassical": 6556,
      "Ġextent": 6557,
      "Ġfinan": 6558,
      "Ġtypically": 6559,
      "obal": 6560,
      "Ġrobber": 6561,
      "Ġsings": 6562,
      "Ġmurphy": 6563,
      "Ġrestaur": 6564,
      "Ġsoci": 6565,
      "Ġbehave": 6566,
      "Ġgrab": 6567,
      "Ġisab": 6568,
      "Ġdevelops": 6569,
      "Ġgodfather": 6570,
      "Ġdevoted": 6571,
      "Ġtechnically": 6572,
      "okay": 6573,
      "Ġridiculously": 6574,
      "Ġcampbell": 6575,
      "Ġjerk": 6576,
      "Ġsurvival": 6577,
      "Ġexplaining": 6578,
      "Ġcalm": 6579,
      "Ġclimb": 6580,
      "Ġporno": 6581,
      "Ġconsistently": 6582,
      "Ġrepresents": 6583,
      "Ġfalk": 6584,
      "Ġstanley": 6585,
      "Ġdutch": 6586,
      "Ġbirthday": 6587,
      "Ġdubbing": 6588,
      "Ġowen": 6589,
      "Ġimaginative": 6590,
      "Ġfelix": 6591,
      "Ġoverlooked": 6592,
      "Ġinnovative": 6593,
      "Ġstolen": 6594,
      "Ġhudson": 6595,
      "Ġmatthau": 6596,
      "Ġseventy": 6597,
      "Ġmagazine": 6598,
      "Ġrestaurant": 6599,
      "60": 6600,
      "bly": 6601,
      "dis": 6602,
      "eur": 6603,
      "found": 6604,
      "hal": 6605,
      "hou": 6606,
      "mail": 6607,
      "nity": 6608,
      "psy": 6609,
      "ran": 6610,
      "vous": 6611,
      "wy": 6612,
      "wow": 6613,
      "Ġsale": 6614,
      "Ġmand": 6615,
      "eni": 6616,
      "onse": 6617,
      "Ġtab": 6618,
      "Ġtoil": 6619,
      "Ġbib": 6620,
      "Ġdah": 6621,
      "ito": 6622,
      "Ġnod": 6623,
      "icle": 6624,
      "omic": 6625,
      "Ġstro": 6626,
      "ione": 6627,
      "chen": 6628,
      "Ġthick": 6629,
      "Ġchip": 6630,
      "Ġinject": 6631,
      "ulg": 6632,
      "Ġconven": 6633,
      "Ġoct": 6634,
      "istically": 6635,
      "Ġensu": 6636,
      "Ġpreach": 6637,
      "Ġros": 6638,
      "Ġupper": 6639,
      "oster": 6640,
      "Ġmeasure": 6641,
      "comedy": 6642,
      "Ġlifestyle": 6643,
      "Ġflag": 6644,
      "Ġremaining": 6645,
      "Ġnewsp": 6646,
      "Ġcompos": 6647,
      "Ġapocaly": 6648,
      "Ġawe": 6649,
      "Ġphillip": 6650,
      "Ġsinister": 6651,
      "Ġthoughtful": 6652,
      "Ġcarefully": 6653,
      "Ġaged": 6654,
      "Ġinvite": 6655,
      "Ġassault": 6656,
      "Ġelev": 6657,
      "Ġelegant": 6658,
      "Ġallowing": 6659,
      "Ġdefinite": 6660,
      "onym": 6661,
      "Ġdrivel": 6662,
      "Ġpatric": 6663,
      "Ġsolution": 6664,
      "Ġreturned": 6665,
      "Ġimportantly": 6666,
      "Ġsimilarity": 6667,
      "Ġpulling": 6668,
      "Ġcomplicated": 6669,
      "Ġillness": 6670,
      "Ġmidnight": 6671,
      "Ġburning": 6672,
      "Ġfranco": 6673,
      "Ġjumping": 6674,
      "Ġrecording": 6675,
      "Ġambitious": 6676,
      "related": 6677,
      "Ġmelodramatic": 6678,
      "Ġneighborhood": 6679,
      "Ġwilder": 6680,
      "Ġashamed": 6681,
      "minute": 6682,
      "Ġinventive": 6683,
      "Ġmutant": 6684,
      "Ġfonda": 6685,
      "Ġsimplistic": 6686,
      "Ġpossessed": 6687,
      "Ġgentleman": 6688,
      "Ġcynical": 6689,
      "Ġreunion": 6690,
      "Ġforty": 6691,
      "Ġconcentrate": 6692,
      "Ġpurchase": 6693,
      "Ġnomination": 6694,
      "Ġargento": 6695,
      "Ġcustom": 6696,
      "opsis": 6697,
      "Ġpearl": 6698,
      "Ġspielberg": 6699,
      "Ġhorrendous": 6700,
      "Ġmiyaz": 6701,
      "Ġcinderella": 6702,
      "Ġnewspaper": 6703,
      "bit": 6704,
      "bott": 6705,
      "cingly": 6706,
      "dan": 6707,
      "ev": 6708,
      "foot": 6709,
      "hem": 6710,
      "ji": 6711,
      "kill": 6712,
      "nic": 6713,
      "rument": 6714,
      "ski": 6715,
      "video": 6716,
      "zzy": 6717,
      "Ġselling": 6718,
      "erior": 6719,
      "Ġfirm": 6720,
      "Ġfortune": 6721,
      "Ġtap": 6722,
      "Ġtoss": 6723,
      "Ġlav": 6724,
      "Ġwack": 6725,
      "Ġwong": 6726,
      "Ġdud": 6727,
      "Ġga": 6728,
      "Ġeerie": 6729,
      "Ġhain": 6730,
      "Ġhog": 6731,
      "Ġhank": 6732,
      "Ġnar": 6733,
      "Ġnel": 6734,
      "Ġnap": 6735,
      "Ġnude": 6736,
      "oma": 6737,
      "eline": 6738,
      "Ġramp": 6739,
      "unf": 6740,
      "Ġthug": 6741,
      "Ġthumb": 6742,
      "Ġchest": 6743,
      "Ġchina": 6744,
      "opa": 6745,
      "Ġdear": 6746,
      "Ġshift": 6747,
      "Ġalm": 6748,
      "Ġalle": 6749,
      "Ġvoc": 6750,
      "utes": 6751,
      "Ġleigh": 6752,
      "Ġdiane": 6753,
      "Ġanch": 6754,
      "Ġoil": 6755,
      "Ġensem": 6756,
      "Ġpeak": 6757,
      "Ġlovable": 6758,
      "Ġaccess": 6759,
      "Ġattend": 6760,
      "Ġbelle": 6761,
      "Ġhappily": 6762,
      "Ġstaring": 6763,
      "Ġdecl": 6764,
      "Ġelabor": 6765,
      "Ġrelated": 6766,
      "Ġinstrument": 6767,
      "Ġboris": 6768,
      "Ġsteam": 6769,
      "rett": 6770,
      "ucky": 6771,
      "Ġharr": 6772,
      "Ġharlow": 6773,
      "Ġrepuls": 6774,
      "Ġsusan": 6775,
      "Ġ45": 6776,
      "exc": 6777,
      "Ġdoug": 6778,
      "Ġafore": 6779,
      "Ġmisunder": 6780,
      "Ġadmire": 6781,
      "Ġpsychiat": 6782,
      "Ġtransport": 6783,
      "spoil": 6784,
      "Ġmadonna": 6785,
      "Ġbritain": 6786,
      "Ġhype": 6787,
      "Ġnoble": 6788,
      "Ġodds": 6789,
      "Ġduo": 6790,
      "Ġatmospher": 6791,
      "Ġprofession": 6792,
      "Ġadapted": 6793,
      "Ġresponse": 6794,
      "Ġexecutive": 6795,
      "Ġangela": 6796,
      "Ġgriff": 6797,
      "Ġreached": 6798,
      "Ġoccurred": 6799,
      "Ġlabor": 6800,
      "Ġcanada": 6801,
      "Ġantonioni": 6802,
      "Ġprincipal": 6803,
      "Ġmarvelous": 6804,
      "remember": 6805,
      "Ġlyric": 6806,
      "Ġcrisis": 6807,
      "Ġimmensely": 6808,
      "Ġuncomfort": 6809,
      "Ġeccentric": 6810,
      "somet": 6811,
      "Ġcaricature": 6812,
      "Ġinfamous": 6813,
      "Ġensemble": 6814,
      "bird": 6815,
      "got": 6816,
      "gun": 6817,
      "high": 6818,
      "hile": 6819,
      "master": 6820,
      "nes": 6821,
      "ril": 6822,
      "uate": 6823,
      "vi": 6824,
      "Ġ=": 6825,
      "Ġcure": 6826,
      "Ġfog": 6827,
      "Ġfitting": 6828,
      "Ġpse": 6829,
      "Ġtaught": 6830,
      "ora": 6831,
      "orc": 6832,
      "orse": 6833,
      "Ġwes": 6834,
      "Ġbite": 6835,
      "still": 6836,
      "Ġeis": 6837,
      "Ġhab": 6838,
      "Ġrushed": 6839,
      "Ġcher": 6840,
      "Ġchor": 6841,
      "ami": 6842,
      "Ġkaren": 6843,
      "Ġshirt": 6844,
      "Ġvicious": 6845,
      "asingly": 6846,
      "enda": 6847,
      "Ġunw": 6848,
      "Ġange": 6849,
      "igan": 6850,
      "Ġyou": 6851,
      "Ġclosed": 6852,
      "Ġspare": 6853,
      "ciating": 6854,
      "Ġfaced": 6855,
      "place": 6856,
      "attan": 6857,
      "Ġanyways": 6858,
      "Ġflo": 6859,
      "Ġserved": 6860,
      "assion": 6861,
      "izard": 6862,
      "Ġ24": 6863,
      "Ġslick": 6864,
      "Ġslip": 6865,
      "oses": 6866,
      "ission": 6867,
      "versity": 6868,
      "Ġresur": 6869,
      "Ġresource": 6870,
      "Ġbelieving": 6871,
      "Ġgothic": 6872,
      "Ġawhile": 6873,
      "aneously": 6874,
      "Ġinsist": 6875,
      "Ġaudio": 6876,
      "Ġswing": 6877,
      "Ġglobal": 6878,
      "Ġengage": 6879,
      "Ġoffended": 6880,
      "Ġitem": 6881,
      "Ġredempt": 6882,
      "Ġmoron": 6883,
      "Ġexceptional": 6884,
      "Ġfailing": 6885,
      "Ġimagined": 6886,
      "Ġtodd": 6887,
      "Ġ2003": 6888,
      "Ġpsychopath": 6889,
      "Ġuniform": 6890,
      "Ġvirus": 6891,
      "Ġultra": 6892,
      "Ġcryst": 6893,
      "Ġacceptable": 6894,
      "Ġnaive": 6895,
      "Ġcircus": 6896,
      "Ġcontinued": 6897,
      "Ġcruise": 6898,
      "Ġtender": 6899,
      "Ġscarecrow": 6900,
      "gener": 6901,
      "Ġoccurs": 6902,
      "Ġthreatening": 6903,
      "worst": 6904,
      "Ġinsulting": 6905,
      "Ġbonus": 6906,
      "Ġloosely": 6907,
      "Ġsurrounded": 6908,
      "Ġsynopsis": 6909,
      "Ġcarlos": 6910,
      "Ġfrustrated": 6911,
      "Ġbathroom": 6912,
      "Ġgypsy": 6913,
      "Ġcurtis": 6914,
      "Ġinvolvement": 6915,
      "Ġinexplic": 6916,
      "Ġcorpse": 6917,
      "Ġemphasis": 6918,
      "oversial": 6919,
      "Ġexaggerated": 6920,
      "Ġpoignant": 6921,
      "Ġisolated": 6922,
      "Ġarnold": 6923,
      "Ġinspector": 6924,
      "Ġbergman": 6925,
      "agh": 6926,
      "bid": 6927,
      "best": 6928,
      "riel": 6929,
      "uch": 6930,
      "Ġian": 6931,
      "Ġmun": 6932,
      "oned": 6933,
      "Ġpound": 6934,
      "Ġpale": 6935,
      "Ġtam": 6936,
      "Ġtorm": 6937,
      "Ġlind": 6938,
      "Ġbin": 6939,
      "Ġburt": 6940,
      "Ġdre": 6941,
      "Ġdere": 6942,
      "Ġdawn": 6943,
      "Ġgor": 6944,
      "Ġgib": 6945,
      "Ġhiding": 6946,
      "icing": 6947,
      "Ġstu": 6948,
      "Ġstood": 6949,
      "Ġstall": 6950,
      "Ġstaff": 6951,
      "Ġstella": 6952,
      "otte": 6953,
      "Ġrot": 6954,
      "Ġrook": 6955,
      "ssy": 6956,
      "Ġcham": 6957,
      "ulf": 6958,
      "ulated": 6959,
      "Ġkr": 6960,
      "Ġkurt": 6961,
      "rial": 6962,
      "Ġshed": 6963,
      "Ġshir": 6964,
      "geon": 6965,
      "anded": 6966,
      "acted": 6967,
      "Ġleap": 6968,
      "Ġdiab": 6969,
      "Ġanal": 6970,
      "Ġmann": 6971,
      "Ġtimes": 6972,
      "Ġgoodness": 6973,
      "Ġprecious": 6974,
      "Ġpole": 6975,
      "Ġclark": 6976,
      "Ġspoke": 6977,
      "ocr": 6978,
      "shine": 6979,
      "Ġnotion": 6980,
      "Ġabrupt": 6981,
      "Ġemily": 6982,
      "Ġcompreh": 6983,
      "Ġgeneric": 6984,
      "Ġcheated": 6985,
      "Ġbitch": 6986,
      "Ġedison": 6987,
      "ubrick": 6988,
      "Ġcared": 6989,
      "Ġreasonable": 6990,
      "Ġoutfit": 6991,
      "Ġglenn": 6992,
      "Ġaccused": 6993,
      "Ġdefense": 6994,
      "Ġpresum": 6995,
      "Ġwalt": 6996,
      "umbled": 6997,
      "Ġattempted": 6998,
      "Ġmorris": 6999,
      "Ġvalley": 7000,
      "ructed": 7001,
      "ruciating": 7002,
      "unky": 7003,
      "Ġhunting": 7004,
      "Ġpopulation": 7005,
      "Ġlisted": 7006,
      "Ġdevoid": 7007,
      "Ġlaunch": 7008,
      "Ġcinematographer": 7009,
      "Ġpotentially": 7010,
      "Ġafford": 7011,
      "Ġairplane": 7012,
      "Ġfrankenstein": 7013,
      "Ġstrangely": 7014,
      "Ġhyper": 7015,
      "Ġdiscovery": 7016,
      "Ġcontroversial": 7017,
      "Ġhoped": 7018,
      "Ġrespected": 7019,
      "Ġpleasantly": 7020,
      "Ġmerc": 7021,
      "weight": 7022,
      "Ġbutch": 7023,
      "Ġsleeping": 7024,
      "Ġsensitive": 7025,
      "Ġattracted": 7026,
      "Ġessential": 7027,
      "Ġtortured": 7028,
      "Ġsquad": 7029,
      "Ġbottle": 7030,
      "Ġservant": 7031,
      "Ġchuckle": 7032,
      "Ġaccomplished": 7033,
      "Ġtranslation": 7034,
      "Ġicon": 7035,
      "Ġsymbolism": 7036,
      "Ġruthless": 7037,
      "Ġestablished": 7038,
      "Ġcabin": 7039,
      "Ġcatholic": 7040,
      "Ġcolonel": 7041,
      "Ġtremendous": 7042,
      "Ġadequate": 7043,
      "Ġwrapped": 7044,
      "Ġsibling": 7045,
      "Ġimmigrant": 7046,
      "Ġmiyazaki": 7047,
      "Ġatmospheric": 7048,
      "Ġangeles": 7049,
      "Ġderek": 7050,
      "bach": 7051,
      "cie": 7052,
      "fact": 7053,
      "happy": 7054,
      "last": 7055,
      "mel": 7056,
      "ux": 7057,
      "would": 7058,
      "Ġ_": 7059,
      "Ġsque": 7060,
      "erk": 7061,
      "erv": 7062,
      "Ġmall": 7063,
      "Ġfay": 7064,
      "Ġfist": 7065,
      "Ġtool": 7066,
      "Ġloo": 7067,
      "Ġlying": 7068,
      "Ġwizard": 7069,
      "Ġbart": 7070,
      "Ġbak": 7071,
      "ilted": 7072,
      "Ġaster": 7073,
      "els": 7074,
      "Ġstir": 7075,
      "etically": 7076,
      "ssa": 7077,
      "ssey": 7078,
      "very": 7079,
      "Ġinapp": 7080,
      "Ġinacc": 7081,
      "ulk": 7082,
      "ulate": 7083,
      "rael": 7084,
      "race": 7085,
      "Ġjig": 7086,
      "ellar": 7087,
      "Ġunoriginal": 7088,
      "atched": 7089,
      "allment": 7090,
      "Ġprequel": 7091,
      "Ġclock": 7092,
      "cience": 7093,
      "Ġblah": 7094,
      "erty": 7095,
      "Ġdisease": 7096,
      "Ġarab": 7097,
      "Ġrealise": 7098,
      "Ġorient": 7099,
      "Ġtea": 7100,
      "Ġdrown": 7101,
      "Ġdropped": 7102,
      "ichi": 7103,
      "Ġempath": 7104,
      "Ġdirectorial": 7105,
      "ifying": 7106,
      "Ġincl": 7107,
      "Ġpointed": 7108,
      "Ġexcruciating": 7109,
      "iculty": 7110,
      "Ġchildish": 7111,
      "mean": 7112,
      "Ġcox": 7113,
      "Ġsyd": 7114,
      "Ġexposed": 7115,
      "Ġsilence": 7116,
      "Ġdevast": 7117,
      "Ġtransition": 7118,
      "Ġannoyed": 7119,
      "Ġsleaze": 7120,
      "Ġcarter": 7121,
      "Ġgarbo": 7122,
      "Ġbabe": 7123,
      "Ġopposed": 7124,
      "Ġchecking": 7125,
      "Ġsecretary": 7126,
      "develop": 7127,
      "Ġweakness": 7128,
      "Ġrevealing": 7129,
      "Ġmotor": 7130,
      "Ġeuropa": 7131,
      "Ġinspiring": 7132,
      "Ġwasting": 7133,
      "Ġconnected": 7134,
      "Ġrecognized": 7135,
      "Ġdaff": 7136,
      "Ġprince": 7137,
      "Ġcollabor": 7138,
      "Ġiii": 7139,
      "Ġsarc": 7140,
      "Ġcardboard": 7141,
      "Ġcandid": 7142,
      "Ġprimarily": 7143,
      "Ġresponsibility": 7144,
      "Ġargument": 7145,
      "Ġstevens": 7146,
      "Ġaimed": 7147,
      "Ġstanwy": 7148,
      "Ġurge": 7149,
      "Ġjessica": 7150,
      "Ġbrando": 7151,
      "Ġcounterpart": 7152,
      "Ġincreasingly": 7153,
      "Ġhysterical": 7154,
      "Ġdivorce": 7155,
      "Ġguarantee": 7156,
      "Ġmodesty": 7157,
      "Ġalfred": 7158,
      "Ġastonishing": 7159,
      "Ġtourist": 7160,
      "Ġdifficulty": 7161,
      "Ġredemption": 7162,
      "bow": 7163,
      "bble": 7164,
      "cled": 7165,
      "honest": 7166,
      "ih": 7167,
      "lv": 7168,
      "lia": 7169,
      "rd": 7170,
      "sa": 7171,
      "¡Â": 7172,
      "Ġath": 7173,
      "Ġsaint": 7174,
      "rec": 7175,
      "Ġmes": 7176,
      "onaut": 7177,
      "Ġfade": 7178,
      "Ġbold": 7179,
      "oubt": 7180,
      "Ġgable": 7181,
      "Ġease": 7182,
      "Ġhk": 7183,
      "Ġhence": 7184,
      "Ġhollow": 7185,
      "Ġreyn": 7186,
      "Ġstare": 7187,
      "Ġstake": 7188,
      "Ġstated": 7189,
      "Ġstaged": 7190,
      "Ġrage": 7191,
      "Ġripped": 7192,
      "imer": 7193,
      "oln": 7194,
      "Ġkitch": 7195,
      "Ġkubrick": 7196,
      "rait": 7197,
      "Ġplausible": 7198,
      "robe": 7199,
      "Ġconqu": 7200,
      "Ġyelling": 7201,
      "Ġtroop": 7202,
      "estic": 7203,
      "ption": 7204,
      "Ġclay": 7205,
      "never": 7206,
      "Ġblend": 7207,
      "Ġblank": 7208,
      "Ġdiss": 7209,
      "Ġarc": 7210,
      "Ġgust": 7211,
      "Ġ22": 7212,
      "Ġtracy": 7213,
      "Ġabc": 7214,
      "olesc": 7215,
      "Ġoverrated": 7216,
      "Ġappalling": 7217,
      "Ġrecy": 7218,
      "Ġscripted": 7219,
      "Ġinstinct": 7220,
      "Ġinstallment": 7221,
      "cessor": 7222,
      "Ġswear": 7223,
      "Ġoutd": 7224,
      "Ġouting": 7225,
      "Ġglory": 7226,
      "Ġsuperfic": 7227,
      "Ġportrait": 7228,
      "Ġsadistic": 7229,
      "Ġsuspicious": 7230,
      "Ġcostner": 7231,
      "Ġsuccessfully": 7232,
      "Ġhilariously": 7233,
      "Ġpicking": 7234,
      "Ġstreep": 7235,
      "ipper": 7236,
      "Ġsweep": 7237,
      "Ġmarty": 7238,
      "Ġjeremy": 7239,
      "Ġcompliment": 7240,
      "Ġ.........": 7241,
      "Ġmotif": 7242,
      "Ġlucy": 7243,
      "Ġdeliber": 7244,
      "Ġtunnel": 7245,
      "Ġscarlett": 7246,
      "Ġbobby": 7247,
      "Ġlucas": 7248,
      "Ġcomfortable": 7249,
      "Ġchoreography": 7250,
      "Ġunintentional": 7251,
      "Ġsolely": 7252,
      "Ġassociated": 7253,
      "Ġmiserably": 7254,
      "Ġnicholson": 7255,
      "Ġdefeat": 7256,
      "Ġegyptian": 7257,
      "Ġelderly": 7258,
      "Ġjoseph": 7259,
      "Ġrepetitive": 7260,
      "Ġnemesis": 7261,
      "Ġmansion": 7262,
      "Ġwatson": 7263,
      "Ġsophisticated": 7264,
      "Ġalbum": 7265,
      "Ġtoilet": 7266,
      "excellent": 7267,
      "Ġaforementioned": 7268,
      "Ġhabit": 7269,
      "Ġdaffy": 7270,
      "'.": 7271,
      "'d": 7272,
      "bast": 7273,
      "ecessor": 7274,
      "faced": 7275,
      "iber": 7276,
      "ket": 7277,
      "lical": 7278,
      "nell": 7279,
      "oir": 7280,
      "obe": 7281,
      "Ã¡": 7282,
      "ince": 7283,
      "Ġmck": 7284,
      "Ġce": 7285,
      "Ġcue": 7286,
      "ingu": 7287,
      "Ġfid": 7288,
      "Ġpill": 7289,
      "Ġpoll": 7290,
      "Ġting": 7291,
      "Ġtank": 7292,
      "Ġtiger": 7293,
      "Ġlin": 7294,
      "Ġlinc": 7295,
      "Ġlinda": 7296,
      "Ġwore": 7297,
      "Ġbour": 7298,
      "Ġbollywood": 7299,
      "Ġgap": 7300,
      "Ġecon": 7301,
      "Ġhav": 7302,
      "Ġnancy": 7303,
      "icism": 7304,
      "Ġstyl": 7305,
      "aman": 7306,
      "Ġinher": 7307,
      "Ġincest": 7308,
      "Ġkle": 7309,
      "Ġkhan": 7310,
      "Ġmack": 7311,
      "Ġexchange": 7312,
      "Ġbew": 7313,
      "Ġbeating": 7314,
      "Ġunit": 7315,
      "istan": 7316,
      "derbergh": 7317,
      "Ġmuse": 7318,
      "Ġenorm": 7319,
      "Ġprecise": 7320,
      "abs": 7321,
      "Ġquinn": 7322,
      "Ġpron": 7323,
      "Ġuh": 7324,
      "Ġsail": 7325,
      "Ġbeth": 7326,
      "Ġhorrid": 7327,
      "Ġmayor": 7328,
      "Ġnewman": 7329,
      "awa": 7330,
      "ifi": 7331,
      "Ġenjoying": 7332,
      "Ġphant": 7333,
      "Ġharder": 7334,
      "Ġrecre": 7335,
      "Ġinsert": 7336,
      "Ġmonologue": 7337,
      "Ġinstit": 7338,
      "Ġschlock": 7339,
      "Ġworthless": 7340,
      "Ġshortly": 7341,
      "Ġwalsh": 7342,
      "Ġproviding": 7343,
      "Ġisrael": 7344,
      "Ġpredecessor": 7345,
      "Ġpatience": 7346,
      "guin": 7347,
      "Ġpsychotic": 7348,
      "Ġrocky": 7349,
      "ysis": 7350,
      "Ġpremiere": 7351,
      "Ġhamilton": 7352,
      "Ġmistaken": 7353,
      "etti": 7354,
      "Ġcomplain": 7355,
      "Ġsuperbly": 7356,
      "Ġsexuality": 7357,
      "Ġjuliet": 7358,
      "Ġausten": 7359,
      "Ġstatue": 7360,
      "Ġestate": 7361,
      "Ġsixty": 7362,
      "Ġluckily": 7363,
      "Ġunsett": 7364,
      "Ġlogical": 7365,
      "Ġunbelievably": 7366,
      "Ġtendency": 7367,
      "Ġbaseball": 7368,
      "Ġdisplayed": 7369,
      "urai": 7370,
      "Ġdepicts": 7371,
      "Ġachieved": 7372,
      "warming": 7373,
      "Ġpackage": 7374,
      "Ġarrive": 7375,
      "Ġquietly": 7376,
      "Ġsurrounding": 7377,
      "Ġcurrently": 7378,
      "Ġvolume": 7379,
      "Ġfrustration": 7380,
      "Ġpressure": 7381,
      "second": 7382,
      "Ġvulgar": 7383,
      "Ġmiserable": 7384,
      "Ġobscure": 7385,
      "through": 7386,
      "minded": 7387,
      "Ġcharlotte": 7388,
      "ythm": 7389,
      "Ġjournalist": 7390,
      "Ġsplendid": 7391,
      "Ġnotorious": 7392,
      "Ġhaines": 7393,
      "Ġchorus": 7394,
      "developed": 7395,
      "Ġstanwyck": 7396,
      "Ġreynolds": 7397,
      "Ġkitchen": 7398,
      "Ġlincoln": 7399,
      "big": 7400,
      "based": 7401,
      "car": 7402,
      "cil": 7403,
      "gger": 7404,
      "hetic": 7405,
      "run": 7406,
      "sman": 7407,
      "wing": 7408,
      "inate": 7409,
      "Ġsore": 7410,
      "Ġcoc": 7411,
      "enjoy": 7412,
      "Ġpad": 7413,
      "Ġpix": 7414,
      "Ġtob": 7415,
      "Ġturt": 7416,
      "oria": 7417,
      "Ġwet": 7418,
      "Ġwire": 7419,
      "Ġbaker": 7420,
      "ilight": 7421,
      "Ġego": 7422,
      "Ġhug": 7423,
      "Ġhob": 7424,
      "itate": 7425,
      "Ġnol": 7426,
      "icity": 7427,
      "Ġrebel": 7428,
      "othing": 7429,
      "Ġrul": 7430,
      "Ġrural": 7431,
      "Ġrita": 7432,
      "imately": 7433,
      "sson": 7434,
      "Ġsem": 7435,
      "idal": 7436,
      "Ġlift": 7437,
      "Ġinane": 7438,
      "than": 7439,
      "Ġkirk": 7440,
      "Ġjazz": 7441,
      "Ġvice": 7442,
      "antis": 7443,
      "Ġneo": 7444,
      "Ġneil": 7445,
      "Ġdiam": 7446,
      "Ġunion": 7447,
      "Ġuneven": 7448,
      "Ġworm": 7449,
      "Ġworn": 7450,
      "Ġworried": 7451,
      "Ġconve": 7452,
      "acked": 7453,
      "orted": 7454,
      "Ġmankind": 7455,
      "odile": 7456,
      "icking": 7457,
      "Ġquarter": 7458,
      "Ġwhit": 7459,
      "ocative": 7460,
      "Ġenters": 7461,
      "ensible": 7462,
      "awful": 7463,
      "Ġcompassion": 7464,
      "Ġmario": 7465,
      "Ġawa": 7466,
      "Ġrecover": 7467,
      "Ġboast": 7468,
      "why": 7469,
      "Ġinterestingly": 7470,
      "Ġextended": 7471,
      "Ġabsence": 7472,
      "Ġabsorb": 7473,
      "Ġmenacing": 7474,
      "Ġsoderbergh": 7475,
      "Ġappearing": 7476,
      "Ġmyst": 7477,
      "Ġeasier": 7478,
      "Ġadvise": 7479,
      "iently": 7480,
      "Ġstronger": 7481,
      "Ġpassenger": 7482,
      "Ġcolleague": 7483,
      "Ġ2004": 7484,
      "Ġplanning": 7485,
      "Ġpromin": 7486,
      "Ġsamurai": 7487,
      "Ġescaped": 7488,
      "Ġdestiny": 7489,
      "Ġcontroll": 7490,
      "Ġdelivering": 7491,
      "rama": 7492,
      "Ġsuggested": 7493,
      "boring": 7494,
      "Ġslightest": 7495,
      "Ġburst": 7496,
      "Ġfulfill": 7497,
      "Ġbutcher": 7498,
      "Ġhomage": 7499,
      "Ġpenguin": 7500,
      "Ġdisturbed": 7501,
      "Ġconsistent": 7502,
      "Ġdesperation": 7503,
      "Ġscientific": 7504,
      "Ġcloset": 7505,
      "Ġfoxx": 7506,
      "Ġgrows": 7507,
      "Ġafterward": 7508,
      "Ġbleak": 7509,
      "Ġconclud": 7510,
      "Ġnerve": 7511,
      "Ġoperation": 7512,
      "Ġspringer": 7513,
      "Ġpolitician": 7514,
      "Ġswimming": 7515,
      "Ġdorothy": 7516,
      "Ġbelongs": 7517,
      "Ġprinciple": 7518,
      "Ġbetrayal": 7519,
      "Ġyellow": 7520,
      "Ġborrowed": 7521,
      "Ġinevitable": 7522,
      "Ġpulp": 7523,
      "Ġchaos": 7524,
      "Ġpoliceman": 7525,
      "function": 7526,
      "Ġdedicated": 7527,
      "Ġriot": 7528,
      "Ġstrictly": 7529,
      "Ġinhabit": 7530,
      "Ġacknow": 7531,
      "Ġscheme": 7532,
      "unfortunately": 7533,
      "cur": 7534,
      "could": 7535,
      "far": 7536,
      "felt": 7537,
      "hr": 7538,
      "mouth": 7539,
      "pa": 7540,
      "pin": 7541,
      "pite": 7542,
      "shing": 7543,
      "title": 7544,
      "Ġum": 7545,
      "Ġsway": 7546,
      "Ġsull": 7547,
      "Ġmorm": 7548,
      "Ġmason": 7549,
      "Ġpom": 7550,
      "Ġpushing": 7551,
      "eday": 7552,
      "org": 7553,
      "Ġwishing": 7554,
      "Ġgest": 7555,
      "Ġaug": 7556,
      "Ġhes": 7557,
      "Ġhmm": 7558,
      "ieu": 7559,
      "Ġreact": 7560,
      "Ġstead": 7561,
      "Ġstumble": 7562,
      "ota": 7563,
      "isy": 7564,
      "Ġrust": 7565,
      "Ġseal": 7566,
      "Ġthrew": 7567,
      "Ġkitty": 7568,
      "Ġkudos": 7569,
      "Ġshining": 7570,
      "Ġjake": 7571,
      "Ġjord": 7572,
      "Ġmast": 7573,
      "Ġexorc": 7574,
      "people": 7575,
      "Ġdire": 7576,
      "Ġunple": 7577,
      "ousing": 7578,
      "Ġenlight": 7579,
      "Ġclothing": 7580,
      "Ġspike": 7581,
      "Ġimperson": 7582,
      "Ġendure": 7583,
      "agan": 7584,
      "Ġadolesc": 7585,
      "Ġamuse": 7586,
      "perhaps": 7587,
      "type": 7588,
      "shi": 7589,
      "Ġflood": 7590,
      "Ġguitar": 7591,
      "izz": 7592,
      "izable": 7593,
      "Ġminus": 7594,
      "Ġtalked": 7595,
      "phan": 7596,
      "avoid": 7597,
      "Ġintent": 7598,
      "Ġsurpass": 7599,
      "Ġincons": 7600,
      "Ġweather": 7601,
      "Ġchess": 7602,
      "Ġphrase": 7603,
      "Ġsupply": 7604,
      "Ġfanatic": 7605,
      "Ġkidding": 7606,
      "ublic": 7607,
      "entionally": 7608,
      "Ġgifted": 7609,
      "Ġ35": 7610,
      "Ġoutcome": 7611,
      "Ġversus": 7612,
      "Ġtyler": 7613,
      "Ġpolitically": 7614,
      "Ġdepend": 7615,
      "attered": 7616,
      "Ġskate": 7617,
      "Ġcoast": 7618,
      "Ġdistance": 7619,
      "Ġalongside": 7620,
      "Ġsmaller": 7621,
      "Ġpaci": 7622,
      "Ġgrasp": 7623,
      "Ġmasterful": 7624,
      "Ġdealer": 7625,
      "enna": 7626,
      "Ġmisle": 7627,
      "eryl": 7628,
      "boat": 7629,
      "Ġspacey": 7630,
      "Ġwoody": 7631,
      "Ġreturning": 7632,
      "respect": 7633,
      "Ġconvincingly": 7634,
      "Ġaussie": 7635,
      "Ġavoided": 7636,
      "force": 7637,
      "Ġdamon": 7638,
      "Ġdownhill": 7639,
      "Ġjustify": 7640,
      "Ġcuster": 7641,
      "Ġrecognition": 7642,
      "Ġluci": 7643,
      "Ġrecorded": 7644,
      "Ġtraveling": 7645,
      "Ġconvol": 7646,
      "Ġimprove": 7647,
      "Ġimproved": 7648,
      "Ġsquare": 7649,
      "Ġdepicting": 7650,
      "Ġpacked": 7651,
      "Ġchallenging": 7652,
      "Ġhostage": 7653,
      "Ġranch": 7654,
      "break": 7655,
      "Ġprimitive": 7656,
      "Ġjune": 7657,
      "Ġsucceeded": 7658,
      "Ġtemper": 7659,
      "Ġrhythm": 7660,
      "Ġlayer": 7661,
      "Ġresemblance": 7662,
      "Ġnerd": 7663,
      "Ġformulaic": 7664,
      "Ġgradually": 7665,
      "Ġvenge": 7666,
      "Ġunintentionally": 7667,
      "Ġwebsite": 7668,
      "Ġagrees": 7669,
      "Ġwrestling": 7670,
      "Ġfrost": 7671,
      "arette": 7672,
      "Ġegg": 7673,
      "despite": 7674,
      "Ġkennedy": 7675,
      "Ġforbidden": 7676,
      "Ġcrocodile": 7677,
      "Ġoverwhelming": 7678,
      "Ġunderwater": 7679,
      "Ġswedish": 7680,
      "Ġclumsy": 7681,
      "Ġdynamic": 7682,
      "Ġsupreme": 7683,
      "Ġincompetent": 7684,
      "Ġcigarette": 7685,
      "Ġastronaut": 7686,
      "Ġsilliness": 7687,
      "Ġpatricia": 7688,
      "Ġnelson": 7689,
      "Ġgriffith": 7690,
      "Ġuncomfortable": 7691,
      "Ġchamber": 7692,
      "Ġsuperficial": 7693,
      "30": 7694,
      "bal": 7695,
      "corn": 7696,
      "dog": 7697,
      "gra": 7698,
      "gement": 7699,
      "kh": 7700,
      "mn": 7701,
      "ps": 7702,
      "put": 7703,
      "paced": 7704,
      "wind": 7705,
      "word": 7706,
      "Ġally": 7707,
      "Ġille": 7708,
      "Ġsag": 7709,
      "Ġsappy": 7710,
      "Ġmish": 7711,
      "Ġmole": 7712,
      "Ġmolly": 7713,
      "Ġcus": 7714,
      "Ġfx": 7715,
      "Ġfren": 7716,
      "Ġfried": 7717,
      "Ġtent": 7718,
      "Ġtail": 7719,
      "Ġbant": 7720,
      "Ġbaff": 7721,
      "Ġdave": 7722,
      "Ġdarn": 7723,
      "Ġdys": 7724,
      "Ġgoo": 7725,
      "Ġgand": 7726,
      "Ġgender": 7727,
      "Ġhut": 7728,
      "ovich": 7729,
      "Ġstim": 7730,
      "Ġstab": 7731,
      "Ġstilted": 7732,
      "Ġrag": 7733,
      "Ġrail": 7734,
      "Ġrude": 7735,
      "ima": 7736,
      "opter": 7737,
      "Ġker": 7738,
      "Ġkyle": 7739,
      "Ġdeer": 7740,
      "cket": 7741,
      "emic": 7742,
      "Ġventure": 7743,
      "Ġexceed": 7744,
      "Ġunwatch": 7745,
      "Ġmaniac": 7746,
      "Ġtrade": 7747,
      "Ġtroma": 7748,
      "Ġperpet": 7749,
      "uded": 7750,
      "Ġprey": 7751,
      "about": 7752,
      "neck": 7753,
      "Ġimitation": 7754,
      "agement": 7755,
      "Ġbaddie": 7756,
      "Ġprank": 7757,
      "Ġwhim": 7758,
      "osing": 7759,
      "Ġdisliked": 7760,
      "Ġmeander": 7761,
      "pled": 7762,
      "Ġamanda": 7763,
      "Ġjoined": 7764,
      "Ġfever": 7765,
      "Ġorphan": 7766,
      "Ġdesigner": 7767,
      "Ġ23": 7768,
      "Ġsimult": 7769,
      "Ġnewly": 7770,
      "ensor": 7771,
      "aware": 7772,
      "Ġcarr": 7773,
      "Ġhighest": 7774,
      "Ġmarch": 7775,
      "Ġyoungster": 7776,
      "Ġrecon": 7777,
      "Ġindiffer": 7778,
      "Ġsteel": 7779,
      "Ġunfair": 7780,
      "Ġskit": 7781,
      "Ġskater": 7782,
      "ographic": 7783,
      "Ġcreativity": 7784,
      "Ġrepublic": 7785,
      "Ġuseful": 7786,
      "Ġnamely": 7787,
      "Ġcommented": 7788,
      "Ã©e": 7789,
      "Ġjackass": 7790,
      "Ġbreed": 7791,
      "Ġgreed": 7792,
      "Ġinfant": 7793,
      "Ġgeek": 7794,
      "Ġprompt": 7795,
      "Ġordered": 7796,
      "Ġsolve": 7797,
      "Ġjamie": 7798,
      "Ġescap": 7799,
      "Ġstraightforward": 7800,
      "Ġmelting": 7801,
      "Ġclaire": 7802,
      "Ġscenes": 7803,
      "Ġdragged": 7804,
      "Ġbeaten": 7805,
      "Ġsandler": 7806,
      "Ġlogan": 7807,
      "check": 7808,
      "Ġbully": 7809,
      "Ġsatisfied": 7810,
      "Ġdeserted": 7811,
      "Ġjewel": 7812,
      "Ġmildred": 7813,
      "Ġcasual": 7814,
      "Ġinvestigation": 7815,
      "Ġeighty": 7816,
      "Ġvictoria": 7817,
      "Ġmanipulative": 7818,
      "Ġwardrobe": 7819,
      "Ġbeneath": 7820,
      "Ġeducational": 7821,
      "Ġcannon": 7822,
      "Ġcannibal": 7823,
      "Ġproceeds": 7824,
      "Ġtransformation": 7825,
      "Ġcoffee": 7826,
      "Ġtiresome": 7827,
      "Ġgabriel": 7828,
      "Ġreduced": 7829,
      "Ġspooky": 7830,
      "Ġiraq": 7831,
      "Ġdalton": 7832,
      "Ġbiblical": 7833,
      "Ġcomposer": 7834,
      "onymous": 7835,
      "Ġpseudo": 7836,
      "Ġmormon": 7837,
      "binder": 7838,
      "fan": 7839,
      "iant": 7840,
      "kel": 7841,
      "loved": 7842,
      "mart": 7843,
      "pire": 7844,
      "uu": 7845,
      "Ã¨": 7846,
      "Ġ]": 7847,
      "Ġil": 7848,
      "inity": 7849,
      "rep": 7850,
      "Ġmim": 7851,
      "Ġmum": 7852,
      "Ġmund": 7853,
      "Ġcensor": 7854,
      "eng": 7855,
      "Ġtople": 7856,
      "oric": 7857,
      "Ġlit": 7858,
      "Ġbast": 7859,
      "Ġbates": 7860,
      "atisf": 7861,
      "Ġdill": 7862,
      "Ġdazz": 7863,
      "Ġgad": 7864,
      "Ġgere": 7865,
      "ilarly": 7866,
      "Ġaz": 7867,
      "Ġapt": 7868,
      "Ġnun": 7869,
      "ics": 7870,
      "icopter": 7871,
      "Ġrein": 7872,
      "Ġreef": 7873,
      "Ġstress": 7874,
      "cha": 7875,
      "Ġroth": 7876,
      "Ġsebast": 7877,
      "olph": 7878,
      "Ġliv": 7879,
      "Ġlibert": 7880,
      "Ġdeed": 7881,
      "rah": 7882,
      "Ġshah": 7883,
      "Ġvig": 7884,
      "Ġvib": 7885,
      "Ġmaid": 7886,
      "Ġplight": 7887,
      "Ġunm": 7888,
      "Ġody": 7889,
      "Ġmanh": 7890,
      "ogical": 7891,
      "Ġpoetic": 7892,
      "Ġspade": 7893,
      "Ġsomeday": 7894,
      "agn": 7895,
      "Ġquit": 7896,
      "Ġadorable": 7897,
      "Ġuwe": 7898,
      "Ġdismiss": 7899,
      "Ġgreatness": 7900,
      "Ġfluff": 7901,
      "Ġbette": 7902,
      "Ġcausing": 7903,
      "Ġattached": 7904,
      "Ġabys": 7905,
      "phew": 7906,
      "Ġsimilarly": 7907,
      "Ġintimate": 7908,
      "Ġkeen": 7909,
      "Ġcarpent": 7910,
      "Ġreserved": 7911,
      "Ġterry": 7912,
      "Ġcheek": 7913,
      "Ġoveracting": 7914,
      "Ġenjoys": 7915,
      "Ġphony": 7916,
      "Ġburied": 7917,
      "Ġedition": 7918,
      "Ġedgy": 7919,
      "Ġhelicopter": 7920,
      "Ġexploration": 7921,
      "Ġlasting": 7922,
      "Ġoutlaw": 7923,
      "Ġabsent": 7924,
      "Ġskull": 7925,
      "ucker": 7926,
      "Ġharvey": 7927,
      "Ġdramat": 7928,
      "Ġdetract": 7929,
      "Ġmurderous": 7930,
      "Ġdarker": 7931,
      "Ġchristie": 7932,
      "Ġsadd": 7933,
      "Ġcredited": 7934,
      "existent": 7935,
      "Ġdrift": 7936,
      "Ġbrav": 7937,
      "Ġpopcorn": 7938,
      "Ġfemme": 7939,
      "Ġ2007": 7940,
      "Ġgarfield": 7941,
      "Ġ1983": 7942,
      "Ġsaman": 7943,
      "Ġconstructed": 7944,
      "Ġnearby": 7945,
      "Ġ1972": 7946,
      "Ġsigned": 7947,
      "Ġvein": 7948,
      "Ġwildly": 7949,
      "Ġ1968": 7950,
      "Ġsheet": 7951,
      "Ġhench": 7952,
      "Ġdaring": 7953,
      "Ġconvict": 7954,
      "Ġambition": 7955,
      "Ġjuven": 7956,
      "Ġdivine": 7957,
      "Ġinfluenced": 7958,
      "Ġdepression": 7959,
      "Ġtonight": 7960,
      "Ġnonsens": 7961,
      "Ġpunishment": 7962,
      "Ġeaten": 7963,
      "Ġprepare": 7964,
      "Ġunderstated": 7965,
      "Ġbanal": 7966,
      "two": 7967,
      "fighter": 7968,
      "Ġsincerely": 7969,
      "Ġalternative": 7970,
      "Ġphotographed": 7971,
      "Ġarguably": 7972,
      "Ġcameron": 7973,
      "Ġrobbins": 7974,
      "Ġalcohol": 7975,
      "Ġkarloff": 7976,
      "Ġresembles": 7977,
      "Ġaccompanied": 7978,
      "Ġpiper": 7979,
      "ophobic": 7980,
      "Ġhughes": 7981,
      "Ġadmittedly": 7982,
      "Ġnarc": 7983,
      "Ġeisenstein": 7984,
      "aghetti": 7985,
      "Ġstallone": 7986,
      "Ġinappropriate": 7987,
      "Ġrecycled": 7988,
      "Ġunsettling": 7989,
      "Ġunpleasant": 7990,
      "Ġconvoluted": 7991,
      "Ġunwatchable": 7992,
      "Ġsimultaneously": 7993,
      "Ġtopless": 7994,
      "Ġcarpenter": 7995,
      "bie": 7996,
      "bone": 7997,
      "hy": 7998,
      "sur": 7999,
      "uve": 8000,
      "uity": 8001,
      "uable": 8002,
      "yo": 8003,
      "Ġ{": 8004,
      "Ġ~": 8005,
      "Ġmode": 8006,
      "Ġmtv": 8007,
      "Ġcoo": 8008,
      "Ġfought": 8009,
      "Ġpg": 8010,
      "Ġpump": 8011,
      "Ġtan": 8012,
      "Ġtang": 8013,
      "arian": 8014,
      "Ġlur": 8015,
      "Ġwt": 8016,
      "Ġwont": 8017,
      "Ġbim": 8018,
      "Ġbutter": 8019,
      "Ġbrend": 8020,
      "step": 8021,
      "Ġdene": 8022,
      "Ġgw": 8023,
      "Ġgim": 8024,
      "Ġgolf": 8025,
      "Ġaven": 8026,
      "Ġhan": 8027,
      "Ġned": 8028,
      "Ġniel": 8029,
      "ceived": 8030,
      "Ġrit": 8031,
      "Ġrif": 8032,
      "Ġrising": 8033,
      "adv": 8034,
      "Ġfilms": 8035,
      "olate": 8036,
      "idy": 8037,
      "Ġchronic": 8038,
      "sect": 8039,
      "Ġkap": 8040,
      "Ġsho": 8041,
      "Ġalvin": 8042,
      "Ġalike": 8043,
      "Ġvent": 8044,
      "asion": 8045,
      "Ġscot": 8046,
      "endo": 8047,
      "Ġbefriend": 8048,
      "Ġnegle": 8049,
      "quisite": 8050,
      "Ġcharacteristic": 8051,
      "Ġprepar": 8052,
      "mented": 8053,
      "Ġprue": 8054,
      "Ġblur": 8055,
      "Ġwhis": 8056,
      "Ġdiscer": 8057,
      "pless": 8058,
      "plo": 8059,
      "Ġtwilight": 8060,
      "Ġflam": 8061,
      "Ġyears": 8062,
      "Ġdesired": 8063,
      "Ġcrush": 8064,
      "Ġintim": 8065,
      "Ġcarrad": 8066,
      "Ġwarrant": 8067,
      "Ġobt": 8068,
      "Ġobst": 8069,
      "Ġsuburb": 8070,
      "Ġellen": 8071,
      "Ġproducing": 8072,
      "Ġesp": 8073,
      "Ġaggress": 8074,
      "white": 8075,
      "Ġaddress": 8076,
      "Ġtrio": 8077,
      "Ġtribe": 8078,
      "Ġblackmail": 8079,
      "attering": 8080,
      "Ġearl": 8081,
      "Ġmenace": 8082,
      "Ġhousehold": 8083,
      "Ġretro": 8084,
      "Ġdefinition": 8085,
      "Ġdistant": 8086,
      "Ġmessed": 8087,
      "Ġwaited": 8088,
      "played": 8089,
      "Ġlively": 8090,
      "Ġsnap": 8091,
      "Ġdemise": 8092,
      "Ġcostello": 8093,
      "cla": 8094,
      "guy": 8095,
      "ucci": 8096,
      "Ġlegal": 8097,
      "Ġ1988": 8098,
      "Ġrichardson": 8099,
      "Ġ1995": 8100,
      "Ġsuggestion": 8101,
      "Ġsunshine": 8102,
      "Ġposted": 8103,
      "Ġclimactic": 8104,
      "Ġhomer": 8105,
      "Ġpalance": 8106,
      "Ġ1945": 8107,
      "Ġtasteless": 8108,
      "Ġberlin": 8109,
      "Ġsalv": 8110,
      "Ġrequires": 8111,
      "ifting": 8112,
      "Ġtends": 8113,
      "Ġbrutally": 8114,
      "Ġmiracle": 8115,
      "Ġgrip": 8116,
      "genre": 8117,
      "Ġkarate": 8118,
      "Ġpanic": 8119,
      "Ġbriefly": 8120,
      "Ġpassionate": 8121,
      "Ġprogramme": 8122,
      "Ġintrigued": 8123,
      "aaaa": 8124,
      "Ġhideous": 8125,
      "Ġtemple": 8126,
      "Ġwitnessed": 8127,
      "Ġclueless": 8128,
      "Ġhatred": 8129,
      "Ġinvestigate": 8130,
      "Ġbullock": 8131,
      "Ġbrooklyn": 8132,
      "Ġobliv": 8133,
      "Ġvirginia": 8134,
      "Ġimprovement": 8135,
      "Ġfrequent": 8136,
      "Ġlaurel": 8137,
      "Ġolivia": 8138,
      "Ġagreed": 8139,
      "finally": 8140,
      "Ġcharisma": 8141,
      "Ġskeleton": 8142,
      "Ġirrele": 8143,
      "Ġdistracting": 8144,
      "human": 8145,
      "Ġnostalgia": 8146,
      "Ġencourage": 8147,
      "Ġblatant": 8148,
      "esterday": 8149,
      "Ġjealous": 8150,
      "Ġcaptivating": 8151,
      "Ġpirate": 8152,
      "Ġunbearable": 8153,
      "Ġfinancial": 8154,
      "Ġensues": 8155,
      "Ġvocal": 8156,
      "something": 8157,
      "Ġshirley": 8158,
      "Ġmuseum": 8159,
      "Ġadolescent": 8160,
      "Ġcusack": 8161,
      "Ġliberty": 8162,
      "Ġjuvenile": 8163,
      "Ġdeneuve": 8164,
      "Ġcarradine": 8165,
      "acious": 8166,
      "bon": 8167,
      "cause": 8168,
      "daughter": 8169,
      "fly": 8170,
      "hop": 8171,
      "hist": 8172,
      "holic": 8173,
      "kish": 8174,
      "met": 8175,
      "mur": 8176,
      "mus": 8177,
      "mons": 8178,
      "note": 8179,
      "rim": 8180,
      "wick": 8181,
      "yet": 8182,
      "yard": 8183,
      "Ġ}": 8184,
      "Ġsig": 8185,
      "erner": 8186,
      "Ġmul": 8187,
      "Ġcoward": 8188,
      "Ġfrog": 8189,
      "Ġfoster": 8190,
      "ani": 8191,
      "Ġpy": 8192,
      "Ġpic": 8193,
      "Ġpam": 8194,
      "Ġpaz": 8195,
      "Ġpony": 8196,
      "Ġtame": 8197,
      "Ġtip": 8198,
      "Ġbass": 8199,
      "stage": 8200,
      "Ġdane": 8201,
      "Ġdirt": 8202,
      "Ġgamb": 8203,
      "Ġaute": 8204,
      "Ġhis": 8205,
      "itated": 8206,
      "Ġnik": 8207,
      "icidal": 8208,
      "Ġrely": 8209,
      "eling": 8210,
      "child": 8211,
      "Ġrave": 8212,
      "ssbinder": 8213,
      "Ġinjust": 8214,
      "Ġkent": 8215,
      "Ġdeaf": 8216,
      "Ġshred": 8217,
      "emet": 8218,
      "emark": 8219,
      "Ġscope": 8220,
      "Ġexotic": 8221,
      "iller": 8222,
      "Ġnephew": 8223,
      "Ġunli": 8224,
      "Ġgoat": 8225,
      "Ġenhan": 8226,
      "Ġpreced": 8227,
      "pton": 8228,
      "Ġspaghetti": 8229,
      "akest": 8230,
      "Ġblake": 8231,
      "Ġblowing": 8232,
      "Ġfassbinder": 8233,
      "austr": 8234,
      "peror": 8235,
      "ocaust": 8236,
      "Ġorange": 8237,
      "Ġcape": 8238,
      "Ġcriter": 8239,
      "Ġemperor": 8240,
      "Ġhumili": 8241,
      "Ġcheat": 8242,
      "Ġmartha": 8243,
      "Ġoverdone": 8244,
      "Ġrelies": 8245,
      "Ġwondered": 8246,
      "Ġfarmer": 8247,
      "prov": 8248,
      "Ġaging": 8249,
      "Ġagenda": 8250,
      "Ġconscience": 8251,
      "xture": 8252,
      "Ġglover": 8253,
      "Ġtrier": 8254,
      "Ġtriangle": 8255,
      "Ġcoh": 8256,
      "Ġcoherent": 8257,
      "Ġunderstandable": 8258,
      "Ġparan": 8259,
      "Ġannie": 8260,
      "Ġmyers": 8261,
      "Ġgenerous": 8262,
      "Ġavid": 8263,
      "Ġregion": 8264,
      "ennett": 8265,
      "Ġcapturing": 8266,
      "Ġmemor": 8267,
      "Ġsuspend": 8268,
      "Ġdeveloping": 8269,
      "Ġhuh": 8270,
      "Ġinferior": 8271,
      "Ġdavy": 8272,
      "Ġpsychic": 8273,
      "Ġimmort": 8274,
      "Ġracial": 8275,
      "Ġgundam": 8276,
      "ribute": 8277,
      "swe": 8278,
      "Ġpublish": 8279,
      "Ġcomplaining": 8280,
      "Ġillogical": 8281,
      "Ġtimothy": 8282,
      "Ġsurviving": 8283,
      "Ġcleverly": 8284,
      "Ġexpressed": 8285,
      "Ġintroduce": 8286,
      "Ġrandy": 8287,
      "Ġrolled": 8288,
      "Ġkicked": 8289,
      "Ġrespond": 8290,
      "luster": 8291,
      "Ġtrademark": 8292,
      "Ġbedroom": 8293,
      "Ġsalman": 8294,
      "Ġsandy": 8295,
      "Ġalexand": 8296,
      "Ġrequire": 8297,
      "Ġrambo": 8298,
      "Ġmoody": 8299,
      "Ġambig": 8300,
      "Ġeastern": 8301,
      "Ġintentionally": 8302,
      "eyed": 8303,
      "Ġimplausible": 8304,
      "Ġdescribes": 8305,
      "Ġwounded": 8306,
      "Ġexplosive": 8307,
      "Ġaccomplish": 8308,
      "rehensible": 8309,
      "Ġdemonstrates": 8310,
      "uddled": 8311,
      "Ġmexico": 8312,
      "Ġexhib": 8313,
      "Ġhypnot": 8314,
      "Ġdoomed": 8315,
      "walk": 8316,
      "Ġpedest": 8317,
      "Ġphilosophical": 8318,
      "Ġflorida": 8319,
      "Ġdodge": 8320,
      "Ġalcoholic": 8321,
      "Ġensure": 8322,
      "Ġnavy": 8323,
      "Ġinjury": 8324,
      "Ġincorpor": 8325,
      "Ġsurfing": 8326,
      "Ġpuzzle": 8327,
      "Ġriveting": 8328,
      "Ġinfected": 8329,
      "Ġarrogant": 8330,
      "Ġelaborate": 8331,
      "Ġanalysis": 8332,
      "Ġdeliberately": 8333,
      "Ġdiamond": 8334,
      "Ġjordan": 8335,
      "Ġirrelevant": 8336,
      "Ġinjustice": 8337,
      "Ġcriterion": 8338,
      "13": 8339,
      "cover": 8340,
      "dri": 8341,
      "dep": 8342,
      "eff": 8343,
      "hance": 8344,
      "hoe": 8345,
      "iour": 8346,
      "jer": 8347,
      "jay": 8348,
      "po": 8349,
      "post": 8350,
      "rum": 8351,
      "sper": 8352,
      "tz": 8353,
      "too": 8354,
      "vity": 8355,
      "Ġard": 8356,
      "Ġought": 8357,
      "Ġsau": 8358,
      "Ġmute": 8359,
      "Ġmelt": 8360,
      "Ġcemet": 8361,
      "oner": 8362,
      "anch": 8363,
      "Ġpap": 8364,
      "Ġpatch": 8365,
      "eder": 8366,
      "Ġlun": 8367,
      "Ġlup": 8368,
      "Ġliner": 8369,
      "Ġbost": 8370,
      "Ġbumbling": 8371,
      "Ġbrig": 8372,
      "stant": 8373,
      "Ġdame": 8374,
      "Ġdiet": 8375,
      "Ġnaught": 8376,
      "Ġnathan": 8377,
      "Ġreci": 8378,
      "omy": 8379,
      "Ġstatic": 8380,
      "Ġstellar": 8381,
      "Ġrant": 8382,
      "Ġrope": 8383,
      "adle": 8384,
      "Ġchand": 8385,
      "verted": 8386,
      "urately": 8387,
      "Ġjet": 8388,
      "Ġjol": 8389,
      "Ġmail": 8390,
      "Ġmacy": 8391,
      "Ġplod": 8392,
      "roid": 8393,
      "actor": 8394,
      "oodle": 8395,
      "Ġsust": 8396,
      "Ġsuff": 8397,
      "Ġleather": 8398,
      "Ġyesterday": 8399,
      "ardon": 8400,
      "Ġenhance": 8401,
      "Ġpose": 8402,
      "Ġclo": 8403,
      "Ġcloud": 8404,
      "Ġclaustr": 8405,
      "Ġspine": 8406,
      "Ġende": 8407,
      "Ġfacing": 8408,
      "plete": 8409,
      "Ġmechan": 8410,
      "Ġarist": 8411,
      "Ġrealm": 8412,
      "Ġfee": 8413,
      "Ġfeat": 8414,
      "Ġnotably": 8415,
      "Ġgrate": 8416,
      "Ġserge": 8417,
      "ivan": 8418,
      "Ġremove": 8419,
      "Ġdropping": 8420,
      "Ġtrained": 8421,
      "Ġperforms": 8422,
      "fferson": 8423,
      "phone": 8424,
      "Ġcontained": 8425,
      "Ġintric": 8426,
      "Ġcomposition": 8427,
      "Ġsmell": 8428,
      "Ġsettle": 8429,
      "Ġmarx": 8430,
      "Ġoverlong": 8431,
      "aney": 8432,
      "Ġreluct": 8433,
      "Ġedgar": 8434,
      "Ġappla": 8435,
      "Ġbasket": 8436,
      "who": 8437,
      "Ġconserv": 8438,
      "Ġreasonably": 8439,
      "airs": 8440,
      "Ġdelicious": 8441,
      "Ġglamor": 8442,
      "Ġrunner": 8443,
      "Ġsteer": 8444,
      "ographed": 8445,
      "Ġreply": 8446,
      "Ġcorb": 8447,
      "Ġbarg": 8448,
      "Ġbarbra": 8449,
      "Ġlackluster": 8450,
      "Ġtitanic": 8451,
      "Ġsadness": 8452,
      "Ġconsideration": 8453,
      "Ġgreg": 8454,
      "Ġgreedy": 8455,
      "ĠÂĳ": 8456,
      "Ġclosest": 8457,
      "Ġguessed": 8458,
      "Ġdespair": 8459,
      "Ġ2002": 8460,
      "Ġtechnic": 8461,
      "renching": 8462,
      "Ġ1987": 8463,
      "Ġstepmother": 8464,
      "Ġdiscovering": 8465,
      "Ġcontrary": 8466,
      "brow": 8467,
      "Ġ1971": 8468,
      "Ġnarrow": 8469,
      "Ġdamage": 8470,
      "Ġdamme": 8471,
      "ramer": 8472,
      "Ġ1999": 8473,
      "Ġsurvived": 8474,
      "Ġcancer": 8475,
      "Ġtermin": 8476,
      "Ġmeaningless": 8477,
      "Ġintroduces": 8478,
      "Ġprize": 8479,
      "vesty": 8480,
      "Ġreferring": 8481,
      "Ġarmed": 8482,
      "Ġliterature": 8483,
      "Ġbutler": 8484,
      "Ġfascination": 8485,
      "Ġregarded": 8486,
      "Ġrepeating": 8487,
      "okes": 8488,
      "Ġapproaching": 8489,
      "Ġphysic": 8490,
      "Ġscottish": 8491,
      "Ġrequest": 8492,
      "Ġhistorically": 8493,
      "Ġsplatter": 8494,
      "Ġbiography": 8495,
      "Ġdignity": 8496,
      "Ġpetty": 8497,
      "Ġminority": 8498,
      "Ġfashioned": 8499,
      "Ġdimensional": 8500,
      "Ġdickens": 8501,
      "Ġprimary": 8502,
      "Ġabsurdity": 8503,
      "working": 8504,
      "Ġafterwards": 8505,
      "thermore": 8506,
      "without": 8507,
      "Ġnervous": 8508,
      "Ġroute": 8509,
      "Ġrobinson": 8510,
      "Ġreflection": 8511,
      "Ġmaxim": 8512,
      "Ġjanet": 8513,
      "Ġpossession": 8514,
      "Ġantonio": 8515,
      "Ġconfrontation": 8516,
      "Ġdisappears": 8517,
      "Ġcelebrity": 8518,
      "Ġcounty": 8519,
      "Ġdolph": 8520,
      "Ġfrancisco": 8521,
      "Ġexplores": 8522,
      "Ġcorruption": 8523,
      "Ġpursuit": 8524,
      "Ġnorris": 8525,
      "Ġmaintain": 8526,
      "Ġcrawford": 8527,
      "Ġmuppets": 8528,
      "Ġoptim": 8529,
      "Ġnostalgic": 8530,
      "Ġdisguise": 8531,
      "Ġtransc": 8532,
      "Ġignorant": 8533,
      "Ġphenomenon": 8534,
      "Ġlemmon": 8535,
      "Ġbaldwin": 8536,
      "Ġrapidly": 8537,
      "Ġbacon": 8538,
      "Ġisabelle": 8539,
      "Ġwacky": 8540,
      "Ġhogan": 8541,
      "Ġcrystal": 8542,
      "Ġasterix": 8543,
      "Ġcandidate": 8544,
      "Ġpronoun": 8545,
      "Ġbanter": 8546,
      "Ġmundane": 8547,
      "Ġgadget": 8548,
      "Ġsamantha": 8549,
      "Ġnonsensical": 8550,
      "Ġbimbo": 8551,
      "Ġrifle": 8552,
      "Ġcemetery": 8553,
      "'re": 8554,
      "aud": 8555,
      "buck": 8556,
      "dance": 8557,
      "dav": 8558,
      "fast": 8559,
      "fia": 8560,
      "gled": 8561,
      "kie": 8562,
      "mid": 8563,
      "mak": 8564,
      "make": 8565,
      "oen": 8566,
      "oqu": 8567,
      "sor": 8568,
      "taker": 8569,
      "uri": 8570,
      "âĢ": 8571,
      "Ġ[": 8572,
      "ĠâĢ": 8573,
      "Ġmud": 8574,
      "Ġmummy": 8575,
      "Ġcri": 8576,
      "encer": 8577,
      "Ġfart": 8578,
      "Ġfier": 8579,
      "Ġfury": 8580,
      "aled": 8581,
      "Ġpatter": 8582,
      "Ġtow": 8583,
      "Ġtoken": 8584,
      "aris": 8585,
      "orrow": 8586,
      "Ġlor": 8587,
      "Ġleland": 8588,
      "Ġwoo": 8589,
      "Ġwides": 8590,
      "start": 8591,
      "stairs": 8592,
      "Ġdoo": 8593,
      "Ġdorm": 8594,
      "Ġgear": 8595,
      "Ġaar": 8596,
      "Ġeb": 8597,
      "Ġeh": 8598,
      "Ġhad": 8599,
      "Ġhitting": 8600,
      "cture": 8601,
      "omit": 8602,
      "Ġrider": 8603,
      "Ġsept": 8604,
      "thank": 8605,
      "opic": 8606,
      "Ġkil": 8607,
      "Ġkaz": 8608,
      "raged": 8609,
      "Ġja": 8610,
      "Ġactivity": 8611,
      "Ġexter": 8612,
      "pest": 8613,
      "ando": 8614,
      "Ġbeard": 8615,
      "Ġlean": 8616,
      "Ġdiary": 8617,
      "Ġunrelated": 8618,
      "Ġunaware": 8619,
      "Ġworship": 8620,
      "Ġperry": 8621,
      "Ġgos": 8622,
      "Ġwatcher": 8623,
      "Ġclash": 8624,
      "Ġclerk": 8625,
      "Ġbrood": 8626,
      "cia": 8627,
      "Ġpeck": 8628,
      "agg": 8629,
      "Ġquaid": 8630,
      "Ġprol": 8631,
      "Ġblunt": 8632,
      "Ġupl": 8633,
      "Ġdisorder": 8634,
      "Ġjoanna": 8635,
      "attle": 8636,
      "Ġwrites": 8637,
      "shell": 8638,
      "Ġgrind": 8639,
      "Ġcaval": 8640,
      "izer": 8641,
      "Ġremained": 8642,
      "Ġslice": 8643,
      "Ġtravesty": 8644,
      "Ġabund": 8645,
      "Ġbelly": 8646,
      "Ġsimmons": 8647,
      "Ġintro": 8648,
      "Ġcompelled": 8649,
      "Ġweakest": 8650,
      "Ġdecline": 8651,
      "Ġmarl": 8652,
      "Ġfruit": 8653,
      "Ġfactory": 8654,
      "Ġthru": 8655,
      "Ġawaken": 8656,
      "Ġsubl": 8657,
      "Ġhelpless": 8658,
      "Ġlaughably": 8659,
      "Ġclassy": 8660,
      "Ġconscious": 8661,
      "Ġlasted": 8662,
      "Ġholocaust": 8663,
      "xton": 8664,
      "Ġaccuracy": 8665,
      "Ġaccurately": 8666,
      "Ġsecondary": 8667,
      "Ġmurray": 8668,
      "Ġrestri": 8669,
      "Ġhousewife": 8670,
      "Ġexped": 8671,
      "Ġexposition": 8672,
      "Ġmori": 8673,
      "Ġbread": 8674,
      "Ġadvanced": 8675,
      "Ġgraham": 8676,
      "Ġsatir": 8677,
      "Ġ99": 8678,
      "Ġangst": 8679,
      "Ġsnatch": 8680,
      "Ġmisery": 8681,
      "Ġfeminist": 8682,
      "Ġspoiled": 8683,
      "Ġquestionable": 8684,
      "anyone": 8685,
      "Ġtomato": 8686,
      "Ġtomorrow": 8687,
      "Ġ1982": 8688,
      "Ġsamuel": 8689,
      "Ġhonesty": 8690,
      "Ġprotest": 8691,
      "Ġhyde": 8692,
      "Ġstephan": 8693,
      "Ġvariation": 8694,
      "Ġlouise": 8695,
      "Ġmistress": 8696,
      "Ġ1993": 8697,
      "Ġ1996": 8698,
      "Ġexisted": 8699,
      "Ġjudging": 8700,
      "Ġcatching": 8701,
      "Ġfascinated": 8702,
      "Ġaustin": 8703,
      "Ġtestament": 8704,
      "Ġastaire": 8705,
      "Ġremarkably": 8706,
      "Ġundeni": 8707,
      "Ġundoubt": 8708,
      "Ġchallenged": 8709,
      "Ġsherlock": 8710,
      "Ġdepressed": 8711,
      "Ġvirtue": 8712,
      "Ġvirtual": 8713,
      "Ġmixture": 8714,
      "Ġcorrectly": 8715,
      "Ġbehaviour": 8716,
      "Ġobjective": 8717,
      "Ġblew": 8718,
      "Ġcivilization": 8719,
      "Ġdisappeared": 8720,
      "Ġfrustrating": 8721,
      "Ġhartley": 8722,
      "Ġwarmth": 8723,
      "Ġobservation": 8724,
      "Ġdiscussing": 8725,
      "Ġproceeding": 8726,
      "Ġgentle": 8727,
      "john": 8728,
      "Ġseduct": 8729,
      "Ġvaguely": 8730,
      "Ġcontribution": 8731,
      "Ġpitiful": 8732,
      "Ġtacky": 8733,
      "Ġphilosophy": 8734,
      "production": 8735,
      "Ġarrested": 8736,
      "Ġcorporate": 8737,
      "Ġpatriot": 8738,
      "Ġorchestra": 8739,
      "Ġdestroying": 8740,
      "Ġtrivialboring": 8741,
      "Ġsubsequent": 8742,
      "Ġanchor": 8743,
      "Ġpsychiatrist": 8744,
      "Ġfloating": 8745,
      "Ġresurrect": 8746,
      "Ġstuart": 8747,
      "Ġbakshi": 8748,
      "Ġbourne": 8749,
      "Ġprecisely": 8750,
      "Ġphantom": 8751,
      "Ġgesture": 8752,
      "Ġvengeance": 8753,
      "Ġdysfunction": 8754,
      "Ġgandhi": 8755,
      "Ġabysmal": 8756,
      "Ġunlikable": 8757,
      "aise": 8758,
      "bat": 8759,
      "cu": 8760,
      "cult": 8761,
      "disc": 8762,
      "hole": 8763,
      "ij": 8764,
      "lord": 8765,
      "much": 8766,
      "notic": 8767,
      "pse": 8768,
      "parent": 8769,
      "rup": 8770,
      "vance": 8771,
      "wa": 8772,
      "zel": 8773,
      "Ġ@": 8774,
      "Ġsic": 8775,
      "Ġcad": 8776,
      "Ġfisher": 8777,
      "Ġtok": 8778,
      "Ġtrend": 8779,
      "Ġtooth": 8780,
      "Ġwagon": 8781,
      "Ġdating": 8782,
      "ila": 8783,
      "lest": 8784,
      "Ġhoot": 8785,
      "Ġnause": 8786,
      "icia": 8787,
      "Ġrebell": 8788,
      "eliness": 8789,
      "Ġster": 8790,
      "Ġstark": 8791,
      "Ġstabb": 8792,
      "oto": 8793,
      "otal": 8794,
      "Ġraz": 8795,
      "Ġrotten": 8796,
      "oosing": 8797,
      "Ġliar": 8798,
      "Ġkramer": 8799,
      "Ġshod": 8800,
      "Ġjen": 8801,
      "Ġvide": 8802,
      "Ġvoted": 8803,
      "uta": 8804,
      "arty": 8805,
      "acts": 8806,
      "Ġsuited": 8807,
      "Ġdiana": 8808,
      "Ġunseen": 8809,
      "Ġanx": 8810,
      "Ġanaly": 8811,
      "Ġcondu": 8812,
      "Ġpersu": 8813,
      "allow": 8814,
      "Ġspain": 8815,
      "abh": 8816,
      "icker": 8817,
      "neath": 8818,
      "Ġpeg": 8819,
      "ourse": 8820,
      "Ġendlessly": 8821,
      "Ġblink": 8822,
      "Ġwhoop": 8823,
      "Ġdirects": 8824,
      "pered": 8825,
      "Ġflame": 8826,
      "Ġactors": 8827,
      "ivative": 8828,
      "Ġtrait": 8829,
      "Ġtrace": 8830,
      "techn": 8831,
      "Ġabst": 8832,
      "Ġabout": 8833,
      "avin": 8834,
      "Ġintoler": 8835,
      "Ġimprob": 8836,
      "Ġcomponent": 8837,
      "Ġapolog": 8838,
      "Ġcarrey": 8839,
      "Ġcarrie": 8840,
      "Ġturner": 8841,
      "Ġcolin": 8842,
      "Ġindic": 8843,
      "Ġmonty": 8844,
      "Ġepit": 8845,
      "Ġinvention": 8846,
      "Ġexplored": 8847,
      "Ġmighty": 8848,
      "Ġouts": 8849,
      "Ġcommander": 8850,
      "Ġcream": 8851,
      "Ġunfolds": 8852,
      "Ġrecommendation": 8853,
      "Ġassured": 8854,
      "neyed": 8855,
      "Ġvisible": 8856,
      "Ġsits": 8857,
      "Ġconfident": 8858,
      "Ġbaron": 8859,
      "Ġbarney": 8860,
      "Ġbarrel": 8861,
      "Ġredneck": 8862,
      "Ġconsiderable": 8863,
      "Ġregister": 8864,
      "Ġvalent": 8865,
      "Ġmisgu": 8866,
      "heard": 8867,
      "Ġproperty": 8868,
      "Ġspaceship": 8869,
      "Ġgarner": 8870,
      "Ġwished": 8871,
      "Ġpremier": 8872,
      "Ġ1989": 8873,
      "Ġcampa": 8874,
      "ivalent": 8875,
      "Ġfaster": 8876,
      "Ġhammy": 8877,
      "Ġspiral": 8878,
      "Ġnarrator": 8879,
      "strong": 8880,
      "Ġreminder": 8881,
      "Ġsoccer": 8882,
      "Ġ.......": 8883,
      "Ġacceptance": 8884,
      "Ġfrontier": 8885,
      "Ġverhoe": 8886,
      "Ġprofanity": 8887,
      "Ġapprox": 8888,
      "Ġmcg": 8889,
      "Ġconventional": 8890,
      "Ġiq": 8891,
      "directed": 8892,
      "Ġchristianity": 8893,
      "Ġundead": 8894,
      "Ġadditional": 8895,
      "appealing": 8896,
      "Ġneighbour": 8897,
      "Ġcomplexity": 8898,
      "Ġpractical": 8899,
      "Ġhackneyed": 8900,
      "Ġhooker": 8901,
      "Ġchapter": 8902,
      "Ġderivative": 8903,
      "Ġcontempl": 8904,
      "Ġmarketing": 8905,
      "Ġbogart": 8906,
      "Ġ//": 8907,
      "Ġninety": 8908,
      "Ġcracking": 8909,
      "Ġeducated": 8910,
      "Ġchoreographed": 8911,
      "Ġaltman": 8912,
      "Ġassassination": 8913,
      "Ġemployee": 8914,
      "handed": 8915,
      "Ġsedu": 8916,
      "Ġexhaust": 8917,
      "Ġfrozen": 8918,
      "Ġimaginable": 8919,
      "Ġnicol": 8920,
      "Ġconceived": 8921,
      "Ġguaranteed": 8922,
      "Ġwandering": 8923,
      "Ġdisguised": 8924,
      "Ġtaxi": 8925,
      "Ġireland": 8926,
      "Ġgrinch": 8927,
      "Ġvoyage": 8928,
      "Ġacclaimed": 8929,
      "Ġvulnerable": 8930,
      "Ġrepulsive": 8931,
      "spoiler": 8932,
      "Ġpomp": 8933,
      "Ġillegal": 8934,
      "Ġodyssey": 8935,
      "Ġmanhattan": 8936,
      "Ġhenchman": 8937,
      "Ġuplifting": 8938,
      "Ġmisguided": 8939,
      "bot": 8940,
      "bury": 8941,
      "corder": 8942,
      "date": 8943,
      "eb": 8944,
      "hel": 8945,
      "mill": 8946,
      "mick": 8947,
      "nice": 8948,
      "ries": 8949,
      "uated": 8950,
      "went": 8951,
      "Ġoo": 8952,
      "Ġsg": 8953,
      "Ġsock": 8954,
      "Ġsob": 8955,
      "Ġmedic": 8956,
      "Ġcree": 8957,
      "Ġcushing": 8958,
      "ongest": 8959,
      "Ġfence": 8960,
      "Ġfont": 8961,
      "ancing": 8962,
      "ali": 8963,
      "Ġponder": 8964,
      "Ġpause": 8965,
      "Ġpione": 8966,
      "Ġlately": 8967,
      "Ġlamp": 8968,
      "Ġwis": 8969,
      "Ġware": 8970,
      "Ġwip": 8971,
      "Ġbot": 8972,
      "Ġbach": 8973,
      "Ġbump": 8974,
      "ilation": 8975,
      "Ġhub": 8976,
      "Ġhoney": 8977,
      "icion": 8978,
      "Ġreck": 8979,
      "Ġrene": 8980,
      "Ġstun": 8981,
      "christ": 8982,
      "Ġrup": 8983,
      "Ġroof": 8984,
      "Ġfilmmaking": 8985,
      "Ġchen": 8986,
      "Ġchased": 8987,
      "Ġchoosing": 8988,
      "sex": 8989,
      "ularly": 8990,
      "opard": 8991,
      "Ġknee": 8992,
      "Ġshade": 8993,
      "Ġvance": 8994,
      "Ġvaugh": 8995,
      "aside": 8996,
      "Ġmabel": 8997,
      "Ġactive": 8998,
      "roc": 8999,
      "Ġbefore": 9000,
      "actress": 9001,
      "asted": 9002,
      "Ġsue": 9003,
      "igma": 9004,
      "ummer": 9005,
      "Ġtramp": 9006,
      "ogue": 9007,
      "Ġclone": 9008,
      "Ġspit": 9009,
      "Ġspencer": 9010,
      "cially": 9011,
      "Ġimper": 9012,
      "Ġque": 9013,
      "osis": 9014,
      "Ġdish": 9015,
      "redict": 9016,
      "Ġjoint": 9017,
      "Ġsafet": 9018,
      "Ġpartly": 9019,
      "Ġgrie": 9020,
      "Ġgrot": 9021,
      "Ġhorn": 9022,
      "izoph": 9023,
      "Ġremoved": 9024,
      "Ġslam": 9025,
      "Ġslut": 9026,
      "Ġsloppy": 9027,
      "anging": 9028,
      "Ġcrit": 9029,
      "Ġabusive": 9030,
      "Ġabortion": 9031,
      "issa": 9032,
      "version": 9033,
      "Ġunderlying": 9034,
      "Ġmarion": 9035,
      "Ġyoungest": 9036,
      "Ġaschen": 9037,
      "liance": 9038,
      "Ġcrazed": 9039,
      "Ġrelent": 9040,
      "Ġedith": 9041,
      "Ġapple": 9042,
      "Ġcamcorder": 9043,
      "Ġsched": 9044,
      "Ġdelicate": 9045,
      "Ġglance": 9046,
      "Ġtripe": 9047,
      "Ġcommits": 9048,
      "Ġfinn": 9049,
      "Ġdefend": 9050,
      "otto": 9051,
      "otted": 9052,
      "Ġassem": 9053,
      "Ġheaded": 9054,
      "Ġconfidence": 9055,
      "Ġdiscon": 9056,
      "Ġprovoking": 9057,
      "Ġheartbreaking": 9058,
      "Ġdistingu": 9059,
      "Ġromp": 9060,
      "Ġpaxton": 9061,
      "Ġpainter": 9062,
      "Ġvalid": 9063,
      "Ġvaluable": 9064,
      "umentary": 9065,
      "unker": 9066,
      "Ġsnl": 9067,
      "heimer": 9068,
      "Ġinfin": 9069,
      "Ġpromised": 9070,
      "Ġlegit": 9071,
      "iike": 9072,
      "Ġmelville": 9073,
      "Ġconstruction": 9074,
      "Ġgoldberg": 9075,
      "Ġerrol": 9076,
      "Ġchecked": 9077,
      "Ġcontrad": 9078,
      "someone": 9079,
      "Ġrespective": 9080,
      "Ġrespectable": 9081,
      "Ġkingdom": 9082,
      "Ġidol": 9083,
      "Ġcatchy": 9084,
      "Ġeuro": 9085,
      "Ġteaching": 9086,
      "Ġburr": 9087,
      "Ġtracking": 9088,
      "Ġjumped": 9089,
      "Ġdaisy": 9090,
      "Ġcommunicate": 9091,
      "Ġfurious": 9092,
      "itsch": 9093,
      "Ġrambling": 9094,
      "Ġmirac": 9095,
      "Ġripoff": 9096,
      "Ġbiased": 9097,
      "Ġaffected": 9098,
      "Ġtoni": 9099,
      "Ġunexpl": 9100,
      "ropriately": 9101,
      "Ġsnowman": 9102,
      "Ġkidnap": 9103,
      "Ġarchite": 9104,
      "bbed": 9105,
      "Ġhokey": 9106,
      "Ġjesse": 9107,
      "Ġrogers": 9108,
      "Ġminimum": 9109,
      "Ġsimplicity": 9110,
      "Ġassuming": 9111,
      "Ġemerges": 9112,
      "Ġloneliness": 9113,
      "Ġfifth": 9114,
      "Ġironically": 9115,
      "Ġglorious": 9116,
      "Ġmortal": 9117,
      "Ġdomestic": 9118,
      "Ġselected": 9119,
      "Ġdistracted": 9120,
      "Ġbronson": 9121,
      "Ġfurthermore": 9122,
      "Ġlatin": 9123,
      "Ġenthusiasm": 9124,
      "volta": 9125,
      "Ġutil": 9126,
      "Ġassigned": 9127,
      "Ġcuba": 9128,
      "Ġignorance": 9129,
      "Ġeternal": 9130,
      "Ġearnest": 9131,
      "Ġtherap": 9132,
      "Ġshouting": 9133,
      "Ġpoetry": 9134,
      "Ġmargaret": 9135,
      "imagin": 9136,
      "Ġstroke": 9137,
      "Ġapocalypse": 9138,
      "Ġdreary": 9139,
      "Ġenormous": 9140,
      "Ġturtle": 9141,
      "Ġmisleading": 9142,
      "Ġbastard": 9143,
      "adventure": 9144,
      "ploitation": 9145,
      "Ġbargain": 9146,
      "Ġcampaign": 9147,
      "Ġverhoeven": 9148,
      "Ġrupert": 9149,
      "Ġsafety": 9150,
      "izophren": 9151,
      "Ġaschenbach": 9152,
      "15": 9153,
      "90": 9154,
      "creen": 9155,
      "dec": 9156,
      "his": 9157,
      "jim": 9158,
      "must": 9159,
      "pre": 9160,
      "pson": 9161,
      "rise": 9162,
      "sby": 9163,
      "since": 9164,
      "wan": 9165,
[...]
