{
  "version": "1.0",
  "truncation": null,
  "padding": null,
  "added_tokens": [],
  "normalizer": null,
  "pre_tokenizer": {
    "type": "ByteLevel",
    "add_prefix_space": false,
    "trim_offsets": true,
    "use_regex": true
  },
  "post_processor": {
    "type": "ByteLevel",
    "add_prefix_space": true,
    "trim_offsets": false,
    "use_regex": true
  },
  "decoder": {
    "type": "ByteLevel",
    "add_prefix_space": true,
    "trim_offsets": true,
    "use_regex": true
  },
  "model": {
    "type": "BPE",
    "dropout": null,
    "unk_token": null,
    "continuing_subword_prefix": null,
    "end_of_word_suffix": null,
    "fuse_unk": false,
    "byte_fallback": false,
    "vocab": {
      "!": 0,
      "\"": 1,
      "#": 2,
      "$": 3,
      "%": 4,
      "&": 5,
      "'": 6,
      "(": 7,
      ")": 8,
      "*": 9,
      "+": 10,
      ",": 11,
      "-": 12,
      ".": 13,
      "/": 14,
      "0": 15,
      "1": 16,
      "2": 17,
      "3": 18,
      "4": 19,
      "5": 20,
      "6": 21,
      "7": 22,
      "8": 23,
      "9": 24,
      ":": 25,
      ";": 26,
      "<": 27,
      "=": 28,
      ">": 29,
      "?": 30,
      "@": 31,
      "A": 32,
      "B": 33,
      "C": 34,
      "D": 35,
      "E": 36,
      "F": 37,
      "G": 38,
      "H": 39,
      "I": 40,
      "J": 41,
      "K": 42,
      "L": 43,
      "M": 44,
      "N": 45,
      "O": 46,
      "P": 47,
      "Q": 48,
      "R": 49,
      "S": 50,
      "T": 51,
      "U": 52,
      "V": 53,
      "W": 54,
      "X": 55,
      "Y": 56,
      "Z": 57,
      "[": 58,
      "\\": 59,
      "]": 60,
      "^": 61,
      "_": 62,
      "`": 63,
      "a": 64,
      "b": 65,
      "c": 66,
      "d": 67,
      "e": 68,
      "f": 69,
      "g": 70,
      "h": 71,
      "i": 72,
      "j": 73,
      "k": 74,
      "l": 75,
      "m": 76,
      "n": 77,
      "o": 78,
      "p": 79,
      "q": 80,
      "r": 81,
      "s": 82,
      "t": 83,
      "u": 84,
      "v": 85,
      "w": 86,
      "x": 87,
      "y": 88,
      "z": 89,
      "{": 90,
      "|": 91,
      "}": 92,
      "~": 93,
      "¡": 94,
      "¢": 95,
      "£": 96,
      "¤": 97,
      "¥": 98,
      "¦": 99,
      "§": 100,
      "¨": 101,
      "©": 102,
      "ª": 103,
      "«": 104,
      "¬": 105,
      "®": 106,
      "¯": 107,
      "°": 108,
      "±": 109,
      "²": 110,
      "³": 111,
      "´": 112,
      "µ": 113,
      "¶": 114,
      "·": 115,
      "¸": 116,
      "¹": 117,
      "º": 118,
      "»": 119,
      "¼": 120,
      "½": 121,
      "¾": 122,
      "¿": 123,
      "À": 124,
      "Á": 125,
      "Â": 126,
      "Ã": 127,
      "Ä": 128,
      "Å": 129,
      "Æ": 130,
      "Ç": 131,
      "È": 132,
      "É": 133,
      "Ê": 134,
      "Ë": 135,
      "Ì": 136,
      "Í": 137,
      "Î": 138,
      "Ï": 139,
      "Ð": 140,
      "Ñ": 141,
      "Ò": 142,
      "Ó": 143,
      "Ô": 144,
      "Õ": 145,
      "Ö": 146,
      "×": 147,
      "Ø": 148,
      "Ù": 149,
      "Ú": 150,
      "Û": 151,
      "Ü": 152,
      "Ý": 153,
      "Þ": 154,
      "ß": 155,
      "à": 156,
      "á": 157,
      "â": 158,
      "ã": 159,
      "ä": 160,
      "å": 161,
      "æ": 162,
      "ç": 163,
      "è": 164,
      "é": 165,
      "ê": 166,
      "ë": 167,
      "ì": 168,
      "í": 169,
      "î": 170,
      "ï": 171,
      "ð": 172,
      "ñ": 173,
      "ò": 174,
      "ó": 175,
      "ô": 176,
      "õ": 177,
      "ö": 178,
      "÷": 179,
      "ø": 180,
      "ù": 181,
      "ú": 182,
      "û": 183,
      "ü": 184,
      "ý": 185,
      "þ": 186,
      "ÿ": 187,
      "Ā": 188,
      "ā": 189,
      "Ă": 190,
      "ă": 191,
      "Ą": 192,
      "ą": 193,
      "Ć": 194,
      "ć": 195,
      "Ĉ": 196,
      "ĉ": 197,
      "Ċ": 198,
      "ċ": 199,
      "Č": 200,
      "č": 201,
      "Ď": 202,
      "ď": 203,
      "Đ": 204,
      "đ": 205,
      "Ē": 206,
      "ē": 207,
      "Ĕ": 208,
      "ĕ": 209,
      "Ė": 210,
      "ė": 211,
      "Ę": 212,
      "ę": 213,
      "Ě": 214,
      "ě": 215,
      "Ĝ": 216,
      "ĝ": 217,
      "Ğ": 218,
      "ğ": 219,
      "Ġ": 220,
      "ġ": 221,
      "Ģ": 222,
      "ģ": 223,
      "Ĥ": 224,
      "ĥ": 225,
      "Ħ": 226,
      "ħ": 227,
      "Ĩ": 228,
      "ĩ": 229,
      "Ī": 230,
      "ī": 231,
      "Ĭ": 232,
      "ĭ": 233,
      "Į": 234,
      "į": 235,
      "İ": 236,
      "ı": 237,
      "Ĳ": 238,
      "ĳ": 239,
      "Ĵ": 240,
      "ĵ": 241,
      "Ķ": 242,
      "ķ": 243,
      "ĸ": 244,
      "Ĺ": 245,
      "ĺ": 246,
      "Ļ": 247,
      "ļ": 248,
      "Ľ": 249,
      "ľ": 250,
      "Ŀ": 251,
      "ŀ": 252,
      "Ł": 253,
      "ł": 254,
      "Ń": 255,
      "in": 256,
      "Ġs": 257,
      "er": 258,
      "Ġ,": 259,
      "Ġ.": 260,
      "re": 261,
      "Ġm": 262,
      "Ġc": 263,
      "en": 264,
      "on": 265,
      "ing": 266,
      "Ġf": 267,
      "an": 268,
      "al": 269,
      "Ġp": 270,
      "Ġt": 271,
      "ar": 272,
      "ed": 273,
      "or": 274,
      "Ġl": 275,
      "Ġw": 276,
      "Ġb": 277,
      "at": 278,
      "st": 279,
      "Ġ'": 280,
      "Ġd": 281,
      "Ġg": 282,
      "ou": 283,
      "ly": 284,
      "il": 285,
      "le": 286,
      "Ġa": 287,
      "Ġe": 288,
      "Ġh": 289,
      "it": 290,
      "ct": 291,
      "Ġn": 292,
      "ie": 293,
      "ic": 294,
      "ov": 295,
      "Ġre": 296,
      "om": 297,
      "el": 298,
      "Ġst": 299,
      "ent": 300,
      "et": 301,
      "ot": 302,
      "ion": 303,
      "is": 304,
      "ay": 305,
      "ke": 306,
      "ch": 307,
      "ow": 308,
      "gh": 309,
      "Ġmov": 310,
      "Ġr": 311,
      "ce": 312,
      "ad": 313,
      "im": 314,
      "Ġmovie": 315,
      "un": 316,
      "oo": 317,
      "Ġfil": 318,
      "one": 319,
      "ss": 320,
      "Ġfilm": 321,
      "Ġse": 322,
      "ol": 323,
      "id": 324,
      "Ġth": 325,
      "am": 326,
      "Ġch": 327,
      "ve": 328,
      "ver": 329,
      "se": 330,
      "Ġli": 331,
      "Ġin": 332,
      "th": 333,
      "ul": 334,
      "op": 335,
      "Ġ)": 336,
      "Ġ`": 337,
      "'t": 338,
      "Ġ(": 339,
      "ally": 340,
      "Ġk": 341,
      "Ġ``": 342,
      "ri": 343,
      "Ġ''": 344,
      "ir": 345,
      "Ġde": 346,
      "ra": 347,
      "ck": 348,
      "Ġsh": 349,
      "Ġal": 350,
      "ur": 351,
      "ght": 352,
      "em": 353,
      "ld": 354,
      "her": 355,
      "Ġj": 356,
      "Ġcom": 357,
      "Ġv": 358,
      "us": 359,
      "Ġma": 360,
      "Ġone": 361,
      "Ġsc": 362,
      "ut": 363,
      "as": 364,
      "Ġ!": 365,
      "Ġact": 366,
      "ell": 367,
      "end": 368,
      "ble": 369,
      "ge": 370,
      "Ġex": 371,
      "pe": 372,
      "art": 373,
      "ro": 374,
      "Ġpl": 375,
      "ill": 376,
      "Ġbe": 377,
      "ant": 378,
      "and": 379,
      "ould": 380,
      "ood": 381,
      "act": 382,
      "ter": 383,
      "oun": 384,
      "Ġne": 385,
      "ast": 386,
      "Ġsu": 387,
      "Ġlike": 388,
      "Ġun": 389,
      "ate": 390,
      "ap": 391,
      "Ġdi": 392,
      "Ġan": 393,
      "ff": 394,
      "Ġwor": 395,
      "Ġle": 396,
      "ous": 397,
      "Ġcon": 398,
      "qu": 399,
      "ime": 400,
      "um": 401,
      "Ġy": 402,
      "ig": 403,
      "ive": 404,
      "ven": 405,
      "ight": 406,
      "ation": 407,
      "ory": 408,
      "Ġchar": 409,
      "Ġo": 410,
      "atch": 411,
      "ist": 412,
      "ard": 413,
      "ain": 414,
      "..": 415,
      "ook": 416,
      "ind": 417,
      "ack": 418,
      "Ġ?": 419,
      "Ġman": 420,
      "ort": 421,
      "Ġever": 422,
      "Ġtr": 423,
      "ud": 424,
      "Ġper": 425,
      "Ġtime": 426,
      "Ġ-": 427,
      "ure": 428,
      "ine": 429,
      "der": 430,
      "all": 431,
      "fe": 432,
      "Ġgood": 433,
      "acter": 434,
      "es": 435,
      "ity": 436,
      "Ġgo": 437,
      "Ġcharacter": 438,
      "Ġsee": 439,
      "ong": 440,
      "reat": 441,
      "Ġwatch": 442,
      "og": 443,
      "Ġget": 444,
      "Ġpro": 445,
      "Ġmu": 446,
      "Ġ1": 447,
      "ough": 448,
      "Ġstory": 449,
      "Ġen": 450,
      "are": 451,
      "Ġpre": 452,
      "ful": 453,
      "ound": 454,
      "Ġwould": 455,
      "ite": 456,
      "est": 457,
      "pt": 458,
      "Ġpo": 459,
      "Ġeven": 460,
      "ue": 461,
      "Ġcl": 462,
      "Ġmake": 463,
      "od": 464,
      "ance": 465,
      "able": 466,
      "ide": 467,
      "ene": 468,
      "ence": 469,
      "Ġsp": 470,
      "hing": 471,
      "Ġreally": 472,
      "Ġ...": 473,
      "oy": 474,
      "ear": 475,
      "ab": 476,
      "Ġshow": 477,
      "ak": 478,
      "Ġsom": 479,
      "Ġbr": 480,
      "Ġro": 481,
      "ci": 482,
      "old": 483,
      "orm": 484,
      "itt": 485,
      "Ġkn": 486,
      "ink": 487,
      "other": 488,
      "ick": 489,
      "pp": 490,
      "Ġpe": 491,
      "so": 492,
      "Ġwell": 493,
      "Ġim": 494,
      "ade": 495,
      "age": 496,
      "Ġscene": 497,
      "Ġend": 498,
      "our": 499,
      "Ġqu": 500,
      "ice": 501,
      "Ġbad": 502,
      "ag": 503,
      "ious": 504,
      "ake": 505,
      "rect": 506,
      "Ġ:": 507,
      "ment": 508,
      "Ġlook": 509,
      "Ġbl": 510,
      "Ġpr": 511,
      "ne": 512,
      "ame": 513,
      "Ġlov": 514,
      "Ġmuch": 515,
      "Ġu": 516,
      "os": 517,
      "Ġwh": 518,
      "Ġad": 519,
      "ople": 520,
      "Ġcould": 521,
      "Ġevery": 522,
      "ish": 523,
      "Ġgreat": 524,
      "Ġpeople": 525,
      "Ġme": 526,
      "ert": 527,
      "irst": 528,
      "pl": 529,
      "out": 530,
      "ple": 531,
      "ost": 532,
      "au": 533,
      "red": 534,
      "Ġplay": 535,
      "Ġtw": 536,
      "Ġam": 537,
      "Ġfa": 538,
      "Ġdis": 539,
      "Ġalso": 540,
      "Ġknow": 541,
      "int": 542,
      "Ġdirect": 543,
      "Ġway": 544,
      "Ġhe": 545,
      "the": 546,
      "ry": 547,
      "Ġthink": 548,
      "Ġjo": 549,
      "com": 550,
      "Ġar": 551,
      "way": 552,
      "Ġfun": 553,
      "Ġsa": 554,
      "Ġfirst": 555,
      "Ġthing": 556,
      "Ġreal": 557,
      "Ġpart": 558,
      "over": 559,
      "ep": 560,
      "app": 561,
      "ect": 562,
      "Ġfe": 563,
      "Ġmade": 564,
      "oc": 565,
      "ary": 566,
      "att": 567,
      "Ġwr": 568,
      "per": 569,
      "Ġany": 570,
      "Ġseem": 571,
      "Ġsay": 572,
      "Ġinter": 573,
      "Ġlife": 574,
      "ore": 575,
      "ical": 576,
      "ty": 577,
      "ber": 578,
      "sh": 579,
      "son": 580,
      "ute": 581,
      "Ġgr": 582,
      "Ġfl": 583,
      "ated": 584,
      "Ġnot": 585,
      "Ġlove": 586,
      "iew": 587,
      "ually": 588,
      "ian": 589,
      "Ġser": 590,
      "Ġactor": 591,
      "Ġwork": 592,
      "ass": 593,
      "ict": 594,
      "Ġor": 595,
      "ire": 596,
      "ny": 597,
      "Ġ;": 598,
      "pect": 599,
      "Ġte": 600,
      "Ġbet": 601,
      "ress": 602,
      "form": 603,
      "Ġplot": 604,
      "Ġmany": 605,
      "Ġseen": 606,
      "Ġhor": 607,
      "Ġgu": 608,
      "Ġnever": 609,
      "ise": 610,
      "Ġtwo": 611,
      "Ġyear": 612,
      "Ġca": 613,
      "Ġwant": 614,
      "ult": 615,
      "iz": 616,
      "iv": 617,
      "ip": 618,
      "Ġsomet": 619,
      "Ġent": 620,
      "Ġdes": 621,
      "ft": 622,
      "ittle": 623,
      "Ġbest": 624,
      "ath": 625,
      "Ġacting": 626,
      "ace": 627,
      "Ġ*": 628,
      "urn": 629,
      "Ġlittle": 630,
      "ith": 631,
      "Ġback": 632,
      "inal": 633,
      "du": 634,
      "ster": 635,
      "Ġrem": 636,
      "Ġac": 637,
      "ond": 638,
      "man": 639,
      "Ġsl": 640,
      "ark": 641,
      "Ġ2": 642,
      "less": 643,
      "Ġdr": 644,
      "Ġ19": 645,
      "Ġmay": 646,
      "ily": 647,
      "ater": 648,
      "ather": 649,
      "Ġtake": 650,
      "Ġbetter": 651,
      "king": 652,
      "ang": 653,
      "Ġus": 654,
      "Ġtra": 655,
      "Ġcome": 656,
      "own": 657,
      "Ġstill": 658,
      "ac": 659,
      "thing": 660,
      "ought": 661,
      "Ġtry": 662,
      "Ġcr": 663,
      "Ġatt": 664,
      "Ġab": 665,
      "Ġmin": 666,
      "ual": 667,
      "te": 668,
      "Ġperform": 669,
      "Ġfind": 670,
      "peci": 671,
      "ich": 672,
      "Ġop": 673,
      "oll": 674,
      "igh": 675,
      "ild": 676,
      "ertain": 677,
      "ose": 678,
      "riend": 679,
      "Ġfor": 680,
      "Ġcont": 681,
      "Ġkill": 682,
      "ffer": 683,
      "Ġsomething": 684,
      "ph": 685,
      "Ġtal": 686,
      "av": 687,
      "Ġbel": 688,
      "Ġnew": 689,
      "Ġsim": 690,
      "Ġgive": 691,
      "Ġfeel": 692,
      "Ġ--": 693,
      "ens": 694,
      "Ġeff": 695,
      "ree": 696,
      "be": 697,
      "Ġint": 698,
      "ies": 699,
      "Ġem": 700,
      "Ġinterest": 701,
      "aw": 702,
      "Ġke": 703,
      "iss": 704,
      "Ġdirector": 705,
      "ating": 706,
      "Ġlot": 707,
      "Ġsur": 708,
      "ia": 709,
      "Ġcast": 710,
      "ole": 711,
      "Ġstr": 712,
      "ror": 713,
      "ense": 714,
      "oman": 715,
      "irl": 716,
      "Ġhapp": 717,
      "Ġhum": 718,
      "Ġimp": 719,
      "Ġmus": 720,
      "Ġap": 721,
      "ction": 722,
      "Ġsome": 723,
      "ience": 724,
      "ning": 725,
      "ting": 726,
      "Ġcomp": 727,
      "Ġinc": 728,
      "Ġcar": 729,
      "Ġperformance": 730,
      "Ġgen": 731,
      "ably": 732,
      "if": 733,
      "edy": 734,
      "ull": 735,
      "Ġbig": 736,
      "Ġwatching": 737,
      "ust": 738,
      "up": 739,
      "reen": 740,
      "Ġev": 741,
      "Ġstar": 742,
      "ock": 743,
      "Ġpoint": 744,
      "Ġwe": 745,
      "Ġguy": 746,
      "ever": 747,
      "Ġfam": 748,
      "ason": 749,
      "arly": 750,
      "Ġfunny": 751,
      "ach": 752,
      "Ġgirl": 753,
      "Ġres": 754,
      "Ġob": 755,
      "Ġthough": 756,
      "Ġwar": 757,
      "Ġdec": 758,
      "Ġche": 759,
      "joy": 760,
      "Ġold": 761,
      "Ġhigh": 762,
      "Ġset": 763,
      "Ġunder": 764,
      "Ġnothing": 765,
      "Ġactually": 766,
      "Ġsm": 767,
      "Ġlau": 768,
      "Ġter": 769,
      "vers": 770,
      "Ġthr": 771,
      "Ġgoing": 772,
      "nt": 773,
      "Ġaw": 774,
      "vel": 775,
      "ial": 776,
      "Ġlong": 777,
      "Ġwoman": 778,
      "Ġfr": 779,
      "Ġstart": 780,
      "Ġenjoy": 781,
      "Ġmar": 782,
      "Ġover": 783,
      "Ġpret": 784,
      "az": 785,
      "Ġfact": 786,
      "ool": 787,
      "Ġgot": 788,
      "oung": 789,
      "ase": 790,
      "get": 791,
      "ere": 792,
      "ome": 793,
      "Ġwith": 794,
      "Ġsub": 795,
      "Ġbelie": 796,
      "Ġview": 797,
      "Ġyoung": 798,
      "li": 799,
      "Ġ&": 800,
      "Ġanother": 801,
      "Ġday": 802,
      "Ġprodu": 803,
      "Ġexc": 804,
      "Ġrole": 805,
      "Ġas": 806,
      "Ġorig": 807,
      "Ġel": 808,
      "Ġfriend": 809,
      "Ġhard": 810,
      "Ġbu": 811,
      "Ġph": 812,
      "ane": 813,
      "Ġcra": 814,
      "ank": 815,
      "oot": 816,
      "onder": 817,
      "Ġrel": 818,
      "Ġturn": 819,
      "Ġfar": 820,
      "Ġhow": 821,
      "Ġworld": 822,
      "Ġed": 823,
      "ible": 824,
      "Ġeffect": 825,
      "Ġsec": 826,
      "Ġbit": 827,
      "Ġhorror": 828,
      "Ġlaugh": 829,
      "Ġes": 830,
      "Ġfan": 831,
      "Ġthought": 832,
      "Ġsin": 833,
      "Ġhel": 834,
      "ript": 835,
      "Ġsupp": 836,
      "Ġkid": 837,
      "Ġquite": 838,
      "Ġseems": 839,
      "Ġcomedy": 840,
      "Ġminute": 841,
      "cept": 842,
      "Ġwonder": 843,
      "Ġenough": 844,
      "ub": 845,
      "Ġmean": 846,
      "Ġz": 847,
      "ope": 848,
      "Ġrec": 849,
      "eric": 850,
      "Ġneed": 851,
      "Ġaround": 852,
      "Ġcomple": 853,
      "Ġapp": 854,
      "Ġright": 855,
      "Ġcam": 856,
      "iting": 857,
      "ways": 858,
      "Ġpretty": 859,
      "Ġscreen": 860,
      "Ġaction": 861,
      "ention": 862,
      "Ġoriginal": 863,
      "Ġcare": 864,
      "ically": 865,
      "ib": 866,
      "oon": 867,
      "Ġcol": 868,
      "aut": 869,
      "ll": 870,
      "Ġmust": 871,
      "Ġmusic": 872,
      "Ġline": 873,
      "Ġbas": 874,
      "ced": 875,
      "Ġbo": 876,
      "ign": 877,
      "Ġins": 878,
      "00": 879,
      "ave": 880,
      "Ġperson": 881,
      "ord": 882,
      "Ġscript": 883,
      "Ġmon": 884,
      "ness": 885,
      "ount": 886,
      "Ġalways": 887,
      "ead": 888,
      "Ġep": 889,
      "pr": 890,
      "Ġhowever": 891,
      "ved": 892,
      "ately": 893,
      "inem": 894,
      "Ġkind": 895,
      "Ġind": 896,
      "Ġsex": 897,
      "Ġinst": 898,
      "ug": 899,
      "Ġbeg": 900,
      "cess": 901,
      "ember": 902,
      "ile": 903,
      "most": 904,
      "icul": 905,
      "ether": 906,
      "ner": 907,
      "Ġag": 908,
      "Ġappe": 909,
      "ody": 910,
      "Ġbecom": 911,
      "Ġleast": 912,
      "Ġmom": 913,
      "Ġput": 914,
      "ale": 915,
      "Ġcinem": 916,
      "Ġclass": 917,
      "wh": 918,
      "Ġbeaut": 919,
      "Ġinteresting": 920,
      "Ġcons": 921,
      "vious": 922,
      "Ġdone": 923,
      "Ġsound": 924,
      "Ġshot": 925,
      "Ġrev": 926,
      "Ġwhole": 927,
      "era": 928,
      "Ġseries": 929,
      "Ġsch": 930,
      "Ġread": 931,
      "Ġfamily": 932,
      "ode": 933,
      "Ġwithout": 934,
      "Ġsw": 935,
      "Ġsure": 936,
      "ature": 937,
      "Ġlead": 938,
      "Ġinv": 939,
      "Ġtell": 940,
      "Ġaud": 941,
      "ouse": 942,
      "Ġlast": 943,
      "Ġart": 944,
      "ange": 945,
      "Ġexpl": 946,
      "rible": 947,
      "Ġ3": 948,
      "iter": 949,
      "Ġreason": 950,
      "Ġcour": 951,
      "ition": 952,
      "Ġmight": 953,
      "Ġalmost": 954,
      "Ġlet": 955,
      "Ġide": 956,
      "Ġbook": 957,
      "Ġameric": 958,
      "Ġcle": 959,
      "raph": 960,
      "Ġmain": 961,
      "Ġexpect": 962,
      "Ġchild": 963,
      "Ġdiffer": 964,
      "Ġcomplete": 965,
      "Ġout": 966,
      "Ġgi": 967,
      "Ġtru": 968,
      "alog": 969,
      "stand": 970,
      "Ġworth": 971,
      "Ġext": 972,
      "air": 973,
      "aking": 974,
      "Ġbor": 975,
      "ower": 976,
      "ving": 977,
      "Ġanything": 978,
      "Ġhol": 979,
      "led": 980,
      "ren": 981,
      "Ġboy": 982,
      "ative": 983,
      "iece": 984,
      "Ġentertain": 985,
      "ier": 986,
      "Ġtv": 987,
      "ash": 988,
      "Ġsince": 989,
      "Ġhand": 990,
      "vd": 991,
      "Ġher": 992,
      "Ġprob": 993,
      "Ġdialog": 994,
      "ism": 995,
      "Ġspeci": 996,
      "xt": 997,
      "Ġcall": 998,
      "Ġmoment": 999,
      "Ġworst": 1000,
      "Ġtri": 1001,
      "Ġcomm": 1002,
      "Ġrun": 1003,
      "Ġsaw": 1004,
      "Ġadd": 1005,
      "Ġcre": 1006,
      "ail": 1007,
      "Ġyet": 1008,
      "Ġhelp": 1009,
      "Ġaudience": 1010,
      "hn": 1011,
      "ling": 1012,
      "Ġhal": 1013,
      "Ġdef": 1014,
      "Ġacc": 1015,
      "here": 1016,
      "Ġmiss": 1017,
      "Ġdel": 1018,
      "Ġgl": 1019,
      "Ġplace": 1020,
      "Ġpoor": 1021,
      "Ġprobably": 1022,
      "Ġdvd": 1023,
      "iful": 1024,
      "ject": 1025,
      "Ġbegin": 1026,
      "Ġvers": 1027,
      "Ġty": 1028,
      "sc": 1029,
      "Ġrather": 1030,
      "Ġfound": 1031,
      "Ġ10": 1032,
      "Ġfin": 1033,
      "Ġpol": 1034,
      "isode": 1035,
      "Ġnight": 1036,
      "ked": 1037,
      "ady": 1038,
      "Ġsuper": 1039,
      "Ġplayed": 1040,
      "Ġidea": 1041,
      "oney": 1042,
      "illi": 1043,
      "Ġunf": 1044,
      "mend": 1045,
      "Ġaway": 1046,
      "though": 1047,
      "rist": 1048,
      "Ġepisode": 1049,
      "Ġsequ": 1050,
      "Ġkeep": 1051,
      "Ġshort": 1052,
      "Ġcourse": 1053,
      "Ġanyone": 1054,
      "ob": 1055,
      "Ġabs": 1056,
      "ider": 1057,
      "apt": 1058,
      "Ġdep": 1059,
      "Ġsecond": 1060,
      "cer": 1061,
      "io": 1062,
      "Ġrob": 1063,
      "Ġeverything": 1064,
      "pecially": 1065,
      "Ġhappen": 1066,
      "Ġste": 1067,
      "Ġmaking": 1068,
      "Ġespecially": 1069,
      "ality": 1070,
      "Ġbeautiful": 1071,
      "Ġmind": 1072,
      "ither": 1073,
      "Ġjob": 1074,
      "blem": 1075,
      "atter": 1076,
      "Ġjohn": 1077,
      "ye": 1078,
      "Ġdifferent": 1079,
      "Ġversion": 1080,
      "Ġsurpr": 1081,
      "ife": 1082,
      "otion": 1083,
      "osed": 1084,
      "uck": 1085,
      "ograph": 1086,
      "Ġproblem": 1087,
      "commend": 1088,
      "Ġhalf": 1089,
      "Ġtrying": 1090,
      "Ġspecial": 1091,
      "ray": 1092,
      "ortun": 1093,
      "wood": 1094,
      "Ġblack": 1095,
      "ilar": 1096,
      "ogether": 1097,
      "Ġsing": 1098,
      "Ġbelieve": 1099,
      "Ġlooking": 1100,
      "Ġmur": 1101,
      "Ġbud": 1102,
      "Ġrecommend": 1103,
      "Ġsk": 1104,
      "Ġdo": 1105,
      "ont": 1106,
      "Ġdra": 1107,
      "Ġstand": 1108,
      "fect": 1109,
      "ident": 1110,
      "ream": 1111,
      "ingly": 1112,
      "Ġposs": 1113,
      "istic": 1114,
      "Ġending": 1115,
      "Ġrest": 1116,
      "ret": 1117,
      "Ġport": 1118,
      "ollow": 1119,
      "Ġear": 1120,
      "ott": 1121,
      "Ġhead": 1122,
      "Ġsy": 1123,
      "Ġpres": 1124,
      "me": 1125,
      "Ġeng": 1126,
      "empt": 1127,
      "Ġmoney": 1128,
      "Ġtrue": 1129,
      "Ġsomeone": 1130,
      "Ġcertain": 1131,
      "lud": 1132,
      "Ġalthough": 1133,
      "ix": 1134,
      "oint": 1135,
      "Ġamerican": 1136,
      "ah": 1137,
      "gr": 1138,
      "Ġco": 1139,
      "Ġwal": 1140,
      "Ġother": 1141,
      "itch": 1142,
      "ship": 1143,
      "Ġmaybe": 1144,
      "Ġthree": 1145,
      "Ġsense": 1146,
      "Ġass": 1147,
      "Ġcou": 1148,
      "Ġhope": 1149,
      "Ġhouse": 1150,
      "Ġmen": 1151,
      "Ġthe": 1152,
      "Ġlater": 1153,
      "Ġcreat": 1154,
      "aught": 1155,
      "Ġsaid": 1156,
      "Ġso": 1157,
      "Ġdram": 1158,
      "Ġdeath": 1159,
      "Ġwast": 1160,
      "Ġfav": 1161,
      "Ġobvious": 1162,
      "Ġtogether": 1163,
      "Ġvis": 1164,
      "ney": 1165,
      "Ġeveryone": 1166,
      "Ġelse": 1167,
      "Ġele": 1168,
      "Ġreview": 1169,
      "Ġform": 1170,
      "Ġnice": 1171,
      "Ġappear": 1172,
      "Ġall": 1173,
      "Ġunderstand": 1174,
      "Ġfollow": 1175,
      "Ġrele": 1176,
      "Ġrep": 1177,
      "Ġopen": 1178,
      "sy": 1179,
      "ellent": 1180,
      "Ġhar": 1181,
      "Ġperfect": 1182,
      "Ġuse": 1183,
      "Ġsus": 1184,
      "atic": 1185,
      "Ġhour": 1186,
      "Ġleft": 1187,
      "Ġhuman": 1188,
      "Ġtot": 1189,
      "Ġseeing": 1190,
      "ger": 1191,
      "Ġsit": 1192,
      "Ġfall": 1193,
      "Ġdet": 1194,
      "Ġcor": 1195,
      "Ġname": 1196,
      "Ġru": 1197,
      "ann": 1198,
      "Ġeye": 1199,
      "omb": 1200,
      "cing": 1201,
      "this": 1202,
      "Ġanim": 1203,
      "Ġsimp": 1204,
      "Ġinstead": 1205,
      "Ġcame": 1206,
      "Ġdead": 1207,
      "umb": 1208,
      "Ġholly": 1209,
      "Ġexp": 1210,
      "land": 1211,
      "10": 1212,
      "Ġit": 1213,
      "Ġconf": 1214,
      "Ġsil": 1215,
      "ited": 1216,
      "Ġple": 1217,
      "Ġfight": 1218,
      "ross": 1219,
      "Ġexcellent": 1220,
      "cc": 1221,
      "Ġspe": 1222,
      "Ġinclud": 1223,
      "Ġcomment": 1224,
      "Ġwatched": 1225,
      "Ġoff": 1226,
      "ward": 1227,
      "Ġret": 1228,
      "arent": 1229,
      "Ġviewer": 1230,
      "Ġmurder": 1231,
      "ans": 1232,
      "ote": 1233,
      "Ġwonderful": 1234,
      "yle": 1235,
      "Ġlow": 1236,
      "Ġremember": 1237,
      "mov": 1238,
      "Ġbar": 1239,
      "Ġtop": 1240,
      "Ġhome": 1241,
      "Ġwife": 1242,
      "ird": 1243,
      "Ġ4": 1244,
      "Ġcop": 1245,
      "Ġtit": 1246,
      "Ġstup": 1247,
      "Ġevent": 1248,
      "Ġserious": 1249,
      "Ġattempt": 1250,
      "Ġexper": 1251,
      "Ġbeh": 1252,
      "ape": 1253,
      "Ġprov": 1254,
      "Ġheart": 1255,
      "Ġdefin": 1256,
      "Ġentire": 1257,
      "ired": 1258,
      "vin": 1259,
      "Ġje": 1260,
      "Ġir": 1261,
      "ideo": 1262,
      "Ġclassic": 1263,
      "Ġsong": 1264,
      "Ġdist": 1265,
      "Ġann": 1266,
      "Ġface": 1267,
      "oice": 1268,
      "Ġwrong": 1269,
      "Ġcompletely": 1270,
      "icture": 1271,
      "Ġsimply": 1272,
      "Ġpar": 1273,
      "Ġproduction": 1274,
      "Ġpiece": 1275,
      "Ġused": 1276,
      "Ġmor": 1277,
      "Ġdark": 1278,
      "Ġdisc": 1279,
      "uff": 1280,
      "Ġref": 1281,
      "Ġstupid": 1282,
      "Ġfather": 1283,
      "Ġfull": 1284,
      "Ġpicture": 1285,
      "Ġlack": 1286,
      "Ġinvol": 1287,
      "Ġrom": 1288,
      "Ġred": 1289,
      "Ġword": 1290,
      "Ġcamera": 1291,
      "Ġmy": 1292,
      "ern": 1293,
      "my": 1294,
      "Ġpower": 1295,
      "Ġstud": 1296,
      "Ġgener": 1297,
      "ers": 1298,
      "itten": 1299,
      "Ġsad": 1300,
      "Ġhero": 1301,
      "Ġeither": 1302,
      "ility": 1303,
      "olute": 1304,
      "ography": 1305,
      "Ġalong": 1306,
      "Ġhollywood": 1307,
      "ised": 1308,
      "Ġschool": 1309,
      "Ġ8": 1310,
      "Ġup": 1311,
      "Ġboring": 1312,
      "Ġvi": 1313,
      "Ġcount": 1314,
      "appoint": 1315,
      "Ġsn": 1316,
      "ased": 1317,
      "Ġcred": 1318,
      "Ġvideo": 1319,
      "Ġportray": 1320,
      "Ġhist": 1321,
      "cy": 1322,
      "Ġ5": 1323,
      "Ġnext": 1324,
      "aps": 1325,
      "ared": 1326,
      "Ġtalent": 1327,
      "Ġparticul": 1328,
      "Ġawful": 1329,
      "iver": 1330,
      "Ġloc": 1331,
      "que": 1332,
      "Ġdisappoint": 1333,
      "Ġpain": 1334,
      "Ġexcept": 1335,
      "ient": 1336,
      "Ġjack": 1337,
      "elf": 1338,
      "Ġgiven": 1339,
      "Ġbudget": 1340,
      "amp": 1341,
      "Ġconsider": 1342,
      "ying": 1343,
      "ork": 1344,
      "Ġmess": 1345,
      "oil": 1346,
      "Ġamaz": 1347,
      "Ġchrist": 1348,
      "Ġgra": 1349,
      "elt": 1350,
      "ex": 1351,
      "Ġsupposed": 1352,
      "Ġsuc": 1353,
      "like": 1354,
      "Ġabsolute": 1355,
      "Ġblood": 1356,
      "Ġcouple": 1357,
      "Ġemotion": 1358,
      "Ġbre": 1359,
      "arn": 1360,
      "Ġexam": 1361,
      "Ġfavor": 1362,
      "Ã©": 1363,
      "Ġpa": 1364,
      "Ġtruly": 1365,
      "movie": 1366,
      "Ġaf": 1367,
      "Ġeas": 1368,
      "ument": 1369,
      "Ġdou": 1370,
      "dd": 1371,
      "Ġdan": 1372,
      "idd": 1373,
      "Ġlight": 1374,
      "Ġhumor": 1375,
      "Ġdialogue": 1376,
      "ony": 1377,
      "Ġreg": 1378,
      "Ġfail": 1379,
      "Ġsever": 1380,
      "Ġsmall": 1381,
      "ract": 1382,
      "Ġimag": 1383,
      "Ġsort": 1384,
      "Ġfre": 1385,
      "Ġgame": 1386,
      "Ġadv": 1387,
      "Ġ7": 1388,
      "itely": 1389,
      "haps": 1390,
      "ru": 1391,
      "Ġdri": 1392,
      "Ġfinal": 1393,
      "Ġgre": 1394,
      "Ġav": 1395,
      "Ġcase": 1396,
      "Ġterrible": 1397,
      "Ġmaster": 1398,
      "Ġmother": 1399,
      "Ġwa": 1400,
      "Ġfeature": 1401,
      "Ġfine": 1402,
      "Ġwin": 1403,
      "Ġbrilli": 1404,
      "Ġlive": 1405,
      "Ġat": 1406,
      "ften": 1407,
      "Ġjoke": 1408,
      "ize": 1409,
      "ley": 1410,
      "Ġslow": 1411,
      "Ġval": 1412,
      "Ġgue": 1413,
      "Ġcent": 1414,
      "gest": 1415,
      "Ġflick": 1416,
      "Ġcut": 1417,
      "but": 1418,
      "Ġsat": 1419,
      "olog": 1420,
      "Ġgetting": 1421,
      "Ġside": 1422,
      "iness": 1423,
      "velop": 1424,
      "Ġrich": 1425,
      "enn": 1426,
      "ief": 1427,
      "Ġwriter": 1428,
      "Ġfoot": 1429,
      "Ġbra": 1430,
      "lish": 1431,
      "Ġdoc": 1432,
      "Ġoften": 1433,
      "ied": 1434,
      "Ġthem": 1435,
      "Ġplaying": 1436,
      "Ġhit": 1437,
      "Ġbring": 1438,
      "unk": 1439,
      "Ġclose": 1440,
      "ons": 1441,
      "Ġlost": 1442,
      "Ġguess": 1443,
      "Ġnum": 1444,
      "fully": 1445,
      "Ġcinema": 1446,
      "Ġperhaps": 1447,
      "reme": 1448,
      "ek": 1449,
      "Ġrid": 1450,
      "Ġteen": 1451,
      "Ġimpress": 1452,
      "outh": 1453,
      "Ġtitle": 1454,
      "Ġant": 1455,
      "Ġcapt": 1456,
      "Ġearly": 1457,
      "Ġliked": 1458,
      "Ġang": 1459,
      "Ġdeal": 1460,
      "Ġok": 1461,
      "play": 1462,
      "Ġfant": 1463,
      "Ġsequence": 1464,
      "Ġviol": 1465,
      "Ġ9": 1466,
      "Ġmich": 1467,
      "Ġmention": 1468,
      "cial": 1469,
      "Ġdefinitely": 1470,
      "Ġmem": 1471,
      "Ġactress": 1472,
      "Ġworse": 1473,
      "Ġcertainly": 1474,
      "Ġmr": 1475,
      "Ġpop": 1476,
      "Ġmeet": 1477,
      "ery": 1478,
      "Ġmatter": 1479,
      "Ġexample": 1480,
      "Ġdem": 1481,
      "ently": 1482,
      "Ġfinally": 1483,
      "Ġbrilliant": 1484,
      "Ġothers": 1485,
      "ton": 1486,
      "ĠÂ": 1487,
      "Ġtou": 1488,
      "Ġstop": 1489,
      "ison": 1490,
      "Ġmag": 1491,
      "Ġkiller": 1492,
      "oid": 1493,
      "Ġstyle": 1494,
      "Ġwritten": 1495,
      "dy": 1496,
      "Ġentertaining": 1497,
      "Ġis": 1498,
      "unch": 1499,
      "Ġson": 1500,
      "Ġdevelop": 1501,
      "Ġmis": 1502,
      "Ġfelt": 1503,
      "what": 1504,
      "Ġsusp": 1505,
      "Ġdirection": 1506,
      "Ġpass": 1507,
      "Ġbrother": 1508,
      "Ġdesp": 1509,
      "ric": 1510,
      "Ġvill": 1511,
      "Ġrelation": 1512,
      "Ġbecome": 1513,
      "Ġhu": 1514,
      "ush": 1515,
      "Ġcost": 1516,
      "ortunately": 1517,
      "Ġseveral": 1518,
      "aker": 1519,
      "Ġthrough": 1520,
      "right": 1521,
      "Ġwaste": 1522,
      "Ġgod": 1523,
      "Ġdrama": 1524,
      "ides": 1525,
      "Ġquality": 1526,
      "orn": 1527,
      "Ġabsolutely": 1528,
      "Ġge": 1529,
      "Ġpred": 1530,
      "Ġstrong": 1531,
      "ator": 1532,
      "Ġdav": 1533,
      "ves": 1534,
      "Ġfair": 1535,
      "yn": 1536,
      "Ġquest": 1537,
      "ibly": 1538,
      "Ġfavorite": 1539,
      "Ġhun": 1540,
      "ision": 1541,
      "Ġfeeling": 1542,
      "Ġwent": 1543,
      "Ġloved": 1544,
      "Ġbecomes": 1545,
      "Ġtotally": 1546,
      "line": 1547,
      "ister": 1548,
      "Ġwanted": 1549,
      "mer": 1550,
      "oup": 1551,
      "Ġtype": 1552,
      "Ġevil": 1553,
      "used": 1554,
      "ined": 1555,
      "Ġextreme": 1556,
      "aughter": 1557,
      "Ġwhite": 1558,
      "ude": 1559,
      "Ġseemed": 1560,
      "edi": 1561,
      "ump": 1562,
      "Ġlist": 1563,
      "Ġyes": 1564,
      "he": 1565,
      "ready": 1566,
      "atur": 1567,
      "ement": 1568,
      "ring": 1569,
      "Ġwest": 1570,
      "Ġmo": 1571,
      "Ġlate": 1572,
      "Ġwo": 1573,
      "Ġadm": 1574,
      "Ġbased": 1575,
      "ized": 1576,
      "Ġthroughout": 1577,
      "Ġalready": 1578,
      "ates": 1579,
      "Ġpat": 1580,
      "cl": 1581,
      "Ġcolle": 1582,
      "gu": 1583,
      "Ġet": 1584,
      "aken": 1585,
      "Ġthrill": 1586,
      "Ġsuccess": 1587,
      "af": 1588,
      "Ġbro": 1589,
      "ien": 1590,
      "Ġpur": 1591,
      "ular": 1592,
      "ains": 1593,
      "ming": 1594,
      "Ġdocument": 1595,
      "Ġself": 1596,
      "ided": 1597,
      "Ġnov": 1598,
      "Ġbeginning": 1599,
      "Ġcredit": 1600,
      "Ġtown": 1601,
      "Ġwriting": 1602,
      "ys": 1603,
      "Ġstuff": 1604,
      "ional": 1605,
      "Ġdev": 1606,
      "Ġtod": 1607,
      "Ġlearn": 1608,
      "Ġfem": 1609,
      "Ġdream": 1610,
      "Ġable": 1611,
      "Ġinf": 1612,
      "ael": 1613,
      "Ġstay": 1614,
      "ik": 1615,
      "Ġrock": 1616,
      "les": 1617,
      "Ġchange": 1618,
      "Ġamazing": 1619,
      "Ġtouch": 1620,
      "Ġpast": 1621,
      "Ġexperience": 1622,
      "anger": 1623,
      "Ġla": 1624,
      "Ġsupport": 1625,
      "Ġcalled": 1626,
      "bo": 1627,
      "ler": 1628,
      "orge": 1629,
      "ination": 1630,
      "Ġhilar": 1631,
      "Ġhorrible": 1632,
      "Ġrelationship": 1633,
      "Ġtrans": 1634,
      "Ġenjoyed": 1635,
      "sych": 1636,
      "friend": 1637,
      "Ġrent": 1638,
      "Ġtalk": 1639,
      "Ġuni": 1640,
      "Ġcity": 1641,
      "Ġoh": 1642,
      "Ġspoil": 1643,
      "Ġ200": 1644,
      "Ġocc": 1645,
      "Ġprop": 1646,
      "Ġpresent": 1647,
      "Ġpet": 1648,
      "Ġgroup": 1649,
      "Ġdeser": 1650,
      "Ġmark": 1651,
      "Ġquestion": 1652,
      "use": 1653,
      "Ġgenre": 1654,
      "Ġsle": 1655,
      "ried": 1656,
      "Ġlar": 1657,
      "uation": 1658,
      "Ġcart": 1659,
      "Ġnumber": 1660,
      "Ġbody": 1661,
      "Ġshoot": 1662,
      "chn": 1663,
      "Ġpsych": 1664,
      "Ġgave": 1665,
      "Ġvoice": 1666,
      "Ġmyster": 1667,
      "Ġhell": 1668,
      "Ġdeep": 1669,
      "urb": 1670,
      "Ġmaj": 1671,
      "Ġsave": 1672,
      "Ġpick": 1673,
      "itic": 1674,
      "Ġfore": 1675,
      "Ġbehind": 1676,
      "etic": 1677,
      "Ġtwist": 1678,
      "Ġage": 1679,
      "Ġaff": 1680,
      "Ġ..": 1681,
      "Ġstra": 1682,
      "Ġannoy": 1683,
      "Ġzomb": 1684,
      "Ġhilarious": 1685,
      "urt": 1686,
      "let": 1687,
      "itive": 1688,
      "osp": 1689,
      "oss": 1690,
      "ured": 1691,
      "Ġplan": 1692,
      "Ġra": 1693,
      "Ġmove": 1694,
      "Ġimm": 1695,
      "how": 1696,
      "Ġgun": 1697,
      "Ġ....": 1698,
      "Ġdirected": 1699,
      "Ġhistory": 1700,
      "Ġol": 1701,
      "Ġlevel": 1702,
      "Ġdespite": 1703,
      "where": 1704,
      "rif": 1705,
      "Ġwood": 1706,
      "Ġimport": 1707,
      "Ġmichael": 1708,
      "any": 1709,
      "Ġger": 1710,
      "Ġcareer": 1711,
      "ĠÂĸ": 1712,
      "Ġexact": 1713,
      "Ġstre": 1714,
      "Ġnovel": 1715,
      "Ġsol": 1716,
      "iculous": 1717,
      "sp": 1718,
      "Ġsometime": 1719,
      "Ġetc": 1720,
      "uc": 1721,
      "Ġcult": 1722,
      "Ġtheme": 1723,
      "Ġdocumentary": 1724,
      "Ġsoon": 1725,
      "Ġunfortunately": 1726,
      "enty": 1727,
      "Ġprom": 1728,
      "Ġorder": 1729,
      "Ġhighly": 1730,
      "ew": 1731,
      "Ġcool": 1732,
      "ker": 1733,
      "Ġand": 1734,
      "ution": 1735,
      "Ġcrap": 1736,
      "Ġfig": 1737,
      "Ġscore": 1738,
      "Ġwish": 1739,
      "iest": 1740,
      "Ġincred": 1741,
      "Ġcinemat": 1742,
      "Ġmajor": 1743,
      "Ġzombie": 1744,
      "Ġgar": 1745,
      "ctor": 1746,
      "Ġhot": 1747,
      "Ġthank": 1748,
      "Ġvict": 1749,
      "Ġoverall": 1750,
      "ax": 1751,
      "Ġcontin": 1752,
      "Ġtoday": 1753,
      "by": 1754,
      "off": 1755,
      "vable": 1756,
      "amed": 1757,
      "Ġmad": 1758,
      "Ġdaughter": 1759,
      "Ġkilled": 1760,
      "Ġmet": 1761,
      "Ġspace": 1762,
      "Ġchance": 1763,
      "Ġunc": 1764,
      "Ġtechn": 1765,
      "Ġtom": 1766,
      "Ġreturn": 1767,
      "Ġcountry": 1768,
      "Ġjam": 1769,
      "Ġhold": 1770,
      "Ġdecent": 1771,
      "Ġ6": 1772,
      "Ġpot": 1773,
      "Ġtook": 1774,
      "onest": 1775,
      "Ġridiculous": 1776,
      "iet": 1777,
      "elling": 1778,
      "Ġleg": 1779,
      "ume": 1780,
      "Ġbus": 1781,
      "Ġdog": 1782,
      "Ġhappens": 1783,
      "Ġhear": 1784,
      "using": 1785,
      "Ġprem": 1786,
      "Ġnon": 1787,
      "Ġobviously": 1788,
      "arr": 1789,
      "Ġheard": 1790,
      "Ġland": 1791,
      "astic": 1792,
      "Ġthinking": 1793,
      "iving": 1794,
      "Ġrobert": 1795,
      "Ġelement": 1796,
      "Ġago": 1797,
      "Ġsometimes": 1798,
      "Ġmill": 1799,
      "Ġair": 1800,
      "Ġroom": 1801,
      "Ġtele": 1802,
      "Ġdesc": 1803,
      "Ġsituation": 1804,
      "ris": 1805,
      "Ġtre": 1806,
      "Ġstrange": 1807,
      "Ġcontr": 1808,
      "ior": 1809,
      "lin": 1810,
      "Ġfour": 1811,
      "band": 1812,
      "gy": 1813,
      "Ġpay": 1814,
      "Ġeffort": 1815,
      "Ġrating": 1816,
      "Ġphot": 1817,
      "ipp": 1818,
      "Ġsold": 1819,
      "ged": 1820,
      "Ġsam": 1821,
      "Ġten": 1822,
      "ific": 1823,
      "bel": 1824,
      "ii": 1825,
      "Ġopp": 1826,
      "ral": 1827,
      "Ġbab": 1828,
      "Ġgore": 1829,
      "Ġreality": 1830,
      "tra": 1831,
      "Ġstep": 1832,
      "Ġincluding": 1833,
      "oul": 1834,
      "Ġfire": 1835,
      "rib": 1836,
      "body": 1837,
      "res": 1838,
      "Ġoffer": 1839,
      "Ġclich": 1840,
      "Ġextremely": 1841,
      "day": 1842,
      "owing": 1843,
      "antly": 1844,
      "antic": 1845,
      "aged": 1846,
      "Ġcamp": 1847,
      "Ġfemale": 1848,
      "Ġesc": 1849,
      "Ġvalue": 1850,
      "ok": 1851,
      "Ġbatt": 1852,
      "Ġgh": 1853,
      "Ġknown": 1854,
      "Ġsuspense": 1855,
      "Ġno": 1856,
      "usband": 1857,
      "Ġconvin": 1858,
      "Ġ198": 1859,
      "rench": 1860,
      "Ġpossible": 1861,
      "Ġtold": 1862,
      "Ġconst": 1863,
      "Ġtheater": 1864,
      "Ġnone": 1865,
      "unt": 1866,
      "Ġcoming": 1867,
      "Ġsubject": 1868,
      "Ġreleased": 1869,
      "Ġdavid": 1870,
      "Ġenglish": 1871,
      "inion": 1872,
      "Ġtaken": 1873,
      "Ġsum": 1874,
      "Ġsequel": 1875,
      "oph": 1876,
      "Ġbrit": 1877,
      "Ġer": 1878,
      "Ġcheck": 1879,
      "Ġparticularly": 1880,
      "Ġmel": 1881,
      "ause": 1882,
      "Ġapparent": 1883,
      "Ġhuge": 1884,
      "rodu": 1885,
      "for": 1886,
      "Ġhy": 1887,
      "ising": 1888,
      "Ġleave": 1889,
      "side": 1890,
      "Ġfut": 1891,
      "Ġvar": 1892,
      "Ġsimple": 1893,
      "Ġresult": 1894,
      "Ġsym": 1895,
      "maker": 1896,
      "Ġlaw": 1897,
      "Ġnorm": 1898,
      "Ġinvolved": 1899,
      "Ġcinematography": 1900,
      "Ġliving": 1901,
      "ellig": 1902,
      "Ġsaying": 1903,
      "Ġmonster": 1904,
      "Ġpredict": 1905,
      "Ġlady": 1906,
      "there": 1907,
      "Ġalone": 1908,
      "ury": 1909,
      "ival": 1910,
      "Ġopinion": 1911,
      "Ġstraight": 1912,
      "Ġhusband": 1913,
      "Ġforget": 1914,
      "Ġstarted": 1915,
      "br": 1916,
      "gle": 1917,
      "ino": 1918,
      "Ġmart": 1919,
      "ield": 1920,
      "Ġprot": 1921,
      "Ġacross": 1922,
      "zy": 1923,
      "Ġcover": 1924,
      "Ġtreat": 1925,
      "Ġmusical": 1926,
      "Ġfrank": 1927,
      "bt": 1928,
      "Ġshown": 1929,
      "Ġcartoon": 1930,
      "Ġbey": 1931,
      "Ġhappened": 1932,
      "ox": 1933,
      "dern": 1934,
      "Ġseriously": 1935,
      "Ġhonest": 1936,
      "Ġsimilar": 1937,
      "utter": 1938,
      "fess": 1939,
      "Ġanyway": 1940,
      "Ġsingle": 1941,
      "Ġexactly": 1942,
      "arch": 1943,
      "oth": 1944,
      "Ġbasically": 1945,
      "iety": 1946,
      "Ġscary": 1947,
      "ended": 1948,
      "fil": 1949,
      "Ġgold": 1950,
      "Ġha": 1951,
      "key": 1952,
      "Ġteam": 1953,
      "Ġswe": 1954,
      "Ġbeyond": 1955,
      "Ġsor": 1956,
      "otic": 1957,
      "Ġquick": 1958,
      "ager": 1959,
      "ina": 1960,
      "ential": 1961,
      "ational": 1962,
      "Ġlooked": 1963,
      "Ġ197": 1964,
      "Ġopening": 1965,
      "ec": 1966,
      "vision": 1967,
      "Ġfast": 1968,
      "Ġdest": 1969,
      "Ġusually": 1970,
      "een": 1971,
      "Ġwater": 1972,
      "Ġnear": 1973,
      "Ġbreak": 1974,
      "iddle": 1975,
      "Ġsister": 1976,
      "Ġseason": 1977,
      "pical": 1978,
      "Ġstri": 1979,
      "Ġweek": 1980,
      "Ġpolice": 1981,
      "Ġvillain": 1982,
      "bar": 1983,
      "Ġmember": 1984,
      "oward": 1985,
      "Ġcomic": 1986,
      "to": 1987,
      "wise": 1988,
      "Ġhate": 1989,
      "Ġshock": 1990,
      "Ġamong": 1991,
      "Ġtale": 1992,
      "Ġdiscover": 1993,
      "Ġannoying": 1994,
      "Ġequ": 1995,
      "Ġtaking": 1996,
      "Ġapart": 1997,
      "Ġturned": 1998,
      "Ġdoctor": 1999,
      "Ġviolence": 2000,
      "Ġcat": 2001,
      "Ġpull": 2002,
      "iment": 2003,
      "ma": 2004,
      "Ġmost": 2005,
      "Ġpos": 2006,
      "itting": 2007,
      "Ġsomewhat": 2008,
      "Ġcheap": 2009,
      "Ġsilly": 2010,
      "sw": 2011,
      "Ġdrug": 2012,
      "Ġintellig": 2013,
      "Ġbattle": 2014,
      "Ġfoc": 2015,
      "Ġusual": 2016,
      "Ġrichard": 2017,
      "Ġmer": 2018,
      "Ġlou": 2019,
      "Ġdie": 2020,
      "ground": 2021,
      "Ġthriller": 2022,
      "co": 2023,
      "usion": 2024,
      "Ġsent": 2025,
      "Ġking": 2026,
      "Ġearth": 2027,
      "Ġpaul": 2028,
      "Ġ$": 2029,
      "Ġodd": 2030,
      "ension": 2031,
      "Ġcur": 2032,
      "Ġau": 2033,
      "Ġproducer": 2034,
      "Ġsug": 2035,
      "Ġdeliver": 2036,
      "Ġsurprise": 2037,
      "Ġmanage": 2038,
      "Ġsubt": 2039,
      "Ġmodern": 2040,
      "Ġsoldier": 2041,
      "Ġham": 2042,
      "Ġnarr": 2043,
      "back": 2044,
      "ned": 2045,
      "Ġrespect": 2046,
      "Ġcolor": 2047,
      "Ġrunning": 2048,
      "Ġfilmmaker": 2049,
      "Ġexist": 2050,
      "Ġtrain": 2051,
      "Ġattention": 2052,
      "Ġdisappointed": 2053,
      "read": 2054,
      "Ġstreet": 2055,
      "Ġtim": 2056,
      "asy": 2057,
      "Ġknew": 2058,
      "Ġavoid": 2059,
      "Ġvamp": 2060,
      "Ġwhose": 2061,
      "Ġappears": 2062,
      "Ġfigure": 2063,
      "Ġjames": 2064,
      "Ġsuck": 2065,
      "Ġgrand": 2066,
      "Ġbox": 2067,
      "Ġextra": 2068,
      "Ġmessage": 2069,
      "Ġill": 2070,
      "Ġdam": 2071,
      "iction": 2072,
      "Ġmostly": 2073,
      "oose": 2074,
      "Ġwalk": 2075,
      "orth": 2076,
      "Ġosc": 2077,
      "Ġpub": 2078,
      "Ġhop": 2079,
      "Ġcompl": 2080,
      "ball": 2081,
      "lic": 2082,
      "oe": 2083,
      "Ġjer": 2084,
      "ished": 2085,
      "Ġask": 2086,
      "Ġallow": 2087,
      "Ġdetail": 2088,
      "film": 2089,
      "wr": 2090,
      "Ġspir": 2091,
      "Ġtalking": 2092,
      "str": 2093,
      "oof": 2094,
      "Ġgerman": 2095,
      "de": 2096,
      "Ġmiddle": 2097,
      "Ġfrench": 2098,
      "Ġlocal": 2099,
      "Ġimportant": 2100,
      "Ġoscar": 2101,
      "Ġsign": 2102,
      "Ġinn": 2103,
      "Ġjud": 2104,
      "illiam": 2105,
      "Ġplease": 2106,
      "head": 2107,
      "iod": 2108,
      "Ġid": 2109,
      "rew": 2110,
      "Ġsecret": 2111,
      "Ġremind": 2112,
      "aced": 2113,
      "Ġdraw": 2114,
      "Ġvisual": 2115,
      "orable": 2116,
      "ital": 2117,
      "Ġentertainment": 2118,
      "Ġrelease": 2119,
      "Ġpleas": 2120,
      "reci": 2121,
      "Ġband": 2122,
      "Ġvir": 2123,
      "Ġbuild": 2124,
      "Ġ80": 2125,
      "some": 2126,
      "Ġult": 2127,
      "ffic": 2128,
      "Ġcritic": 2129,
      "Ġpure": 2130,
      "Ġtoward": 2131,
      "Ġimage": 2132,
      "Ġ199": 2133,
      "ove": 2134,
      "ĠclichÃ©": 2135,
      "Ġcry": 2136,
      "Ġfive": 2137,
      "Ġstate": 2138,
      "Ġparent": 2139,
      "ula": 2140,
      "Ġaspect": 2141,
      "....": 2142,
      "Ġhappy": 2143,
      "piece": 2144,
      "Ġcan": 2145,
      "Ġcomb": 2146,
      "Ġexplain": 2147,
      "Ġromantic": 2148,
      "Ġgeorge": 2149,
      "Ġspoiler": 2150,
      "Ġgang": 2151,
      "ili": 2152,
      "enture": 2153,
      "Ġperiod": 2154,
      "Ġshowing": 2155,
      "Ġ20": 2156,
      "Ġtruth": 2157,
      "light": 2158,
      "Ġmater": 2159,
      "itical": 2160,
      "Ġforg": 2161,
      "view": 2162,
      "Ġmist": 2163,
      "Ġcla": 2164,
      "Ġenjoyable": 2165,
      "Ġbuy": 2166,
      "Ġruss": 2167,
      "Ġwestern": 2168,
      "track": 2169,
      "Ġsuggest": 2170,
      "cent": 2171,
      "Ġsurv": 2172,
      "Ġsetting": 2173,
      "Ġtelevision": 2174,
      "Ġdu": 2175,
      "Ġvampire": 2176,
      "eed": 2177,
      "Ġsoc": 2178,
      "Ġdumb": 2179,
      "issue": 2180,
      "Ġeasily": 2181,
      "Ġsupporting": 2182,
      "Ġdue": 2183,
      "Ġforce": 2184,
      "Ġital": 2185,
      "Ġwind": 2186,
      "Ġbill": 2187,
      "ett": 2188,
      "ously": 2189,
      "Ġpredictable": 2190,
      "work": 2191,
      "Ġdull": 2192,
      "Ġflaw": 2193,
      "Ġmystery": 2194,
      "mosp": 2195,
      "Ġwilliam": 2196,
      "Ġupon": 2197,
      "ram": 2198,
      "sk": 2199,
      "ald": 2200,
      "Ġdown": 2201,
      "Ġsexual": 2202,
      "Ġclear": 2203,
      "su": 2204,
      "Ġsun": 2205,
      "Ġren": 2206,
      "veal": 2207,
      "Ġspend": 2208,
      "Ġsoundtrack": 2209,
      "Ġmix": 2210,
      "Ġcrime": 2211,
      "Ġclearly": 2212,
      "Ġexpress": 2213,
      "Ġatmosp": 2214,
      "Ġmaterial": 2215,
      "Ġfell": 2216,
      "Ġreveal": 2217,
      "Ġjust": 2218,
      "Ġprevious": 2219,
      "Ġdecided": 2220,
      "Ġappreci": 2221,
      "Ġfuture": 2222,
      "fer": 2223,
      "vest": 2224,
      "Ġscen": 2225,
      "Ġadult": 2226,
      "Ġweak": 2227,
      "Ġfree": 2228,
      "opp": 2229,
      "arely": 2230,
      "Ġpost": 2231,
      "Ġdrag": 2232,
      "gth": 2233,
      "we": 2234,
      "real": 2235,
      "Ġmil": 2236,
      "Ġpath": 2237,
      "iel": 2238,
      "Ġtrag": 2239,
      "Ġmeaning": 2240,
      "Ġwhether": 2241,
      "Ġediting": 2242,
      "ike": 2243,
      "Ġfear": 2244,
      "Ġworking": 2245,
      "Ġtried": 2246,
      "Ġwait": 2247,
      "Ġshame": 2248,
      "Ġstandard": 2249,
      "Ġlim": 2250,
      "emy": 2251,
      "action": 2252,
      "Ġwithin": 2253,
      "Ġviewing": 2254,
      "onic": 2255,
      "Ġfly": 2256,
      "Ġattack": 2257,
      "db": 2258,
      "Ġmale": 2259,
      "Ġaccept": 2260,
      "Ġweird": 2261,
      "ging": 2262,
      "Ġbunch": 2263,
      "ceed": 2264,
      "Ġsuperb": 2265,
      "path": 2266,
      "Ġbother": 2267,
      "Ġanimation": 2268,
      "ser": 2269,
      "Ġlo": 2270,
      "Ġslight": 2271,
      "Ġinsp": 2272,
      "Ġsurprised": 2273,
      "Ġparticular": 2274,
      "came": 2275,
      "iff": 2276,
      "irc": 2277,
      "asc": 2278,
      "Ġbrought": 2279,
      "Ġadapt": 2280,
      "Ġterm": 2281,
      "Ġbritish": 2282,
      "ius": 2283,
      "Ġmat": 2284,
      "Ġfit": 2285,
      "Ġjap": 2286,
      "Ġactual": 2287,
      "Ġgeneral": 2288,
      "Ġpremise": 2289,
      "Ġsorry": 2290,
      "Ġissue": 2291,
      "Ġdoubt": 2292,
      "bor": 2293,
      "Ġbaby": 2294,
      "Ġeur": 2295,
      "ander": 2296,
      "aving": 2297,
      "Ġfront": 2298,
      "Ġmot": 2299,
      "Ġtar": 2300,
      "Ġdesign": 2301,
      "Ġapparently": 2302,
      "Ġcatch": 2303,
      "Ġcirc": 2304,
      "Ġben": 2305,
      "Ġtrou": 2306,
      "esy": 2307,
      "Ġcrew": 2308,
      "Ġemotional": 2309,
      "bert": 2310,
      "row": 2311,
      "ze": 2312,
      "Ġkilling": 2313,
      "Ġanimal": 2314,
      "Ġburn": 2315,
      "Ġaver": 2316,
      "Ġmid": 2317,
      "Ġcal": 2318,
      "ana": 2319,
      "Ġalien": 2320,
      "Ġsomehow": 2321,
      "ubb": 2322,
      "Ġver": 2323,
      "Ġmoving": 2324,
      "Ġnearly": 2325,
      "atest": 2326,
      "Ġnote": 2327,
      "Ġintrodu": 2328,
      "Ġpoorly": 2329,
      "Ġcu": 2330,
      "Ġna": 2331,
      "Ġstage": 2332,
      "rated": 2333,
      "ening": 2334,
      "Ġvan": 2335,
      "aste": 2336,
      "aster": 2337,
      "Ġprofess": 2338,
      "Ġimdb": 2339,
      "Ġarm": 2340,
      "Ġkept": 2341,
      "time": 2342,
      "Ġwear": 2343,
      "Ġgiving": 2344,
      "ogn": 2345,
      "Ġlame": 2346,
      "Ġultim": 2347,
      "go": 2348,
      "Ġve": 2349,
      "Ġsuffer": 2350,
      "Ġteach": 2351,
      "lier": 2352,
      "Ġgreatest": 2353,
      "Ġfootage": 2354,
      "Ġvictim": 2355,
      "Ġghost": 2356,
      "first": 2357,
      "Ġbelievable": 2358,
      "Ġcreep": 2359,
      "Ġeasy": 2360,
      "Ġsleep": 2361,
      "kn": 2362,
      "rit": 2363,
      "well": 2364,
      "Ġliter": 2365,
      "Ġcopy": 2366,
      "Ġbusiness": 2367,
      "uel": 2368,
      "Ġdance": 2369,
      "eth": 2370,
      "ague": 2371,
      "Ġspeak": 2372,
      "Ġstudent": 2373,
      "Ġhall": 2374,
      "Ġnamed": 2375,
      "Ġjim": 2376,
      "Ġunlike": 2377,
      "Ġromance": 2378,
      "Ġmasterpiece": 2379,
      "Ġwild": 2380,
      "Ġfilmed": 2381,
      "Ġbecame": 2382,
      "Ġproject": 2383,
      "Ġpeter": 2384,
      "rop": 2385,
      "esome": 2386,
      "Ġisland": 2387,
      "Ġful": 2388,
      "atever": 2389,
      "Ġconne": 2390,
      "ively": 2391,
      "Ġclim": 2392,
      "Ġforced": 2393,
      "Ġfamous": 2394,
      "Ġeventually": 2395,
      "Ġmass": 2396,
      "Ġyork": 2397,
      "Ġauth": 2398,
      "Ġpri": 2399,
      "Ġwill": 2400,
      "Ġjul": 2401,
      "Ġprof": 2402,
      "Ġusing": 2403,
      "Ġrefer": 2404,
      "Ġmedi": 2405,
      "Ġbur": 2406,
      "Ġchang": 2407,
      "Ġconcept": 2408,
      "Ġclever": 2409,
      "Ġearlier": 2410,
      "atural": 2411,
      "Ġlarge": 2412,
      "ored": 2413,
      "Ġgone": 2414,
      "lect": 2415,
      "Ġrad": 2416,
      "Ġplain": 2417,
      "Ġlee": 2418,
      "ted": 2419,
      "watch": 2420,
      "Ġnow": 2421,
      "Ġtypical": 2422,
      "Ġcap": 2423,
      "Ġaccent": 2424,
      "Ġfantastic": 2425,
      "fficult": 2426,
      "ee": 2427,
      "Ġhom": 2428,
      "Ġotherwise": 2429,
      "Ġgay": 2430,
      "Ġthird": 2431,
      "cious": 2432,
      "Ġaverage": 2433,
      "omin": 2434,
      "Ġindeed": 2435,
      "Ġbeauty": 2436,
      "Ġmemorable": 2437,
      "Ġspirit": 2438,
      "Ġsociety": 2439,
      "bl": 2440,
      "Ġnature": 2441,
      "Ġdifficult": 2442,
      "Ġ195": 2443,
      "Ġstrug": 2444,
      "Ġcheesy": 2445,
      "Ġescape": 2446,
      "Ġcause": 2447,
      "Ġhair": 2448,
      "Ġwhatever": 2449,
      "Ġjoe": 2450,
      "Ġtheat": 2451,
      "dden": 2452,
      "Ġinterested": 2453,
      "Ġcontinu": 2454,
      "gan": 2455,
      "Ġpark": 2456,
      "olf": 2457,
      "Ġbackground": 2458,
      "ibility": 2459,
      "Ġbrain": 2460,
      "Ġfantasy": 2461,
      "ess": 2462,
      "Ġsoul": 2463,
      "Ġroll": 2464,
      "while": 2465,
      "Ġsweet": 2466,
      "Ġcarry": 2467,
      "Ġrecogn": 2468,
      "Ġimagine": 2469,
      "Ġbut": 2470,
      "Ġrand": 2471,
      "Ġstoryline": 2472,
      "Ġamerica": 2473,
      "Ġcommun": 2474,
      "Ġadventure": 2475,
      "Ġutter": 2476,
      "Ġpu": 2477,
      "Ġwit": 2478,
      "ats": 2479,
      "Ġflash": 2480,
      "Ġunique": 2481,
      "Ġpublic": 2482,
      "Ġwall": 2483,
      "Ġsudden": 2484,
      "Ġleaf": 2485,
      "Ġappeal": 2486,
      "Ġrevol": 2487,
      "par": 2488,
      "Ġsens": 2489,
      "Ġpal": 2490,
      "ille": 2491,
      "ung": 2492,
      "Ġkick": 2493,
      "ounter": 2494,
      "Ġpossibly": 2495,
      "Ġstudio": 2496,
      "ially": 2497,
      "of": 2498,
      "Ġmc": 2499,
      "aked": 2500,
      "agon": 2501,
      "Ġdisney": 2502,
      "Ġphil": 2503,
      "Ġexpected": 2504,
      "ding": 2505,
      "fi": 2506,
      "Ġmod": 2507,
      "Ġlu": 2508,
      "Ġfocus": 2509,
      "Ġmatch": 2510,
      "Ġjump": 2511,
      "Ġplenty": 2512,
      "Ġbeat": 2513,
      "Ġresp": 2514,
      "Ġneeded": 2515,
      "Ġappro": 2516,
      "Ġatmosphere": 2517,
      "Ġsouth": 2518,
      "Ġstere": 2519,
      "oty": 2520,
      "Ġchoice": 2521,
      "Ġsci": 2522,
      "Ġforward": 2523,
      "Ġden": 2524,
      "Ġrealistic": 2525,
      "Ġbored": 2526,
      "lu": 2527,
      "Ġfasc": 2528,
      "Ġstick": 2529,
      "Ġreading": 2530,
      "Ġmillion": 2531,
      "Ġexec": 2532,
      "ived": 2533,
      "ins": 2534,
      "Ġsick": 2535,
      "Ġbat": 2536,
      "illy": 2537,
      "Ġaust": 2538,
      "Ġquickly": 2539,
      "mas": 2540,
      "Ġlang": 2541,
      "Ġrese": 2542,
      "rass": 2543,
      "Ġless": 2544,
      "Ġparty": 2545,
      "Ġaward": 2546,
      "Ġdevelopment": 2547,
      "Ġcostume": 2548,
      "rific": 2549,
      "Ġplus": 2550,
      "Ġfunn": 2551,
      "Ġfran": 2552,
      "Ġscreenplay": 2553,
      "Ġmemory": 2554,
      "spe": 2555,
      "rent": 2556,
      "Ġlen": 2557,
      "itation": 2558,
      "Ġunless": 2559,
      "Ġbadly": 2560,
      "Ġtrack": 2561,
      "Ġdemon": 2562,
      "Ġdress": 2563,
      "Ġchase": 2564,
      "Ġscream": 2565,
      "Ġmeant": 2566,
      "Ġremake": 2567,
      "Ġinside": 2568,
      "annel": 2569,
      "Ġregard": 2570,
      "Ġfairly": 2571,
      "Ġmach": 2572,
      "Ġdirecting": 2573,
      "Ġworked": 2574,
      "Ġ194": 2575,
      "Ġ70": 2576,
      "``": 2577,
      "cast": 2578,
      "Ġtaste": 2579,
      "Ġthere": 2580,
      "Ġchannel": 2581,
      "Ġansw": 2582,
      "Ġpotential": 2583,
      "Ġidi": 2584,
      "Ġign": 2585,
      "rest": 2586,
      "Ġluck": 2587,
      "Ġrate": 2588,
      "tern": 2589,
      "Ġintri": 2590,
      "anese": 2591,
      "Ġdramatic": 2592,
      "Ġangel": 2593,
      "Ġfred": 2594,
      "Ġjour": 2595,
      "ivid": 2596,
      "Ġdisturb": 2597,
      "Ġpowerful": 2598,
      "Ġpositive": 2599,
      "Ġident": 2600,
      "Ġdar": 2601,
      "und": 2602,
      "Ġflat": 2603,
      "Ġcreate": 2604,
      "Ġtowards": 2605,
      "Ġanswer": 2606,
      "more": 2607,
      "pose": 2608,
      "Ġlie": 2609,
      "acing": 2610,
      "ology": 2611,
      "Ġscott": 2612,
      "Ġwrite": 2613,
      "Ġpersonal": 2614,
      "Ġmissing": 2615,
      "Ġmanages": 2616,
      "look": 2617,
      "Ġfat": 2618,
      "Ġstat": 2619,
      "unning": 2620,
      "Ġlover": 2621,
      "Ġthrow": 2622,
      "Ġokay": 2623,
      "Ġoccas": 2624,
      "Ġconcer": 2625,
      "itty": 2626,
      "Ġlaughing": 2627,
      "Ġcreature": 2628,
      "Ġadmit": 2629,
      "Ġstereoty": 2630,
      "edic": 2631,
      "Ġbed": 2632,
      "Ġamount": 2633,
      "Ġhardly": 2634,
      "Ġlocation": 2635,
      "por": 2636,
      "Ġcute": 2637,
      "olk": 2638,
      "Ġsteal": 2639,
      "Ġdoor": 2640,
      "Ġvarious": 2641,
      "Ġitalian": 2642,
      "Ġdanger": 2643,
      "Ġach": 2644,
      "Ġrepe": 2645,
      "imp": 2646,
      "Ġprin": 2647,
      "Ġgenius": 2648,
      "inger": 2649,
      "Ġenc": 2650,
      "Ġblue": 2651,
      "Ġpolitical": 2652,
      "asher": 2653,
      "ending": 2654,
      "Ġtrad": 2655,
      "Ġrecord": 2656,
      "belie": 2657,
      "Ġsix": 2658,
      "Ġda": 2659,
      "Ġ196": 2660,
      "Ġdeserves": 2661,
      "Ġolder": 2662,
      "Ġlos": 2663,
      "rage": 2664,
      "Ġ15": 2665,
      "Ġheav": 2666,
      "Ġsocial": 2667,
      "oor": 2668,
      "oke": 2669,
      "Ġpen": 2670,
      "Ġjane": 2671,
      "Ġacted": 2672,
      "Ġtrail": 2673,
      "Ġhistor": 2674,
      "Ġcontrol": 2675,
      "boy": 2676,
      "Ġrequ": 2677,
      "comp": 2678,
      "iliar": 2679,
      "die": 2680,
      "Ġx": 2681,
      "iny": 2682,
      "Ġest": 2683,
      "Ġfollowing": 2684,
      "Ġtotal": 2685,
      "Ġapproach": 2686,
      "'s": 2687,
      "di": 2688,
      "Ġfle": 2689,
      "Ġporn": 2690,
      "Ġber": 2691,
      "cessary": 2692,
      "Ġfighting": 2693,
      "Ġtalented": 2694,
      "na": 2695,
      "Ġsal": 2696,
      "Ġdon": 2697,
      "Ġstore": 2698,
      "Ġye": 2699,
      "Ġrealize": 2700,
      "Ġwasted": 2701,
      "Ġoffic": 2702,
      "Ġbrings": 2703,
      "Ġincredibly": 2704,
      "Ġbreat": 2705,
      "Ġgirlfriend": 2706,
      "gress": 2707,
      "Ġon": 2708,
      "inary": 2709,
      "Ġcross": 2710,
      "Ġbal": 2711,
      "Ġinform": 2712,
      "Ġleading": 2713,
      "Ġportrayal": 2714,
      "Ġinnoc": 2715,
      "ift": 2716,
      "Ġhen": 2717,
      "Ġ30": 2718,
      "Ġappearance": 2719,
      "Ġbroad": 2720,
      "Ġeurope": 2721,
      "Ġsand": 2722,
      "Ġgreen": 2723,
      "Ġphys": 2724,
      "Ġjapanese": 2725,
      "ero": 2726,
      "Ġtest": 2727,
      "Ġdesper": 2728,
      "Ġembar": 2729,
      "Ġconsist": 2730,
      "lie": 2731,
      "Ġray": 2732,
      "Ġprison": 2733,
      "ization": 2734,
      "Ġ193": 2735,
      "Ġtrash": 2736,
      "rupt": 2737,
      "Ġcold": 2738,
      "Ġbiz": 2739,
      "Ġconv": 2740,
      "Ġroad": 2741,
      "standing": 2742,
      "Ġportrayed": 2743,
      "Ġpopular": 2744,
      "Ġpurpose": 2745,
      "ky": 2746,
      "Ġtort": 2747,
      "Ġtension": 2748,
      "Ġlog": 2749,
      "Ġess": 2750,
      "isf": 2751,
      "come": 2752,
      "Ġslasher": 2753,
      "lessly": 2754,
      "Ġtrouble": 2755,
      "hood": 2756,
      "Ġtone": 2757,
      "arre": 2758,
      "Ġmaker": 2759,
      "Ġscient": 2760,
      "Ġcompar": 2761,
      "Ġbasic": 2762,
      "Ġmissed": 2763,
      "Ġmentioned": 2764,
      "Ġimmedi": 2765,
      "Ġdy": 2766,
      "Ġdoll": 2767,
      "Ġalex": 2768,
      "Ġuns": 2769,
      "berg": 2770,
      "Ġcompany": 2771,
      "Ġdepth": 2772,
      "Ġfails": 2773,
      "Ġmood": 2774,
      "Ġhitch": 2775,
      "Ġinvest": 2776,
      "Ġmanner": 2777,
      "Ġspent": 2778,
      "aging": 2779,
      "Ġsmart": 2780,
      "Ġrecently": 2781,
      "Ġtelling": 2782,
      "Ġartist": 2783,
      "Ġcommon": 2784,
      "Ġcreated": 2785,
      "Ġperfectly": 2786,
      "Ġdestro": 2787,
      "Ġembarrass": 2788,
      "Ġi": 2789,
      "Ġera": 2790,
      "Ġtend": 2791,
      "uter": 2792,
      "Ġattract": 2793,
      "Ġcasting": 2794,
      "Ġindian": 2795,
      "ashion": 2796,
      "Ġdrive": 2797,
      "Ġcollege": 2798,
      "Ġlangu": 2799,
      "Ġown": 2800,
      "ones": 2801,
      "Ġshake": 2802,
      "Ġentirely": 2803,
      "Ġsubtle": 2804,
      "saw": 2805,
      "venge": 2806,
      "Ġimpr": 2807,
      "Ġsilent": 2808,
      "Ġ90": 2809,
      "Ġsympath": 2810,
      "Ġmir": 2811,
      "Ġnud": 2812,
      "Ġshe": 2813,
      "ained": 2814,
      "Ġchristmas": 2815,
      "Ġpace": 2816,
      "Ġlose": 2817,
      "oved": 2818,
      "Ġreach": 2819,
      "ishing": 2820,
      "Ġlonger": 2821,
      "Ġdeli": 2822,
      "idden": 2823,
      "Ġcentury": 2824,
      "Ġsuccessful": 2825,
      "Ġincredible": 2826,
      "resent": 2827,
      "inc": 2828,
      "Ġmere": 2829,
      "Ġlab": 2830,
      "Ġdin": 2831,
      "Ġgri": 2832,
      "Ġast": 2833,
      "Ġtravel": 2834,
      "la": 2835,
      "Ġbomb": 2836,
      "ette": 2837,
      "Ġcompared": 2838,
      "Ġcrazy": 2839,
      "Ġagree": 2840,
      "Ġaccident": 2841,
      "Ġment": 2842,
      "Ġcaught": 2843,
      "Ġfu": 2844,
      "Ġball": 2845,
      "elly": 2846,
      "Ġspot": 2847,
      "Ġfaith": 2848,
      "Ġability": 2849,
      "Ġbelief": 2850,
      "Ġdelight": 2851,
      "Ġadaptation": 2852,
      "not": 2853,
      "Ġfake": 2854,
      "Ġtear": 2855,
      "Ġdad": 2856,
      "its": 2857,
      "Ġunbelie": 2858,
      "itted": 2859,
      "ective": 2860,
      "Ġintelligent": 2861,
      "zz": 2862,
      "Ġfest": 2863,
      "cted": 2864,
      "Ġchem": 2865,
      "Ġ100": 2866,
      "Ġintern": 2867,
      "Ġexpecting": 2868,
      "Ġoutside": 2869,
      "Ġimpression": 2870,
      "gi": 2871,
      "Ġscience": 2872,
      "Ġplayer": 2873,
      "Ġfamiliar": 2874,
      "Ġmistake": 2875,
      "Ġachie": 2876,
      "uce": 2877,
      "Ġrelig": 2878,
      "Ġoffice": 2879,
      "Ġlegend": 2880,
      "Ġconvincing": 2881,
      "Ġlanguage": 2882,
      "lict": 2883,
      "Ġscare": 2884,
      "aint": 2885,
      "Ġ.....": 2886,
      "Ġended": 2887,
      "Ġterror": 2888,
      "Ġsinging": 2889,
      "Ġdancing": 2890,
      "Ġcreepy": 2891,
      "Ġnudity": 2892,
      "mar": 2893,
      "Ġsqu": 2894,
      "Ġring": 2895,
      "Ġshar": 2896,
      "Ġdied": 2897,
      "Ġcond": 2898,
      "Ġspl": 2899,
      "Ġwrote": 2900,
      "Ġmarried": 2901,
      "Ġexciting": 2902,
      "Ġexception": 2903,
      "Ġconsidering": 2904,
      "Ġpassion": 2905,
      "inating": 2906,
      "Ġare": 2907,
      "Ġrap": 2908,
      "sequ": 2909,
      "Ġindu": 2910,
      "urd": 2911,
      "Ġcharm": 2912,
      "Ġamb": 2913,
      "Ġremark": 2914,
      "Ġdepict": 2915,
      "Ġformer": 2916,
      "bage": 2917,
      "idence": 2918,
      "Ġsomewhere": 2919,
      "Ġcomputer": 2920,
      "Ġpointless": 2921,
      "Ġyounger": 2922,
      "Ġrecommended": 2923,
      "Ġskill": 2924,
      "Ġavail": 2925,
      "ique": 2926,
      "ened": 2927,
      "Ġrip": 2928,
      "irty": 2929,
      "Ġunin": 2930,
      "Ġnotice": 2931,
      "Ġtrip": 2932,
      "Ġappreciate": 2933,
      "Ġauthor": 2934,
      "direct": 2935,
      "Ġtun": 2936,
      "stance": 2937,
      "Ġstunning": 2938,
      "Ġbrief": 2939,
      "ensive": 2940,
      "Ġbase": 2941,
      "Ġsearch": 2942,
      "urch": 2943,
      "Ġground": 2944,
      "Ġenter": 2945,
      "known": 2946,
      "Ġhole": 2947,
      "Ġram": 2948,
      "Ġfilled": 2949,
      "rian": 2950,
      "istry": 2951,
      "Ġimposs": 2952,
      "Ġshooting": 2953,
      "Ġsolid": 2954,
      "Ġnormal": 2955,
      "Ġclaim": 2956,
      "Ġfolk": 2957,
      "Ġbrut": 2958,
      "Ġamusing": 2959,
      "Ġkey": 2960,
      "gram": 2961,
      "Ġslightly": 2962,
      "Ġbizarre": 2963,
      "con": 2964,
      "ining": 2965,
      "Ġfox": 2966,
      "Ġbul": 2967,
      "Ġbott": 2968,
      "Ġgover": 2969,
      "Ġine": 2970,
      "Ġclos": 2971,
      "Ġeffective": 2972,
      "Ġtough": 2973,
      "rap": 2974,
      "allen": 2975,
      "Ġarri": 2976,
      "acy": 2977,
      "Ġgiant": 2978,
      "Ġfollows": 2979,
      "Ġafric": 2980,
      "Ġmal": 2981,
      "Ġrece": 2982,
      "Ġrevenge": 2983,
      "che": 2984,
      "Ġchick": 2985,
      "Ġdig": 2986,
      "Ġminor": 2987,
      "Ġawesome": 2988,
      "ilt": 2989,
      "Ġnob": 2990,
      "oop": 2991,
      "Ġleaving": 2992,
      "Ġhumour": 2993,
      "Ġteenager": 2994,
      "Ġculture": 2995,
      "Ġcell": 2996,
      "Ġfashion": 2997,
      "Ġpack": 2998,
      "riage": 2999,
      "Ġalive": 3000,
      "Ġimpressive": 3001,
      "Ġanti": 3002,
      "Ġaffair": 3003,
      "Ġthanks": 3004,
      "eem": 3005,
      "Ġii": 3006,
      "Ġspect": 3007,
      "Ġted": 3008,
      "Ġhurt": 3009,
      "Ġrain": 3010,
      "adow": 3011,
      "Ġneither": 3012,
      "Ġdisplay": 3013,
      "Ġglad": 3014,
      "Ġsadly": 3015,
      "Ġdouble": 3016,
      "Ġfailed": 3017,
      "Ġstruggle": 3018,
      "agonist": 3019,
      "Ġyeah": 3020,
      "fore": 3021,
      "war": 3022,
      "Ġbarely": 3023,
      "itude": 3024,
      "Ġgrow": 3025,
      "Ġcontri": 3026,
      "Ġproduced": 3027,
      "Ġexcuse": 3028,
      "Ġrecent": 3029,
      "Ġsexy": 3030,
      "Ġfinish": 3031,
      "Ġrepresent": 3032,
      "Ġgarbage": 3033,
      "gen": 3034,
      "yan": 3035,
      "Ġcand": 3036,
      "Ġsuit": 3037,
      "Ġund": 3038,
      "izing": 3039,
      "Ġjean": 3040,
      "Ġintrigu": 3041,
      "Ġpan": 3042,
      "Ġgem": 3043,
      "isingly": 3044,
      "Ġprogram": 3045,
      "Ġinterview": 3046,
      "Ġbreath": 3047,
      "uss": 3048,
      "oud": 3049,
      "aine": 3050,
      "Ġcompet": 3051,
      "Ġgenu": 3052,
      "Ġcomplex": 3053,
      "Ġepic": 3054,
      "Ġadded": 3055,
      "Ġimmediately": 3056,
      "gment": 3057,
      "ura": 3058,
      "Ġcoll": 3059,
      "alth": 3060,
      "Ġwitch": 3061,
      "Ġgag": 3062,
      "Ġhang": 3063,
      "Ġmont": 3064,
      "Ġbuilding": 3065,
      "Ġchanged": 3066,
      "Ġmotion": 3067,
      "Ġrare": 3068,
      "anda": 3069,
      "Ġdecide": 3070,
      "fort": 3071,
      "Ġhill": 3072,
      "Ġcharles": 3073,
      "Ġpersonality": 3074,
      "Ġpainful": 3075,
      "Ġchemistry": 3076,
      "Ġce": 3077,
      "eter": 3078,
      "Ġchap": 3079,
      "Ġship": 3080,
      "Ġscar": 3081,
      "uted": 3082,
      "Ġconcl": 3083,
      "Ġdecides": 3084,
      "Ġaside": 3085,
      "Ġsteve": 3086,
      "Ġchristian": 3087,
      "Ġplanet": 3088,
      "ribly": 3089,
      "Ġdisturbing": 3090,
      "Ġtradition": 3091,
      "Ġavailable": 3092,
      "Ġgovern": 3093,
      "Ġgenuine": 3094,
      "Ġconclusion": 3095,
      "ron": 3096,
      "Ġhost": 3097,
      "Ġchallen": 3098,
      "Ġcrim": 3099,
      "Ġedge": 3100,
      "Ġexpectation": 3101,
      "Ġcapture": 3102,
      "Ġcuri": 3103,
      "Ġliterally": 3104,
      "hen": 3105,
      "Ġsitting": 3106,
      "Ġwel": 3107,
      "under": 3108,
      "iring": 3109,
      "irth": 3110,
      "aper": 3111,
      "Ġmanaged": 3112,
      "ppet": 3113,
      "Ġdesert": 3114,
      "ified": 3115,
      "Ġexplo": 3116,
      "Ġdepress": 3117,
      "otten": 3118,
      "Ġirrit": 3119,
      "Ġwaiting": 3120,
      "Ġultimately": 3121,
      "Ġarea": 3122,
      "making": 3123,
      "iced": 3124,
      "sess": 3125,
      "Ġarmy": 3126,
      "Ġbiggest": 3127,
      "Ġaddition": 3128,
      "Ġslowly": 3129,
      "bud": 3130,
      "set": 3131,
      "Ġing": 3132,
      "Ġtony": 3133,
      "Ġride": 3134,
      "Ġchurch": 3135,
      "ashing": 3136,
      "room": 3137,
      "Ġserv": 3138,
      "Ġmagn": 3139,
      "Ġoccur": 3140,
      "aur": 3141,
      "spect": 3142,
      "arily": 3143,
      "ste": 3144,
      "pped": 3145,
      "Ġdecade": 3146,
      "Ġreviewer": 3147,
      "Ġ50": 3148,
      "Ġrandom": 3149,
      "Ġsuddenly": 3150,
      "Ġjourney": 3151,
      "ped": 3152,
      "inally": 3153,
      "Ġbi": 3154,
      "unny": 3155,
      "Ġthom": 3156,
      "Ġju": 3157,
      "Ġbear": 3158,
      "Ġneg": 3159,
      "Ġcrow": 3160,
      "ify": 3161,
      "Ġstarring": 3162,
      "Ġindivid": 3163,
      "Ġinvolving": 3164,
      "Ġphotography": 3165,
      "Ġequally": 3166,
      "do": 3167,
      "ham": 3168,
      "round": 3169,
      "uct": 3170,
      "itor": 3171,
      "Ġsatisf": 3172,
      "Ġnowhere": 3173,
      "Ġtrailer": 3174,
      "rel": 3175,
      "Ġug": 3176,
      "Ġremains": 3177,
      "Ġnews": 3178,
      "Ġcentral": 3179,
      "Ġimpossible": 3180,
      "kable": 3181,
      "Ġsar": 3182,
      "Ġpas": 3183,
      "star": 3184,
      "Ġeverybody": 3185,
      "epend": 3186,
      "Ġmonth": 3187,
      "Ġbuddy": 3188,
      "Ġconsidered": 3189,
      "Ġnobody": 3190,
      "Ġ#": 3191,
      "Ġdate": 3192,
      "Ġnatural": 3193,
      "Ġrepl": 3194,
      "Ġran": 3195,
      "Ġkar": 3196,
      "ella": 3197,
      "ondon": 3198,
      "Ġoutstanding": 3199,
      "Ġanimated": 3200,
      "Ġhonestly": 3201,
      "Ġloud": 3202,
      "stem": 3203,
      "ends": 3204,
      "Ġsuspect": 3205,
      "Ġcenter": 3206,
      "Ġpathetic": 3207,
      "aff": 3208,
      "Ġfiction": 3209,
      "Ġaut": 3210,
      "Ġeast": 3211,
      "olly": 3212,
      "ateur": 3213,
      "Ġener": 3214,
      "Ġbruce": 3215,
      "ppy": 3216,
      "Ġarg": 3217,
      "Ġhorse": 3218,
      "Ġdrunk": 3219,
      "Ġdifference": 3220,
      "Ġbeautifully": 3221,
      "writer": 3222,
      "Ġrussian": 3223,
      "Ġscientist": 3224,
      "Ġindividual": 3225,
      "Ġneigh": 3226,
      "Ġcharming": 3227,
      "Ġdisg": 3228,
      "Ġcinematic": 3229,
      "Ġmagic": 3230,
      "Ġunivers": 3231,
      "Ġheavy": 3232,
      "Ġindust": 3233,
      "ford": 3234,
      "Ġmed": 3235,
      "Ġloose": 3236,
      "Ġbond": 3237,
      "Ġles": 3238,
      "Ġshowed": 3239,
      "Ġobsess": 3240,
      "Ġabsurd": 3241,
      "Ġinflu": 3242,
      "bre": 3243,
      "Ġton": 3244,
      "Ġgraph": 3245,
      "Ġthor": 3246,
      "Ġsher": 3247,
      "Ġplane": 3248,
      "appe": 3249,
      "Ġamateur": 3250,
      "izes": 3251,
      "Ġcontains": 3252,
      "Ġthrown": 3253,
      "Ġsurely": 3254,
      "Ġboyfriend": 3255,
      "Ġaffect": 3256,
      "Ġfestival": 3257,
      "ai": 3258,
      "wor": 3259,
      "rey": 3260,
      "Ġcard": 3261,
      "Ġpract": 3262,
      "Ġlondon": 3263,
      "cher": 3264,
      "Ġindepend": 3265,
      "onto": 3266,
      "Ġsystem": 3267,
      "Ġfavour": 3268,
      "Ġpatient": 3269,
      "Ġnarrative": 3270,
      "mm": 3271,
      "rid": 3272,
      "rick": 3273,
      "Ġtur": 3274,
      "Ġdim": 3275,
      "Ġak": 3276,
      "Ġknowing": 3277,
      "Ġdrink": 3278,
      "Ġbob": 3279,
      "Ġinsult": 3280,
      "Ġsurprisingly": 3281,
      "Ġdetective": 3282,
      "Ġconflict": 3283,
      "Ġviolent": 3284,
      "Ġmysterious": 3285,
      "Ġscenery": 3286,
      "Ġgovernment": 3287,
      "face": 3288,
      "lock": 3289,
      "Ġfal": 3290,
      "Ġahead": 3291,
      "Ġbes": 3292,
      "ability": 3293,
      "Ġredeem": 3294,
      "Ġprotagonist": 3295,
      "Ġaustral": 3296,
      "Ġshakespe": 3297,
      "bol": 3298,
      "wart": 3299,
      "Ġ%": 3300,
      "Ġmary": 3301,
      "Ġnaked": 3302,
      "Ġthreat": 3303,
      "Ġshall": 3304,
      "Ġconc": 3305,
      "Ġobject": 3306,
      "Ġmarriage": 3307,
      "Ġpersonally": 3308,
      "Ġwalking": 3309,
      "Ġreference": 3310,
      "Ġfunniest": 3311,
      "bu": 3312,
      "mare": 3313,
      "Ġmouth": 3314,
      "Ġhack": 3315,
      "itary": 3316,
      "Ġstock": 3317,
      "ched": 3318,
      "Ġround": 3319,
      "vey": 3320,
      "Ġjun": 3321,
      "Ġadam": 3322,
      "Ġmoral": 3323,
      "ological": 3324,
      "aven": 3325,
      "cock": 3326,
      "aly": 3327,
      "Ġrac": 3328,
      "Ġshare": 3329,
      "Ġunex": 3330,
      "Ġprim": 3331,
      "Ġbug": 3332,
      "Ġjackson": 3333,
      "Ġgrace": 3334,
      "Ġfresh": 3335,
      "Ġproper": 3336,
      "Ġjerry": 3337,
      "Ġtragedy": 3338,
      "Ġteacher": 3339,
      "Ġoccasion": 3340,
      "Ġcriminal": 3341,
      "ica": 3342,
      "Ġlikely": 3343,
      "Ġdiv": 3344,
      "Ġterrific": 3345,
      "board": 3346,
      "Ġopportun": 3347,
      "Ġradio": 3348,
      "budget": 3349,
      "val": 3350,
      "Ġbon": 3351,
      "icide": 3352,
      "Ġthus": 3353,
      "opher": 3354,
      "irt": 3355,
      "asure": 3356,
      "Ġtrick": 3357,
      "ester": 3358,
      "Ġclub": 3359,
      "Ġagent": 3360,
      "Ġtouching": 3361,
      "Ġclimax": 3362,
      "Ġmachine": 3363,
      "ercial": 3364,
      "Ġbought": 3365,
      "Ġprep": 3366,
      "Ġsurround": 3367,
      "Ġboard": 3368,
      "Ġinclude": 3369,
      "Ġsucceed": 3370,
      "Ġhoping": 3371,
      "Ġgraphic": 3372,
      "win": 3373,
      "year": 3374,
      "Ġcro": 3375,
      "orter": 3376,
      "Ġsea": 3377,
      "iding": 3378,
      "Ġshop": 3379,
      "oughly": 3380,
      "Ġclue": 3381,
      "Ġhey": 3382,
      "Ġrelative": 3383,
      "Ġcourt": 3384,
      "Ġpresence": 3385,
      "Ġcommentary": 3386,
      "Ġgenerally": 3387,
      "Ġ60": 3388,
      "Ġugly": 3389,
      "Ġciv": 3390,
      "Ġbos": 3391,
      "Ġchris": 3392,
      "Ġmac": 3393,
      "Ġclean": 3394,
      "Ġnightmare": 3395,
      "Ġsyn": 3396,
      "Ġcollection": 3397,
      "Ġexpression": 3398,
      "Ġflashback": 3399,
      "med": 3400,
      "pret": 3401,
      "sen": 3402,
      "uit": 3403,
      "zen": 3404,
      "Ġsell": 3405,
      "erous": 3406,
      "Ġlord": 3407,
      "Ġwil": 3408,
      "Ġeat": 3409,
      "Ġhook": 3410,
      "Ġhide": 3411,
      "icious": 3412,
      "iday": 3413,
      "andon": 3414,
      "abb": 3415,
      "Ġprice": 3416,
      "fted": 3417,
      "Ġintention": 3418,
      "Ġlaughable": 3419,
      "000": 3420,
      "Ġbehav": 3421,
      "Ġjew": 3422,
      "Ġafter": 3423,
      "Ġrespons": 3424,
      "Ġinnocent": 3425,
      "Ġunbelievable": 3426,
      "'m": 3427,
      "ey": 3428,
      "field": 3429,
      "Ġnet": 3430,
      "Ġinit": 3431,
      "Ġjones": 3432,
      "Ġlovely": 3433,
      "Ġremote": 3434,
      "Ġintended": 3435,
      "Ġcreative": 3436,
      "Ġfully": 3437,
      "Ġopportunity": 3438,
      "ga": 3439,
      "vert": 3440,
      "Ġjoy": 3441,
      "asing": 3442,
      "Ġserial": 3443,
      "Ġgeneration": 3444,
      "Ġvirt": 3445,
      "Ġwitness": 3446,
      "Ġsight": 3447,
      "Ġfield": 3448,
      "uring": 3449,
      "Ġprogress": 3450,
      "Ġjoan": 3451,
      "Ġslap": 3452,
      "Ġcrash": 3453,
      "Ġvision": 3454,
      "Ġcorrect": 3455,
      "Ġlesson": 3456,
      "Ġlength": 3457,
      "Ġshakespeare": 3458,
      "aa": 3459,
      "ech": 3460,
      "gar": 3461,
      "good": 3462,
      "hic": 3463,
      "house": 3464,
      "Ġmine": 3465,
      "Ġder": 3466,
      "Ġnons": 3467,
      "Ġnorth": 3468,
      "Ġstuck": 3469,
      "ther": 3470,
      "ribe": 3471,
      "Ġshadow": 3472,
      "Ġcloth": 3473,
      "Ġblow": 3474,
      "Ġteenage": 3475,
      "Ġdescrib": 3476,
      "Ġbesides": 3477,
      "gl": 3478,
      "Ġmount": 3479,
      "ency": 3480,
      "Ġfool": 3481,
      "Ġgorge": 3482,
      "Ġchuck": 3483,
      "Ġblock": 3484,
      "Ġremain": 3485,
      "Ġweap": 3486,
      "rend": 3487,
      "Ġsymbol": 3488,
      "Ġmedioc": 3489,
      "director": 3490,
      "Ġnegative": 3491,
      "yer": 3492,
      "Ġpun": 3493,
      "Ġtired": 3494,
      "Ġstation": 3495,
      "Ġthin": 3496,
      "Ġdisaster": 3497,
      "Ġgrade": 3498,
      "Ġphone": 3499,
      "Ġhappening": 3500,
      "Ġexperiment": 3501,
      "Ġangle": 3502,
      "Ġweapon": 3503,
      "table": 3504,
      "Ġcas": 3505,
      "Ġstan": 3506,
      "Ġcommercial": 3507,
      "Ġcameo": 3508,
      "Ġpresented": 3509,
      "Ġforever": 3510,
      "Ġencounter": 3511,
      "just": 3512,
      "uous": 3513,
      "Ġmult": 3514,
      "Ġwide": 3515,
      "Ġbright": 3516,
      "Ġdick": 3517,
      "Ġdying": 3518,
      "Ġdread": 3519,
      "Ġhosp": 3520,
      "Ġryan": 3521,
      "Ġlived": 3522,
      "Ġven": 3523,
      "ource": 3524,
      "Ġblond": 3525,
      "Ġwhat": 3526,
      "plot": 3527,
      "Ġimpact": 3528,
      "Ġcompare": 3529,
      "Ġcurrent": 3530,
      "Ġprofessional": 3531,
      "Ġinvestig": 3532,
      "fic": 3533,
      "rad": 3534,
      "Ġpra": 3535,
      "Ġrh": 3536,
      "Ġrace": 3537,
      "Ġsport": 3538,
      "Ġimpl": 3539,
      "Ġdisappointment": 3540,
      "Ġresem": 3541,
      "Ġhitchcock": 3542,
      "Ġdelivers": 3543,
      "gin": 3544,
      "gory": 3545,
      "mark": 3546,
      "Ġtem": 3547,
      "Ġner": 3548,
      "Ġ18": 3549,
      "Ġspan": 3550,
      "Ġarch": 3551,
      "Ġrule": 3552,
      "ropri": 3553,
      "Ġbatman": 3554,
      "Ġtorture": 3555,
      "Ġbottom": 3556,
      "fet": 3557,
      "han": 3558,
      "erm": 3559,
      "Ġmild": 3560,
      "Ġcgi": 3561,
      "Ġtor": 3562,
      "Ġlone": 3563,
      "Ġreaction": 3564,
      "odram": 3565,
      "Ġtwice": 3566,
      "Ġleader": 3567,
      "Ġexplan": 3568,
      "Ġmainly": 3569,
      "Ġsuperior": 3570,
      "Ġelect": 3571,
      "Ġchristopher": 3572,
      "Ġcaptain": 3573,
      "Ġhotel": 3574,
      "Ġmartial": 3575,
      "Ġtheatre": 3576,
      "Ġhistorical": 3577,
      "Ġenergy": 3578,
      "Ġcivil": 3579,
      "cra": 3580,
      "with": 3581,
      "Ġmax": 3582,
      "ivity": 3583,
      "Ġlaughed": 3584,
      "Ġsuppose": 3585,
      "Ġletter": 3586,
      "Ġfascinating": 3587,
      "Ġhospital": 3588,
      "fr": 3589,
      "Ġwise": 3590,
      "Ġnaz": 3591,
      "oted": 3592,
      "Ġfilming": 3593,
      "urate": 3594,
      "Ġvin": 3595,
      "Ġwatchable": 3596,
      "life": 3597,
      "Ġfollowed": 3598,
      "ushed": 3599,
      "Ġfellow": 3600,
      "Ġidiot": 3601,
      "Ġdollar": 3602,
      "hor": 3603,
      "Ġcable": 3604,
      "Ġpil": 3605,
      "Ġble": 3606,
      "Ġbull": 3607,
      "Ġrape": 3608,
      "eman": 3609,
      "Ġanth": 3610,
      "Ġconvers": 3611,
      "Ġgrant": 3612,
      "awn": 3613,
      "Ġunderst": 3614,
      "Ġhunter": 3615,
      "Ġmarket": 3616,
      "Ġsummer": 3617,
      "Ġutterly": 3618,
      "now": 3619,
      "oking": 3620,
      "Ġmoon": 3621,
      "Ġlatter": 3622,
      "Ġeight": 3623,
      "Ġstone": 3624,
      "see": 3625,
      "Ġlikable": 3626,
      "Ġseemingly": 3627,
      "Ġdesire": 3628,
      "Ġopera": 3629,
      "Ġintense": 3630,
      "Ġcarl": 3631,
      "Ġresc": 3632,
      "ledge": 3633,
      "Ġassist": 3634,
      "Ġdestroy": 3635,
      "Ġindependent": 3636,
      "Ġexplanation": 3637,
      "ken": 3638,
      "mi": 3639,
      "Ġban": 3640,
      "Ġkelly": 3641,
      "ender": 3642,
      "terest": 3643,
      "Ġfault": 3644,
      "Ġacad": 3645,
      "Ġappeared": 3646,
      "Ġrobin": 3647,
      "Ġspeaking": 3648,
      "Ġparis": 3649,
      "Ġvictor": 3650,
      "Ġmelodram": 3651,
      "Ġjudge": 3652,
      "Ġmilitary": 3653,
      "Ġspectac": 3654,
      "cle": 3655,
      "cula": 3656,
      "hol": 3657,
      "ja": 3658,
      "rate": 3659,
      "rical": 3660,
      "inct": 3661,
      "Ġmi": 3662,
      "Ġhat": 3663,
      "rog": 3664,
      "Ġ12": 3665,
      "Ġsmith": 3666,
      "azy": 3667,
      "Ġholm": 3668,
      "Ġmission": 3669,
      "Ġsoft": 3670,
      "Ġsnow": 3671,
      "Ġvillage": 3672,
      "Ġdrawn": 3673,
      "Ġstereotype": 3674,
      "Ġneighbor": 3675,
      "Ġdisgust": 3676,
      "Ġgorgeous": 3677,
      "mon": 3678,
      "sing": 3679,
      "vent": 3680,
      "ano": 3681,
      "Ġaim": 3682,
      "Ġash": 3683,
      "overt": 3684,
      "Ġstunt": 3685,
      "Ġjon": 3686,
      "Ġtrust": 3687,
      "Ġbland": 3688,
      "Ġaccom": 3689,
      "Ġfinding": 3690,
      "Ġsmile": 3691,
      "Ġintelligence": 3692,
      "Ġsurvive": 3693,
      "Ġintriguing": 3694,
      "bc": 3695,
      "down": 3696,
      "port": 3697,
      "Ġbirth": 3698,
      "entially": 3699,
      "Ġcharlie": 3700,
      "Ġquiet": 3701,
      "agger": 3702,
      "Ġheaven": 3703,
      "Ġford": 3704,
      "Ġharry": 3705,
      "Ġpaid": 3706,
      "Ġconstantly": 3707,
      "Ġmartin": 3708,
      "Ġofficer": 3709,
      "night": 3710,
      "vir": 3711,
      "aded": 3712,
      "ament": 3713,
      "Ġcomedic": 3714,
      "Ġunne": 3715,
      "Ġprefer": 3716,
      "Ġqueen": 3717,
      "Ġtwenty": 3718,
      "Ġhighlight": 3719,
      "Ġwondering": 3720,
      "Ġsteven": 3721,
      "Ġdracula": 3722,
      "Ġconfused": 3723,
      "Ġprovides": 3724,
      "Ġdisappointing": 3725,
      "Ġdeveloped": 3726,
      "Ġcanad": 3727,
      "Ġjustice": 3728,
      "Ġconnection": 3729,
      "Ġmerely": 3730,
      "bi": 3731,
      "ping": 3732,
      "Ġlay": 3733,
      "Ġho": 3734,
      "Ġnick": 3735,
      "Ġstal": 3736,
      "Ġsuicide": 3737,
      "ploy": 3738,
      "Ġbuck": 3739,
      "Ġkidn": 3740,
      "Ġsinger": 3741,
      "Ġfalling": 3742,
      "Ġsupposedly": 3743,
      "Ġlighting": 3744,
      "Ġhund": 3745,
      "Ġlisten": 3746,
      "Ġwooden": 3747,
      "Ġuncle": 3748,
      "Ġreminded": 3749,
      "father": 3750,
      "Ġlyn": 3751,
      "itle": 3752,
      "Ġstren": 3753,
      "Ġseven": 3754,
      "Ġthats": 3755,
      "asty": 3756,
      "Ġunus": 3757,
      "Ġinvent": 3758,
      "Ġoppos": 3759,
      "Ġpriv": 3760,
      "Ġinformation": 3761,
      "Ġirritating": 3762,
      "Ġindustry": 3763,
      "aus": 3764,
      "Ġ/": 3765,
      "Ġtape": 3766,
      "Ġbank": 3767,
      "elle": 3768,
      "Ġrog": 3769,
      "Ġdeb": 3770,
      "Ġblind": 3771,
      "Ġputting": 3772,
      "Ġpleasure": 3773,
      "Ġcomparison": 3774,
      "bian": 3775,
      "no": 3776,
      "Ġice": 3777,
      "Ġsan": 3778,
      "Ġsty": 3779,
      "ading": 3780,
      "Ġrose": 3781,
      "Ġcontem": 3782,
      "Ġbecoming": 3783,
      "Ġstewart": 3784,
      "Ġimpressed": 3785,
      "Ġpicked": 3786,
      "Ġ1980": 3787,
      "Ġtragic": 3788,
      "Ġmodel": 3789,
      "stein": 3790,
      "Ġcrowd": 3791,
      "ta": 3792,
      "Ġfate": 3793,
      "Ġfright": 3794,
      "Ġboo": 3795,
      "ulation": 3796,
      "Ġkiss": 3797,
      "Ġvol": 3798,
      "Ġprocess": 3799,
      "Ġcompelling": 3800,
      "Ġ40": 3801,
      "Ġimagination": 3802,
      "Ġapartment": 3803,
      "Ġsentiment": 3804,
      "Ġowner": 3805,
      "Ġfavourite": 3806,
      "Ġstrength": 3807,
      "tw": 3808,
      "Ġonto": 3809,
      "Ġmile": 3810,
      "Ġtight": 3811,
      "Ġbog": 3812,
      "Ġhidden": 3813,
      "ooper": 3814,
      "rix": 3815,
      "raid": 3816,
      "illa": 3817,
      "alled": 3818,
      "Ġenemy": 3819,
      "Ġblame": 3820,
      "Ġemb": 3821,
      "Ġbuff": 3822,
      "Ġwindow": 3823,
      "ara": 3824,
      "ato": 3825,
      "Ġhon": 3826,
      "Ġnin": 3827,
      "Ġunknown": 3828,
      "soever": 3829,
      "Ġcontent": 3830,
      "Ġempt": 3831,
      "Ġdecision": 3832,
      "Ġproduct": 3833,
      "ooth": 3834,
      "anna": 3835,
      "Ġintroduced": 3836,
      "Ġeuropean": 3837,
      "Ġthomas": 3838,
      "Ġmediocre": 3839,
      "Ġwhatsoever": 3840,
      "Ġnazi": 3841,
      "tv": 3842,
      "Ġmut": 3843,
      "Ġcann": 3844,
      "Ġfra": 3845,
      "Ġpacing": 3846,
      "Ġbath": 3847,
      "Ġbilly": 3848,
      "stick": 3849,
      "icip": 3850,
      "Ġriver": 3851,
      "Ġsegment": 3852,
      "Ġcru": 3853,
      "Ġaware": 3854,
      "Ġframe": 3855,
      "Ġfrust": 3856,
      "azz": 3857,
      "Ġworthy": 3858,
      "Ġjess": 3859,
      "ipped": 3860,
      "Ġlimited": 3861,
      "Ġbrutal": 3862,
      "Ġmagnific": 3863,
      "spective": 3864,
      "Ġthoroughly": 3865,
      "Ġclothes": 3866,
      "nie": 3867,
      "Ġur": 3868,
      "Ġgam": 3869,
      "Ġrout": 3870,
      "Ġdisappe": 3871,
      "overall": 3872,
      "Ġanybody": 3873,
      "Ġhelped": 3874,
      "Ġaccount": 3875,
      "Ġpresident": 3876,
      "Ġformula": 3877,
      "Ġconversation": 3878,
      "Ġaccompl": 3879,
      "even": 3880,
      "min": 3881,
      "oh": 3882,
      "rant": 3883,
      "ini": 3884,
      "Ġbene": 3885,
      "Ġdubb": 3886,
      "Ġjason": 3887,
      "Ġvh": 3888,
      "pping": 3889,
      "pected": 3890,
      "text": 3891,
      "Ġeddie": 3892,
      "Ġzero": 3893,
      "Ġinsight": 3894,
      "Ġborn": 3895,
      "Ġrobot": 3896,
      "Ġprovide": 3897,
      "Ġnoir": 3898,
      "Ġwilling": 3899,
      "Ġrevolution": 3900,
      "Ġrepeated": 3901,
      "worth": 3902,
      "zan": 3903,
      "Ġsant": 3904,
      "Ġfi": 3905,
      "Ġpage": 3906,
      "Ġled": 3907,
      "Ġbrian": 3908,
      "Ġhaw": 3909,
      "idge": 3910,
      "Ġvac": 3911,
      "Ġ11": 3912,
      "Ġanymore": 3913,
      "Ġoper": 3914,
      "Ġsky": 3915,
      "Ġinspired": 3916,
      "Ġhenry": 3917,
      "Ġhundred": 3918,
      "low": 3919,
      "ration": 3920,
      "Ġlock": 3921,
      "stit": 3922,
      "Ġrated": 3923,
      "Ġvote": 3924,
      "illing": 3925,
      "Ġbrook": 3926,
      "Ġknock": 3927,
      "apped": 3928,
      "Ġord": 3929,
      "Ġfriendship": 3930,
      "Ġartistic": 3931,
      "Ġsnake": 3932,
      "aturing": 3933,
      "Ġ1970": 3934,
      "Ġforgotten": 3935,
      "Ġmedium": 3936,
      "Ġacademy": 3937,
      "ten": 3938,
      "Ġmob": 3939,
      "Ġdut": 3940,
      "ilst": 3941,
      "icate": 3942,
      "Ġsean": 3943,
      "elled": 3944,
      "Ġgrad": 3945,
      "Ġattitude": 3946,
      "Ġkevin": 3947,
      "Ġobser": 3948,
      "Ġcheer": 3949,
      "Ġpolitic": 3950,
      "Ġsoap": 3951,
      "Ġconfusing": 3952,
      "Ġspeech": 3953,
      "Ġdemand": 3954,
      "heart": 3955,
      "Ġdescribe": 3956,
      "Ġshocking": 3957,
      "Ġmulti": 3958,
      "Ġmatt": 3959,
      "Ġcash": 3960,
      "Ġbow": 3961,
      "Ġgon": 3962,
      "Ġgig": 3963,
      "Ġris": 3964,
      "Ġrub": 3965,
      "Ġalt": 3966,
      "inder": 3967,
      "Ġ13": 3968,
      "Ġpress": 3969,
      "Ġfeaturing": 3970,
      "Ġsurprising": 3971,
      "Ġstudy": 3972,
      "Ġcontinue": 3973,
      "Ġtechnique": 3974,
      "Ġpunch": 3975,
      "Ġbag": 3976,
      "ita": 3977,
      "Ġunreal": 3978,
      "ograp": 3979,
      "Ġsaving": 3980,
      "Ġwarm": 3981,
      "Ġwonderfully": 3982,
      "Ġdanny": 3983,
      "Ġ1950": 3984,
      "Ġidentity": 3985,
      "Ġphysical": 3986,
      "Ġreligious": 3987,
      "gling": 3988,
      "ium": 3989,
      "story": 3990,
      "Ġmoved": 3991,
      "Ġfill": 3992,
      "Ġcruel": 3993,
      "Ġhigher": 3994,
      "Ġexplos": 3995,
      "Ġaccord": 3996,
      "Ġcreating": 3997,
      "Ġafraid": 3998,
      "ruction": 3999,
      "Ġdeserved": 4000,
      "Ġcommunity": 4001,
      "Ġattractive": 4002,
      "Ġtune": 4003,
      "Ġmountain": 4004,
      "kin": 4005,
      "Ġcy": 4006,
      "Ġdun": 4007,
      "Ġgut": 4008,
      "Ġhart": 4009,
      "Ġroy": 4010,
      "ural": 4011,
      "herent": 4012,
      "Ġjenn": 4013,
      "inese": 4014,
      "Ġrealism": 4015,
      "Ġwanting": 4016,
      "Ġsimpl": 4017,
      "Ġnicely": 4018,
      "Ġpromise": 4019,
      "Ġtherefore": 4020,
      "Ġachieve": 4021,
      "ese": 4022,
      "xic": 4023,
      "you": 4024,
      "ston": 4025,
      "Ġhim": 4026,
      "Ġstink": 4027,
      "Ġwhilst": 4028,
      "Ġpartner": 4029,
      "Ġcastle": 4030,
      "Ġcrappy": 4031,
      "Ġeduc": 4032,
      "Ġtransl": 4033,
      "Ġdeserve": 4034,
      "ĠclichÃ©s": 4035,
      "Ġcondition": 4036,
      "Ġpilot": 4037,
      "ba": 4038,
      "fit": 4039,
      "ville": 4040,
      "reg": 4041,
      "Ġww": 4042,
      "Ġwow": 4043,
      "Ġdirty": 4044,
      "isc": 4045,
      "Ġjan": 4046,
      "ask": 4047,
      "Ġmanip": 4048,
      "Ġbrand": 4049,
      "icked": 4050,
      "pper": 4051,
      "Ġcontra": 4052,
      "Ġweb": 4053,
      "Ġfactor": 4054,
      "Ġturning": 4055,
      "Ġcolumb": 4056,
      "Ġready": 4057,
      "Ġbloody": 4058,
      "Ġfreak": 4059,
      "Ġanton": 4060,
      "Ġstephen": 4061,
      "Ġasks": 4062,
      "Ġdangerous": 4063,
      "Ġredeeming": 4064,
      "Ġunnecessary": 4065,
      "ographer": 4066,
      "rie": 4067,
      "Ġfond": 4068,
      "Ġgy": 4069,
      "Ġgal": 4070,
      "itter": 4071,
      "Ġron": 4072,
      "Ġrank": 4073,
      "Ġrubb": 4074,
      "ushing": 4075,
      "Ġprint": 4076,
      "Ġsafe": 4077,
      "Ġdepart": 4078,
      "Ġfailure": 4079,
      "Ġdevil": 4080,
      "Ġtreated": 4081,
      "Ġgangster": 4082,
      "Ġwearing": 4083,
      "Ġunexpected": 4084,
      "Ġholmes": 4085,
      "really": 4086,
      "reck": 4087,
      "Ġmike": 4088,
      "Ġcow": 4089,
      "Ġpair": 4090,
      "itz": 4091,
      "Ġrarely": 4092,
      "sey": 4093,
      "urity": 4094,
      "Ġbeach": 4095,
      "ousand": 4096,
      "Ġguard": 4097,
      "Ġbelong": 4098,
      "Ġmonkey": 4099,
      "Ġcaptured": 4100,
      "aturally": 4101,
      "Ġtrek": 4102,
      "Ġmixed": 4103,
      "Ġnonsense": 4104,
      "Ġic": 4105,
      "Ġow": 4106,
      "Ġsite": 4107,
      "Ġmcc": 4108,
      "Ġcate": 4109,
      "Ġfish": 4110,
      "Ġbird": 4111,
      "Ġgary": 4112,
      "omen": 4113,
      "Ġchinese": 4114,
      "rob": 4115,
      "Ġanywhere": 4116,
      "Ġenth": 4117,
      "athan": 4118,
      "Ġdrop": 4119,
      "atherine": 4120,
      "Ġincident": 4121,
      "Ġcrack": 4122,
      "Ġexpert": 4123,
      "Ġjeff": 4124,
      "Ġdeeply": 4125,
      "Ġforeign": 4126,
      "Ġgolden": 4127,
      "Ġdamn": 4128,
      "Ġallowed": 4129,
      "Ġtarget": 4130,
      "Ġservice": 4131,
      "Ġanthony": 4132,
      "Ġempty": 4133,
      "Ġordinary": 4134,
      "Ġfood": 4135,
      "ancy": 4136,
      "Ġlion": 4137,
      "ication": 4138,
      "entious": 4139,
      "Ġchoose": 4140,
      "irm": 4141,
      "Ġlew": 4142,
      "arden": 4143,
      "Ġpriest": 4144,
      "Ġknowledge": 4145,
      "Ġsav": 4146,
      "Ġinterpret": 4147,
      "Ġemer": 4148,
      "ifer": 4149,
      "Ġheld": 4150,
      "Ġskin": 4151,
      "Ġbroken": 4152,
      "Ġrevealed": 4153,
      "ominated": 4154,
      "Ġchaplin": 4155,
      "Ġunusual": 4156,
      "Ġopposite": 4157,
      "Ġvhs": 4158,
      "fight": 4159,
      "gree": 4160,
      "ha": 4161,
      "lor": 4162,
      "ario": 4163,
      "style": 4164,
      "Ġstret": 4165,
      "Ġsepar": 4166,
      "Ġthousand": 4167,
      "Ġdean": 4168,
      "Ġjr": 4169,
      "Ġyouth": 4170,
      "Ġbegan": 4171,
      "ashed": 4172,
      "Ġallen": 4173,
      "Ġfinest": 4174,
      "Ġnumerous": 4175,
      "Ġlearned": 4176,
      "Ġprotect": 4177,
      "Ġflying": 4178,
      "Ġtheatrical": 4179,
      "Ġflesh": 4180,
      "Ġmagnificent": 4181,
      "dom": 4182,
      "gue": 4183,
      "kward": 4184,
      "wolf": 4185,
      "Ġmitch": 4186,
      "Ġfab": 4187,
      "Ġwid": 4188,
      "Ġhated": 4189,
      "Ġseat": 4190,
      "sec": 4191,
      "thur": 4192,
      "Ġdebut": 4193,
      "Ġcomfort": 4194,
      "Ġveter": 4195,
      "Ġunint": 4196,
      "appy": 4197,
      "Ġorgan": 4198,
      "Ġawkward": 4199,
      "Ġfrance": 4200,
      "Ġinstance": 4201,
      "Ġchildhood": 4202,
      "Ġassum": 4203,
      "Ġvisit": 4204,
      "Ġunderstanding": 4205,
      "Ġregret": 4206,
      "Ġangry": 4207,
      "Ġtechnical": 4208,
      "Ġconstant": 4209,
      "Ġwilliams": 4210,
      "Ġmotiv": 4211,
      "Ġimprov": 4212,
      "Ġremarkable": 4213,
      "Ġcele": 4214,
      "cise": 4215,
      "great": 4216,
      "iac": 4217,
      "ront": 4218,
      "vant": 4219,
      "Ġmic": 4220,
      "anic": 4221,
      "Ġluc": 4222,
      "acting": 4223,
      "Ġnecessary": 4224,
      "ousy": 4225,
      "Ġspring": 4226,
      "Ġfloor": 4227,
      "Ġminim": 4228,
      "scape": 4229,
      "Ġengaging": 4230,
      "Ġincludes": 4231,
      "Ġfootball": 4232,
      "oken": 4233,
      "Ġsignific": 4234,
      "Ġfreddy": 4235,
      "Ġmental": 4236,
      "ipe": 4237,
      "Ġwed": 4238,
      "Ġgent": 4239,
      "Ġrod": 4240,
      "Ġroman": 4241,
      "Ġchan": 4242,
      "Ġabandon": 4243,
      "ensional": 4244,
      "Ġobl": 4245,
      "Ġrelief": 4246,
      "Ġhoward": 4247,
      "Ġrecall": 4248,
      "Ġinsane": 4249,
      "Ġskip": 4250,
      "Ġengland": 4251,
      "Ġfreed": 4252,
      "Ġtreatment": 4253,
      "watched": 4254,
      "Ġbehavior": 4255,
      "Ġnetwork": 4256,
      "ropriate": 4257,
      "Ġcontrast": 4258,
      "Ġveteran": 4259,
      "bled": 4260,
      "bling": 4261,
      "Ġtoy": 4262,
      "Ġtree": 4263,
      "Ġconsequ": 4264,
      "Ġgrat": 4265,
      "Ġsurreal": 4266,
      "Ġstranger": 4267,
      "screen": 4268,
      "Ġjohnny": 4269,
      "ortunate": 4270,
      "Ġincluded": 4271,
      "Ġparody": 4272,
      "Ġheroine": 4273,
      "Ġuncon": 4274,
      "Ġcircum": 4275,
      "porary": 4276,
      "Ġdesperate": 4277,
      "Ġinfluence": 4278,
      "ered": 4279,
      "Ġcore": 4280,
      "Ġcounter": 4281,
      "Ġpin": 4282,
      "Ġdegree": 4283,
      "Ġalan": 4284,
      "urse": 4285,
      "aped": 4286,
      "Ġanne": 4287,
      "Ġseek": 4288,
      "olds": 4289,
      "Ġproduce": 4290,
      "Ġaccurate": 4291,
      "Ġconfront": 4292,
      "Ġbarbar": 4293,
      "Ġexperien": 4294,
      "Ġdealing": 4295,
      "Ġcurious": 4296,
      "Ġprivate": 4297,
      "may": 4298,
      "Ġfare": 4299,
      "alle": 4300,
      "Ġwound": 4301,
      "Ġnasty": 4302,
      "Ġrange": 4303,
      "oler": 4304,
      "umble": 4305,
      "Ġproceed": 4306,
      "Ġmexic": 4307,
      "Ġmarry": 4308,
      "Ġprove": 4309,
      "Ġreminds": 4310,
      "Ġvirgin": 4311,
      "Ġexplained": 4312,
      "looking": 4313,
      "Ġlesbian": 4314,
      "Ġcircumstance": 4315,
      "natural": 4316,
      "taking": 4317,
      "Ġcass": 4318,
      "alist": 4319,
      "Ġtable": 4320,
      "Ġlake": 4321,
      "Ġbik": 4322,
      "Ġgene": 4323,
      "ching": 4324,
      "Ġkath": 4325,
      "Ġshine": 4326,
      "earing": 4327,
      "Ġwarning": 4328,
      "Ġasking": 4329,
      "when": 4330,
      "Ġpossess": 4331,
      "Ġassass": 4332,
      "Ġspeed": 4333,
      "Ġraise": 4334,
      "Ġresearch": 4335,
      "Ġinternational": 4336,
      "Ġresponsible": 4337,
      "Ġdreadful": 4338,
      "teresting": 4339,
      "Ġspectacular": 4340,
      "Ġaccording": 4341,
      "Ġsoph": 4342,
      "Ġtick": 4343,
      "Ġwere": 4344,
      "aton": 4345,
      "atra": 4346,
      "Ġhay": 4347,
      "Ġnaturally": 4348,
      "Ġreject": 4349,
      "isa": 4350,
      "Ġchore": 4351,
      "iration": 4352,
      "Ġjunk": 4353,
      "Ġperspective": 4354,
      "Ġspoof": 4355,
      "agal": 4356,
      "osaur": 4357,
      "Ġsac": 4358,
      "Ġrealized": 4359,
      "Ġgrowing": 4360,
      "Ġintel": 4361,
      "Ġemploy": 4362,
      "Ġcommand": 4363,
      "Ġatro": 4364,
      "ennis": 4365,
      "urban": 4366,
      "Ġshallow": 4367,
      "ca": 4368,
      "Ġeric": 4369,
      "Ġmore": 4370,
      "edian": 4371,
      "Ġgross": 4372,
      "Ġhint": 4373,
      "irk": 4374,
      "Ġscr": 4375,
      "Ġproud": 4376,
      "Ġincre": 4377,
      "Ġasian": 4378,
      "Ġkinda": 4379,
      "Ġsword": 4380,
      "Ġharm": 4381,
      "Ġdeterm": 4382,
      "Ġruin": 4383,
      "Ġmurdered": 4384,
      "Ġreflect": 4385,
      "Ġsatire": 4386,
      "Ġphilos": 4387,
      "Ġstatement": 4388,
      "Ġconcerned": 4389,
      "love": 4390,
      "sch": 4391,
      "Ġcyn": 4392,
      "Ġta": 4393,
      "orious": 4394,
      "Ġrow": 4395,
      "Ġcomedian": 4396,
      "Ġscrew": 4397,
      "Ġ.......": 4398,
      "abor": 4399,
      "Ġnoticed": 4400,
      "acle": 4401,
      "Ġwealth": 4402,
      "Ġstarting": 4403,
      "Ġoriginally": 4404,
      "Ġswitch": 4405,
      "Ġhumanity": 4406,
      "Ġfrequ": 4407,
      "Ġdriver": 4408,
      "Ġdriving": 4409,
      "Ġfinale": 4410,
      "Ġlaure": 4411,
      "ipping": 4412,
      "Ġconvince": 4413,
      "Ġcombination": 4414,
      "Ġafrican": 4415,
      "Ġaustralian": 4416,
      "Ġblonde": 4417,
      "Ġrescue": 4418,
      "Ġjennifer": 4419,
      "bing": 4420,
      "bed": 4421,
      "bell": 4422,
      "hand": 4423,
      "lo": 4424,
      "mo": 4425,
      "Ġms": 4426,
      "Ġloss": 4427,
      "Ġdor": 4428,
      "Ġnic": 4429,
      "iser": 4430,
      "Ġkate": 4431,
      "Ġvul": 4432,
      "Ġarthur": 4433,
      "Ġbigger": 4434,
      "Ġpretentious": 4435,
      "rence": 4436,
      "Ġunfunny": 4437,
      "Ġadvice": 4438,
      "Ġrental": 4439,
      "Ġstrike": 4440,
      "Ġprinci": 4441,
      "Ġreceived": 4442,
      "Ġoccasionally": 4443,
      "Ġcage": 4444,
      "Ġpaper": 4445,
      "oring": 4446,
      "Ġwolf": 4447,
      "Ġboot": 4448,
      "Ġdated": 4449,
      "Ġgoof": 4450,
      "Ġnich": 4451,
      "Ġmovement": 4452,
      "utation": 4453,
      "Ġenvir": 4454,
      "Ġspy": 4455,
      "Ġtext": 4456,
      "Ġlacking": 4457,
      "Ġbrilliantly": 4458,
      "Ġpurch": 4459,
      "Ġdevice": 4460,
      "Ġtransform": 4461,
      "opped": 4462,
      "Ġrubbish": 4463,
      "Ġlewis": 4464,
      "Ġintellect": 4465,
      "gn": 4466,
      "mother": 4467,
      "Ġsab": 4468,
      "Ġsource": 4469,
      "Ġcant": 4470,
      "Ġfinger": 4471,
      "Ġwhere": 4472,
      "iling": 4473,
      "Ġrise": 4474,
      "add": 4475,
      "unting": 4476,
      "Ġkong": 4477,
      "raction": 4478,
      "arded": 4479,
      "inda": 4480,
      "ines": 4481,
      "Ġbrown": 4482,
      "Ġpeace": 4483,
      "Ġquote": 4484,
      "Ġheck": 4485,
      "Ġgotten": 4486,
      "Ġbitter": 4487,
      "Ġswim": 4488,
      "Ġideal": 4489,
      "Ġkeeping": 4490,
      "Ġcorny": 4491,
      "Ġsilver": 4492,
      "Ġdiscuss": 4493,
      "Ġregular": 4494,
      "Ġdiscovered": 4495,
      "Ġdelivered": 4496,
      "Ġdressed": 4497,
      "Ġestab": 4498,
      "Ġsympathetic": 4499,
      "Ġpraise": 4500,
      "Ġcontemporary": 4501,
      "bur": 4502,
      "law": 4503,
      "mate": 4504,
      "oci": 4505,
      "rous": 4506,
      "xual": 4507,
      "ÂĹ": 4508,
      "onment": 4509,
      "Ġlon": 4510,
      "Ġwrest": 4511,
      "Ġwitty": 4512,
      "Ġgas": 4513,
      "Ġseagal": 4514,
      "Ġalbert": 4515,
      "aining": 4516,
      "Ġevening": 4517,
      "enever": 4518,
      "Ġtex": 4519,
      "Ġstruct": 4520,
      "Ġunderrated": 4521,
      "Ġlaught": 4522,
      "Ġtruck": 4523,
      "Ġmeeting": 4524,
      "Ġpleasant": 4525,
      "Ġcriticism": 4526,
      "Ġconnect": 4527,
      "Ġsharp": 4528,
      "Ġchallenge": 4529,
      "rating": 4530,
      "Ġsed": 4531,
      "rem": 4532,
      "enstein": 4533,
      "Ġfro": 4534,
      "Ġhood": 4535,
      "oween": 4536,
      "ummy": 4537,
      "cient": 4538,
      "Ġade": 4539,
      "Ġasked": 4540,
      "Ġcamer": 4541,
      "entional": 4542,
      "Ġboat": 4543,
      "Ġreporter": 4544,
      "Ġremembered": 4545,
      "Ġmorning": 4546,
      "Ġhumorous": 4547,
      "after": 4548,
      "Ġlawyer": 4549,
      "Ġnormally": 4550,
      "Ġsucked": 4551,
      "Ġallows": 4552,
      "opping": 4553,
      "hicle": 4554,
      "Ġspanish": 4555,
      "Ġcelebr": 4556,
      "mal": 4557,
      "part": 4558,
      "reh": 4559,
      "Ġcab": 4560,
      "leman": 4561,
      "Ġnational": 4562,
      "Ġrick": 4563,
      "istent": 4564,
      "Ġbridge": 4565,
      "Ġmarvel": 4566,
      "Ġcorp": 4567,
      "Ġprovided": 4568,
      "Ġpsycho": 4569,
      "Ġphotograph": 4570,
      "Ġgermany": 4571,
      "Ġvehicle": 4572,
      "Ġsheer": 4573,
      "Ġcategory": 4574,
      "Ġphilosoph": 4575,
      "Ġenvironment": 4576,
      "Ġlaughter": 4577,
      "len": 4578,
      "mary": 4579,
      "Ġbell": 4580,
      "Ġgree": 4581,
      "icated": 4582,
      "Ġleon": 4583,
      "umber": 4584,
      "Ġwhenever": 4585,
      "izen": 4586,
      "Ġcarol": 4587,
      "Ġsecurity": 4588,
      "Ġhelen": 4589,
      "Ġdozen": 4590,
      "Ġcourage": 4591,
      "Ġreputation": 4592,
      "Ġiron": 4593,
      "Ġgrab": 4594,
      "Ġwinning": 4595,
      "Ġpropag": 4596,
      "however": 4597,
      "Ġtechnology": 4598,
      "Ġexistence": 4599,
      "Ġdepicted": 4600,
      "Ġuniversal": 4601,
      "buster": 4602,
      "Ġslapstick": 4603,
      "Ġmanipul": 4604,
      "oom": 4605,
      "point": 4606,
      "vy": 4607,
      "Ġcook": 4608,
      "Ġlower": 4609,
      "Ġbore": 4610,
      "Ġdom": 4611,
      "Ġdust": 4612,
      "imate": 4613,
      "that": 4614,
      "Ġjaw": 4615,
      "Ġexh": 4616,
      "Ġbeast": 4617,
      "Ġclip": 4618,
      "Ġspin": 4619,
      "Ġloving": 4620,
      "coming": 4621,
      "Ġborder": 4622,
      "Ġreport": 4623,
      "Ġstrongly": 4624,
      "Ġrented": 4625,
      "Ġerotic": 4626,
      "Ġdelightful": 4627,
      "Ġtraditional": 4628,
      "glas": 4629,
      "Ġdisappear": 4630,
      "Ġwerewolf": 4631,
      "bad": 4632,
      "telling": 4633,
      "ule": 4634,
      "Ġ>": 4635,
      "Ġmort": 4636,
      "Ġfif": 4637,
      "Ġpit": 4638,
      "Ġtiny": 4639,
      "Ġbbc": 4640,
      "owell": 4641,
      "Ġchair": 4642,
      "Ġincomp": 4643,
      "ulous": 4644,
      "Ġkung": 4645,
      "Ġaltern": 4646,
      "Ġroot": 4647,
      "osition": 4648,
      "Ġwho": 4649,
      "Ġguest": 4650,
      "Ġresol": 4651,
      "Ġterribly": 4652,
      "Ġoverly": 4653,
      "Ġfinished": 4654,
      "Ġscenario": 4655,
      "Ġultimate": 4656,
      "Ġfreedom": 4657,
      "aire": 4658,
      "case": 4659,
      "fire": 4660,
      "iven": 4661,
      "ued": 4662,
      "za": 4663,
      "Ġcurt": 4664,
      "Ġcaine": 4665,
      "Ġtour": 4666,
      "Ġlam": 4667,
      "Ġwave": 4668,
      "Ġdennis": 4669,
      "icit": 4670,
      "Ġunited": 4671,
      "Ġcontext": 4672,
      "Ġ14": 4673,
      "aren": 4674,
      "Ġposter": 4675,
      "Ġendless": 4676,
      "Ġgray": 4677,
      "Ġobsc": 4678,
      "Ġbuilt": 4679,
      "Ġrelate": 4680,
      "Ġexplore": 4681,
      "Ġcorrupt": 4682,
      "Ġdouglas": 4683,
      "Ġpulled": 4684,
      "Ġjulie": 4685,
      "Ġlosing": 4686,
      "Ġloses": 4687,
      "Ġafrica": 4688,
      "19": 4689,
      "miss": 4690,
      "sm": 4691,
      "tr": 4692,
      "Ġsole": 4693,
      "Ġmoo": 4694,
      "Ġmock": 4695,
      "leep": 4696,
      "Ġeg": 4697,
      "Ġnominated": 4698,
      "chester": 4699,
      "Ġrat": 4700,
      "oooo": 4701,
      "Ġthief": 4702,
      "uls": 4703,
      "Ġkore": 4704,
      "Ġshut": 4705,
      "Ġscale": 4706,
      "Ġscared": 4707,
      "ante": 4708,
      "Ġflow": 4709,
      "Ġsomebody": 4710,
      "Ġcolon": 4711,
      "Ġwalter": 4712,
      "Ġassoci": 4713,
      "Ġtheory": 4714,
      "Ġharsh": 4715,
      "Ġmyth": 4716,
      "ski": 4717,
      "Ġload": 4718,
      "Ġdonald": 4719,
      "Ġtedious": 4720,
      "Ġcontrived": 4721,
      "Ġcanadian": 4722,
      "cr": 4723,
      "dr": 4724,
      "zo": 4725,
      "Ġsir": 4726,
      "although": 4727,
      "Ġgory": 4728,
      "Ġny": 4729,
      "Ġnative": 4730,
      "Ġnurse": 4731,
      "Ġliber": 4732,
      "Ġunable": 4733,
      "Ġanime": 4734,
      "Ġconcent": 4735,
      "Ġcharism": 4736,
      "udd": 4737,
      "Ġjoin": 4738,
      "Ġsaved": 4739,
      "person": 4740,
      "ires": 4741,
      "Ġsubstance": 4742,
      "Ġunfor": 4743,
      "Ġstanding": 4744,
      "Ġproved": 4745,
      "Ġjackie": 4746,
      "Ġmrs": 4747,
      "Ġmeth": 4748,
      "Ġdemonstr": 4749,
      "Ġlucky": 4750,
      "Ġcandy": 4751,
      "Ġexploitation": 4752,
      "ef": 4753,
      "ki": 4754,
      "lan": 4755,
      "wal": 4756,
      "Ġtay": 4757,
      "Ġtack": 4758,
      "Ġward": 4759,
      "Ġwashing": 4760,
      "lying": 4761,
      "Ġviet": 4762,
      "Ġyell": 4763,
      "overs": 4764,
      "anned": 4765,
      "Ġinvolve": 4766,
      "Ġemotionally": 4767,
      "Ġfeatured": 4768,
      "Ġwinner": 4769,
      "Ġpassed": 4770,
      "Ġpursu": 4771,
      "Ġtreasure": 4772,
      "Ġhyp": 4773,
      "Ġfrankly": 4774,
      "Ġhaunt": 4775,
      "Ġhalloween": 4776,
      "Ġcontinues": 4777,
      "Ġlogic": 4778,
      "Ġdinosaur": 4779,
      "Ġdepressing": 4780,
      "uitous": 4781,
      "Ġlynch": 4782,
      "Ġtexas": 4783,
      "jo": 4784,
      "Ġsend": 4785,
      "Ġcit": 4786,
      "Ġcoun": 4787,
      "Ġcath": 4788,
      "Ġfer": 4789,
      "Ġfort": 4790,
      "Ġdare": 4791,
      "Ġdry": 4792,
      "Ġgord": 4793,
      "Ġhong": 4794,
      "Ġstom": 4795,
      "etch": 4796,
      "tha": 4797,
      "thr": 4798,
      "think": 4799,
      "Ġvague": 4800,
      "usi": 4801,
      "Ġmaint": 4802,
      "ists": 4803,
      "Ġhorribly": 4804,
      "Ġentry": 4805,
      "ache": 4806,
      "Ġlaura": 4807,
      "aze": 4808,
      "Ġexcited": 4809,
      "ortune": 4810,
      "Ġcoach": 4811,
      "Ġassume": 4812,
      "Ġbarry": 4813,
      "Ġdaniel": 4814,
      "Ġdavis": 4815,
      "Ġoliv": 4816,
      "Ġandrew": 4817,
      "Ġhammer": 4818,
      "Ġpuppet": 4819,
      "Ġexecution": 4820,
      "Ġignore": 4821,
      "Ġsheriff": 4822,
      "Ġamateurish": 4823,
      "Ġjungle": 4824,
      "ausible": 4825,
      "Ġroutine": 4826,
      "Ġtaylor": 4827,
      "away": 4828,
      "cont": 4829,
      "girl": 4830,
      "self": 4831,
      "vis": 4832,
      "Ġske": 4833,
      "Ġfame": 4834,
      "Ġpian": 4835,
      "Ġly": 4836,
      "Ġlink": 4837,
      "Ġbush": 4838,
      "Ġnation": 4839,
      "ays": 4840,
      "Ġrival": 4841,
      "Ġinex": 4842,
      "Ġkenn": 4843,
      "ousin": 4844,
      "ogy": 4845,
      "Ġmuppet": 4846,
      "abit": 4847,
      "aust": 4848,
      "Ġwayne": 4849,
      "theless": 4850,
      "Ġ25": 4851,
      "Ġevidence": 4852,
      "Ġmarsh": 4853,
      "Ġasleep": 4854,
      "Ġhandsome": 4855,
      "Ġcreator": 4856,
      "Ġruth": 4857,
      "Ġdistract": 4858,
      "Ġhunt": 4859,
      "Ġforest": 4860,
      "Ġhearing": 4861,
      "Ġextraord": 4862,
      "Ġvisuals": 4863,
      "Ġdragon": 4864,
      "Ġtarzan": 4865,
      "Ġcapable": 4866,
      "Ġcontribut": 4867,
      "Ġhanging": 4868,
      "Ġdescribed": 4869,
      "Ġmelodrama": 4870,
      "Ġdisgusting": 4871,
      "Ġwedding": 4872,
      "hi": 4873,
      "Ġsen": 4874,
      "ering": 4875,
      "Ġfur": 4876,
      "Ġfix": 4877,
      "Ġfbi": 4878,
      "anced": 4879,
      "arant": 4880,
      "orig": 4881,
      "Ġloy": 4882,
      "lyn": 4883,
      "Ġeating": 4884,
      "Ġthat": 4885,
      "Ġkim": 4886,
      "Ġshoe": 4887,
      "hero": 4888,
      "Ġnecess": 4889,
      "Ġworry": 4890,
      "Ġlear": 4891,
      "Ġconvey": 4892,
      "fest": 4893,
      "Ġdisp": 4894,
      "she": 4895,
      "Ġaccomp": 4896,
      "Ġcris": 4897,
      "Ġmini": 4898,
      "Ġemph": 4899,
      "ached": 4900,
      "Ġagre": 4901,
      "Ġentertained": 4902,
      "Ġrefres": 4903,
      "Ġportrays": 4904,
      "iverse": 4905,
      "Ġbringing": 4906,
      "Ġthankfully": 4907,
      "Ġposition": 4908,
      "Ġsubtitle": 4909,
      "Ġsuffers": 4910,
      "Ġappealing": 4911,
      "Ġconcern": 4912,
      "Ġ1960": 4913,
      "Ġessentially": 4914,
      "Ġbullet": 4915,
      "Ġinept": 4916,
      "Ġrelatively": 4917,
      "Ġvacation": 4918,
      "Ġgratuitous": 4919,
      "Ġpropaganda": 4920,
      "nam": 4921,
      "vation": 4922,
      "Ġcatherine": 4923,
      "Ġcousin": 4924,
      "another": 4925,
      "Ġpitch": 4926,
      "Ġtask": 4927,
      "atory": 4928,
      "Ġeth": 4929,
      "Ġnav": 4930,
      "Ġreun": 4931,
      "ety": 4932,
      "Ġranger": 4933,
      "Ġsection": 4934,
      "aming": 4935,
      "americ": 4936,
      "asm": 4937,
      "abe": 4938,
      "atty": 4939,
      "Ġinteraction": 4940,
      "Ġgrim": 4941,
      "Ġbetray": 4942,
      "Ġmeanwhile": 4943,
      "Ġpossibility": 4944,
      "Ġvisually": 4945,
      "umbling": 4946,
      "Ġoffensive": 4947,
      "Ġimagery": 4948,
      "Ġmiser": 4949,
      "Ġlandscape": 4950,
      "Ġdiscovers": 4951,
      "Ġcroc": 4952,
      "Ġconsequence": 4953,
      "Ġmoore": 4954,
      "Ġcitizen": 4955,
      "men": 4956,
      "mond": 4957,
      "produ": 4958,
      "Ġbound": 4959,
      "ader": 4960,
      "Ġlibr": 4961,
      "Ġshy": 4962,
      "usive": 4963,
      "Ġplant": 4964,
      "Ġuniverse": 4965,
      "Ġconce": 4966,
      "ortion": 4967,
      "Ġ16": 4968,
      "apping": 4969,
      "Ġgrown": 4970,
      "ressed": 4971,
      "Ġcaused": 4972,
      "Ġsimon": 4973,
      "iforn": 4974,
      "Ġedited": 4975,
      "ription": 4976,
      "Ġwalked": 4977,
      "Ġhopefully": 4978,
      "Ġharris": 4979,
      "Ġmorgan": 4980,
      "Ġdancer": 4981,
      "Ġhitler": 4982,
      "written": 4983,
      "Ġmatrix": 4984,
      "Ġmassac": 4985,
      "Ġscreaming": 4986,
      "Ġembarrassing": 4987,
      "Ġassistant": 4988,
      "Ġabandoned": 4989,
      "Ġexperienced": 4990,
      "Ġestablish": 4991,
      "Ġrefreshing": 4992,
      "gm": 4993,
      "hh": 4994,
      "aling": 4995,
      "Ġbone": 4996,
      "stream": 4997,
      "oven": 4998,
      "chant": 4999,
      "ama": 5000,
      "seen": 5001,
      "Ġancient": 5002,
      "Ġneedle": 5003,
      "Ġindie": 5004,
      "Ġhelping": 5005,
      "Ġunfortunate": 5006,
      "Ġdoom": 5007,
      "Ġirre": 5008,
      "Ġmajority": 5009,
      "Ġnoise": 5010,
      "Ġcomplaint": 5011,
      "sky": 5012,
      "Ġprior": 5013,
      "Ġfranch": 5014,
      "Ġfalse": 5015,
      "Ġunrealistic": 5016,
      "Ġexplosion": 5017,
      "Ġunconvin": 5018,
      "Ġnichol": 5019,
      "ault": 5020,
      "cis": 5021,
      "don": 5022,
      "eel": 5023,
      "long": 5024,
      "pal": 5025,
      "top": 5026,
      "iner": 5027,
      "eral": 5028,
      "enced": 5029,
      "Ġwing": 5030,
      "Ġby": 5031,
      "ilty": 5032,
      "lection": 5033,
      "Ġeld": 5034,
      "rior": 5035,
      "Ġalice": 5036,
      "Ġmask": 5037,
      "actic": 5038,
      "udge": 5039,
      "Ġpregn": 5040,
      "Ġadvert": 5041,
      "Ġdirectly": 5042,
      "Ġheight": 5043,
      "acc": 5044,
      "Ġcring": 5045,
      "Ġoverlook": 5046,
      "Ġedward": 5047,
      "Ġcolour": 5048,
      "ugos": 5049,
      "whel": 5050,
      "Ġtrial": 5051,
      "Ġglass": 5052,
      "Ġglimp": 5053,
      "Ġcoinc": 5054,
      "Ġformat": 5055,
      "Ġdeadly": 5056,
      "wards": 5057,
      "Ġimagin": 5058,
      "Ġcutting": 5059,
      "Ġlatest": 5060,
      "Ġholding": 5061,
      "Ġpaying": 5062,
      "Ġhyster": 5063,
      "Ġlouis": 5064,
      "Ġitaly": 5065,
      "Ġjimmy": 5066,
      "Ġreligion": 5067,
      "Ġsanta": 5068,
      "Ġenthusi": 5069,
      "Ġinterpretation": 5070,
      "Ġmethod": 5071,
      "cere": 5072,
      "des": 5073,
      "ez": 5074,
      "list": 5075,
      "inn": 5076,
      "Ġmouse": 5077,
      "alg": 5078,
      "order": 5079,
      "Ġwicked": 5080,
      "Ġduck": 5081,
      "Ġdyn": 5082,
      "Ġdude": 5083,
      "Ġgarden": 5084,
      "Ġhip": 5085,
      "entic": 5086,
      "ribut": 5087,
      "arter": 5088,
      "Ġblade": 5089,
      "Ġacqu": 5090,
      "beat": 5091,
      "Ġsinatra": 5092,
      "ception": 5093,
      "Ġmusician": 5094,
      "Ġoutrage": 5095,
      "Ġsitcom": 5096,
      "Ġruined": 5097,
      "Ġgrew": 5098,
      "class": 5099,
      "Ġlarry": 5100,
      "ucle": 5101,
      "belief": 5102,
      "Ġhaunting": 5103,
      "Ġequal": 5104,
      "Ġlimit": 5105,
      "Ġcircle": 5106,
      "Ġrecognize": 5107,
      "Ġloser": 5108,
      "Ġgenuinely": 5109,
      "Ġturkey": 5110,
      "stitute": 5111,
      "Ġstructure": 5112,
      "Ġgordon": 5113,
      "yes": 5114,
      "Ġom": 5115,
      "Ġmature": 5116,
      "Ġfict": 5117,
      "Ġped": 5118,
      "Ġpile": 5119,
      "Ġlousy": 5120,
      "Ġdol": 5121,
      "Ġgro": 5122,
      "Ġnor": 5123,
      "Ġnom": 5124,
      "Ġnut": 5125,
      "Ġsemi": 5126,
      "Ġchic": 5127,
      "Ġlifet": 5128,
      "Ġkane": 5129,
      "Ġanger": 5130,
      "eness": 5131,
      "ago": 5132,
      "Ġargu": 5133,
      "Ġgru": 5134,
      "Ġnevertheless": 5135,
      "anged": 5136,
      "Ġsurface": 5137,
      "every": 5138,
      "Ġexcit": 5139,
      "Ġborrow": 5140,
      "Ġhandle": 5141,
      "Ġsupernatural": 5142,
      "Ġgrave": 5143,
      "Ġwinter": 5144,
      "Ġpatrick": 5145,
      "Ġlearns": 5146,
      "Ġpsychological": 5147,
      "othy": 5148,
      "Ġsuffering": 5149,
      "Ġcontinuity": 5150,
      "Ġbroadcast": 5151,
      "Ġuninteresting": 5152,
      "Ġvirtually": 5153,
      "Ġwashington": 5154,
      "ifornia": 5155,
      "Ġlifetime": 5156,
      "mind": 5157,
      "nn": 5158,
      "rol": 5159,
      "tle": 5160,
      "Ġsake": 5161,
      "Ġmgm": 5162,
      "Ġpul": 5163,
      "Ġtill": 5164,
      "Ġlat": 5165,
      "Ġdomin": 5166,
      "Ġnost": 5167,
      "Ġnucle": 5168,
      "Ġraw": 5169,
      "Ġthis": 5170,
      "Ġchamp": 5171,
      "Ġalco": 5172,
      "Ġbeer": 5173,
      "oyd": 5174,
      "Ġeverywhere": 5175,
      "Ġtwin": 5176,
      "Ġrealizes": 5177,
      "Ġfeed": 5178,
      "osexual": 5179,
      "Ġstring": 5180,
      "Ġthrowing": 5181,
      "Ġmaria": 5182,
      "Ġeffectively": 5183,
      "prise": 5184,
      "Ġconsp": 5185,
      "Ġsounded": 5186,
      "Ġcreation": 5187,
      "Ġportraying": 5188,
      "Ġpaint": 5189,
      "Ġpainfully": 5190,
      "Ġsatur": 5191,
      "Ġbrave": 5192,
      "Ġhung": 5193,
      "Ġ2001": 5194,
      "Ġtwisted": 5195,
      "Ġpromising": 5196,
      "Ġphoto": 5197,
      "Ġcovered": 5198,
      "Ġprofessor": 5199,
      "Ġspeaks": 5200,
      "Ġoccasional": 5201,
      "Ġrequired": 5202,
      "Ġmirror": 5203,
      "Ġterrorist": 5204,
      "Ġpractically": 5205,
      "Ġinitial": 5206,
      "Ġmotivation": 5207,
      "Ġemphas": 5208,
      "Ġalcohol": 5209,
      "'ve": 5210,
      "gal": 5211,
      "hum": 5212,
      "ethe": 5213,
      "Ġkrist": 5214,
      "Ġvon": 5215,
      "ounce": 5216,
      "Ġuncom": 5217,
      "Ġdict": 5218,
      "quel": 5219,
      "Ġdisbelief": 5220,
      "Ġarrest": 5221,
      "Ġgritty": 5222,
      "Ġguarant": 5223,
      "Ġcave": 5224,
      "Ġperformer": 5225,
      "achel": 5226,
      "Ġwarrior": 5227,
      "Ġcheese": 5228,
      "Ġbelieved": 5229,
      "Ġviewed": 5230,
      "Ġscreening": 5231,
      "Ġtriv": 5232,
      "Ġdepiction": 5233,
      "Ġdarkness": 5234,
      "Ġinvolves": 5235,
      "Ġpainting": 5236,
      "Ġandy": 5237,
      "Ġforgettable": 5238,
      "Ġweekend": 5239,
      "Ġpreviously": 5240,
      "Ġ1930": 5241,
      "Ġbreathtaking": 5242,
      "Ġargent": 5243,
      "breaking": 5244,
      "Ġbarbara": 5245,
      "ronic": 5246,
      "vol": 5247,
      "Ġou": 5248,
      "Ġlud": 5249,
      "Ġstorm": 5250,
      "Ġral": 5251,
      "olic": 5252,
      "Ġchief": 5253,
      "sem": 5254,
      "Ġdefe": 5255,
      "Ġcharl": 5256,
      "aret": 5257,
      "aki": 5258,
      "osen": 5259,
      "Ġteeth": 5260,
      "Ġforth": 5261,
      "Ġkeaton": 5262,
      "Ġsincere": 5263,
      "Ġfighter": 5264,
      "Ġmurderer": 5265,
      "Ġrefuse": 5266,
      "Ġstopped": 5267,
      "Ġcurse": 5268,
      "Ġbothered": 5269,
      "Ġfrancis": 5270,
      "Ġ1940": 5271,
      "Ġblockbuster": 5272,
      "Ġdepartment": 5273,
      "Ġexcitement": 5274,
      "core": 5275,
      "jack": 5276,
      "jud": 5277,
      "kind": 5278,
      "pent": 5279,
      "erson": 5280,
      "Ġtong": 5281,
      "edly": 5282,
      "Ġbern": 5283,
      "Ġdub": 5284,
      "Ġnose": 5285,
      "Ġrough": 5286,
      "Ġala": 5287,
      "Ġcomical": 5288,
      "ello": 5289,
      "aph": 5290,
      "Ġleague": 5291,
      "Ġmakeup": 5292,
      "abeth": 5293,
      "Ġjose": 5294,
      "Ġusa": 5295,
      "Ġcontact": 5296,
      "Ġcraw": 5297,
      "Ġoriginality": 5298,
      "Ġuseless": 5299,
      "Ġmagical": 5300,
      "Ġfairy": 5301,
      "Ġfigured": 5302,
      "Ġcampy": 5303,
      "Ġsuspenseful": 5304,
      "Ġauthentic": 5305,
      "Ġluke": 5306,
      "Ġbroadway": 5307,
      "Ġcloser": 5308,
      "Ġsatisfying": 5309,
      "Ġmultiple": 5310,
      "Ġnuclear": 5311,
      "dim": 5312,
      "vit": 5313,
      "Ġcock": 5314,
      "Ġpity": 5315,
      "Ġpool": 5316,
      "Ġgather": 5317,
      "ilogy": 5318,
      "Ġhi": 5319,
      "Ġchose": 5320,
      "Ġchosen": 5321,
      "verse": 5322,
      "andy": 5323,
      "Ġcharacterization": 5324,
      "Ġbrad": 5325,
      "Ġknight": 5326,
      "Ġuk": 5327,
      "they": 5328,
      "ivor": 5329,
      "Ġremin": 5330,
      "Ġbuying": 5331,
      "Ġbreast": 5332,
      "Ã©e": 5333,
      "ruct": 5334,
      "Ġadmir": 5335,
      "Ġdelivery": 5336,
      "laim": 5337,
      "Ġprepared": 5338,
      "Ġmassacre": 5339,
      "Ġglimpse": 5340,
      "Ġgruesome": 5341,
      "aid": 5342,
      "aver": 5343,
      "called": 5344,
      "ka": 5345,
      "wife": 5346,
      "Ġ0": 5347,
      "Ġut": 5348,
      "Ġurban": 5349,
      "Ġsink": 5350,
      "Ġcooper": 5351,
      "Ġpig": 5352,
      "Ġpunk": 5353,
      "Ġpush": 5354,
      "Ġtense": 5355,
      "Ġdid": 5356,
      "Ġaunt": 5357,
      "oviet": 5358,
      "ioned": 5359,
      "ises": 5360,
      "Ġinner": 5361,
      "Ġdece": 5362,
      "Ġshark": 5363,
      "Ġjail": 5364,
      "Ġvast": 5365,
      "Ġviv": 5366,
      "Ġexagger": 5367,
      "illed": 5368,
      "Ġstorytelling": 5369,
      "Ġprevent": 5370,
      "Ġspite": 5371,
      "Ġnoted": 5372,
      "Ġwarned": 5373,
      "Ġholiday": 5374,
      "Ġtrib": 5375,
      "Ġaddict": 5376,
      "Ġupset": 5377,
      "Ġdriven": 5378,
      "ologue": 5379,
      "Ġlistening": 5380,
      "Ġdescription": 5381,
      "Ġforgot": 5382,
      "Ġphilip": 5383,
      "Ġrepeat": 5384,
      "Ġaka": 5385,
      "Ġremotely": 5386,
      "Ġgreek": 5387,
      "Ġunconvincing": 5388,
      "done": 5389,
      "iffer": 5390,
      "pet": 5391,
      "ya": 5392,
      "inated": 5393,
      "enger": 5394,
      "Ġfet": 5395,
      "Ġpac": 5396,
      "Ġwan": 5397,
      "Ġbol": 5398,
      "Ġgain": 5399,
      "Ġah": 5400,
      "itar": 5401,
      "Ġnu": 5402,
      "Ġnail": 5403,
      "ooge": 5404,
      "thought": 5405,
      "alling": 5406,
      "fection": 5407,
      "Ġbrun": 5408,
      "agree": 5409,
      "Ġhealth": 5410,
      "Ġflor": 5411,
      "Ġguide": 5412,
      "Ġopt": 5413,
      "Ġsurf": 5414,
      "Ġunderground": 5415,
      "ibal": 5416,
      "Ġinvis": 5417,
      "Ġcommitted": 5418,
      "Ġmindless": 5419,
      "Ġtopic": 5420,
      "Ġatl": 5421,
      "ologist": 5422,
      "ika": 5423,
      "Ġoliver": 5424,
      "Ġtremend": 5425,
      "Ġvariety": 5426,
      "Ġdownright": 5427,
      "Ġreveals": 5428,
      "Ġcalifornia": 5429,
      "anagh": 5430,
      "Ġprofound": 5431,
      "Ġrolling": 5432,
      "Ġsouthern": 5433,
      "Ġfunnier": 5434,
      "Ġstatus": 5435,
      "Ġaccidentally": 5436,
      "Ġuninsp": 5437,
      "Ġwelles": 5438,
      "Ġresemble": 5439,
      "Ġdubbed": 5440,
      "Ġpolitics": 5441,
      "Ġatrocious": 5442,
      "Ġintellectual": 5443,
      "Ġextraordinary": 5444,
      "ugosi": 5445,
      "Ġdynam": 5446,
      "bour": 5447,
      "fl": 5448,
      "zed": 5449,
      "Ġ<": 5450,
      "Ġpenn": 5451,
      "Ġto": 5452,
      "Ġtorn": 5453,
      "Ġdump": 5454,
      "Ġaid": 5455,
      "itious": 5456,
      "Ġstol": 5457,
      "Ġrush": 5458,
      "Ġchina": 5459,
      "Ġvs": 5460,
      "Ġneck": 5461,
      "Ġunp": 5462,
      "iger": 5463,
      "Ġoz": 5464,
      "Ġtrilogy": 5465,
      "Ġens": 5466,
      "Ġspark": 5467,
      "Ġbron": 5468,
      "Ġprime": 5469,
      "Ġfac": 5470,
      "Ġguilty": 5471,
      "Ġ192": 5472,
      "Ġtrap": 5473,
      "Ġforb": 5474,
      "Ġstarred": 5475,
      "Ġcreates": 5476,
      "Ġhalfway": 5477,
      "Ġcredible": 5478,
      "Ġtouched": 5479,
      "Ġimmense": 5480,
      "Ġfocused": 5481,
      "Ġexecuted": 5482,
      "Ġregarding": 5483,
      "Ġstereotypical": 5484,
      "Ġofficial": 5485,
      "Ġdivor": 5486,
      "Ġcolumbo": 5487,
      "american": 5488,
      "Ġelder": 5489,
      "Ġnostalg": 5490,
      "bra": 5491,
      "col": 5492,
      "cut": 5493,
      "fun": 5494,
      "har": 5495,
      "ings": 5496,
      "Ġpie": 5497,
      "Ġpant": 5498,
      "Ġtie": 5499,
      "Ġtag": 5500,
      "Ġtied": 5501,
      "Ġll": 5502,
      "Ġlol": 5503,
      "Ġlugosi": 5504,
      "Ġai": 5505,
      "Ġecc": 5506,
      "Ġhere": 5507,
      "Ġnat": 5508,
      "Ġreh": 5509,
      "Ġreward": 5510,
      "Ġlip": 5511,
      "rious": 5512,
      "rase": 5513,
      "Ġalm": 5514,
      "Ġplaced": 5515,
      "Ġunb": 5516,
      "Ġconfess": 5517,
      "Ġcharge": 5518,
      "Ġtran": 5519,
      "esus": 5520,
      "Ġcliff": 5521,
      "Ġbride": 5522,
      "phant": 5523,
      "Ġterrif": 5524,
      "Ġfriday": 5525,
      "Ġsubplot": 5526,
      "Ġbasis": 5527,
      "Ġengine": 5528,
      "ointed": 5529,
      "Ġrepet": 5530,
      "Ġdistinct": 5531,
      "Ġparalle": 5532,
      "Ġpassing": 5533,
      "forward": 5534,
      "Ġshocked": 5535,
      "Ġtraining": 5536,
      "Ġlargely": 5537,
      "Ġdaily": 5538,
      "Ġlegendary": 5539,
      "Ġelectric": 5540,
      "Ġunderstood": 5541,
      "Ġhonor": 5542,
      "Ġstretch": 5543,
      "original": 5544,
      "Ġlearning": 5545,
      "Ġaccompan": 5546,
      "Ġralph": 5547,
      "80": 5548,
      "bie": 5549,
      "cons": 5550,
      "lim": 5551,
      "Â´": 5552,
      "Ġiv": 5553,
      "Ġsoviet": 5554,
      "Ġcust": 5555,
      "anny": 5556,
      "Ġpi": 5557,
      "Ġpitt": 5558,
      "oration": 5559,
      "Ġwake": 5560,
      "Ġba": 5561,
      "Ġdod": 5562,
      "Ġshould": 5563,
      "Ġjay": 5564,
      "Ġjac": 5565,
      "Ġvo": 5566,
      "Ġvia": 5567,
      "esis": 5568,
      "Ġclown": 5569,
      "Ġfund": 5570,
      "Ġserf": 5571,
      "Ġabuse": 5572,
      "Ġmarg": 5573,
      "Ġphen": 5574,
      "Ġfarm": 5575,
      "Ġcorner": 5576,
      "annabe": 5577,
      "Ġirish": 5578,
      "Ġfreeman": 5579,
      "Ġpredator": 5580,
      "Ġanderson": 5581,
      "gypt": 5582,
      "Ġillust": 5583,
      "ĠclichÃ©d": 5584,
      "Ġcombined": 5585,
      "Ġintroduce": 5586,
      "Ġbalance": 5587,
      "Ġsandra": 5588,
      "Ġsympathy": 5589,
      "Ġdinner": 5590,
      "Ġfaithful": 5591,
      "Ġconcert": 5592,
      "craft": 5593,
      "Ġvincent": 5594,
      "Ġrisk": 5595,
      "Ġpregnant": 5596,
      "Ġludic": 5597,
      "Ġreminis": 5598,
      "nox": 5599,
      "roll": 5600,
      "Ġire": 5601,
      "Ġern": 5602,
      "Ġmst": 5603,
      "Ġcob": 5604,
      "Ġpaced": 5605,
      "Ġtoo": 5606,
      "Ġwander": 5607,
      "Ġegypt": 5608,
      "Ġrevel": 5609,
      "eld": 5610,
      "eland": 5611,
      "char": 5612,
      "Ġthunder": 5613,
      "Ġinj": 5614,
      "Ġsha": 5615,
      "Ġshape": 5616,
      "Ġvoy": 5617,
      "asant": 5618,
      "Ġneat": 5619,
      "Ġunt": 5620,
      "Ġoce": 5621,
      "plane": 5622,
      "Ġflight": 5623,
      "Ġterrit": 5624,
      "Ġappropriate": 5625,
      "Ġscreenwriter": 5626,
      "Ġexplains": 5627,
      "Ġmainstream": 5628,
      "Ġworthwhile": 5629,
      "Ġcommit": 5630,
      "Ġadding": 5631,
      "Ġadvance": 5632,
      "Ġcaptiv": 5633,
      "Ġsleazy": 5634,
      "Ġnarration": 5635,
      "Ġhopper": 5636,
      "know": 5637,
      "Ġchanging": 5638,
      "Ġmedical": 5639,
      "Ġobsessed": 5640,
      "Ġracism": 5641,
      "Ġassassin": 5642,
      "Ġhaunted": 5643,
      "Ġtongue": 5644,
      "dimensional": 5645,
      "Ġparallel": 5646,
      "noxious": 5647,
      "hard": 5648,
      "nity": 5649,
      "yth": 5650,
      "Ġpier": 5651,
      "Ġpowell": 5652,
      "Ġlem": 5653,
      "Ġlap": 5654,
      "Ġlum": 5655,
      "Ġmovies": 5656,
      "Ġthro": 5657,
      "Ġthirty": 5658,
      "opath": 5659,
      "irky": 5660,
      "utive": 5661,
      "Ġplastic": 5662,
      "Ġpoet": 5663,
      "Ġknife": 5664,
      "osity": 5665,
      "Ġwheel": 5666,
      "Ġorch": 5667,
      "Ġbetty": 5668,
      "Ġevident": 5669,
      "Ġhandled": 5670,
      "Ġpolic": 5671,
      "Ġamazingly": 5672,
      "Ġstayed": 5673,
      "Ġrender": 5674,
      "Ġdesigned": 5675,
      "Ġmassive": 5676,
      "Ġmodest": 5677,
      "Ġencou": 5678,
      "Ġdesperately": 5679,
      "Ġinevit": 5680,
      "Ġwelcome": 5681,
      "Ġobsession": 5682,
      "Ġticket": 5683,
      "Ġlibrary": 5684,
      "bit": 5685,
      "town": 5686,
      "ena": 5687,
      "also": 5688,
      "Ġtoler": 5689,
      "stone": 5690,
      "Ġhoff": 5691,
      "Ġredu": 5692,
      "ado": 5693,
      "Ġcha": 5694,
      "Ġinte": 5695,
      "antage": 5696,
      "Ġspook": 5697,
      "orman": 5698,
      "Ġblat": 5699,
      "Ġeveryday": 5700,
      "ishment": 5701,
      "Ġmeat": 5702,
      "augh": 5703,
      "ocaly": 5704,
      "Ġhorrif": 5705,
      "Ġcrude": 5706,
      "Ġcritical": 5707,
      "Ġevol": 5708,
      "Ġagain": 5709,
      "Ġconsum": 5710,
      "Ġreader": 5711,
      "Ġsketch": 5712,
      "Ġfallen": 5713,
      "Ġcorn": 5714,
      "Ġjeal": 5715,
      "Ġanticip": 5716,
      "Ġoffered": 5717,
      "Ġinnov": 5718,
      "Ġpurely": 5719,
      "Ġspends": 5720,
      "Ġinspiration": 5721,
      "Ġmatth": 5722,
      "Ġjapan": 5723,
      "Ġparker": 5724,
      "Ġrevolves": 5725,
      "Ġprisoner": 5726,
      "world": 5727,
      "Ġproperly": 5728,
      "Ġmildly": 5729,
      "Ġjonathan": 5730,
      "Ġninja": 5731,
      "Ġsignificant": 5732,
      "Ġmexican": 5733,
      "Ġcolonel": 5734,
      "Ġpiano": 5735,
      "Ġfranchise": 5736,
      "Ġsaturday": 5737,
      "Ġphenomen": 5738,
      "Ġintegr": 5739,
      ".-": 5740,
      "drop": 5741,
      "gie": 5742,
      "rom": 5743,
      "ww": 5744,
      "erie": 5745,
      "ona": 5746,
      "alty": 5747,
      "Ġlisa": 5748,
      "Ġdent": 5749,
      "Ġreel": 5750,
      "then": 5751,
      "Ġplague": 5752,
      "Ġspell": 5753,
      "Ġdisgu": 5754,
      "Ġarr": 5755,
      "Ġtrapped": 5756,
      "Ġobnoxious": 5757,
      "Ġeditor": 5758,
      "igned": 5759,
      "Ġswed": 5760,
      "Ġearn": 5761,
      "Ġcoff": 5762,
      "Ġstupidity": 5763,
      "Ġbreaking": 5764,
      "Ġtransfer": 5765,
      "Ġraised": 5766,
      "Ġimportance": 5767,
      "ification": 5768,
      "Ġamongst": 5769,
      "Ġsentence": 5770,
      "Ġsurvivor": 5771,
      "Ġburned": 5772,
      "Ġspiritual": 5773,
      "Ġbutcher": 5774,
      "Ġignor": 5775,
      "Ġprince": 5776,
      "Ġprincess": 5777,
      "Ġembarrassed": 5778,
      "Ġautom": 5779,
      "ollywood": 5780,
      "Ġsucceeds": 5781,
      "Ġoblig": 5782,
      "school": 5783,
      "Ġstomach": 5784,
      "Ġnecessarily": 5785,
      "Ġchampion": 5786,
      "Ġpacino": 5787,
      "Ġinvisible": 5788,
      "Ġludicrous": 5789,
      "Ġocean": 5790,
      "dam": 5791,
      "pass": 5792,
      "rich": 5793,
      "urist": 5794,
      "inist": 5795,
      "aring": 5796,
      "Ġbang": 5797,
      "Ġgil": 5798,
      "Ġax": 5799,
      "Ġhur": 5800,
      "Ġhipp": 5801,
      "ites": 5802,
      "Ġjar": 5803,
      "Ġjesus": 5804,
      "Ġvivid": 5805,
      "Ġexer": 5806,
      "Ġunion": 5807,
      "Ġpreview": 5808,
      "Ġflu": 5809,
      "Ġattraction": 5810,
      "Ġcontest": 5811,
      "Ġincor": 5812,
      "Ġcarn": 5813,
      "Ġwarn": 5814,
      "Ġoverwhel": 5815,
      "Ġeliz": 5816,
      "Ġspecific": 5817,
      "Ġunfold": 5818,
      "Ġpatri": 5819,
      "Ġlaid": 5820,
      "okay": 5821,
      "Ġstriking": 5822,
      "Ġjulia": 5823,
      "Ġsarah": 5824,
      "Ġreplace": 5825,
      "Ġjewish": 5826,
      "Ġkidnapped": 5827,
      "Ġroger": 5828,
      "Ġsentimental": 5829,
      "Ġlocked": 5830,
      "Ġfictional": 5831,
      "Ġlloyd": 5832,
      "fred": 5833,
      "nd": 5834,
      "pically": 5835,
      "sed": 5836,
      "ube": 5837,
      "Ġdrew": 5838,
      "isation": 5839,
      "Ġchill": 5840,
      "Ġliz": 5841,
      "Ġinh": 5842,
      "ops": 5843,
      "rig": 5844,
      "road": 5845,
      "illip": 5846,
      "Ġprejud": 5847,
      "Ġspider": 5848,
      "Ġspoken": 5849,
      "osh": 5850,
      "shot": 5851,
      "Ġserve": 5852,
      "Ġperformed": 5853,
      "Ġcompan": 5854,
      "Ġcalling": 5855,
      "Ġelev": 5856,
      "Ġsimpson": 5857,
      "Ġirony": 5858,
      "Ġaftern": 5859,
      "Ġhugh": 5860,
      "Ġmetal": 5861,
      "Ġexists": 5862,
      "Ġtiming": 5863,
      "Ġjerk": 5864,
      "Ġsunday": 5865,
      "Ġmotor": 5866,
      "Ġsuffered": 5867,
      "Ġlesser": 5868,
      "Ġidiotic": 5869,
      "Ġconsists": 5870,
      "Ġaston": 5871,
      "Ġarrives": 5872,
      "Ġracist": 5873,
      "Ġfrightening": 5874,
      "Ġcowboy": 5875,
      "Ġdetermined": 5876,
      "Ġgoofy": 5877,
      "Ġwhereas": 5878,
      "Ġadequ": 5879,
      "Ġterritory": 5880,
      "Ġafternoon": 5881,
      "11": 5882,
      "den": 5883,
      "iation": 5884,
      "made": 5885,
      "pro": 5886,
      "atically": 5887,
      "Ġdedic": 5888,
      "Ġeager": 5889,
      "Ġetern": 5890,
      "itled": 5891,
      "Ġstooge": 5892,
      "Ġrabb": 5893,
      "cest": 5894,
      "adays": 5895,
      "Ġther": 5896,
      "Ġken": 5897,
      "Ġkaren": 5898,
      "iro": 5899,
      "actor": 5900,
      "Ġsup": 5901,
      "Ġunre": 5902,
      "Ġgoal": 5903,
      "Ġ17": 5904,
      "Ġshower": 5905,
      "Ġquirky": 5906,
      "Ġgreater": 5907,
      "Ġfacial": 5908,
      "Ġnotable": 5909,
      "ianc": 5910,
      "Ġbeloved": 5911,
      "ensity": 5912,
      "Ġhappiness": 5913,
      "Ġcaring": 5914,
      "liked": 5915,
      "Ġrelax": 5916,
      "Ġfarce": 5917,
      "Ġfancy": 5918,
      "nery": 5919,
      "Ġtrium": 5920,
      "Ġironic": 5921,
      "Ġcountless": 5922,
      "Ġsevere": 5923,
      "Ġdeeper": 5924,
      "Ġerror": 5925,
      "Ġmerit": 5926,
      "Ġrussia": 5927,
      "Ġappreciated": 5928,
      "Ġintroduction": 5929,
      "Ġnowadays": 5930,
      "Ġhomosexual": 5931,
      "Ġstruggling": 5932,
      "Ġboredom": 5933,
      "Ġmontage": 5934,
      "Ġkarl": 5935,
      "Ġstylish": 5936,
      "Ġunforget": 5937,
      "Ġvietnam": 5938,
      "etheless": 5939,
      "fall": 5940,
      "kick": 5941,
      "sn": 5942,
      "Ġcup": 5943,
      "Ġcub": 5944,
      "Ġcode": 5945,
      "Ġtax": 5946,
      "Ġwas": 5947,
      "Ġwreck": 5948,
      "Ġboll": 5949,
      "leg": 5950,
      "Ġhud": 5951,
      "Ġhire": 5952,
      "eting": 5953,
      "Ġric": 5954,
      "Ġriv": 5955,
      "Ġchain": 5956,
      "Ġchasing": 5957,
      "iracy": 5958,
      "Ġshr": 5959,
      "Ġshel": 5960,
      "Ġunw": 5961,
      "Ġconn": 5962,
      "Ġseeking": 5963,
      "Ġpoign": 5964,
      "Ġclum": 5965,
      "Ġspread": 5966,
      "mentioned": 5967,
      "Ġblown": 5968,
      "Ġblair": 5969,
      "Ġmech": 5970,
      "Ġuser": 5971,
      "Ġcontain": 5972,
      "Ġweight": 5973,
      "Ġze": 5974,
      "Ġcorpor": 5975,
      "Ġpleased": 5976,
      "Ġattempting": 5977,
      "Ġadvantage": 5978,
      "Ġ2005": 5979,
      "Ġ2006": 5980,
      "Ġnonetheless": 5981,
      "Ġhamlet": 5982,
      "Ġ1990": 5983,
      "Ġmeaningful": 5984,
      "Ġaccepted": 5985,
      "Ġunlikely": 5986,
      "Ġjulian": 5987,
      "Ġcapital": 5988,
      "Ġjourn": 5989,
      "Ġfatal": 5990,
      "Ġstealing": 5991,
      "Ġinnocence": 5992,
      "Ġinternet": 5993,
      "Ġaffection": 5994,
      "Ġaustralia": 5995,
      "Ġrevolutionary": 5996,
      "Ġduty": 5997,
      "hearted": 5998,
      "Ġwwii": 5999,
      "Ġseparate": 6000,
      "Ġfrequently": 6001,
      "Ġhoffman": 6002,
      "eve": 6003,
      "say": 6004,
      "Ġsel": 6005,
      "Ġmate": 6006,
      "Ġfel": 6007,
      "Ġfift": 6008,
      "Ġtire": 6009,
      "Ġlust": 6010,
      "Ġlazy": 6011,
      "Ġbible": 6012,
      "Ġbald": 6013,
      "Ġdil": 6014,
      "ada": 6015,
      "Ġcher": 6016,
      "rial": 6017,
      "Ġshelf": 6018,
      "Ġshift": 6019,
      "Ġalb": 6020,
      "Ġexcess": 6021,
      "Ġplat": 6022,
      "ounding": 6023,
      "iously": 6024,
      "show": 6025,
      "Ġbackdrop": 6026,
      "many": 6027,
      "teen": 6028,
      "phy": 6029,
      "avor": 6030,
      "Ġcarried": 6031,
      "Ġpretend": 6032,
      "Ġgiall": 6033,
      "Ġgift": 6034,
      "Ġjohnson": 6035,
      "Ġrestaur": 6036,
      "Ġheroic": 6037,
      "Ġguessing": 6038,
      "Ġmiscast": 6039,
      "Ġstrict": 6040,
      "Ġoddly": 6041,
      "Ġwalken": 6042,
      "Ġcombine": 6043,
      "Ġrussell": 6044,
      "Ġsuggests": 6045,
      "series": 6046,
      "Ġsleeping": 6047,
      "Ġbutt": 6048,
      "Ġpuzz": 6049,
      "Ġregardless": 6050,
      "Ġcannibal": 6051,
      "Ġhawk": 6052,
      "Ġwidow": 6053,
      "Ġlauren": 6054,
      "Ġwhoever": 6055,
      "Ġkorean": 6056,
      "Ġstolen": 6057,
      "Ġreminiscent": 6058,
      "Ġthroat": 6059,
      "Ġmatthau": 6060,
      "Ġexercise": 6061,
      "Ġrestaurant": 6062,
      "50": 6063,
      "dition": 6064,
      "ease": 6065,
      "pol": 6066,
      "woman": 6067,
      "Ġsne": 6068,
      "anity": 6069,
      "ari": 6070,
      "Ġburt": 6071,
      "Ġgall": 6072,
      "ilton": 6073,
      "ito": 6074,
      "Ġri": 6075,
      "Ġthumb": 6076,
      "Ġkr": 6077,
      "Ġkat": 6078,
      "antino": 6079,
      "Ġmans": 6080,
      "Ġbranagh": 6081,
      "Ġqual": 6082,
      "Ġblast": 6083,
      "Ġpray": 6084,
      "Ġadop": 6085,
      "Ġdislike": 6086,
      "Ġslug": 6087,
      "Ġslaughter": 6088,
      "Ġ24": 6089,
      "Ġperforming": 6090,
      "ifies": 6091,
      "Ġmarc": 6092,
      "Ġhardy": 6093,
      "Ġzone": 6094,
      "movies": 6095,
      "Ġcredibility": 6096,
      "Ġgrey": 6097,
      "Ġclosely": 6098,
      "Ġantic": 6099,
      "Ġisol": 6100,
      "Ġtransport": 6101,
      "Ġpresentation": 6102,
      "anyway": 6103,
      "Ġcolorful": 6104,
      "Ġcanc": 6105,
      "Ġrenting": 6106,
      "Ġspending": 6107,
      "Ġjustin": 6108,
      "Ġflynn": 6109,
      "Ġreceive": 6110,
      "Ġreplaced": 6111,
      "Ġdrinking": 6112,
      "Ġlonely": 6113,
      "Ġbirthday": 6114,
      "Ġsophistic": 6115,
      "Ġcynical": 6116,
      "Ġcabin": 6117,
      "Ġleonard": 6118,
      "Ġincompet": 6119,
      "Ġoutrageous": 6120,
      "Ġargento": 6121,
      "Ġouter": 6122,
      "Ġrevelation": 6123,
      "Ġcompanion": 6124,
      "Ġrabbit": 6125,
      "Ġfifteen": 6126,
      "burn": 6127,
      "jointed": 6128,
      "tt": 6129,
      "Ġsid": 6130,
      "onent": 6131,
      "Ġpir": 6132,
      "Ġbust": 6133,
      "Ġgate": 6134,
      "Ġgab": 6135,
      "Ġeve": 6136,
      "entric": 6137,
      "Ġrachel": 6138,
      "Ġali": 6139,
      "Ġalright": 6140,
      "Ġdiff": 6141,
      "Ġoct": 6142,
      "esque": 6143,
      "Ġpreach": 6144,
      "Ġspiel": 6145,
      "Ġross": 6146,
      "Ġlovable": 6147,
      "Ġgreatly": 6148,
      "Ġparticip": 6149,
      "Ġserved": 6150,
      "Ġworker": 6151,
      "Ġguilt": 6152,
      "angel": 6153,
      "Ġstruck": 6154,
      "Ġinco": 6155,
      "Ġovercome": 6156,
      "Ġcraft": 6157,
      "Ġinstall": 6158,
      "Ġschem": 6159,
      "Ġsuperman": 6160,
      "Ġwalker": 6161,
      "Ġexpensive": 6162,
      "Ġretarded": 6163,
      "Ġamazed": 6164,
      "Ġwax": 6165,
      "Ġuniform": 6166,
      "Ġmiller": 6167,
      "Ġatmospher": 6168,
      "Ġfulci": 6169,
      "Ġburton": 6170,
      "watching": 6171,
      "Ġgriff": 6172,
      "Ġgranted": 6173,
      "Ġsavage": 6174,
      "Ġmitchell": 6175,
      "Ġfabulous": 6176,
      "Ġgentleman": 6177,
      "Ġcringe": 6178,
      "Ġbruno": 6179,
      "Ġuninspired": 6180,
      "crow": 6181,
      "mit": 6182,
      "power": 6183,
      "zil": 6184,
      "Ġlore": 6185,
      "Ġlane": 6186,
      "Ġwat": 6187,
      "Ġwannabe": 6188,
      "Ġbay": 6189,
      "Ġhired": 6190,
      "itically": 6191,
      "imag": 6192,
      "Ġshout": 6193,
      "quis": 6194,
      "Ġyu": 6195,
      "ptic": 6196,
      "Ġclint": 6197,
      "Ġros": 6198,
      "Ġproof": 6199,
      "Ġnotch": 6200,
      "Ġslave": 6201,
      "Ġintr": 6202,
      "Ġcaric": 6203,
      "Ġwarner": 6204,
      "Ġorigin": 6205,
      "Ġphillip": 6206,
      "Ġcrafted": 6207,
      "Ġsexually": 6208,
      "Ġinstantly": 6209,
      "Ġexplod": 6210,
      "Ġspecif": 6211,
      "Ġelephant": 6212,
      "Ġopened": 6213,
      "Ġafore": 6214,
      "Ġriding": 6215,
      "Ġcollect": 6216,
      "Ġrocket": 6217,
      "box": 6218,
      "Ġ2000": 6219,
      "Ġoccup": 6220,
      "Ġcultural": 6221,
      "Ġbusy": 6222,
      "Ġcontrovers": 6223,
      "liner": 6224,
      "Ġcliche": 6225,
      "Ġconvinced": 6226,
      "Ġsummary": 6227,
      "ophob": 6228,
      "force": 6229,
      "Ġlawrence": 6230,
      "Ġforgive": 6231,
      "Ġtarantino": 6232,
      "Ġnaive": 6233,
      "blance": 6234,
      "Ġmentally": 6235,
      "Ġrapid": 6236,
      "Ġenterprise": 6237,
      "Ġcompetition": 6238,
      "Ġdrunken": 6239,
      "horror": 6240,
      "overty": 6241,
      "Ġjessica": 6242,
      "Ġbenefit": 6243,
      "Ġminimal": 6244,
      "Ġpurchase": 6245,
      "iveness": 6246,
      "Ġcoincidence": 6247,
      "uristic": 6248,
      "Ġunforgettable": 6249,
      "bow": 6250,
      "eur": 6251,
      "gant": 6252,
      "nel": 6253,
      "som": 6254,
      "water": 6255,
      "erved": 6256,
      "Ġcul": 6257,
      "Ġfortunately": 6258,
      "ani": 6259,
      "Ġpear": 6260,
      "Ġpink": 6261,
      "Ġtad": 6262,
      "Ġtall": 6263,
      "Ġbare": 6264,
      "Ġbac": 6265,
      "iled": 6266,
      "Ġaired": 6267,
      "elve": 6268,
      "Ġstole": 6269,
      "Ġrome": 6270,
      "Ġrug": 6271,
      "Ġfilth": 6272,
      "Ġchop": 6273,
      "ulate": 6274,
      "Ġmas": 6275,
      "Ġbeing": 6276,
      "Ġmanager": 6277,
      "udo": 6278,
      "Ġperfection": 6279,
      "odile": 6280,
      "Ġpride": 6281,
      "Ġdisjointed": 6282,
      "Ġheat": 6283,
      "Ġfunction": 6284,
      "Ġfuneral": 6285,
      "Ġhorrific": 6286,
      "Ġ21": 6287,
      "Ġtraum": 6288,
      "Ġemma": 6289,
      "Ġresort": 6290,
      "Ġresident": 6291,
      "Ġsubsequ": 6292,
      "lied": 6293,
      "Ġelli": 6294,
      "Ġcraig": 6295,
      "Ġposse": 6296,
      "Ġdistribut": 6297,
      "Ġparad": 6298,
      "Ġcombat": 6299,
      "Ġduke": 6300,
      "oppy": 6301,
      "Ġwillis": 6302,
      "Ġcarrying": 6303,
      "Ġsensitive": 6304,
      "Ġignored": 6305,
      "Ġbasement": 6306,
      "Ġingred": 6307,
      "Ġwilson": 6308,
      "Ġrubber": 6309,
      "Ġsimplistic": 6310,
      "Ġwealthy": 6311,
      "Ġliberal": 6312,
      "Ġuncomfort": 6313,
      "Ġshoulder": 6314,
      "Ġelizabeth": 6315,
      "Ġatmospheric": 6316,
      "Ġcontroversial": 6317,
      "70": 6318,
      "bs": 6319,
      "book": 6320,
      "can": 6321,
      "hold": 6322,
      "hour": 6323,
      "high": 6324,
      "sl": 6325,
      "Ġq": 6326,
      "Ġovert": 6327,
      "Ġsib": 6328,
      "Ġsends": 6329,
      "Ġmam": 6330,
      "Ġfianc": 6331,
      "Ġpoverty": 6332,
      "stop": 6333,
      "lee": 6334,
      "Ġhan": 6335,
      "Ġhind": 6336,
      "Ġhank": 6337,
      "Ġnine": 6338,
      "Ġnude": 6339,
      "omic": 6340,
      "Ġstiff": 6341,
      "oting": 6342,
      "cho": 6343,
      "amous": 6344,
      "Ġchest": 6345,
      "Ġchilling": 6346,
      "ulated": 6347,
      "rier": 6348,
      "aser": 6349,
      "geon": 6350,
      "igan": 6351,
      "thew": 6352,
      "Ġarab": 6353,
      "Ġgrin": 6354,
      "Ġflower": 6355,
      "Ġhorrend": 6356,
      "mann": 6357,
      "Ġintent": 6358,
      "ups": 6359,
      "Ġsmoke": 6360,
      "Ġfriendly": 6361,
      "Ġrelated": 6362,
      "Ġsinister": 6363,
      "Ġglam": 6364,
      "Ġmurphy": 6365,
      "Ġpresum": 6366,
      "Ġengaged": 6367,
      "Ġsusan": 6368,
      "Ġconfusion": 6369,
      "Ġira": 6370,
      "Ġanna": 6371,
      "Ġmagaz": 6372,
      "Ġbroke": 6373,
      "Ġselfish": 6374,
      "rifice": 6375,
      "Ġtommy": 6376,
      "Ġfourth": 6377,
      "Ġgrandfather": 6378,
      "........": 6379,
      "Ġduo": 6380,
      "Ġattacked": 6381,
      "Ġmatthew": 6382,
      "Ġexecutive": 6383,
      "Ġintrigue": 6384,
      "Ġsplend": 6385,
      "Ġuniversity": 6386,
      "Ġinitially": 6387,
      "Ġrepeatedly": 6388,
      "Ġfonda": 6389,
      "Ġfifty": 6390,
      "Ġconspiracy": 6391,
      "Ġorchest": 6392,
      "Ġhudson": 6393,
      "Ġinstallment": 6394,
      "iere": 6395,
      "ket": 6396,
      "take": 6397,
      "yl": 6398,
      "Ġsize": 6399,
      "anim": 6400,
      "Ġtower": 6401,
      "Ġlad": 6402,
      "Ġbour": 6403,
      "Ġack": 6404,
      "Ġey": 6405,
      "ented": 6406,
      "Ġrum": 6407,
      "Ġsev": 6408,
      "raw": 6409,
      "Ġalbe": 6410,
      "aphor": 6411,
      "udos": 6412,
      "Ġshowcase": 6413,
      "Ġrochester": 6414,
      "Ġblank": 6415,
      "plic": 6416,
      "oster": 6417,
      "Ġtwelve": 6418,
      "Ġdrum": 6419,
      "angle": 6420,
      "Ġcrook": 6421,
      "Ġkeith": 6422,
      "Ġresist": 6423,
      "Ġsmooth": 6424,
      "Ġinspect": 6425,
      "Ġengage": 6426,
      "grade": 6427,
      "Ġsoci": 6428,
      "Ġbrilliance": 6429,
      "Ġsatan": 6430,
      "Ġmichelle": 6431,
      "Ġpassenger": 6432,
      "Ġadmitted": 6433,
      "Ġlarger": 6434,
      "Ġandre": 6435,
      "Ġmetaphor": 6436,
      "Ġcampbell": 6437,
      "Ġhype": 6438,
      "Ġcomplicated": 6439,
      "Ġdrawing": 6440,
      "Ġcalm": 6441,
      "Ġhomage": 6442,
      "Ġheavily": 6443,
      "Ġberg": 6444,
      "Ġphysically": 6445,
      "Ġessential": 6446,
      "Ġtender": 6447,
      "Ġraped": 6448,
      "Ġauthority": 6449,
      "Ġclosing": 6450,
      "Ġgrows": 6451,
      "Ġscarlet": 6452,
      "Ġleslie": 6453,
      "Ġdimension": 6454,
      "from": 6455,
      "Ġaltogether": 6456,
      "Ġemerge": 6457,
      "Ġsacrifice": 6458,
      "Ġcorpse": 6459,
      "Ġforty": 6460,
      "Ġchicago": 6461,
      "Ġprejudice": 6462,
      "Ġincoherent": 6463,
      "Ġmagazine": 6464,
      "Ġalbeit": 6465,
      "best": 6466,
      "sel": 6467,
      "tal": 6468,
      "vably": 6469,
      "wy": 6470,
      "wow": 6471,
      "Ġfed": 6472,
      "Ġtempt": 6473,
      "arm": 6474,
      "Ġbite": 6475,
      "Ġdal": 6476,
      "Ġape": 6477,
      "Ġhick": 6478,
      "Ġhust": 6479,
      "Ġhbo": 6480,
      "Ġhiding": 6481,
      "Ġnancy": 6482,
      "Ġrene": 6483,
      "Ġrig": 6484,
      "Ġripped": 6485,
      "Ġchip": 6486,
      "Ġdee": 6487,
      "roy": 6488,
      "Ġsuther": 6489,
      "Ġanal": 6490,
      "Ġprostitute": 6491,
      "aky": 6492,
      "Ġpeak": 6493,
      "Ġendearing": 6494,
      "Ġdisagree": 6495,
      "Ġarrog": 6496,
      "Ġaccess": 6497,
      "Ġdirectorial": 6498,
      "Ġpersona": 6499,
      "Ġindia": 6500,
      "Ġextent": 6501,
      "Ġsings": 6502,
      "Ġrestra": 6503,
      "Ġbrazil": 6504,
      "Ġridiculously": 6505,
      "Ġstrangely": 6506,
      "Ġfrankenstein": 6507,
      "Ġdestruction": 6508,
      "Ġrendition": 6509,
      "Ġtroubled": 6510,
      "Ġburning": 6511,
      "Ġmidnight": 6512,
      "Ġbutton": 6513,
      "Ġcomparing": 6514,
      "Ġalexander": 6515,
      "Ġ......": 6516,
      "Ġsplit": 6517,
      "Ġeastwood": 6518,
      "Ġsurrounded": 6519,
      "Ġmiy": 6520,
      "Ġashamed": 6521,
      "Ġmickey": 6522,
      "Ġcrocodile": 6523,
      "Ġimaginative": 6524,
      "Ġdictator": 6525,
      "Ġtrivial": 6526,
      "Ġeccentric": 6527,
      "Ġspielberg": 6528,
      "Ġspecifically": 6529,
      "Ġingredient": 6530,
      "Ġsutherland": 6531,
      "cingly": 6532,
      "fortunately": 6533,
      "hill": 6534,
      "iat": 6535,
      "ril": 6536,
      "sor": 6537,
      "uate": 6538,
      "erk": 6539,
      "Ġmath": 6540,
      "eni": 6541,
      "Ġfirm": 6542,
      "Ġwend": 6543,
      "stal": 6544,
      "Ġnod": 6545,
      "Ġthick": 6546,
      "Ġliking": 6547,
      "Ġalter": 6548,
      "Ġvoc": 6549,
      "Ġbeck": 6550,
      "Ġconnery": 6551,
      "Ġtrite": 6552,
      "Ġclock": 6553,
      "Ġarc": 6554,
      "Ġarn": 6555,
      "Ġslick": 6556,
      "Ġabc": 6557,
      "Ġabrupt": 6558,
      "Ġintensity": 6559,
      "Ġhappily": 6560,
      "Ġhandful": 6561,
      "Ġrobber": 6562,
      "Ġportion": 6563,
      "Ġdrivel": 6564,
      "unky": 6565,
      "Ġgodfather": 6566,
      "Ġthrilling": 6567,
      "Ġstaying": 6568,
      "Ġannoyed": 6569,
      "Ġreturned": 6570,
      "Ġairplane": 6571,
      "Ġoffering": 6572,
      "Ġpulling": 6573,
      "Ġpleasantly": 6574,
      "Ġflawless": 6575,
      "Ġprofession": 6576,
      "Ġfranco": 6577,
      "Ġluckily": 6578,
      "Ġconvention": 6579,
      "Ġrepresents": 6580,
      "Ġingen": 6581,
      "Ġwilder": 6582,
      "Ġhooked": 6583,
      "inderella": 6584,
      "Ġachievement": 6585,
      "Ġstinker": 6586,
      "Ġprincipal": 6587,
      "Ġtribute": 6588,
      "Ġunbear": 6589,
      "Ġtriumph": 6590,
      "Ġcaricature": 6591,
      "cie": 6592,
      "fin": 6593,
      "ho": 6594,
      "hal": 6595,
      "Ġsally": 6596,
      "Ġselling": 6597,
      "Ġmall": 6598,
      "onna": 6599,
      "Ġfoul": 6600,
      "Ġtoil": 6601,
      "oria": 6602,
      "Ġwra": 6603,
      "Ġdish": 6604,
      "Ġreed": 6605,
      "els": 6606,
      "eled": 6607,
      "Ġstaff": 6608,
      "isher": 6609,
      "Ġrushed": 6610,
      "ida": 6611,
      "Ġkitch": 6612,
      "iller": 6613,
      "Ġensu": 6614,
      "Ġpoison": 6615,
      "Ġupper": 6616,
      "Ġnotorious": 6617,
      "Ġattend": 6618,
      "Ġemily": 6619,
      "Ġapocaly": 6620,
      "Ġsmug": 6621,
      "Ġawe": 6622,
      "Ġenjoyment": 6623,
      "Ġthoughtful": 6624,
      "Ġboom": 6625,
      "Ġexplicit": 6626,
      "Ġunfair": 6627,
      "Ġrelevant": 6628,
      "Ġups": 6629,
      "Ġexceptional": 6630,
      "Ġdealt": 6631,
      "Ġphotographer": 6632,
      "Ġsamuel": 6633,
      "Ġnoble": 6634,
      "Ġbritain": 6635,
      "Ġsimilarity": 6636,
      "Ġstrip": 6637,
      "Ġillness": 6638,
      "Ġadapted": 6639,
      "Ġcuriosity": 6640,
      "Ġsymbolism": 6641,
      "Ġdubbing": 6642,
      "Ġdiscussion": 6643,
      "Ġcustom": 6644,
      "Ġernest": 6645,
      "Ġaforementioned": 6646,
      "bly": 6647,
      "ev": 6648,
      "found": 6649,
      "fia": 6650,
      "got": 6651,
      "ko": 6652,
      "nes": 6653,
      "Ġmummy": 6654,
      "oned": 6655,
      "Ġfist": 6656,
      "Ġfortune": 6657,
      "Ġtam": 6658,
      "Ġloo": 6659,
      "Ġbart": 6660,
      "Ġbib": 6661,
      "Ġdur": 6662,
      "omy": 6663,
      "eline": 6664,
      "chen": 6665,
      "change": 6666,
      "Ġseal": 6667,
      "Ġthread": 6668,
      "Ġka": 6669,
      "Ġkurt": 6670,
      "asingly": 6671,
      "antis": 6672,
      "anded": 6673,
      "Ġgoodness": 6674,
      "Ġcharacters": 6675,
      "never": 6676,
      "ocr": 6677,
      "Ġanyways": 6678,
      "Ġcontract": 6679,
      "ission": 6680,
      "Ġcarpent": 6681,
      "Ġgothic": 6682,
      "Ġinsist": 6683,
      "iculty": 6684,
      "Ġaged": 6685,
      "Ġglenn": 6686,
      "Ġtypically": 6687,
      "scent": 6688,
      "Ġrepuls": 6689,
      "Ġexpos": 6690,
      "Ġlacked": 6691,
      "Ġsidekick": 6692,
      "Ġdavy": 6693,
      "Ġsolution": 6694,
      "Ġnorman": 6695,
      "Ġexplaining": 6696,
      "Ġflawed": 6697,
      "Ġjuliet": 6698,
      "Ġcontinued": 6699,
      "Ġidentify": 6700,
      "Ġrecording": 6701,
      "Ġalexand": 6702,
      "Ġscarecrow": 6703,
      "Ġsearching": 6704,
      "Ġchicken": 6705,
      "Ġcompetent": 6706,
      "Ġoccurred": 6707,
      "Ġdestroyed": 6708,
      "Ġinventive": 6709,
      "Ġmutant": 6710,
      "Ġurge": 6711,
      "Ġdutch": 6712,
      "Ġowen": 6713,
      "Ġscratch": 6714,
      "Ġvulner": 6715,
      "Ġfrost": 6716,
      "Ġcatholic": 6717,
      "Ġolivier": 6718,
      "Ġruthless": 6719,
      "Ġdifficulty": 6720,
      "Ġhorrendous": 6721,
      "Ġseventy": 6722,
      "Ġkitchen": 6723,
      "Ġcarpenter": 6724,
      "60": 6725,
      "big": 6726,
      "kins": 6727,
      "last": 6728,
      "name": 6729,
      "uch": 6730,
      "uge": 6731,
      "va": 6732,
      "yc": 6733,
      "inate": 6734,
      "Ġsill": 6735,
      "Ġmun": 6736,
      "Ġcd": 6737,
      "Ġcia": 6738,
      "Ġpse": 6739,
      "Ġpushed": 6740,
      "Ġbark": 6741,
      "Ġdre": 6742,
      "Ġga": 6743,
      "Ġastr": 6744,
      "Ġeis": 6745,
      "Ġhog": 6746,
      "icing": 6747,
      "icle": 6748,
      "Ġinacc": 6749,
      "uloid": 6750,
      "Ġshed": 6751,
      "anted": 6752,
      "Ġconven": 6753,
      "Ġconrad": 6754,
      "Ġyou": 6755,
      "Ġyard": 6756,
      "Ġtimeless": 6757,
      "Ġclark": 6758,
      "Ġmeasure": 6759,
      "bergh": 6760,
      "Ġflo": 6761,
      "Ġguitar": 6762,
      "Ġslim": 6763,
      "Ġdropped": 6764,
      "Ġresur": 6765,
      "Ġasp": 6766,
      "Ġclassical": 6767,
      "Ġswing": 6768,
      "Ġabsor": 6769,
      "Ġsyd": 6770,
      "Ġ45": 6771,
      "Ġmorris": 6772,
      "Ġdiscus": 6773,
      "onym": 6774,
      "Ġmisunder": 6775,
      "Ġdevast": 6776,
      "Ġafford": 6777,
      "Ġmadness": 6778,
      "Ġfuturistic": 6779,
      "Ġdetailed": 6780,
      "Ġsurvival": 6781,
      "Ġsexuality": 6782,
      "Ġweakness": 6783,
      "weight": 6784,
      "Ġjumping": 6785,
      "Ġconcerning": 6786,
      "Ġporno": 6787,
      "Ġsubtlety": 6788,
      "Ġlabor": 6789,
      "Ġachieved": 6790,
      "Ġdigital": 6791,
      "Ġchuckle": 6792,
      "Ġremaining": 6793,
      "Ġvictoria": 6794,
      "Ġtranslation": 6795,
      "Ġpossessed": 6796,
      "Ġmarvelous": 6797,
      "Ġpulp": 6798,
      "Ġjoseph": 6799,
      "Ġdynamic": 6800,
      "Ġimmensely": 6801,
      "opsis": 6802,
      "Ġgiallo": 6803,
      "Ġgriffith": 6804,
      "Ġbergman": 6805,
      "Ġmiyaz": 6806,
      "far": 6807,
      "psy": 6808,
      "Ã¡": 6809,
      "erior": 6810,
      "rell": 6811,
      "Ġcig": 6812,
      "Ġcure": 6813,
      "Ġcinderella": 6814,
      "onse": 6815,
      "Ġfitting": 6816,
      "Ġpad": 6817,
      "Ġpill": 6818,
      "Ġtab": 6819,
      "Ġtoss": 6820,
      "Ġlying": 6821,
      "Ġwet": 6822,
      "Ġwack": 6823,
      "Ġwes": 6824,
      "Ġbam": 6825,
      "Ġbak": 6826,
      "Ġbless": 6827,
      "Ġgap": 6828,
      "Ġholl": 6829,
      "Ġreyn": 6830,
      "Ġrot": 6831,
      "Ġramp": 6832,
      "Ġselect": 6833,
      "rait": 6834,
      "race": 6835,
      "Ġalle": 6836,
      "Ġbeating": 6837,
      "Ġanch": 6838,
      "Ġconve": 6839,
      "Ġmann": 6840,
      "Ġprecious": 6841,
      "Ġspike": 6842,
      "Ġquarter": 6843,
      "place": 6844,
      "Ġfaced": 6845,
      "Ġheist": 6846,
      "Ġnotion": 6847,
      "Ġtea": 6848,
      "Ġhorrid": 6849,
      "Ġnewsp": 6850,
      "Ġempath": 6851,
      "Ġcompos": 6852,
      "ifying": 6853,
      "Ġstaring": 6854,
      "Ġsmoking": 6855,
      "Ġcarefully": 6856,
      "Ġinstinct": 6857,
      "Ġinvite": 6858,
      "Ġaudio": 6859,
      "Ġacclaim": 6860,
      "Ġmissile": 6861,
      "Ġsteam": 6862,
      "ucky": 6863,
      "Ġportrait": 6864,
      "Ġcox": 6865,
      "Ġharr": 6866,
      "Ġbehave": 6867,
      "Ġmoron": 6868,
      "Ġfailing": 6869,
      "Ġdevelops": 6870,
      "Ġdevoted": 6871,
      "Ġ2003": 6872,
      "Ġpsychopath": 6873,
      "Ġtechnically": 6874,
      "Ġopposed": 6875,
      "Ġgrandmother": 6876,
      "Ġsecretary": 6877,
      "Ġrevealing": 6878,
      "Ġvega": 6879,
      "Ġrecognized": 6880,
      "Ġtortured": 6881,
      "Ġessence": 6882,
      "Ġambitious": 6883,
      "Ġbriefly": 6884,
      "Ġfoxx": 6885,
      "gener": 6886,
      "Ġmontg": 6887,
      "Ġexploit": 6888,
      "Ġargument": 6889,
      "Ġbobby": 6890,
      "Ġstanwy": 6891,
      "Ġmelodramatic": 6892,
      "Ġneighborhood": 6893,
      "Ġcruise": 6894,
      "minute": 6895,
      "Ġbelongs": 6896,
      "Ġincreasingly": 6897,
      "remember": 6898,
      "Ġresolution": 6899,
      "Ġcharismatic": 6900,
      "Ġkennedy": 6901,
      "Ġalbum": 6902,
      "Ġsibling": 6903,
      "Ġnewspaper": 6904,
      "hou": 6905,
      "mel": 6906,
      "nic": 6907,
      "site": 6908,
      "vous": 6909,
      "wer": 6910,
      "zzy": 6911,
      "Ġum": 6912,
      "Ġsale": 6913,
      "Ġcole": 6914,
      "eng": 6915,
      "Ġfade": 6916,
      "Ġtap": 6917,
      "Ġtool": 6918,
      "Ġtiger": 6919,
      "Ġbin": 6920,
      "Ġbollywood": 6921,
      "Ġdud": 6922,
      "Ġgor": 6923,
      "Ġecon": 6924,
      "Ġhence": 6925,
      "Ġhob": 6926,
      "Ġhmm": 6927,
      "Ġnem": 6928,
      "Ġnap": 6929,
      "Ġstro": 6930,
      "Ġstair": 6931,
      "etically": 6932,
      "oln": 6933,
      "ulg": 6934,
      "Ġdear": 6935,
      "Ġvicious": 6936,
      "eller": 6937,
      "Ġplausible": 6938,
      "acted": 6939,
      "Ġoil": 6940,
      "istan": 6941,
      "Ġperpet": 6942,
      "Ġclar": 6943,
      "Ġblend": 6944,
      "Ġblah": 6945,
      "Ġamy": 6946,
      "attan": 6947,
      "Ġlifestyle": 6948,
      "Ġincons": 6949,
      "Ġmarine": 6950,
      "Ġbuster": 6951,
      "Ġletting": 6952,
      "Ġchildish": 6953,
      "Ġouting": 6954,
      "Ġdefense": 6955,
      "Ġfinan": 6956,
      "ahl": 6957,
      "Ġwasting": 6958,
      "Ġsilence": 6959,
      "Ġattempted": 6960,
      "Ġdefinite": 6961,
      "Ġimagined": 6962,
      "ructed": 6963,
      "Ġhunting": 6964,
      "Ġmotif": 6965,
      "Ġresponse": 6966,
      "Ġgripping": 6967,
      "Ġintrigued": 6968,
      "Ġservant": 6969,
      "Ġloosely": 6970,
      "Ġicon": 6971,
      "maybe": 6972,
      "Ġcameron": 6973,
      "Ġconcentrate": 6974,
      "Ġinvolvement": 6975,
      "Ġinexplic": 6976,
      "Ġmarshall": 6977,
      "Ġoverlooked": 6978,
      "Ġhysterical": 6979,
      "Ġnomination": 6980,
      "Ġelderly": 6981,
      "Ġastonishing": 6982,
      "Ġuncomfortable": 6983,
      "Ġinspector": 6984,
      "Ġarnold": 6985,
      "Ġmontgom": 6986,
      "bid": 6987,
      "bird": 6988,
      "bins": 6989,
      "could": 6990,
      "gun": 6991,
      "gger": 6992,
      "hem": 6993,
      "mail": 6994,
      "oir": 6995,
      "rd": 6996,
      "vi": 6997,
      "west": 6998,
      "Ġath": 6999,
      "Ġsull": 7000,
      "Ġsque": 7001,
      "Ġsaint": 7002,
      "Ġtorm": 7003,
      "ora": 7004,
      "Ġlinc": 7005,
      "Ġbold": 7006,
      "still": 7007,
      "Ġdawn": 7008,
      "Ġgib": 7009,
      "leton": 7010,
      "Ġhes": 7011,
      "Ġhav": 7012,
      "Ġstella": 7013,
      "child": 7014,
      "ssie": 7015,
      "very": 7016,
      "Ġinfect": 7017,
      "ulk": 7018,
      "Ġactivity": 7019,
      "...": 7020,
      "Ġenorm": 7021,
      "Ġensem": 7022,
      "Ġspoke": 7023,
      "ciating": 7024,
      "Ġdisease": 7025,
      "Ġhep": 7026,
      "comedy": 7027,
      "Ġsail": 7028,
      "type": 7029,
      "Ġorient": 7030,
      "izable": 7031,
      "Ġdecl": 7032,
      "Ġbub": 7033,
      "Ġbitch": 7034,
      "Ġreasonable": 7035,
      "Ġoutcome": 7036,
      "Ġextended": 7037,
      "obi": 7038,
      "obal": 7039,
      "emption": 7040,
      "Ġassault": 7041,
      "Ġsadd": 7042,
      "Ġsadistic": 7043,
      "Ġpaci": 7044,
      "Ġpopulation": 7045,
      "Ġadmire": 7046,
      "Ġtodd": 7047,
      "Ġinfamous": 7048,
      "Ġrocky": 7049,
      "Ġpsychiat": 7050,
      "Ġimportantly": 7051,
      "Ġcontroll": 7052,
      "Ġdestiny": 7053,
      "Ġmerc": 7054,
      "Ġhoped": 7055,
      "Ġacceptable": 7056,
      "Ġinspiring": 7057,
      "Ġburst": 7058,
      "Ġattracted": 7059,
      "Ġpassionate": 7060,
      "Ġcelluloid": 7061,
      "uracy": 7062,
      "related": 7063,
      "Ġbonus": 7064,
      "Ġsynopsis": 7065,
      "Ġstanley": 7066,
      "Ġnerd": 7067,
      "Ġaccomplished": 7068,
      "Ġgypsy": 7069,
      "Ġcomfortable": 7070,
      "Ġlyric": 7071,
      "Ġmiserably": 7072,
      "minded": 7073,
      "Ġemphasis": 7074,
      "Ġtremendous": 7075,
      "Ġrepetitive": 7076,
      "Ġinnovative": 7077,
      "Ġadequate": 7078,
      "Ġsupreme": 7079,
      "Ġmansion": 7080,
      "Ġsophisticated": 7081,
      "Ġpearl": 7082,
      "Ġtoilet": 7083,
      "Ġmiyazaki": 7084,
      "Ġreynolds": 7085,
      "Ġstanwyck": 7086,
      "Ġmontgomery": 7087,
      "Ġlincoln": 7088,
      "Ġensemble": 7089,
      "'d": 7090,
      "bott": 7091,
      "based": 7092,
      "dis": 7093,
      "pin": 7094,
      "pite": 7095,
      "sa": 7096,
      "sper": 7097,
      "wing": 7098,
      "erv": 7099,
      "Ġcried": 7100,
      "Ġtank": 7101,
      "orse": 7102,
      "Ġlind": 7103,
      "oubt": 7104,
      "ilted": 7105,
      "Ġeerie": 7106,
      "Ġrebel": 7107,
      "ione": 7108,
      "Ġrail": 7109,
      "unfortunately": 7110,
      "Ġthug": 7111,
      "Ġchor": 7112,
      "Ġinher": 7113,
      "than": 7114,
      "Ġshirt": 7115,
      "Ġalfred": 7116,
      "Ġvice": 7117,
      "utes": 7118,
      "Ġdiam": 7119,
      "Ġtrade": 7120,
      "Ġtroop": 7121,
      "ption": 7122,
      "Ġrealise": 7123,
      "assion": 7124,
      "ipment": 7125,
      "Ġattached": 7126,
      "Ġabys": 7127,
      "awa": 7128,
      "Ġenjoying": 7129,
      "aneously": 7130,
      "Ġcared": 7131,
      "Ġscripted": 7132,
      "Ġversus": 7133,
      "Ġearl": 7134,
      "Ġallowing": 7135,
      "umbled": 7136,
      "Ġmyst": 7137,
      "Ġgrasp": 7138,
      "Ġeasier": 7139,
      "ruciating": 7140,
      "Ġdemise": 7141,
      "Ġtourist": 7142,
      "Ġmisle": 7143,
      "Ġsuspicious": 7144,
      "Ġwoody": 7145,
      "Ġescap": 7146,
      "Ġescaped": 7147,
      "Ġchecking": 7148,
      "Ġhyper": 7149,
      "Ġodds": 7150,
      "develop": 7151,
      "Ġclaire": 7152,
      "Ġconnected": 7153,
      "Ġlucy": 7154,
      "Ġrespond": 7155,
      "Ġsixty": 7156,
      "Ġrequires": 7157,
      "Ġconsistently": 7158,
      "Ġreached": 7159,
      "Ġcollabor": 7160,
      "Ġconclud": 7161,
      "Ġbullock": 7162,
      "Ġbathroom": 7163,
      "worthy": 7164,
      "Ġcounterpart": 7165,
      "Ġphotographed": 7166,
      "Ġobscure": 7167,
      "Ġcrisis": 7168,
      "Ġestablished": 7169,
      "despite": 7170,
      "Ġdentist": 7171,
      "Ġpoignant": 7172,
      "somet": 7173,
      "bod": 7174,
      "dan": 7175,
      "faced": 7176,
      "hetic": 7177,
      "happy": 7178,
      "rr": 7179,
      "would": 7180,
      "Ġ=": 7181,
      "Ġcue": 7182,
      "Ġfog": 7183,
      "Ġtail": 7184,
      "Ġtaught": 7185,
      "Ġwong": 7186,
      "Ġgest": 7187,
      "itate": 7188,
      "Ġreef": 7189,
      "Ġstaged": 7190,
      "ssa": 7191,
      "ssey": 7192,
      "opter": 7193,
      "Ġshaw": 7194,
      "ounced": 7195,
      "Ġunple": 7196,
      "Ġunwatch": 7197,
      "Ġange": 7198,
      "Ġleigh": 7199,
      "Ġmuse": 7200,
      "Ġprecise": 7201,
      "Ġprequel": 7202,
      "Ġpron": 7203,
      "Ġadole": 7204,
      "Ġbelle": 7205,
      "Ġcompreh": 7206,
      "Ġmarie": 7207,
      "Ġelabor": 7208,
      "Ġinsert": 7209,
      "Ġmonologue": 7210,
      "Ġoutd": 7211,
      "Ġaccused": 7212,
      "Ġpolitically": 7213,
      "Ġoffended": 7214,
      "Ġredemption": 7215,
      "Ġdoug": 7216,
      "Ġhuh": 7217,
      "guin": 7218,
      "Ġsuccessfully": 7219,
      "ysis": 7220,
      "Ġlaunch": 7221,
      "Ġsleaze": 7222,
      "Ġpicking": 7223,
      "spoil": 7224,
      "Ġjamie": 7225,
      "Ġmarty": 7226,
      "Ġequipment": 7227,
      "Ġcomplain": 7228,
      "Ġultra": 7229,
      "Ġmistaken": 7230,
      "Ġsuperbly": 7231,
      "Ġcircus": 7232,
      "Ġfulf": 7233,
      "Ġangela": 7234,
      "Ġimproved": 7235,
      "Ġdeliber": 7236,
      "Ġsquad": 7237,
      "Ġsplatter": 7238,
      "Ġiii": 7239,
      "Ġtonight": 7240,
      "worst": 7241,
      "Ġthreatening": 7242,
      "Ġresponsibility": 7243,
      "Ġinvestigation": 7244,
      "Ġeighty": 7245,
      "Ġfrustrated": 7246,
      "Ġpolitician": 7247,
      "Ġbrando": 7248,
      "Ġegg": 7249,
      "Ġyellow": 7250,
      "through": 7251,
      "Ġreunion": 7252,
      "Ġexaggerated": 7253,
      "function": 7254,
      "Ġhepburn": 7255,
      "'.": 7256,
      "foot": 7257,
      "hr": 7258,
      "iber": 7259,
      "ji": 7260,
      "jay": 7261,
      "lv": 7262,
      "mn": 7263,
      "mouth": 7264,
      "obe": 7265,
      "pre": 7266,
      "put": 7267,
      "rument": 7268,
      "video": 7269,
      "Ġmes": 7270,
      "Ġmtv": 7271,
      "Ġcus": 7272,
      "Ġlin": 7273,
      "Ġlinda": 7274,
      "Ġwore": 7275,
      "Ġbunny": 7276,
      "Ġdill": 7277,
      "Ġdarn": 7278,
      "Ġdys": 7279,
      "Ġhug": 7280,
      "Ġhollow": 7281,
      "Ġhabit": 7282,
      "Ġnel": 7283,
      "ics": 7284,
      "icopter": 7285,
      "Ġstir": 7286,
      "ioni": 7287,
      "imer": 7288,
      "Ġfilms": 7289,
      "idal": 7290,
      "Ġkirk": 7291,
      "Ġshining": 7292,
      "ellar": 7293,
      "enda": 7294,
      "Ġdiane": 7295,
      "Ġleap": 7296,
      "Ġyelling": 7297,
      "atched": 7298,
      "Ġendure": 7299,
      "Ġdiss": 7300,
      "Ġflop": 7301,
      "Ġgust": 7302,
      "Ġyears": 7303,
      "Ġdrown": 7304,
      "avoid": 7305,
      "Ġincl": 7306,
      "Ġcarrad": 7307,
      "Ġpointed": 7308,
      "Ġcheated": 7309,
      "Ġexcruciating": 7310,
      "Ġhelicopter": 7311,
      "ubrick": 7312,
      "Ġinstrument": 7313,
      "cessor": 7314,
      "Ġswear": 7315,
      "Ġboris": 7316,
      "Ġglobal": 7317,
      "ucker": 7318,
      "mean": 7319,
      "Ġitem": 7320,
      "Ġcommented": 7321,
      "Ġretro": 7322,
      "Ġdistance": 7323,
      "Ġmyers": 7324,
      "exc": 7325,
      "Ġgeek": 7326,
      "Ġdevoid": 7327,
      "Ġplanning": 7328,
      "Ġimmig": 7329,
      "Ġstreep": 7330,
      "Ġmadonna": 7331,
      "Ġpotentially": 7332,
      "Ġdragged": 7333,
      "Ġcommunist": 7334,
      "Ġscientific": 7335,
      "Ġunbelievably": 7336,
      "Ġarrive": 7337,
      "Ġdignity": 7338,
      "Ġpacked": 7339,
      "Ġcandid": 7340,
      "Ġcardboard": 7341,
      "Ġstevens": 7342,
      "Ġvolume": 7343,
      "Ġunintentional": 7344,
      "Ġsolely": 7345,
      "Ġdistracting": 7346,
      "Ġnicholson": 7347,
      "Ġdefeat": 7348,
      "Ġisolated": 7349,
      "Ġwatson": 7350,
      "Ġangeles": 7351,
      "agh": 7352,
      "ecessor": 7353,
      "fast": 7354,
      "master": 7355,
      "pa": 7356,
      "tz": 7357,
      "title": 7358,
      "Ġian": 7359,
      "rec": 7360,
      "Ġfay": 7361,
      "Ġfoster": 7362,
      "Ġpound": 7363,
      "Ġtople": 7364,
      "arian": 7365,
      "oric": 7366,
      "Ġlav": 7367,
      "ata": 7368,
      "ouch": 7369,
      "Ġease": 7370,
      "Ġnar": 7371,
      "icity": 7372,
      "oma": 7373,
      "Ġstall": 7374,
      "Ġstake": 7375,
      "Ġstress": 7376,
      "Ġstabb": 7377,
      "Ġstumble": 7378,
      "otte": 7379,
      "aman": 7380,
      "Ġinapp": 7381,
      "Ġinject": 7382,
      "ulf": 7383,
      "Ġker": 7384,
      "Ġkaz": 7385,
      "Ġmast": 7386,
      "Ġmafia": 7387,
      "Ġexotic": 7388,
      "Ġworried": 7389,
      "derbergh": 7390,
      "estic": 7391,
      "Ġpole": 7392,
      "Ġspare": 7393,
      "Ġimitation": 7394,
      "Ġprank": 7395,
      "erty": 7396,
      "shine": 7397,
      "izard": 7398,
      "Ġslip": 7399,
      "oses": 7400,
      "phan": 7401,
      "ensible": 7402,
      "aware": 7403,
      "awful": 7404,
      "Ġhumili": 7405,
      "Ġgeneric": 7406,
      "Ġresource": 7407,
      "Ġmartha": 7408,
      "erek": 7409,
      "Ġbelieving": 7410,
      "Ġphrase": 7411,
      "white": 7412,
      "Ġglorious": 7413,
      "Ġsuperfic": 7414,
      "Ġshortly": 7415,
      "Ġcoast": 7416,
      "Ġcreativity": 7417,
      "Ġelegant": 7418,
      "Ġharvey": 7419,
      "Ġuseful": 7420,
      "Ġalongside": 7421,
      "Ġjackass": 7422,
      "Ġvalley": 7423,
      "Ġmemor": 7424,
      "Ġpredecessor": 7425,
      "Ġpatric": 7426,
      "Ġ2007": 7427,
      "Ġhilariously": 7428,
      "Ġbabe": 7429,
      "oebe": 7430,
      "Ġvirus": 7431,
      "Ġsuggested": 7432,
      "Ġslightest": 7433,
      "Ġdesigner": 7434,
      "Ġrecognition": 7435,
      "Ġluci": 7436,
      "Ġbeaten": 7437,
      "Ġausten": 7438,
      "Ġpenguin": 7439,
      "Ġlogical": 7440,
      "Ġdepicting": 7441,
      "Ġbaseball": 7442,
      "Ġchapter": 7443,
      "Ġdepressed": 7444,
      "Ġinsulting": 7445,
      "Ġfalk": 7446,
      "Ġprimarily": 7447,
      "Ġaimed": 7448,
      "Ġphilosophy": 7449,
      "Ġnavy": 7450,
      "Ġsurfing": 7451,
      "Ġforbidden": 7452,
      "Ġlemmon": 7453,
      "Ġspooky": 7454,
      "Ġwrapped": 7455,
      "Ġpseudo": 7456,
      "developed": 7457,
      "Ġunpleasant": 7458,
      "Ġtopless": 7459,
      "car": 7460,
      "fly": 7461,
      "fact": 7462,
      "hile": 7463,
      "lical": 7464,
      "met": 7465,
      "word": 7466,
      "Ġ]": 7467,
      "Ġ_": 7468,
      "Ġille": 7469,
      "Ġmck": 7470,
      "Ġmish": 7471,
      "Ġcoc": 7472,
      "ingu": 7473,
      "Ġfought": 7474,
      "Ġfried": 7475,
      "Ġpushing": 7476,
      "Ġtip": 7477,
      "Ġtang": 7478,
      "orous": 7479,
      "Ġbach": 7480,
      "Ġbaker": 7481,
      "Ġego": 7482,
      "icism": 7483,
      "Ġstu": 7484,
      "Ġthrew": 7485,
      "ami": 7486,
      "Ġcham": 7487,
      "Ġchronic": 7488,
      "Ġlift": 7489,
      "opa": 7490,
      "people": 7491,
      "Ġbew": 7492,
      "Ġunit": 7493,
      "Ġdiab": 7494,
      "Ġconqu": 7495,
      "acked": 7496,
      "Ġmaniac": 7497,
      "Ġclosed": 7498,
      "cience": 7499,
      "icking": 7500,
      "Ġquinn": 7501,
      "ocative": 7502,
      "peror": 7503,
      "Ġorphan": 7504,
      "Ġbeth": 7505,
      "Ġ22": 7506,
      "Ġmayor": 7507,
      "Ġminus": 7508,
      "Ġawa": 7509,
      "Ġawhile": 7510,
      "Ġkidding": 7511,
      "Ġrecre": 7512,
      "Ġrecon": 7513,
      "Ġrecyc": 7514,
      "Ġappalling": 7515,
      "entionally": 7516,
      "why": 7517,
      "Ġoutfit": 7518,
      "Ġglory": 7519,
      "Ġsoderbergh": 7520,
      "Ġexposed": 7521,
      "Ġmasterful": 7522,
      "Ġstronger": 7523,
      "Ġcolleague": 7524,
      "Ġpsychotic": 7525,
      "Ġpromin": 7526,
      "Ġcinematographer": 7527,
      "Ġpremiere": 7528,
      "ribute": 7529,
      "Ġconvincingly": 7530,
      "Ġ1982": 7531,
      "Ġsweep": 7532,
      "Ġdiscovery": 7533,
      "Ġrespected": 7534,
      "Ġdamon": 7535,
      "Ġjustify": 7536,
      "Ġscenes": 7537,
      "Ġdisturbed": 7538,
      "Ġrecorded": 7539,
      "Ġestate": 7540,
      "Ġconvol": 7541,
      "Ġambition": 7542,
      "Ġdepicts": 7543,
      "Ġbottle": 7544,
      "Ġcloset": 7545,
      "Ġpackage": 7546,
      "Ġchallenging": 7547,
      "Ġoccurs": 7548,
      "Ġcurrently": 7549,
      "Ġresemblance": 7550,
      "Ġcanada": 7551,
      "Ġunintentionally": 7552,
      "Ġchoreography": 7553,
      "Ġtransformation": 7554,
      "Ġwrestling": 7555,
      "Ġassociated": 7556,
      "ythm": 7557,
      "Ġswedish": 7558,
      "Ġclumsy": 7559,
      "Ġincompetent": 7560,
      "Ġsplendid": 7561,
      "Ġbourne": 7562,
      "Ġscarlett": 7563,
      "Ġadolescent": 7564,
      "Ġcarradine": 7565,
      "bon": 7566,
      "bal": 7567,
      "beth": 7568,
      "cul": 7569,
      "corn": 7570,
      "fan": 7571,
      "hop": 7572,
      "kel": 7573,
      "lon": 7574,
      "loved": 7575,
      "paced": 7576,
      "vo": 7577,
      "wright": 7578,
      "Ġally": 7579,
      "Ġsway": 7580,
      "alie": 7581,
      "Ġtob": 7582,
      "eday": 7583,
      "orc": 7584,
      "Ġwizard": 7585,
      "Ġboun": 7586,
      "atisf": 7587,
      "Ġderek": 7588,
      "ilarly": 7589,
      "Ġrein": 7590,
      "Ġreact": 7591,
      "Ġstood": 7592,
      "Ġstare": 7593,
      "Ġstilted": 7594,
      "isand": 7595,
      "Ġrage": 7596,
      "Ġrude": 7597,
      "Ġrita": 7598,
      "Ġkyle": 7599,
      "Ġkhan": 7600,
      "Ġkubrick": 7601,
      "cket": 7602,
      "Ġsho": 7603,
      "Ġshir": 7604,
      "Ġalike": 7605,
      "asion": 7606,
      "Ġneo": 7607,
      "Ġmanh": 7608,
      "Ġtimes": 7609,
      "Ġenlight": 7610,
      "Ġprepar": 7611,
      "Ġpoetic": 7612,
      "Ġblur": 7613,
      "plo": 7614,
      "redict": 7615,
      "Ġamanda": 7616,
      "overed": 7617,
      "Ġflag": 7618,
      "Ġenters": 7619,
      "Ġtracy": 7620,
      "ifi": 7621,
      "versity": 7622,
      "Ġproducing": 7623,
      "Ġharder": 7624,
      "Ġphoebe": 7625,
      "ublic": 7626,
      "Ġboast": 7627,
      "Ġ35": 7628,
      "Ġworthless": 7629,
      "Ġabsence": 7630,
      "ographic": 7631,
      "rett": 7632,
      "Ġappearing": 7633,
      "Ġproviding": 7634,
      "Ġdarker": 7635,
      "Ġpainter": 7636,
      "Ġisab": 7637,
      "Ġlisted": 7638,
      "Ġtransition": 7639,
      "Ġcarter": 7640,
      "Ġprompt": 7641,
      "Ġreturning": 7642,
      "respect": 7643,
      "swe": 7644,
      "Ġdamage": 7645,
      "ifting": 7646,
      "warming": 7647,
      "Ġsarc": 7648,
      "Ġinfluenced": 7649,
      "Ġprepare": 7650,
      "Ġsurrounding": 7651,
      "Ġeaten": 7652,
      "Ġwitnessed": 7653,
      "Ġcasual": 7654,
      "Ġnerve": 7655,
      "Ġbleak": 7656,
      "Ġaccomplish": 7657,
      "Ġbeneath": 7658,
      "Ġantonioni": 7659,
      "Ġconfrontation": 7660,
      "Ġprinciple": 7661,
      "Ġpitiful": 7662,
      "Ġcurtis": 7663,
      "Ġguarantee": 7664,
      "Ġdivorce": 7665,
      "Ġegyptian": 7666,
      "Ġchaos": 7667,
      "Ġjealous": 7668,
      "Ġjournalist": 7669,
      "Ġfelix": 7670,
      "Ġscheme": 7671,
      "Ġiraq": 7672,
      "Ġastron": 7673,
      "Ġchorus": 7674,
      "Ġunwatchable": 7675,
      "bach": 7676,
      "ih": 7677,
      "kish": 7678,
      "nell": 7679,
      "och": 7680,
      "ps": 7681,
      "riel": 7682,
      "sman": 7683,
      "uity": 7684,
      "wind": 7685,
      "Ġought": 7686,
      "ince": 7687,
      "enjoy": 7688,
      "Ġfx": 7689,
      "Ġpale": 7690,
      "Ġtent": 7691,
      "org": 7692,
      "Ġlur": 7693,
      "stage": 7694,
      "Ġaster": 7695,
      "Ġhain": 7696,
      "Ġhag": 7697,
      "Ġstated": 7698,
      "Ġroth": 7699,
      "Ġsem": 7700,
      "sect": 7701,
      "Ġkudos": 7702,
      "rael": 7703,
      "Ġjet": 7704,
      "Ġjig": 7705,
      "Ġjazz": 7706,
      "Ġmaid": 7707,
      "Ġscope": 7708,
      "Ġexchange": 7709,
      "robe": 7710,
      "Ġbefriend": 7711,
      "ousing": 7712,
      "istically": 7713,
      "ogical": 7714,
      "Ġclay": 7715,
      "Ġcloud": 7716,
      "Ġimperson": 7717,
      "akest": 7718,
      "Ġuh": 7719,
      "pless": 7720,
      "aux": 7721,
      "Ġarist": 7722,
      "Ġcausing": 7723,
      "Ġabout": 7724,
      "Ġsimilarly": 7725,
      "Ġintim": 7726,
      "Ġemperor": 7727,
      "Ġsurpass": 7728,
      "Ġmarch": 7729,
      "Ġmario": 7730,
      "Ġburied": 7731,
      "Ġphant": 7732,
      "Ġedgar": 7733,
      "Ġaddress": 7734,
      "Ġdepend": 7735,
      "Ġhousehold": 7736,
      "Ġharold": 7737,
      "Ġdetract": 7738,
      "Ġdeveloping": 7739,
      "Ġstreisand": 7740,
      "Ġspacey": 7741,
      "ipper": 7742,
      "Ġcampa": 7743,
      "brow": 7744,
      "Ġ1972": 7745,
      "Ġdelivering": 7746,
      "Ġhamilton": 7747,
      "Ġtimon": 7748,
      "Ġdaring": 7749,
      "Ġstatue": 7750,
      "Ġphysic": 7751,
      "Ġconsistent": 7752,
      "Ġsquare": 7753,
      "Ġdisplayed": 7754,
      "Ġpanic": 7755,
      "Ġprogramme": 7756,
      "Ġbiography": 7757,
      "Ġsatisfied": 7758,
      "Ġjewel": 7759,
      "Ġvenice": 7760,
      "two": 7761,
      "Ġfrustration": 7762,
      "Ġpressure": 7763,
      "fighter": 7764,
      "Ġlucas": 7765,
      "Ġphilosophical": 7766,
      "Ġcharisma": 7767,
      "Ġmaintain": 7768,
      "Ġborrowed": 7769,
      "Ġcharlotte": 7770,
      "Ġresembles": 7771,
      "Ġpiper": 7772,
      "Ġireland": 7773,
      "Ġmodesty": 7774,
      "Ġreduced": 7775,
      "Ġblatant": 7776,
      "Ġstrictly": 7777,
      "Ġvocal": 7778,
      "Ġensues": 7779,
      "Ġdiamond": 7780,
      "Ġabysmal": 7781,
      "30": 7782,
      "bast": 7783,
      "gement": 7784,
      "iant": 7785,
      "iour": 7786,
      "rim": 7787,
      "run": 7788,
      "Ġsore": 7789,
      "Ġmum": 7790,
      "Ġcri": 7791,
      "Ġfid": 7792,
      "Ġfren": 7793,
      "Ġpom": 7794,
      "Ġpam": 7795,
      "Ġponder": 7796,
      "Ġpatter": 7797,
      "Ġpony": 7798,
      "Ġwire": 7799,
      "Ġwont": 7800,
      "Ġgand": 7801,
      "Ġgable": 7802,
      "Ġgear": 7803,
      "ieu": 7804,
      "Ġstead": 7805,
      "othing": 7806,
      "isy": 7807,
      "Ġrook": 7808,
      "Ġrust": 7809,
      "ssy": 7810,
      "olate": 7811,
      "idy": 7812,
      "Ġincest": 7813,
      "rah": 7814,
      "Ġjen": 7815,
      "Ġjake": 7816,
      "Ġvib": 7817,
      "Ġplight": 7818,
      "Ġneil": 7819,
      "Ġuneven": 7820,
      "Ġunoriginal": 7821,
      "Ġclo": 7822,
      "Ġspade": 7823,
      "Ġsomeday": 7824,
      "pled": 7825,
      "Ġsafet": 7826,
      "shi": 7827,
      "ivan": 7828,
      "Ġtalked": 7829,
      "Ġsimult": 7830,
      "Ġcarr": 7831,
      "Ġedie": 7832,
      "Ġedgy": 7833,
      "Ġesp": 7834,
      "Ġfanatic": 7835,
      "Ġbasket": 7836,
      "Ġmonty": 7837,
      "Ġindiffer": 7838,
      "Ġschlock": 7839,
      "Ġgifted": 7840,
      "Ġsteel": 7841,
      "attered": 7842,
      "Ġmenacing": 7843,
      "Ġrepublic": 7844,
      "Ġharlow": 7845,
      "Ġadvise": 7846,
      "Ġpopcorn": 7847,
      "Ġpatience": 7848,
      "Ġsolve": 7849,
      "Ġordered": 7850,
      "Ġhyde": 7851,
      "Ġstraightforward": 7852,
      "Ġfaster": 7853,
      "Ġnearby": 7854,
      "Ġexisted": 7855,
      "Ġtimothy": 7856,
      "Ġcompliment": 7857,
      "etti": 7858,
      "rama": 7859,
      "Ġdownhill": 7860,
      "Ġexpressed": 7861,
      "Ġeuropa": 7862,
      "Ġwildly": 7863,
      "Ġprize": 7864,
      "Ġbutler": 7865,
      "Ġrandy": 7866,
      "Ġkicked": 7867,
      "Ġtendency": 7868,
      "Ġgrip": 7869,
      "Ġastaire": 7870,
      "Ġbully": 7871,
      "urai": 7872,
      "Ġjuven": 7873,
      "Ġprimitive": 7874,
      "Ġclueless": 7875,
      "thermore": 7876,
      "Ġrhythm": 7877,
      "Ġunderstated": 7878,
      "Ġcarlos": 7879,
      "Ġhatred": 7880,
      "Ġgradually": 7881,
      "Ġeducational": 7882,
      "Ġwebsite": 7883,
      "Ġmuppets": 7884,
      "Ġdoomed": 7885,
      "Ġcaptivating": 7886,
      "Ġpoliceman": 7887,
      "Ġdedicated": 7888,
      "Ġbaldwin": 7889,
      "quisite": 7890,
      "ophobic": 7891,
      "Ġadmittedly": 7892,
      "Ġdalton": 7893,
      "Ġarrogant": 7894,
      "Ġbiblical": 7895,
      "Ġcomposer": 7896,
      "Ġmuseum": 7897,
      "Ġcusack": 7898,
      "Ġimmigrant": 7899,
      "Ġsuperficial": 7900,
      "Ġconvoluted": 7901,
      "Ġsafety": 7902,
      "city": 7903,
      "cause": 7904,
      "dog": 7905,
      "finally": 7906,
      "gra": 7907,
      "gio": 7908,
      "hance": 7909,
      "iar": 7910,
      "po": 7911,
      "too": 7912,
      "yet": 7913,
      "zel": 7914,
      "Ġsag": 7915,
      "Ġcorman": 7916,
      "Ġpg": 7917,
      "Ġlun": 7918,
      "Ġbass": 7919,
      "Ġbump": 7920,
      "Ġbutter": 7921,
      "step": 7922,
      "Ġgim": 7923,
      "Ġgender": 7924,
      "Ġhad": 7925,
      "Ġhut": 7926,
      "Ġnol": 7927,
      "Ġnause": 7928,
      "omit": 7929,
      "Ġstim": 7930,
      "ota": 7931,
      "keep": 7932,
      "Ġrant": 7933,
      "sson": 7934,
      "Ġsept": 7935,
      "olph": 7936,
      "Ġinane": 7937,
      "thank": 7938,
      "Ġshade": 7939,
      "Ġshred": 7940,
      "Ġjord": 7941,
      "Ġexter": 7942,
      "pest": 7943,
      "astard": 7944,
      "Ġdire": 7945,
      "Ġdiana": 7946,
      "Ġworm": 7947,
      "Ġmankind": 7948,
      "uded": 7949,
      "Ġenhance": 7950,
      "Ġblunt": 7951,
      "neck": 7952,
      "Ġwhis": 7953,
      "Ġmeander": 7954,
      "plete": 7955,
      "Ġdismiss": 7956,
      "pered": 7957,
      "Ġinterrupt": 7958,
      "Ġflam": 7959,
      "Ġtrace": 7960,
      "Ġperforms": 7961,
      "Ġnewman": 7962,
      "Ġintimate": 7963,
      "Ġcompassion": 7964,
      "Ġhighest": 7965,
      "Ġoverrated": 7966,
      "Ġfactory": 7967,
      "Ġyoungster": 7968,
      "Ġedison": 7969,
      "who": 7970,
      "Ġtribe": 7971,
      "Ġrobbins": 7972,
      "Ġskull": 7973,
      "Ġcoherent": 7974,
      "Ġnamely": 7975,
      "Ġmurderous": 7976,
      "Ġhomeless": 7977,
      "Ġgenerous": 7978,
      "Ġupd": 7979,
      "Ġregion": 7980,
      "enna": 7981,
      "Ġguessed": 7982,
      "Ġdealer": 7983,
      "Ġisrael": 7984,
      "cla": 7985,
      "guy": 7986,
      "boat": 7987,
      "Ġtransp": 7988,
      "Ġspoiled": 7989,
      "Ġ2002": 7990,
      "Ġsolo": 7991,
      "Ġsamurai": 7992,
      "Ġoppress": 7993,
      "Ġconstructed": 7994,
      "Ġillogical": 7995,
      "Ġcomplaining": 7996,
      "Ġ1995": 7997,
      "Ġmilo": 7998,
      "boring": 7999,
      "Ġarmed": 8000,
      "Ġvein": 8001,
      "Ġclimactic": 8002,
      "Ġwallace": 8003,
      "Ġconvict": 8004,
      "Ġunsett": 8005,
      "Ġtends": 8006,
      "Ġtraveling": 8007,
      "Ġambig": 8008,
      "Ġtunnel": 8009,
      "Ġrambo": 8010,
      "Ġdepression": 8011,
      "Ġargue": 8012,
      "esterday": 8013,
      "Ġhideous": 8014,
      "Ġdescribes": 8015,
      "Ġvenge": 8016,
      "Ġimplausible": 8017,
      "Ġquietly": 8018,
      "Ġstyl": 8019,
      "Ġbowl": 8020,
      "second": 8021,
      "Ġspringer": 8022,
      "Ġproceeds": 8023,
      "Ġswimming": 8024,
      "Ġexplores": 8025,
      "Ġirrele": 8026,
      "Ġarguably": 8027,
      "Ġarrested": 8028,
      "Ġinevitable": 8029,
      "Ġcoffee": 8030,
      "Ġoverwhelming": 8031,
      "Ġacknow": 8032,
      "Ġanalysis": 8033,
      "Ġeisenstein": 8034,
      "excellent": 8035,
      "Ġcampaign": 8036,
      "13": 8037,
      "acious": 8038,
      "bone": 8039,
      "cult": 8040,
      "eff": 8041,
      "much": 8042,
      "shing": 8043,
      "uated": 8044,
      "went": 8045,
      "yard": 8046,
      "zog": 8047,
      "âĢ": 8048,
      "Ġ[": 8049,
      "ĠâĢ": 8050,
      "Ġsig": 8051,
      "Ġmund": 8052,
      "Ġfired": 8053,
      "Ġfury": 8054,
      "Ġpoll": 8055,
      "Ġpix": 8056,
      "Ġtame": 8057,
      "ars": 8058,
      "Ġdoo": 8059,
      "Ġdave": 8060,
      "Ġdiet": 8061,
      "Ġdazz": 8062,
      "ilight": 8063,
      "Ġaven": 8064,
      "Ġaug": 8065,
      "Ġhk": 8066,
      "Ġnun": 8067,
      "Ġstab": 8068,
      "etto": 8069,
      "Ġrul": 8070,
      "Ġrud": 8071,
      "emark": 8072,
      "Ġjol": 8073,
      "Ġexceed": 8074,
      "Ġsuited": 8075,
      "Ġunm": 8076,
      "Ġworn": 8077,
      "Ġlean": 8078,
      "Ġody": 8079,
      "Ġgoat": 8080,
      "Ġpreced": 8081,
      "Ġclothing": 8082,
      "about": 8083,
      "Ġbaddie": 8084,
      "agan": 8085,
      "agement": 8086,
      "new": 8087,
      "Ġupl": 8088,
      "Ġuwe": 8089,
      "Ġdisliked": 8090,
      "Ġfever": 8091,
      "Ġgrudge": 8092,
      "izz": 8093,
      "Ġtrained": 8094,
      "Ġcontained": 8095,
      "Ġnewly": 8096,
      "Ġweakest": 8097,
      "Ġchess": 8098,
      "Ġcheek": 8099,
      "Ġawaken": 8100,
      "Ġoverdone": 8101,
      "Ġellen": 8102,
      "Ġrelies": 8103,
      "Ġreluct": 8104,
      "Ġwondered": 8105,
      "Ġcareful": 8106,
      "Ġcolin": 8107,
      "prov": 8108,
      "Ġinstit": 8109,
      "Ġexplored": 8110,
      "Ġreasonably": 8111,
      "Ġtrio": 8112,
      "Ġdelicious": 8113,
      "Ġabsent": 8114,
      "Ġmurray": 8115,
      "Ġwalsh": 8116,
      "Ġdistant": 8117,
      "Ġparan": 8118,
      "Ġsnap": 8119,
      "existent": 8120,
      "Ġsmaller": 8121,
      "Ġdrift": 8122,
      "Ġsatir": 8123,
      "eryl": 8124,
      "Ġcostello": 8125,
      "Ġ2004": 8126,
      "Ġracial": 8127,
      "Ġlegit": 8128,
      "Ġ1971": 8129,
      "Ġnarrator": 8130,
      "Ġavoided": 8131,
      "Ġjeremy": 8132,
      "Ġ1999": 8133,
      "Ġmeaningless": 8134,
      "Ġcuster": 8135,
      "Ġtrademark": 8136,
      "Ġdaff": 8137,
      "Ġrequire": 8138,
      "Ġdesperation": 8139,
      "Ġdestroying": 8140,
      "Ġmiracle": 8141,
      "check": 8142,
      "Ġhostage": 8143,
      "Ġdeserted": 8144,
      "break": 8145,
      "Ġdimensional": 8146,
      "Ġobjective": 8147,
      "Ġsucceeded": 8148,
      "Ġbehaviour": 8149,
      "eyed": 8150,
      "Ġpunishment": 8151,
      "Ġbanal": 8152,
      "Ġformulaic": 8153,
      "Ġoperation": 8154,
      "Ġproceeding": 8155,
      "Ġmexico": 8156,
      "Ġdorothy": 8157,
      "Ġnicol": 8158,
      "Ġvulgar": 8159,
      "Ġmanipulative": 8160,
      "Ġexhib": 8161,
      "Ġagrees": 8162,
      "human": 8163,
      "Ġtransc": 8164,
      "Ġpoetry": 8165,
      "Ġinhabit": 8166,
      "Ġhughes": 8167,
      "Ġriot": 8168,
      "Ġpirate": 8169,
      "Ġunbearable": 8170,
      "Ġsilliness": 8171,
      "Ġresurrect": 8172,
      "onymous": 8173,
      "Ġnelson": 8174,
      "Ġastronaut": 8175,
      "Ġsimultaneously": 8176,
      "Ġjuvenile": 8177,
      "cil": 8178,
      "dri": 8179,
      "ele": 8180,
      "felt": 8181,
      "gled": 8182,
      "hy": 8183,
      "sling": 8184,
      "Ã¨": 8185,
      "Ġ~": 8186,
      "inity": 8187,
      "erner": 8188,
      "Ġmol": 8189,
      "Ġpump": 8190,
      "Ġturt": 8191,
      "orrow": 8192,
      "Ġlit": 8193,
      "Ġwoo": 8194,
      "Ġwishing": 8195,
      "Ġbant": 8196,
      "Ġdane": 8197,
      "Ġhoot": 8198,
      "itated": 8199,
      "icion": 8200,
      "icidal": 8201,
      "ovich": 8202,
      "Ġreck": 8203,
      "Ġstatic": 8204,
      "Ġrural": 8205,
      "verted": 8206,
      "emic": 8207,
      "Ġmason": 8208,
      "Ġexorc": 8209,
      "Ġplod": 8210,
      "Ġsuff": 8211,
      "Ġunaware": 8212,
      "Ġanx": 8213,
      "quin": 8214,
      "Ġyesterday": 8215,
      "orted": 8216,
      "Ġenhan": 8217,
      "Ġpose": 8218,
      "Ġspain": 8219,
      "Ġblowing": 8220,
      "Ġwhit": 8221,
      "Ġamuse": 8222,
      "Ġfeast": 8223,
      "ocaust": 8224,
      "Ġwrites": 8225,
      "Ġflood": 8226,
      "Ġactors": 8227,
      "Ġcrush": 8228,
      "Ġabra": 8229,
      "Ġabund": 8230,
      "ichi": 8231,
      "ensical": 8232,
      "Ġcomposed": 8233,
      "Ġwarrant": 8234,
      "Ġsettle": 8235,
      "Ġawake": 8236,
      "Ġmarion": 8237,
      "Ġsuburb": 8238,
      "Ġelm": 8239,
      "Ġphony": 8240,
      "Ġlaughably": 8241,
      "Ġsupply": 8242,
      "Ġconscious": 8243,
      "Ġconserv": 8244,
      "Ġlasting": 8245,
      "Ġherzog": 8246,
      "Ġtripe": 8247,
      "Ġcoh": 8248,
      "Ġunderstandable": 8249,
      "Ġprovoking": 8250,
      "Ġheartbreaking": 8251,
      "Ġdefinition": 8252,
      "iently": 8253,
      "Ġconsideration": 8254,
      "Ġmessed": 8255,
      "Ġgreg": 8256,
      "Ġgreed": 8257,
      "Ġvalu": 8258,
      "Ġangst": 8259,
      "Ġcostner": 8260,
      "Ġinferior": 8261,
      "Ġquestionable": 8262,
      "anyone": 8263,
      "Ġwished": 8264,
      "Ġgarner": 8265,
      "Ġtechnic": 8266,
      "Ġtomorrow": 8267,
      "Ġ1988": 8268,
      "Ġaussie": 8269,
      "Ġnarrow": 8270,
      "Ġrespectable": 8271,
      "strong": 8272,
      "Ġcrystal": 8273,
      "Ġcleverly": 8274,
      "Ġrepeating": 8275,
      "Ġberlin": 8276,
      "Ġhench": 8277,
      "Ġsandler": 8278,
      "Ġconventional": 8279,
      "Ġmoody": 8280,
      "Ġsheet": 8281,
      "working": 8282,
      "Ġprimary": 8283,
      "Ġafterwards": 8284,
      "Ġmildred": 8285,
      "Ġlayer": 8286,
      "Ġrogers": 8287,
      "Ġfrustrating": 8288,
      "Ġbrooklyn": 8289,
      "Ġexplosive": 8290,
      "Ġobliv": 8291,
      "Ġlaurel": 8292,
      "Ġcelebrity": 8293,
      "Ġalternative": 8294,
      "walk": 8295,
      "john": 8296,
      "Ġolivia": 8297,
      "Ġmiserable": 8298,
      "Ġalcoholic": 8299,
      "Ġunpredict": 8300,
      "Ġnostalgic": 8301,
      "Ġaccompanied": 8302,
      "Ġvoyage": 8303,
      "Ġriveting": 8304,
      "Ġpresumably": 8305,
      "Ġnemesis": 8306,
      "Ġmisleading": 8307,
      "something": 8308,
      "Ġgesture": 8309,
      "Ġdysfunction": 8310,
      "Ġstallone": 8311,
      "Ġrecycled": 8312,
      "Ġuplifting": 8313,
      "Ġdaffy": 8314,
      "bet": 8315,
      "dep": 8316,
      "dav": 8317,
      "fu": 8318,
      "hist": 8319,
      "honest": 8320,
      "note": 8321,
      "uu": 8322,
      "Ġil": 8323,
      "Ġsappy": 8324,
      "Ġmim": 8325,
      "Ġmud": 8326,
      "Ġmole": 8327,
      "Ġcoo": 8328,
      "Ġfier": 8329,
      "anch": 8330,
      "Ġpap": 8331,
      "Ġting": 8332,
      "Ġtrend": 8333,
      "Ġlup": 8334,
      "Ġwt": 8335,
      "Ġwy": 8336,
      "Ġwig": 8337,
      "Ġwides": 8338,
      "Ġbaff": 8339,
      "Ġbrend": 8340,
      "Ġbrig": 8341,
      "Ġgere": 8342,
      "lest": 8343,
      "Ġhis": 8344,
      "cture": 8345,
      "Ġned": 8346,
      "Ġniel": 8347,
      "Ġster": 8348,
      "Ġrit": 8349,
      "Ġrag": 8350,
      "adle": 8351,
      "ularly": 8352,
      "Ġkil": 8353,
      "Ġkle": 8354,
      "ira": 8355,
      "Ġdeer": 8356,
      "raged": 8357,
      "urately": 8358,
      "Ġja": 8359,
      "Ġventure": 8360,
      "Ġscot": 8361,
      "Ġplanned": 8362,
      "Ġnegle": 8363,
      "Ġcharacteristic": 8364,
      "Ġprey": 8365,
      "cia": 8366,
      "Ġknee": 8367,
      "Ġende": 8368,
      "Ġquit": 8369,
      "agn": 8370,
      "mented": 8371,
      "Ġblink": 8372,
      "Ġblake": 8373,
      "osis": 8374,
      "Ġgreatness": 8375,
      "austr": 8376,
      "Ġjoined": 8377,
      "Ġfeat": 8378,
      "attle": 8379,
      "perhaps": 8380,
      "Ġbett": 8381,
      "Ġdesired": 8382,
      "Ġremoved": 8383,
      "Ġslice": 8384,
      "ensor": 8385,
      "Ġintro": 8386,
      "Ġintric": 8387,
      "Ġkeen": 8388,
      "Ġapolog": 8389,
      "Ġweather": 8390,
      "Ġobt": 8391,
      "Ġunderc": 8392,
      "Ġunderwater": 8393,
      "Ġsmell": 8394,
      "Ġsmiling": 8395,
      "Ġoveracting": 8396,
      "Ġelite": 8397,
      "Ġhardcore": 8398,
      "aneous": 8399,
      "Ġturner": 8400,
      "Ġfarmer": 8401,
      "Ġaggress": 8402,
      "Ġinterestingly": 8403,
      "Ġcommander": 8404,
      "ographed": 8405,
      "Ġskit": 8406,
      "Ġcohen": 8407,
      "Ġassign": 8408,
      "Ġdramat": 8409,
      "Ġconfident": 8410,
      "Ġannie": 8411,
      "Ġreflection": 8412,
      "Ġromp": 8413,
      "Ġsnatch": 8414,
      "Ġcredited": 8415,
      "Ġbreed": 8416,
      "Ġavid": 8417,
      "Ġlively": 8418,
      "Ġdespair": 8419,
      "Ġinfant": 8420,
      "Ġpsychic": 8421,
      "Ġgarbo": 8422,
      "Ġtomato": 8423,
      "Ġsaman": 8424,
      "Ġghetto": 8425,
      "Ġ1983": 8426,
      "Ġprotest": 8427,
      "Ġdiscovering": 8428,
      "Ġrichardson": 8429,
      "Ġsigned": 8430,
      "Ġsuggestion": 8431,
      "Ġsurvived": 8432,
      "ramer": 8433,
      "Ġacceptance": 8434,
      "Ġliterature": 8435,
      "Ġreferring": 8436,
      "Ġfascination": 8437,
      "Ġscottish": 8438,
      "Ġhistorically": 8439,
      "Ġsalman": 8440,
      "Ġimprove": 8441,
      "Ġbrutally": 8442,
      "Ġfashioned": 8443,
      "Ġsuitable": 8444,
      "Ġundoubt": 8445,
      "Ġranch": 8446,
      "Ġabsurdity": 8447,
      "Ġsherlock": 8448,
      "Ġafterward": 8449,
      "Ġcivilization": 8450,
      "Ġblew": 8451,
      "Ġcannon": 8452,
      "Ġcrucial": 8453,
      "Ġroute": 8454,
      "Ġaltman": 8455,
      "Ġeducated": 8456,
      "Ġvirginia": 8457,
      "rehensible": 8458,
      "Ġalternate": 8459,
      "Ġcorruption": 8460,
      "Ġwardrobe": 8461,
      "Ġfurthermore": 8462,
      "Ġagreed": 8463,
      "Ġbetrayal": 8464,
      "Ġguaranteed": 8465,
      "Ġensure": 8466,
      "Ġnostalgia": 8467,
      "Ġfundament": 8468,
      "Ġphenomenon": 8469,
      "Ġsubsequent": 8470,
      "Ġanchor": 8471,
      "Ġinappropriate": 8472,
      "Ġpatricia": 8473,
      "Ġillegal": 8474,
      "Ġhaines": 8475,
      "dance": 8476,
      "his": 8477,
      "mart": 8478,
      "will": 8479,
      "yo": 8480,
      "¡Â": 8481,
      "Ġoo": 8482,
      "Ġmolly": 8483,
      "Ġcad": 8484,
      "Ġcoward": 8485,
      "oner": 8486,
      "Ġtooth": 8487,
      "ors": 8488,
      "Ġlor": 8489,
      "Ġware": 8490,
      "Ġgolf": 8491,
      "Ġaz": 8492,
      "Ġapt": 8493,
      "Ġeh": 8494,
      "Ġstun": 8495,
      "Ġrang": 8496,
      "Ġroof": 8497,
      "ceived": 8498,
      "ima": 8499,
      "imately": 8500,
      "Ġchased": 8501,
      "sex": 8502,
      "Ġkent": 8503,
      "Ġkap": 8504,
      "Ġkitty": 8505,
      "Ġdeaf": 8506,
      "Ġalvin": 8507,
      "emet": 8508,
      "Ġvig": 8509,
      "Ġvain": 8510,
      "Ġmah": 8511,
      "Ġmack": 8512,
      "endo": 8513,
      "Ġbever": 8514,
      "Ġbefore": 8515,
      "Ġunseen": 8516,
      "Ġleather": 8517,
      "Ġconan": 8518,
      "Ġcondu": 8519,
      "Ġpersu": 8520,
      "allow": 8521,
      "esc": 8522,
      "Ġpoem": 8523,
      "Ġclient": 8524,
      "Ġclaustr": 8525,
      "Ġspit": 8526,
      "abs": 8527,
      "Ġpeg": 8528,
      "Ġwhim": 8529,
      "Ġadorable": 8530,
      "Ġmeg": 8531,
      "Ġamused": 8532,
      "Ġdirects": 8533,
      "Ġflame": 8534,
      "Ġfluff": 8535,
      "Ġnotably": 8536,
      "Ġserge": 8537,
      "Ġorange": 8538,
      "ipid": 8539,
      "Ġtraffic": 8540,
      "Ġintoler": 8541,
      "Ġapril": 8542,
      "Ġcarrey": 8543,
      "Ġcheat": 8544,
      "version": 8545,
      "Ġfruit": 8546,
      "Ġenjoys": 8547,
      "Ġoverlong": 8548,
      "azing": 8549,
      "Ġinsipid": 8550,
      "Ġconscience": 8551,
      "Ġsched": 8552,
      "Ġholocaust": 8553,
      "Ġaccurately": 8554,
      "Ġglor": 8555,
      "Ġglance": 8556,
      "Ġglover": 8557,
      "Ġtyler": 8558,
      "Ġsuperhero": 8559,
      "Ġsecondary": 8560,
      "retched": 8561,
      "Ġhopeless": 8562,
      "Ġelsewhere": 8563,
      "gery": 8564,
      "Ġbarg": 8565,
      "Ġgreedy": 8566,
      "Ġvalent": 8567,
      "Ġclosest": 8568,
      "Ġfeminist": 8569,
      "Ġairport": 8570,
      "Ġmelting": 8571,
      "Ġspiral": 8572,
      "Ġjudgment": 8573,
      "Ġcancer": 8574,
      "Ġmistress": 8575,
      "Ġsoccer": 8576,
      "Ġsunshine": 8577,
      "vesty": 8578,
      "Ġhomer": 8579,
      "Ġrolled": 8580,
      "Ġmcg": 8581,
      "Ġfascinated": 8582,
      "Ġ1968": 8583,
      "Ġarrived": 8584,
      "Ġminority": 8585,
      "Ġjune": 8586,
      "Ġunexpl": 8587,
      "Ġsymbolic": 8588,
      "Ġwidely": 8589,
      "Ġinvestigate": 8590,
      "Ġobservation": 8591,
      "Ġantonio": 8592,
      "Ġwidmark": 8593,
      "Ġimprovement": 8594,
      "Ġemployee": 8595,
      "Ġdisappears": 8596,
      "uddled": 8597,
      "Ġvaguely": 8598,
      "production": 8599,
      "arette": 8600,
      "Ġcrawford": 8601,
      "Ġflorida": 8602,
      "Ġatlantis": 8603,
      "Ġencourage": 8604,
      "Ġmechan": 8605,
      "Ġtiresome": 8606,
      "Ġpuzzle": 8607,
      "Ġdreary": 8608,
      "Ġhogan": 8609,
      "Ġcigarette": 8610,
      "Ġwacky": 8611,
      "Ġdeliberately": 8612,
      "Ġdillon": 8613,
      "Ġchamber": 8614,
      "Ġmanhattan": 8615,
      "ploitation": 8616,
      "Ġirrelevant": 8617,
      "Ġmundane": 8618,
      "daughter": 8619,
      "lam": 8620,
      "mus": 8621,
      "mill": 8622,
      "mak": 8623,
      "notic": 8624,
      "ran": 8625,
      "rano": 8626,
      "sur": 8627,
      "vity": 8628,
      "vance": 8629,
      "xon": 8630,
      "Ġ+": 8631,
      "Ġ{": 8632,
      "Ġmul": 8633,
      "Ġmelt": 8634,
      "Ġcensor": 8635,
      "Ġcemet": 8636,
      "Ġfart": 8637,
      "Ġfoil": 8638,
      "angh": 8639,
      "Ġlately": 8640,
      "Ġwagon": 8641,
      "Ġbates": 8642,
      "Ġbumbling": 8643,
      "Ġdame": 8644,
      "Ġdating": 8645,
      "Ġgoo": 8646,
      "Ġhitting": 8647,
      "iti": 8648,
      "Ġnaught": 8649,
      "Ġstellar": 8650,
      "Ġrif": 8651,
      "Ġrave": 8652,
      "Ġrider": 8653,
      "Ġsey": 8654,
      "Ġsebast": 8655,
      "Ġlibert": 8656,
      "Ġkramer": 8657,
      "urs": 8658,
      "Ġvide": 8659,
      "Ġmap": 8660,
      "Ġmail": 8661,
      "Ġactive": 8662,
      "Ġbean": 8663,
      "actress": 8664,
      "Ġworship": 8665,
      "Ġperry": 8666,
      "Ġenchant": 8667,
      "Ġprol": 8668,
      "Ġdisorder": 8669,
      "apper": 8670,
      "Ġfee": 8671,
      "Ġflair": 8672,
      "izer": 8673,
      "ivable": 8674,
      "Ġtrait": 8675,
      "Ġtravesty": 8676,
      "phone": 8677,
      "phew": 8678,
      "Ġbelly": 8679,
      "Ġsimm": 8680,
      "Ġstranded": 8681,
      "Ġcompens": 8682,
      "Ġcomposition": 8683,
      "Ġcheating": 8684,
      "Ġsetup": 8685,
      "Ġterry": 8686,
      "azard": 8687,
      "Ġcraven": 8688,
      "Ġrelent": 8689,
      "Ġedition": 8690,
      "Ġhelpless": 8691,
      "Ġappla": 8692,
      "Ġaging": 8693,
      "Ġagency": 8694,
      "Ġagenda": 8695,
      "Ġexploring": 8696,
      "Ġblackmail": 8697,
      "Ġskate": 8698,
      "Ġhopelessly": 8699,
      "Ġvisible": 8700,
      "Ġreply": 8701,
      "Ġbarrel": 8702,
      "Ġwaited": 8703,
      "Ġvalid": 8704,
      "Ġcapturing": 8705,
      "played": 8706,
      "heard": 8707,
      "Ġfemme": 8708,
      "Ġimmort": 8709,
      "Ġgundam": 8710,
      "ucci": 8711,
      "Ġcontrad": 8712,
      "Ġchecked": 8713,
      "Ġmerchant": 8714,
      "Ġkingdom": 8715,
      "orthy": 8716,
      "Ġpublish": 8717,
      "Ġsurviving": 8718,
      "Ġposted": 8719,
      "Ġrecognizable": 8720,
      "Ġcommunicate": 8721,
      "Ġ1945": 8722,
      "Ġtasteless": 8723,
      "Ġbedroom": 8724,
      "Ġrequest": 8725,
      "Ġlogan": 8726,
      "Ġembarrassment": 8727,
      "directed": 8728,
      "Ġrainbow": 8729,
      "genre": 8730,
      "Ġcomplexity": 8731,
      "Ġchallenged": 8732,
      "Ġeastern": 8733,
      "Ġpractical": 8734,
      "Ġdivine": 8735,
      "Ġmacbeth": 8736,
      "Ġintentionally": 8737,
      "Ġnonsensical": 8738,
      "Ġtemple": 8739,
      "Ġtemper": 8740,
      "Ġrobinson": 8741,
      "Ġninety": 8742,
      "Ġwarmth": 8743,
      "Ġnicole": 8744,
      "Ġexhaust": 8745,
      "Ġtacky": 8746,
      "Ġpursuit": 8747,
      "Ġnicholas": 8748,
      "Ġnorris": 8749,
      "Ġbernard": 8750,
      "Ġterrifying": 8751,
      "Ġvoight": 8752,
      "Ġintroduces": 8753,
      "Ġdisguise": 8754,
      "Ġignorant": 8755,
      "Ġkarloff": 8756,
      "Ġgabriel": 8757,
      "Ġrapidly": 8758,
      "Ġrepulsive": 8759,
      "Ġsydney": 8760,
      "Ġsullivan": 8761,
      "Ġpsychiatrist": 8762,
      "Ġshirley": 8763,
      "Ġcemetery": 8764,
      "bot": 8765,
      "binder": 8766,
      "disc": 8767,
      "kh": 8768,
      "lord": 8769,
      "mur": 8770,
      "mod": 8771,
      "make": 8772,
      "oen": 8773,
      "ries": 8774,
      "wa": 8775,
      "Ġ}": 8776,
      "Ġmorm": 8777,
      "once": 8778,
      "Ġfrog": 8779,
      "Ġwis": 8780,
      "Ġwash": 8781,
      "start": 8782,
      "stant": 8783,
      "Ġdirt": 8784,
      "Ġgw": 8785,
      "Ġgad": 8786,
      "Ġaute": 8787,
      "ities": 8788,
      "oving": 8789,
      "Ġreci": 8790,
      "Ġrav": 8791,
      "Ġrup": 8792,
      "Ġrope": 8793,
      "oosing": 8794,
      "Ġchin": 8795,
      "Ġliv": 8796,
      "Ġinjust": 8797,
      "Ġshod": 8798,
      "Ġjill": 8799,
      "Ġvent": 8800,
      "Ġscand": 8801,
      "roid": 8802,
      "Ġbeard": 8803,
      "Ġanaly": 8804,
      "Ġcongr": 8805,
      "Ġtroma": 8806,
      "Ġpoke": 8807,
      "Ġclerk": 8808,
      "oda": 8809,
      "Ġspine": 8810,
      "Ġbrat": 8811,
      "neath": 8812,
      "Ġadul": 8813,
      "Ġtwilight": 8814,
      "Ġfacing": 8815,
      "Ġdiscer": 8816,
      "Ġrealm": 8817,
      "shell": 8818,
      "Ġgris": 8819,
      "Ġbette": 8820,
      "Ġremove": 8821,
      "Ġ23": 8822,
      "Ġdrove": 8823,
      "Ġdropping": 8824,
      "Ġabst": 8825,
      "Ġimprob": 8826,
      "Ġcarrie": 8827,
      "Ġreserved": 8828,
      "Ġobst": 8829,
      "likable": 8830,
      "Ġcrazed": 8831,
      "Ġexploration": 8832,
      "Ġmighty": 8833,
      "xton": 8834,
      "xture": 8835,
      "Ġrunner": 8836,
      "Ġcream": 8837,
      "Ġpolar": 8838,
      "Ġunfolds": 8839,
      "Ġskater": 8840,
      "Ġdoes": 8841,
      "Ġhousewife": 8842,
      "Ġmenace": 8843,
      "Ġexped": 8844,
      "Ġexpose": 8845,
      "Ġtitanic": 8846,
      "Ġdiscon": 8847,
      "Ġsadness": 8848,
      "cycle": 8849,
      "Ġchristie": 8850,
      "Ġgraham": 8851,
      "Ġbread": 8852,
      "Ġadvanced": 8853,
      "ennes": 8854,
      "Ġmisf": 8855,
      "Ġsuspend": 8856,
      "Ġproperty": 8857,
      "Ġpete": 8858,
      "Ġpetty": 8859,
      "Ġgerald": 8860,
      "Ġgarfield": 8861,
      "Ġcountryside": 8862,
      "Ġcontrary": 8863,
      "Ġ1987": 8864,
      "Ġconstruction": 8865,
      "Ġ1993": 8866,
      "Ġfrontier": 8867,
      "Ġcatching": 8868,
      "going": 8869,
      "Ġpalance": 8870,
      "Ġjumped": 8871,
      "Ġmillionaire": 8872,
      "okes": 8873,
      "Ġsalv": 8874,
      "Ġunsatisf": 8875,
      "Ġdestroys": 8876,
      "nothing": 8877,
      "Ġcondem": 8878,
      "Ġexceptionally": 8879,
      "Ġremarkably": 8880,
      "Ġrepresented": 8881,
      "Ġundeni": 8882,
      "Ġbiased": 8883,
      "Ġkarate": 8884,
      "Ġvirtue": 8885,
      "Ġnervous": 8886,
      "Ġmaxim": 8887,
      "Ġholy": 8888,
      "Ġinvented": 8889,
      "Ġdisappeared": 8890,
      "Ġfiennes": 8891,
      "Ġsimplicity": 8892,
      "Ġwounded": 8893,
      "Ġpossession": 8894,
      "Ġrejected": 8895,
      "Ġfrequent": 8896,
      "handed": 8897,
      "Ġdomestic": 8898,
      "true": 8899,
      "Ġconceived": 8900,
      "Ġdolph": 8901,
      "Ġutil": 8902,
      "Ġwandering": 8903,
      "Ġincorpor": 8904,
      "Ġseverely": 8905,
      "Ġcuba": 8906,
      "imagin": 8907,
      "Ġshouting": 8908,
      "Ġbacon": 8909,
      "Ġenormous": 8910,
      "Ġelaborate": 8911,
      "aghetti": 8912,
      "Ġnarc": 8913,
      "Ġunsettling": 8914,
      "Ġodyssey": 8915,
      "Ġsamantha": 8916,
      "Ġliberty": 8917,
      "Ġrupert": 8918,
      "Ġinjustice": 8919,
      "15": 8920,
      "90": 8921,
      "bury": 8922,
      "cu": 8923,
      "jer": 8924,
      "lot": 8925,
      "pse": 8926,
      "post": 8927,
      "rum": 8928,
      "sure": 8929,
      "taker": 8930,
      "wan": 8931,
      "wear": 8932,
      "inished": 8933,
      "Ġsau": 8934,
      "Ġsang": 8935,
      "Ġmode": 8936,
      "Ġcunning": 8937,
      "Ġcushing": 8938,
      "encer": 8939,
      "Ġfont": 8940,
      "ancing": 8941,
      "aled": 8942,
      "Ġpy": 8943,
      "Ġpic": 8944,
      "Ġpatch": 8945,
      "Ġpause": 8946,
      "Ġlic": 8947,
      "Ġlinger": 8948,
      "Ġwine": 8949,
      "Ġwrap": 8950,
      "Ġwretched": 8951,
      "Ġbim": 8952,
      "atum": 8953,
      "Ġdreck": 8954,
      "Ġgov": 8955,
      "Ġglee": 8956,
      "Ġaar": 8957,
      "Ġeli": 8958,
      "Ġhatch": 8959,
      "Ġnas": 8960,
      "Ġnathan": 8961,
      "icy": 8962,
      "icating": 8963,
      "Ġrely": 8964,
      "Ġreson": 8965,
      "eling": 8966,
      "elope": 8967,
      "Ġstark": 8968,
      "Ġstale": 8969,
      "cha": 8970,
      "Ġrising": 8971,
      "adv": 8972,
      "Ġchand": 8973,
      "rict": 8974,
      "Ġshep": 8975,
      "Ġshah": 8976,
      "Ġale": 8977,
      "Ġvood": 8978,
      "robert": 8979,
      "Ġneur": 8980,
      "Ġnephew": 8981,
      "Ġsust": 8982,
      "Ġunst": 8983,
      "Ġunrelated": 8984,
      "Ġtramp": 8985,
      "Ġwatcher": 8986,
      "ogue": 8987,
      "pton": 8988,
      "abra": 8989,
      "Ġpeck": 8990,
      "Ġimper": 8991,
      "Ġjoel": 8992,
      "Ġgrot": 8993,
      "Ġcape": 8994,
      "Ġsloppy": 8995,
      "Ġcrus": 8996,
      "Ġabortion": 8997,
      "Ġemp": 8998,
      "Ġmuslim": 8999,
      "Ġcompelled": 9000,
      "Ġcomponent": 9001,
      "upac": 9002,
      "Ġdecline": 9003,
      "Ġunderlying": 9004,
      "Ġclassy": 9005,
      "Ġswamp": 9006,
      "airs": 9007,
      "Ġaddiction": 9008,
      "Ġdefend": 9009,
      "Ġsecondly": 9010,
      "Ġrecommendation": 9011,
      "Ġearned": 9012,
      "Ġheaded": 9013,
      "Ġassured": 9014,
      "Ġviscont": 9015,
      "neyed": 9016,
      "Ġexposition": 9017,
      "Ġconfidence": 9018,
      "Ġtitled": 9019,
      "Ġdefined": 9020,
      "Ġdistingu": 9021,
      "Ġsnl": 9022,
      "Ġconsiderable": 9023,
      "Ġconsiderably": 9024,
      "Ġgrainy": 9025,
      "Ġregister": 9026,
      "Ġ99": 9027,
      "Ġmisgu": 9028,
      "iki": 9029,
      "Ġpremier": 9030,
      "Ġstephan": 9031,
      "renching": 9032,
      "Ġjudging": 9033,
      "headed": 9034,
      "Ġidol": 9035,
      "Ġappreciation": 9036,
      "Ġwilde": 9037,
      "Ġclimb": 9038,
      "Ġaustin": 9039,
      "Ġapproaching": 9040,
      "Ġindustrial": 9041,
      "Ġpractice": 9042,
      "Ġhackneyed": 9043,
      "Ġvirtual": 9044,
      "Ġcorrectly": 9045,
      "aaaa": 9046,
      "Ġderiv": 9047,
      "Ġmarketing": 9048,
      "Ġbucket": 9049,
      "Ġ//": 9050,
      "Ġeducation": 9051,
      "Ġassuming": 9052,
      "Ġminimum": 9053,
      "Ġgentle": 9054,
      "Ġbikini": 9055,
      "Ġharmless": 9056,
      "Ġseduct": 9057,
      "Ġkenneth": 9058,
      "Ġpedest": 9059,
      "Ġsincerely": 9060,
      "Ġnatalie": 9061,
      "Ġmargaret": 9062,
      "Ġinjury": 9063,
      "Ġdisguised": 9064,
      "Ġignorance": 9065,
      "Ġtaxi": 9066,
      "Ġcorporate": 9067,
      "Ġparadise": 9068,
      "ĠfiancÃ©": 9069,
      "Ġgrinch": 9070,
      "Ġrobbery": 9071,
      "Ġacclaimed": 9072,
      "Ġfinancial": 9073,
      "Ġprecisely": 9074,
      "Ġphantom": 9075,
      "Ġcripp": 9076,
      "Ġvengeance": 9077,
      "Ġhenchman": 9078,
      "Ġmormon": 9079,
      "Ġvoodoo": 9080,
      "aud": 9081,
      "corder": 9082,
      "hel": 9083,
      "hole": 9084,
      "jim": 9085,
      "mick": 9086,
      "oqu": 9087,
      "inction": 9088,
      "Ġsoup": 9089,
      "Ġfuel": 9090,
      "als": 9091,
      "Ġpoo": 9092,
      "Ġpaz": 9093,
      "Ġpione": 9094,
      "Ġtow": 9095,
      "Ġtok": 9096,
      "orney": 9097,
      "Ġlan": 9098,
      "Ġlens": 9099,
      "Ġlob": 9100,
      "Ġlamp": 9101,
      "Ġliner": 9102,
      "Ġbot": 9103,
      "Ġbost": 9104,
      "Ġbike": 9105,
      "stairs": 9106,
      "Ġdorm": 9107,
      "Ġdwar": 9108,
      "Ġeats": 9109,
      "itable": 9110,
      "Ġnik": 9111,
      "Ġstad": 9112,
      "etes": 9113,
      "christ": 9114,
      "Ġraz": 9115,
      "Ġritter": 9116,
      "ssbinder": 9117,
      "Ġfilmmaking": 9118,
      "Ġchoosing": 9119,
      "Ġlifted": 9120,
      "Ġdeed": 9121,
      "Ġsheen": 9122,
      "Ġshangh": 9123,
      "urance": 9124,
      "uta": 9125,
      "Ġunimagin": 9126,
      "Ġleo": 9127,
      "Ġya": 9128,
      "Ġpoe": 9129,
      "Ġspont": 9130,
      "Ġspaghetti": 9131,
      "oyle": 9132,
      "abh": 9133,
      "Ġque": 9134,
      "Ġfassbinder": 9135,
      "Ġpartly": 9136,
      "Ġinteract": 9137,
      "Ġgrate": 9138,
      "Ġserum": 9139,
      "acity": 9140,
      "Ġcram": 9141,
      "Ġcriter": 9142,
      "Ġminiser": 9143,
      "techn": 9144,
      "fferson": 9145,
      "versary": 9146,
      "Ġthru": 9147,
      "liance": 9148,
      "Ġzu": 9149,
      "Ġcamcorder": 9150,
      "Ġmonk": 9151,
      "Ġepit": 9152,
      "Ġlasted": 9153,
      "Ġoutlaw": 9154,
      "Ġboyer": 9155,
      "Ġtriangle": 9156,
      "Ġsteer": 9157,
      "attering": 9158,
      "otted": 9159,
      "Ġheading": 9160,
      "Ġengross": 9161,
      "Ġwalt": 9162,
      "Ġcouch": 9163,
      "Ġharvest": 9164,
      "Ġspecie": 9165,
      "Ġmoronic": 9166,
      "olutely": 9167,
      "ennett": 9168,
[...]
